{
  "version": "1.0",
  "truncation": null,
  "padding": null,
  "added_tokens": [
    {
      "id": 0,
      "content": "[MASK]",
      "single_word": false,
      "lstrip": false,
      "rstrip": false,
      "normalized": false,
      "special": true
    },
    {
      "id": 1,
      "content": "[PAD]",
      "single_word": false,
      "lstrip": false,
      "rstrip": false,
      "normalized": false,
      "special": true
    },
    {
      "id": 2,
      "content": "[UNK]",
      "single_word": false,
      "lstrip": false,
      "rstrip": false,
      "normalized": false,
      "special": true
    },
    {
      "id": 3,
      "content": "[CLS]",
      "single_word": false,
      "lstrip": false,
      "rstrip": false,
      "normalized": false,
      "special": true
    },
    {
      "id": 4,
      "content": "[SEP]",
      "single_word": false,
      "lstrip": false,
      "rstrip": false,
      "normalized": false,
      "special": true
    }
  ],
  "normalizer": {
    "type": "BertNormalizer",
    "clean_text": true,
    "handle_chinese_chars": true,
    "strip_accents": false,
    "lowercase": false
  },
  "pre_tokenizer": {
    "type": "BertPreTokenizer"
  },
  "post_processor": {
    "type": "TemplateProcessing",
    "single": [
      {
        "SpecialToken": {
          "id": "[CLS]",
          "type_id": 0
        }
      },
      {
        "Sequence": {
          "id": "A",
          "type_id": 0
        }
      },
      {
        "SpecialToken": {
          "id": "[SEP]",
          "type_id": 0
        }
      }
    ],
    "pair": [
      {
        "SpecialToken": {
          "id": "[CLS]",
          "type_id": 0
        }
      },
      {
        "Sequence": {
          "id": "A",
          "type_id": 0
        }
      },
      {
        "SpecialToken": {
          "id": "[SEP]",
          "type_id": 0
        }
      },
      {
        "Sequence": {
          "id": "B",
          "type_id": 1
        }
      },
      {
        "SpecialToken": {
          "id": "[SEP]",
          "type_id": 1
        }
      }
    ],
    "special_tokens": {
      "[CLS]": {
        "id": "[CLS]",
        "ids": [
          3
        ],
        "tokens": [
          "[CLS]"
        ]
      },
      "[SEP]": {
        "id": "[SEP]",
        "ids": [
          4
        ],
        "tokens": [
          "[SEP]"
        ]
      }
    }
  },
  "decoder": {
    "type": "WordPiece",
    "prefix": "##",
    "cleanup": true
  },
  "model": {
    "type": "WordPiece",
    "unk_token": "[UNK]",
    "continuing_subword_prefix": "##",
    "max_input_chars_per_word": 100,
    "vocab": {
      "[MASK]": 0,
      "[PAD]": 1,
      "[UNK]": 2,
      "[CLS]": 3,
      "[SEP]": 4,
      "!": 5,
      "\"": 6,
      "#": 7,
      "$": 8,
      "%": 9,
      "&": 10,
      "'": 11,
      "(": 12,
      ")": 13,
      "*": 14,
      "+": 15,
      ",": 16,
      "-": 17,
      ".": 18,
      "/": 19,
      "0": 20,
      "1": 21,
      "2": 22,
      "3": 23,
      "4": 24,
      "5": 25,
      "6": 26,
      "7": 27,
      "8": 28,
      "9": 29,
      ":": 30,
      ";": 31,
      "<": 32,
      "=": 33,
      ">": 34,
      "?": 35,
      "@": 36,
      "A": 37,
      "B": 38,
      "C": 39,
      "D": 40,
      "E": 41,
      "F": 42,
      "G": 43,
      "H": 44,
      "I": 45,
      "J": 46,
      "K": 47,
      "L": 48,
      "M": 49,
      "N": 50,
      "O": 51,
      "P": 52,
      "Q": 53,
      "R": 54,
      "S": 55,
      "T": 56,
      "U": 57,
      "V": 58,
      "W": 59,
      "X": 60,
      "Y": 61,
      "Z": 62,
      "[": 63,
      "\\": 64,
      "]": 65,
      "^": 66,
      "_": 67,
      "`": 68,
      "a": 69,
      "b": 70,
      "c": 71,
      "d": 72,
      "e": 73,
      "f": 74,
      "g": 75,
      "h": 76,
      "i": 77,
      "j": 78,
      "k": 79,
      "l": 80,
      "m": 81,
      "n": 82,
      "o": 83,
      "p": 84,
      "q": 85,
      "r": 86,
      "s": 87,
      "t": 88,
      "u": 89,
      "v": 90,
      "w": 91,
      "x": 92,
      "y": 93,
      "z": 94,
      "{": 95,
      "|": 96,
      "}": 97,
      "~": 98,
      "¡": 99,
      "¢": 100,
      "£": 101,
      "¤": 102,
      "¥": 103,
      "¦": 104,
      "§": 105,
      "¨": 106,
      "©": 107,
      "ª": 108,
      "«": 109,
      "®": 110,
      "°": 111,
      "±": 112,
      "²": 113,
      "³": 114,
      "´": 115,
      "µ": 116,
      "¶": 117,
      "·": 118,
      "¸": 119,
      "¹": 120,
      "º": 121,
      "»": 122,
      "¼": 123,
      "½": 124,
      "¾": 125,
      "¿": 126,
      "À": 127,
      "Á": 128,
      "Â": 129,
      "Ã": 130,
      "Ä": 131,
      "Å": 132,
      "Æ": 133,
      "Ç": 134,
      "È": 135,
      "É": 136,
      "Ê": 137,
      "Ë": 138,
      "Ì": 139,
      "Í": 140,
      "Î": 141,
      "Ï": 142,
      "Ñ": 143,
      "Ò": 144,
      "Ó": 145,
      "Ô": 146,
      "Ö": 147,
      "×": 148,
      "Ù": 149,
      "Ú": 150,
      "Û": 151,
      "Ü": 152,
      "ß": 153,
      "à": 154,
      "á": 155,
      "â": 156,
      "ã": 157,
      "ä": 158,
      "å": 159,
      "æ": 160,
      "ç": 161,
      "è": 162,
      "é": 163,
      "ê": 164,
      "ë": 165,
      "ì": 166,
      "í": 167,
      "î": 168,
      "ï": 169,
      "ñ": 170,
      "ò": 171,
      "ó": 172,
      "ô": 173,
      "õ": 174,
      "ö": 175,
      "ø": 176,
      "ù": 177,
      "ú": 178,
      "û": 179,
      "ü": 180,
      "ý": 181,
      "þ": 182,
      "ā": 183,
      "ą": 184,
      "ć": 185,
      "Č": 186,
      "ē": 187,
      "ĕ": 188,
      "Ě": 189,
      "ğ": 190,
      "ī": 191,
      "ĭ": 192,
      "İ": 193,
      "ı": 194,
      "Ł": 195,
      "ł": 196,
      "ń": 197,
      "Ň": 198,
      "ň": 199,
      "ō": 200,
      "ŏ": 201,
      "Ő": 202,
      "ő": 203,
      "Œ": 204,
      "œ": 205,
      "ř": 206,
      "ś": 207,
      "Ş": 208,
      "ş": 209,
      "Š": 210,
      "š": 211,
      "ť": 212,
      "ū": 213,
      "ŭ": 214,
      "ů": 215,
      "ű": 216,
      "ż": 217,
      "Ž": 218,
      "ſ": 219,
      "ɔ": 220,
      "ʳ": 221,
      "ʺ": 222,
      "˙": 223,
      "ˡ": 224,
      "̃": 225,
      "̄": 226,
      "̈": 227,
      "ͬ": 228,
      "Α": 229,
      "Β": 230,
      "Γ": 231,
      "Δ": 232,
      "Ε": 233,
      "Ζ": 234,
      "Η": 235,
      "Θ": 236,
      "Ι": 237,
      "Κ": 238,
      "Λ": 239,
      "Μ": 240,
      "Ν": 241,
      "Ξ": 242,
      "Ο": 243,
      "Π": 244,
      "Ρ": 245,
      "Σ": 246,
      "Τ": 247,
      "Υ": 248,
      "Φ": 249,
      "Χ": 250,
      "Ψ": 251,
      "ά": 252,
      "έ": 253,
      "ή": 254,
      "ί": 255,
      "α": 256,
      "β": 257,
      "γ": 258,
      "δ": 259,
      "ε": 260,
      "ζ": 261,
      "η": 262,
      "θ": 263,
      "ι": 264,
      "κ": 265,
      "λ": 266,
      "μ": 267,
      "ν": 268,
      "ξ": 269,
      "ο": 270,
      "π": 271,
      "ρ": 272,
      "ς": 273,
      "σ": 274,
      "τ": 275,
      "υ": 276,
      "φ": 277,
      "χ": 278,
      "ψ": 279,
      "ω": 280,
      "ϊ": 281,
      "ό": 282,
      "ύ": 283,
      "ώ": 284,
      "ϰ": 285,
      "А": 286,
      "В": 287,
      "Г": 288,
      "Е": 289,
      "З": 290,
      "И": 291,
      "К": 292,
      "Л": 293,
      "М": 294,
      "О": 295,
      "С": 296,
      "Т": 297,
      "Ь": 298,
      "Э": 299,
      "Я": 300,
      "а": 301,
      "б": 302,
      "в": 303,
      "г": 304,
      "д": 305,
      "е": 306,
      "з": 307,
      "и": 308,
      "й": 309,
      "к": 310,
      "л": 311,
      "н": 312,
      "о": 313,
      "п": 314,
      "р": 315,
      "с": 316,
      "т": 317,
      "у": 318,
      "ф": 319,
      "х": 320,
      "ш": 321,
      "я": 322,
      "і": 323,
      "א": 324,
      "ך": 325,
      "כ": 326,
      "ל": 327,
      "מ": 328,
      "ר": 329,
      "ת": 330,
      "ا": 331,
      "ج": 332,
      "س": 333,
      "ع": 334,
      "ل": 335,
      "م": 336,
      "ن": 337,
      "ه": 338,
      "ي": 339,
      "ᘔ": 340,
      "ᴬ": 341,
      "ᵃ": 342,
      "ᵉ": 343,
      "ᵐ": 344,
      "ᵒ": 345,
      "ᶜ": 346,
      "ἀ": 347,
      "ἁ": 348,
      "ἂ": 349,
      "ἄ": 350,
      "ἅ": 351,
      "ἆ": 352,
      "Ἀ": 353,
      "ἐ": 354,
      "ἑ": 355,
      "ἔ": 356,
      "Ἐ": 357,
      "Ἑ": 358,
      "Ἕ": 359,
      "ἠ": 360,
      "ἡ": 361,
      "ἢ": 362,
      "ἤ": 363,
      "ἰ": 364,
      "ἱ": 365,
      "ἴ": 366,
      "ἵ": 367,
      "ἶ": 368,
      "Ἰ": 369,
      "Ἴ": 370,
      "ὀ": 371,
      "ὁ": 372,
      "ὃ": 373,
      "ὄ": 374,
      "ὅ": 375,
      "Ὄ": 376,
      "ὐ": 377,
      "ὑ": 378,
      "ὔ": 379,
      "ὖ": 380,
      "ὗ": 381,
      "ὡ": 382,
      "ὤ": 383,
      "ὥ": 384,
      "ὦ": 385,
      "Ὠ": 386,
      "Ὦ": 387,
      "Ὧ": 388,
      "ὰ": 389,
      "ά": 390,
      "ὲ": 391,
      "έ": 392,
      "ὴ": 393,
      "ή": 394,
      "ὶ": 395,
      "ί": 396,
      "ὸ": 397,
      "ό": 398,
      "ὺ": 399,
      "ύ": 400,
      "ὼ": 401,
      "ώ": 402,
      "ᾅ": 403,
      "ᾖ": 404,
      "ᾗ": 405,
      "ᾳ": 406,
      "ᾶ": 407,
      "ᾷ": 408,
      "᾽": 409,
      "ῃ": 410,
      "ῆ": 411,
      "ῇ": 412,
      "ῑ": 413,
      "ῖ": 414,
      "Ὶ": 415,
      "ῥ": 416,
      "ῦ": 417,
      "Ῥ": 418,
      "ῳ": 419,
      "ῶ": 420,
      "ῷ": 421,
      "–": 422,
      "—": 423,
      "―": 424,
      "‘": 425,
      "’": 426,
      "‛": 427,
      "“": 428,
      "”": 429,
      "„": 430,
      "‟": 431,
      "†": 432,
      "•": 433,
      "…": 434,
      "′": 435,
      "″": 436,
      "‹": 437,
      "›": 438,
      "※": 439,
      "⁄": 440,
      "⁴": 441,
      "⁷": 442,
      "⁹": 443,
      "₁": 444,
      "₂": 445,
      "₃": 446,
      "₅": 447,
      "₆": 448,
      "€": 449,
      "₹": 450,
      "₺": 451,
      "₽": 452,
      "₿": 453,
      "℃": 454,
      "™": 455,
      "⅔": 456,
      "⅛": 457,
      "→": 458,
      "↓": 459,
      "−": 460,
      "√": 461,
      "∪": 462,
      "∴": 463,
      "≤": 464,
      "⊙": 465,
      "⑇": 466,
      "─": 467,
      "│": 468,
      "┼": 469,
      "║": 470,
      "╱": 471,
      "╲": 472,
      "▔": 473,
      "■": 474,
      "□": 475,
      "▲": 476,
      "►": 477,
      "▼": 478,
      "★": 479,
      "☨": 480,
      "♦": 481,
      "✓": 482,
      "✚": 483,
      "❖": 484,
      "第": 485,
      "##a": 486,
      "##s": 487,
      "##p": 488,
      "##r": 489,
      "##i": 490,
      "##c": 491,
      "##e": 492,
      "##n": 493,
      "##J": 494,
      "##o": 495,
      "##x": 496,
      "##t": 497,
      "##l": 498,
      "##í": 499,
      "##g": 500,
      "##m": 501,
      "##j": 502,
      "##z": 503,
      "##X": 504,
      "##6": 505,
      "##4": 506,
      "##0": 507,
      "##d": 508,
      "##C": 509,
      "##u": 510,
      "##h": 511,
      "##ç": 512,
      "##v": 513,
      "##b": 514,
      "##á": 515,
      "##f": 516,
      "##é": 517,
      "##O": 518,
      "##A": 519,
      "##N": 520,
      "##ú": 521,
      "##R": 522,
      "##I": 523,
      "##M": 524,
      "##E": 525,
      "##L": 526,
      "##ó": 527,
      "##q": 528,
      "##y": 529,
      "##ü": 530,
      "##8": 531,
      "##P": 532,
      "##Í": 533,
      "##Z": 534,
      "##S": 535,
      "##H": 536,
      "##T": 537,
      "##2": 538,
      "##B": 539,
      "##K": 540,
      "##Ü": 541,
      "##1": 542,
      "##9": 543,
      "##U": 544,
      "##k": 545,
      "##7": 546,
      "##F": 547,
      "##V": 548,
      "##3": 549,
      "##5": 550,
      "##Y": 551,
      "##G": 552,
      "##Á": 553,
      "##w": 554,
      "##â": 555,
      "##D": 556,
      "##ê": 557,
      "##ñ": 558,
      "##°": 559,
      "##έ": 560,
      "##γ": 561,
      "##ε": 562,
      "##ι": 563,
      "##ν": 564,
      "##ē": 565,
      "##º": 566,
      "##è": 567,
      "##Ó": 568,
      "##Ñ": 569,
      "##Û": 570,
      "##ύ": 571,
      "##ρ": 572,
      "##α": 573,
      "##ς": 574,
      "##©": 575,
      "##Q": 576,
      "##W": 577,
      "##Ú": 578,
      "##Ã": 579,
      "##³": 580,
      "##ò": 581,
      "##É": 582,
      "##ä": 583,
      "##¹": 584,
      "##̃": 585,
      "##£": 586,
      "##ل": 587,
      "##ع": 588,
      "##ج": 589,
      "##م": 590,
      "##ô": 591,
      "##î": 592,
      "##æ": 593,
      "##π": 594,
      "##λ": 595,
      "##ί": 596,
      "##τ": 597,
      "##ο": 598,
      "##υ": 599,
      "##™": 600,
      "##à": 601,
      "##ἀ": 602,
      "##μ": 603,
      "##¥": 604,
      "##ù": 605,
      "##±": 606,
      "##œ": 607,
      "##ą": 608,
      "##⅔": 609,
      "##Ç": 610,
      "##®": 611,
      "##Ì": 612,
      "##ã": 613,
      "##ı": 614,
      "##ì": 615,
      "##κ": 616,
      "##ί": 617,
      "##ω": 618,
      "##ā": 619,
      "##ἴ": 620,
      "##θ": 621,
      "##½": 622,
      "##õ": 623,
      "##φ": 624,
      "##ώ": 625,
      "##Æ": 626,
      "##È": 627,
      "##ï": 628,
      "##ö": 629,
      "##⁷": 630,
      "##⁹": 631,
      "##⁄": 632,
      "##₅": 633,
      "##₃": 634,
      "##ī": 635,
      "##ά": 636,
      "##β": 637,
      "##έ": 638,
      "##Ò": 639,
      "##ª": 640,
      "##■": 641,
      "##ō": 642,
      "##ë": 643,
      "##η": 644,
      "##ʺ": 645,
      "##ύ": 646,
      "##σ": 647,
      "##ů": 648,
      "##ὐ": 649,
      "##ῷ": 650,
      "##о": 651,
      "##₂": 652,
      "##ὗ": 653,
      "##€": 654,
      "##♦": 655,
      "##²": 656,
      "##ϰ": 657,
      "##ά": 658,
      "##ᵒ": 659,
      "##χ": 660,
      "##ῆ": 661,
      "##δ": 662,
      "##ὸ": 663,
      "##Â": 664,
      "##ῦ": 665,
      "##ή": 666,
      "##ζ": 667,
      "##Ï": 668,
      "##₿": 669,
      "##ű": 670,
      "##ῖ": 671,
      "##ὶ": 672,
      "##´": 673,
      "##ř": 674,
      "##ό": 675,
      "##ό": 676,
      "##ῶ": 677,
      "##ˡ": 678,
      "##×": 679,
      "##↓": 680,
      "##ξ": 681,
      "##а": 682,
      "##д": 683,
      "##і": 684,
      "##е": 685,
      "##ᾶ": 686,
      "##ή": 687,
      "##ὲ": 688,
      "##˙": 689,
      "##ὴ": 690,
      "##û": 691,
      "##Ö": 692,
      "##Ő": 693,
      "##ū": 694,
      "##Ě": 695,
      "##ĕ": 696,
      "##ć": 697,
      "##ᵉ": 698,
      "##å": 699,
      "##À": 700,
      "##ἰ": 701,
      "##Л": 702,
      "##¸": 703,
      "##ᾳ": 704,
      "##ῑ": 705,
      "##¤": 706,
      "##❖": 707,
      "##̈": 708,
      "##ὼ": 709,
      "##¦": 710,
      "##ῳ": 711,
      "##¾": 712,
      "##│": 713,
      "##Å": 714,
      "##ſ": 715,
      "##¼": 716,
      "##Ь": 717,
      "##ś": 718,
      "##ø": 719,
      "##ý": 720,
      "##¨": 721,
      "##ŏ": 722,
      "##ĭ": 723,
      "##ὰ": 724,
      "##Ë": 725,
      "##ώ": 726,
      "##ɔ": 727,
      "##¢": 728,
      "##в": 729,
      "##с": 730,
      "##и": 731,
      "##р": 732,
      "##ő": 733,
      "##ל": 734,
      "##א": 735,
      "##ך": 736,
      "##ὺ": 737,
      "##ż": 738,
      "##т": 739,
      "##к": 740,
      "##š": 741,
      "##ὔ": 742,
      "##Ä": 743,
      "##ŭ": 744,
      "##►": 745,
      "##Ô": 746,
      "##ß": 747,
      "##▔": 748,
      "##╲": 749,
      "##ר": 750,
      "##ת": 751,
      "##ῃ": 752,
      "##ῇ": 753,
      "##б": 754,
      "##з": 755,
      "##ᶜ": 756,
      "##Ι": 757,
      "##̄": 758,
      "##Ê": 759,
      "##ἶ": 760,
      "##п": 761,
      "##₺": 762,
      "##ň": 763,
      "##Œ": 764,
      "##ᾷ": 765,
      "##н": 766,
      "##ł": 767,
      "##─": 768,
      "##ш": 769,
      "##г": 770,
      "##х": 771,
      "##й": 772,
      "##ϊ": 773,
      "##ἁ": 774,
      "##Î": 775,
      "##ń": 776,
      "##л": 777,
      "##س": 778,
      "##ا": 779,
      "##ن": 780,
      "##ي": 781,
      "##ه": 782,
      "##Χ": 783,
      "##Θ": 784,
      "##Υ": 785,
      "##Σ": 786,
      "##₁": 787,
      "##₆": 788,
      "##ἱ": 789,
      "##Ň": 790,
      "##ἠ": 791,
      "##ψ": 792,
      "##᾽": 793,
      "##ὅ": 794,
      "##İ": 795,
      "##℃": 796,
      "##┼": 797,
      "##ğ": 798,
      "##ὖ": 799,
      "##Ł": 800,
      "##ᵐ": 801,
      "##ş": 802,
      "##ὀ": 803,
      "##я": 804,
      "##║": 805,
      "##И": 806,
      "##Т": 807,
      "##Е": 808,
      "##О": 809,
      "##Г": 810,
      "##ᾗ": 811,
      "##ͬ": 812,
      "##Ο": 813,
      "de": 814,
      "##os": 815,
      "##er": 816,
      "##en": 817,
      "##as": 818,
      "##es": 819,
      "##ar": 820,
      "##an": 821,
      "##on": 822,
      "##ue": 823,
      "##or": 824,
      "##ci": 825,
      "##ad": 826,
      "la": 827,
      "que": 828,
      "en": 829,
      "##al": 830,
      "el": 831,
      "##st": 832,
      "##ent": 833,
      "con": 834,
      "##do": 835,
      "##in": 836,
      "##ab": 837,
      "##re": 838,
      "se": 839,
      "su": 840,
      "##ra": 841,
      "##om": 842,
      "los": 843,
      "##ri": 844,
      "##ro": 845,
      "un": 846,
      "##ti": 847,
      "##ón": 848,
      "al": 849,
      "##am": 850,
      "##di": 851,
      "del": 852,
      "por": 853,
      "es": 854,
      "##to": 855,
      "##un": 856,
      "est": 857,
      "##ta": 858,
      "##le": 859,
      "re": 860,
      "##la": 861,
      "##ado": 862,
      "##te": 863,
      "di": 864,
      "las": 865,
      "##ch": 866,
      "no": 867,
      "par": 868,
      "in": 869,
      "##ol": 870,
      "##id": 871,
      "##is": 872,
      "##ía": 873,
      "##ic": 874,
      "com": 875,
      "##ente": 876,
      "cu": 877,
      "##de": 878,
      "##ción": 879,
      "##ia": 880,
      "##il": 881,
      "##em": 882,
      "##res": 883,
      "##gu": 884,
      "des": 885,
      "##lo": 886,
      "##cu": 887,
      "si": 888,
      "##ran": 889,
      "##que": 890,
      "##tu": 891,
      "##ier": 892,
      "##cia": 893,
      "##io": 894,
      "para": 895,
      "ha": 896,
      "##ada": 897,
      "le": 898,
      "to": 899,
      "##ero": 900,
      "una": 901,
      "##ir": 902,
      "##el": 903,
      "lo": 904,
      "##ec": 905,
      "##go": 906,
      "pro": 907,
      "##ien": 908,
      "##tr": 909,
      "##aba": 910,
      "hab": 911,
      "mu": 912,
      "##ob": 913,
      "##da": 914,
      "##ca": 915,
      "##ando": 916,
      "##se": 917,
      "##ues": 918,
      "##it": 919,
      "me": 920,
      "sus": 921,
      "##ones": 922,
      "##ist": 923,
      "##co": 924,
      "##uer": 925,
      "##im": 926,
      "##ce": 927,
      "##pa": 928,
      "como": 929,
      "##ados": 930,
      "##mp": 931,
      "##ter": 932,
      "an": 933,
      "ca": 934,
      "##án": 935,
      "##qu": 936,
      "##za": 937,
      "##dos": 938,
      "##ás": 939,
      "##dad": 940,
      "ex": 941,
      "##ig": 942,
      "##tes": 943,
      "##ento": 944,
      "##los": 945,
      "##mo": 946,
      "##ué": 947,
      "ar": 948,
      "##era": 949,
      "po": 950,
      "##tra": 951,
      "##tos": 952,
      "##us": 953,
      "per": 954,
      "##ici": 955,
      "##po": 956,
      "##ma": 957,
      "##ales": 958,
      "sin": 959,
      "##ios": 960,
      "##idad": 961,
      "##gun": 962,
      "##cho": 963,
      "ma": 964,
      "##ie": 965,
      "##pe": 966,
      "pa": 967,
      "##omb": 968,
      "ac": 969,
      "##tro": 970,
      "##ul": 971,
      "##jo": 972,
      "##ras": 973,
      "El": 974,
      "ser": 975,
      "##ido": 976,
      "mis": 977,
      "qu": 978,
      "res": 979,
      "##ores": 980,
      "man": 981,
      "pr": 982,
      "##ib": 983,
      "tan": 984,
      "##encia": 985,
      "##amente": 986,
      "as": 987,
      "##um": 988,
      "##tar": 989,
      "##las": 990,
      "cor": 991,
      "##én": 992,
      "ent": 993,
      "##les": 994,
      "##ciones": 995,
      "##aban": 996,
      "ob": 997,
      "##vo": 998,
      "##quel": 999,
      "##ión": 1000,
      "cas": 1001,
      "más": 1002,
      "##tas": 1003,
      "##va": 1004,
      "ten": 1005,
      "##ica": 1006,
      "En": 1007,
      "##ante": 1008,
      "##ara": 1009,
      "mas": 1010,
      "##ru": 1011,
      "pre": 1012,
      "aquel": 1013,
      "##ga": 1014,
      "##ían": 1015,
      "##me": 1016,
      "na": 1017,
      "esta": 1018,
      "##ez": 1019,
      "##iz": 1020,
      "##tor": 1021,
      "La": 1022,
      "mi": 1023,
      "##der": 1024,
      "San": 1025,
      "##mi": 1026,
      "sob": 1027,
      "##cer": 1028,
      "do": 1029,
      "este": 1030,
      "##das": 1031,
      "##lar": 1032,
      "##ten": 1033,
      "pue": 1034,
      "ap": 1035,
      "ab": 1036,
      "ver": 1037,
      "##ur": 1038,
      "##lan": 1039,
      "##ces": 1040,
      "ci": 1041,
      "pri": 1042,
      "##pañ": 1043,
      "dos": 1044,
      "##du": 1045,
      "pas": 1046,
      "##ve": 1047,
      "lle": 1048,
      "##tros": 1049,
      "don": 1050,
      "##gar": 1051,
      "car": 1052,
      "##ina": 1053,
      "esp": 1054,
      "gran": 1055,
      "##adas": 1056,
      "##bi": 1057,
      "ni": 1058,
      "##vi": 1059,
      "##ver": 1060,
      "era": 1061,
      "##ida": 1062,
      "Al": 1063,
      "##ed": 1064,
      "am": 1065,
      "ti": 1066,
      "imp": 1067,
      "mo": 1068,
      "Est": 1069,
      "pres": 1070,
      "sobre": 1071,
      "##cha": 1072,
      "##ens": 1073,
      "pero": 1074,
      "sol": 1075,
      "##no": 1076,
      "sal": 1077,
      "##ba": 1078,
      "##ino": 1079,
      "##able": 1080,
      "ba": 1081,
      "##aron": 1082,
      "sa": 1083,
      "Es": 1084,
      "fuer": 1085,
      "cons": 1086,
      "##asta": 1087,
      "##endo": 1088,
      "##je": 1089,
      "##ico": 1090,
      "esc": 1091,
      "entre": 1092,
      "##entes": 1093,
      "for": 1094,
      "##ano": 1095,
      "##entos": 1096,
      "##ora": 1097,
      "mar": 1098,
      "##den": 1099,
      "##ño": 1100,
      "##ener": 1101,
      "##lam": 1102,
      "##mente": 1103,
      "cam": 1104,
      "##oso": 1105,
      "Por": 1106,
      "##emp": 1107,
      "todo": 1108,
      "18": 1109,
      "algun": 1110,
      "##cion": 1111,
      "cos": 1112,
      "he": 1113,
      "tra": 1114,
      "comp": 1115,
      "##ana": 1116,
      "##con": 1117,
      "##na": 1118,
      "##ust": 1119,
      "Con": 1120,
      "dis": 1121,
      "hasta": 1122,
      "pe": 1123,
      "cab": 1124,
      "Se": 1125,
      "##mos": 1126,
      "##enta": 1127,
      "Re": 1128,
      "desp": 1129,
      "ter": 1130,
      "vi": 1131,
      "ya": 1132,
      "nues": 1133,
      "##cas": 1134,
      "pu": 1135,
      "##eros": 1136,
      "##bl": 1137,
      "co": 1138,
      "todos": 1139,
      "em": 1140,
      "##rib": 1141,
      "son": 1142,
      "muy": 1143,
      "ad": 1144,
      "señ": 1145,
      "so": 1146,
      "##car": 1147,
      "##ís": 1148,
      "No": 1149,
      "##amos": 1150,
      "##uel": 1151,
      "medi": 1152,
      "ve": 1153,
      "##ador": 1154,
      "##ena": 1155,
      "prov": 1156,
      "##ias": 1157,
      "rep": 1158,
      "##cio": 1159,
      "##ren": 1160,
      "##cias": 1161,
      "##ven": 1162,
      "homb": 1163,
      "##eneral": 1164,
      "or": 1165,
      "prim": 1166,
      "##arse": 1167,
      "Mar": 1168,
      "fué": 1169,
      "pues": 1170,
      "##so": 1171,
      "lu": 1172,
      "##ros": 1173,
      "ra": 1174,
      "mismo": 1175,
      "##jos": 1176,
      "te": 1177,
      "nos": 1178,
      "##tal": 1179,
      "deb": 1180,
      "##ués": 1181,
      "##eces": 1182,
      "men": 1183,
      "##ér": 1184,
      "da": 1185,
      "indi": 1186,
      "##ja": 1187,
      "cap": 1188,
      "##des": 1189,
      "##mas": 1190,
      "##fici": 1191,
      "##ña": 1192,
      "prop": 1193,
      "él": 1194,
      "cal": 1195,
      "parte": 1196,
      "##ños": 1197,
      "##cos": 1198,
      "cuando": 1199,
      "##ín": 1200,
      "ven": 1201,
      "tam": 1202,
      "porque": 1203,
      "##chos": 1204,
      "##iendo": 1205,
      "##ian": 1206,
      "emp": 1207,
      "##ya": 1208,
      "col": 1209,
      "bien": 1210,
      "tr": 1211,
      "An": 1212,
      "##eron": 1213,
      "ch": 1214,
      "au": 1215,
      "donde": 1216,
      "##fer": 1217,
      "##ún": 1218,
      "bu": 1219,
      "##eg": 1220,
      "##antes": 1221,
      "tu": 1222,
      "##udad": 1223,
      "##tras": 1224,
      "##bre": 1225,
      "##ario": 1226,
      "##tado": 1227,
      "##gua": 1228,
      "había": 1229,
      "cual": 1230,
      "##iento": 1231,
      "du": 1232,
      "##empo": 1233,
      "##cip": 1234,
      "lib": 1235,
      "fa": 1236,
      "tien": 1237,
      "##if": 1238,
      "##all": 1239,
      "cre": 1240,
      "aun": 1241,
      "mon": 1242,
      "##tó": 1243,
      "##és": 1244,
      "pueb": 1245,
      "mil": 1246,
      "##ió": 1247,
      "nomb": 1248,
      "inter": 1249,
      "##yo": 1250,
      "##par": 1251,
      "##til": 1252,
      "tiempo": 1253,
      "desde": 1254,
      "##emos": 1255,
      "DE": 1256,
      "Ma": 1257,
      "les": 1258,
      "ju": 1259,
      "##dose": 1260,
      "pos": 1261,
      "##ern": 1262,
      "##tad": 1263,
      "hu": 1264,
      "##ala": 1265,
      "##ías": 1266,
      "habia": 1267,
      "ciudad": 1268,
      "her": 1269,
      "##tin": 1270,
      "##pon": 1271,
      "Los": 1272,
      "toda": 1273,
      "De": 1274,
      "ella": 1275,
      "sab": 1276,
      "después": 1277,
      "cer": 1278,
      "##ierno": 1279,
      "dist": 1280,
      "##min": 1281,
      "Ca": 1282,
      "##eci": 1283,
      "llam": 1284,
      "##ito": 1285,
      "han": 1286,
      "gob": 1287,
      "tom": 1288,
      "##bién": 1289,
      "##dia": 1290,
      "gu": 1291,
      "##cen": 1292,
      "vol": 1293,
      "inf": 1294,
      "##per": 1295,
      "##illa": 1296,
      "yo": 1297,
      "##fec": 1298,
      "##ese": 1299,
      "##lti": 1300,
      "In": 1301,
      "##00": 1302,
      "##zo": 1303,
      "##ac": 1304,
      "nue": 1305,
      "may": 1306,
      "hacer": 1307,
      "##ona": 1308,
      "##tan": 1309,
      "##ieron": 1310,
      "prin": 1311,
      "otros": 1312,
      "##tri": 1313,
      "##van": 1314,
      "Ch": 1315,
      "##idos": 1316,
      "conf": 1317,
      "fin": 1318,
      "##cur": 1319,
      "Ju": 1320,
      "parti": 1321,
      "##zas": 1322,
      "##can": 1323,
      "##iera": 1324,
      "##lu": 1325,
      "Cu": 1326,
      "ej": 1327,
      "##gos": 1328,
      "##itu": 1329,
      "esto": 1330,
      "##lig": 1331,
      "##iente": 1332,
      "##var": 1333,
      "##ita": 1334,
      "##man": 1335,
      "todas": 1336,
      "otro": 1337,
      "también": 1338,
      "##dr": 1339,
      "general": 1340,
      "##bar": 1341,
      "can": 1342,
      "os": 1343,
      "contra": 1344,
      "cono": 1345,
      "##oria": 1346,
      "hi": 1347,
      "const": 1348,
      "pers": 1349,
      "##osa": 1350,
      "##ista": 1351,
      "##sa": 1352,
      "##rist": 1353,
      "##úbl": 1354,
      "otra": 1355,
      "dec": 1356,
      "dej": 1357,
      "##gn": 1358,
      "##ion": 1359,
      "val": 1360,
      "pla": 1361,
      "tal": 1362,
      "Car": 1363,
      "all": 1364,
      "princip": 1365,
      "ro": 1366,
      "deci": 1367,
      "##cción": 1368,
      "##ior": 1369,
      "##rig": 1370,
      "está": 1371,
      "##pos": 1372,
      "quien": 1373,
      "##tur": 1374,
      "uno": 1375,
      "##uego": 1376,
      "pun": 1377,
      "mayor": 1378,
      "segu": 1379,
      "pob": 1380,
      "##ril": 1381,
      "vez": 1382,
      "##che": 1383,
      "##esti": 1384,
      "##and": 1385,
      "##dido": 1386,
      "sino": 1387,
      "aquella": 1388,
      "##cil": 1389,
      "fi": 1390,
      "hay": 1391,
      "##tura": 1392,
      "ellos": 1393,
      "sent": 1394,
      "##rado": 1395,
      "señor": 1396,
      "pes": 1397,
      "ag": 1398,
      "tier": 1399,
      "neces": 1400,
      "Ar": 1401,
      "san": 1402,
      "tres": 1403,
      "Cor": 1404,
      "##ío": 1405,
      "##ase": 1406,
      "dest": 1407,
      "##eza": 1408,
      "pal": 1409,
      "Fran": 1410,
      "##iones": 1411,
      "##paña": 1412,
      "Su": 1413,
      "va": 1414,
      "así": 1415,
      "ho": 1416,
      "pon": 1417,
      "##tre": 1418,
      "##bo": 1419,
      "rec": 1420,
      "años": 1421,
      "ins": 1422,
      "op": 1423,
      "##chas": 1424,
      "mor": 1425,
      "menos": 1426,
      "Gu": 1427,
      "mal": 1428,
      "reci": 1429,
      "##dar": 1430,
      "Juan": 1431,
      "dar": 1432,
      "of": 1433,
      "pi": 1434,
      "ay": 1435,
      "dia": 1436,
      "##vid": 1437,
      "guer": 1438,
      "##gan": 1439,
      "##itar": 1440,
      "##adre": 1441,
      "poco": 1442,
      "segun": 1443,
      "haber": 1444,
      "##empre": 1445,
      "estos": 1446,
      "var": 1447,
      "##vos": 1448,
      "fal": 1449,
      "casa": 1450,
      "15": 1451,
      "vo": 1452,
      "##nos": 1453,
      "Pero": 1454,
      "capit": 1455,
      "qué": 1456,
      "fun": 1457,
      "tiene": 1458,
      "##dió": 1459,
      "anti": 1460,
      "##miento": 1461,
      "##eo": 1462,
      "solo": 1463,
      "reg": 1464,
      "##ima": 1465,
      "pueblo": 1466,
      "##anos": 1467,
      "lleg": 1468,
      "año": 1469,
      "estaba": 1470,
      "##gún": 1471,
      "siempre": 1472,
      "Com": 1473,
      "hombres": 1474,
      "aqu": 1475,
      "##izo": 1476,
      "min": 1477,
      "muer": 1478,
      "exp": 1479,
      "españ": 1480,
      "sido": 1481,
      "##oles": 1482,
      "parec": 1483,
      "##fic": 1484,
      "Pa": 1485,
      "gra": 1486,
      "antes": 1487,
      "tanto": 1488,
      "nombre": 1489,
      "dicho": 1490,
      "vida": 1491,
      "##ár": 1492,
      "ce": 1493,
      "ocu": 1494,
      "##ición": 1495,
      "cada": 1496,
      "##guas": 1497,
      "puer": 1498,
      "##olu": 1499,
      "mes": 1500,
      "últi": 1501,
      "##sted": 1502,
      "##RI": 1503,
      "##rar": 1504,
      "##áo": 1505,
      "inst": 1506,
      "##más": 1507,
      "verdad": 1508,
      "##íti": 1509,
      "Cas": 1510,
      "orden": 1511,
      "##almente": 1512,
      "##ton": 1513,
      "sigu": 1514,
      "espe": 1515,
      "##cido": 1516,
      "algunos": 1517,
      "##vas": 1518,
      "tro": 1519,
      "##he": 1520,
      "ele": 1521,
      "##ándo": 1522,
      "hombre": 1523,
      "pol": 1524,
      "##adores": 1525,
      "##lación": 1526,
      "##gen": 1527,
      "poder": 1528,
      "hecho": 1529,
      "otras": 1530,
      "##II": 1531,
      "##ándose": 1532,
      "provin": 1533,
      "##ria": 1534,
      "dijo": 1535,
      "medio": 1536,
      "##cis": 1537,
      "##fe": 1538,
      "ah": 1539,
      "cuan": 1540,
      "España": 1541,
      "usted": 1542,
      "cier": 1543,
      "##ancia": 1544,
      "##atro": 1545,
      "mej": 1546,
      "mer": 1547,
      "##ud": 1548,
      "mun": 1549,
      "##qui": 1550,
      "##jas": 1551,
      "##gra": 1552,
      "##li": 1553,
      "Des": 1554,
      "tar": 1555,
      "##jer": 1556,
      "allí": 1557,
      "mucho": 1558,
      "##OS": 1559,
      "caus": 1560,
      "##AS": 1561,
      "##eno": 1562,
      "lugar": 1563,
      "Las": 1564,
      "estas": 1565,
      "##ién": 1566,
      "##zón": 1567,
      "17": 1568,
      "##lic": 1569,
      "tierra": 1570,
      "entr": 1571,
      "##tud": 1572,
      "##tir": 1573,
      "serv": 1574,
      "puede": 1575,
      "encon": 1576,
      "##ene": 1577,
      "##úm": 1578,
      "ést": 1579,
      "ade": 1580,
      "##imo": 1581,
      "To": 1582,
      "##ura": 1583,
      "aunque": 1584,
      "form": 1585,
      "##lor": 1586,
      "##ible": 1587,
      "##tivo": 1588,
      "##cep": 1589,
      "Lu": 1590,
      "hizo": 1591,
      "pie": 1592,
      "fr": 1593,
      "bar": 1594,
      "tor": 1595,
      "##udi": 1596,
      "decir": 1597,
      "Mon": 1598,
      "gobierno": 1599,
      "##gles": 1600,
      "qued": 1601,
      "##pi": 1602,
      "ne": 1603,
      "##ER": 1604,
      "Si": 1605,
      "real": 1606,
      "guerra": 1607,
      "Un": 1608,
      "##tamente": 1609,
      "##pu": 1610,
      "##mb": 1611,
      "fe": 1612,
      "##cía": 1613,
      "##endi": 1614,
      "##imiento": 1615,
      "Dios": 1616,
      "##ves": 1617,
      "den": 1618,
      "sub": 1619,
      "##pec": 1620,
      "##onces": 1621,
      "hist": 1622,
      "##cri": 1623,
      "bo": 1624,
      "##ort": 1625,
      "natur": 1626,
      "ref": 1627,
      "##zos": 1628,
      "traba": 1629,
      "##éri": 1630,
      "##zar": 1631,
      "ide": 1632,
      "nin": 1633,
      "##vil": 1634,
      "##ES": 1635,
      "##cal": 1636,
      "eran": 1637,
      "##cito": 1638,
      "is": 1639,
      "##día": 1640,
      "enem": 1641,
      "Jos": 1642,
      "##vis": 1643,
      "rey": 1644,
      "16": 1645,
      "guar": 1646,
      "hon": 1647,
      "##áb": 1648,
      "hor": 1649,
      "def": 1650,
      "autor": 1651,
      "##ques": 1652,
      "dere": 1653,
      "##ea": 1654,
      "aquí": 1655,
      "ofici": 1656,
      "contin": 1657,
      "##enas": 1658,
      "##eras": 1659,
      "entonces": 1660,
      "##omin": 1661,
      "##ación": 1662,
      "Lo": 1663,
      "##idades": 1664,
      "nada": 1665,
      "misma": 1666,
      "jun": 1667,
      "bas": 1668,
      "quer": 1669,
      "##ería": 1670,
      "ir": 1671,
      "##tis": 1672,
      "efec": 1673,
      "Le": 1674,
      "##ribu": 1675,
      "As": 1676,
      "bajo": 1677,
      "##elig": 1678,
      "fran": 1679,
      "núm": 1680,
      "ese": 1681,
      "go": 1682,
      "Qu": 1683,
      "fam": 1684,
      "##imos": 1685,
      "tras": 1686,
      "tem": 1687,
      "esper": 1688,
      "públ": 1689,
      "Par": 1690,
      "##inas": 1691,
      "hal": 1692,
      "##erv": 1693,
      "muchos": 1694,
      "sig": 1695,
      "embar": 1696,
      "##ome": 1697,
      "af": 1698,
      "##tam": 1699,
      "ta": 1700,
      "fueron": 1701,
      "pens": 1702,
      "##icos": 1703,
      "##pas": 1704,
      "encontr": 1705,
      "conse": 1706,
      "##ge": 1707,
      "rev": 1708,
      "Gob": 1709,
      "##gas": 1710,
      "##ables": 1711,
      "##ord": 1712,
      "hacia": 1713,
      "cin": 1714,
      "produ": 1715,
      "##AN": 1716,
      "lar": 1717,
      "##EN": 1718,
      "##enos": 1719,
      "##uso": 1720,
      "hum": 1721,
      "mujer": 1722,
      "noche": 1723,
      "sí": 1724,
      "grandes": 1725,
      "consid": 1726,
      "nuestra": 1727,
      "##ha": 1728,
      "Santa": 1729,
      "sos": 1730,
      "##ólo": 1731,
      "José": 1732,
      "10": 1733,
      "##rante": 1734,
      "ley": 1735,
      "liber": 1736,
      "apar": 1737,
      "##oc": 1738,
      "cuer": 1739,
      "##ñas": 1740,
      "grande": 1741,
      "tran": 1742,
      "##taba": 1743,
      "palab": 1744,
      "llev": 1745,
      "##end": 1746,
      "##icio": 1747,
      "##br": 1748,
      "especi": 1749,
      "cir": 1750,
      "ejér": 1751,
      "escri": 1752,
      "##idas": 1753,
      "##ble": 1754,
      "Ped": 1755,
      "Man": 1756,
      "luego": 1757,
      "punto": 1758,
      "##igo": 1759,
      "pron": 1760,
      "##vers": 1761,
      "indios": 1762,
      "modo": 1763,
      "##CI": 1764,
      "rio": 1765,
      "##inos": 1766,
      "Per": 1767,
      "nuestro": 1768,
      "et": 1769,
      "mand": 1770,
      "Val": 1771,
      "veces": 1772,
      "hace": 1773,
      "temp": 1774,
      "##arios": 1775,
      "patri": 1776,
      "esa": 1777,
      "Me": 1778,
      "exist": 1779,
      "Que": 1780,
      "##AR": 1781,
      "ru": 1782,
      "Am": 1783,
      "##tados": 1784,
      "##icia": 1785,
      "dice": 1786,
      "##orm": 1787,
      "situ": 1788,
      "día": 1789,
      "demás": 1790,
      "plan": 1791,
      "##iv": 1792,
      "casi": 1793,
      "acu": 1794,
      "cuatro": 1795,
      "il": 1796,
      "fu": 1797,
      "aquellos": 1798,
      "12": 1799,
      "##ciendo": 1800,
      "obs": 1801,
      "##gr": 1802,
      "##rió": 1803,
      "ll": 1804,
      "recib": 1805,
      "just": 1806,
      "mejor": 1807,
      "mom": 1808,
      "##igos": 1809,
      "##ST": 1810,
      "ante": 1811,
      "Pedro": 1812,
      "##ON": 1813,
      "inc": 1814,
      "present": 1815,
      "##cul": 1816,
      "##ne": 1817,
      "Na": 1818,
      "##cel": 1819,
      "##ctor": 1820,
      "##AL": 1821,
      "país": 1822,
      "##ensa": 1823,
      "##cios": 1824,
      "Francis": 1825,
      "Sal": 1826,
      "##vor": 1827,
      "estado": 1828,
      "Ba": 1829,
      "alguna": 1830,
      "##gres": 1831,
      "sup": 1832,
      "##embre": 1833,
      "tri": 1834,
      "##jar": 1835,
      "cri": 1836,
      "cr": 1837,
      "cuanto": 1838,
      "person": 1839,
      "##mon": 1840,
      "juz": 1841,
      "##iza": 1842,
      "descu": 1843,
      "##tí": 1844,
      "políti": 1845,
      "prof": 1846,
      "Este": 1847,
      "Sr": 1848,
      "mir": 1849,
      "unos": 1850,
      "##orte": 1851,
      "peque": 1852,
      "14": 1853,
      "Co": 1854,
      "##cimiento": 1855,
      "algunas": 1856,
      "at": 1857,
      "##ruz": 1858,
      "##ág": 1859,
      "##ración": 1860,
      "obje": 1861,
      "##tiva": 1862,
      "##cono": 1863,
      "condu": 1864,
      "mano": 1865,
      "##igu": 1866,
      "mundo": 1867,
      "##cular": 1868,
      "conven": 1869,
      "Francisco": 1870,
      "Bar": 1871,
      "número": 1872,
      "forma": 1873,
      "desa": 1874,
      "pueblos": 1875,
      "##vió": 1876,
      "via": 1877,
      "primera": 1878,
      "##tores": 1879,
      "##leg": 1880,
      "cuar": 1881,
      "ejército": 1882,
      "camino": 1883,
      "##vía": 1884,
      "estable": 1885,
      "##ció": 1886,
      "Ha": 1887,
      "continu": 1888,
      "pudi": 1889,
      "hall": 1890,
      "11": 1891,
      "có": 1892,
      "##icas": 1893,
      "##reg": 1894,
      "Pro": 1895,
      "levan": 1896,
      "Mi": 1897,
      "natural": 1898,
      "##tel": 1899,
      "##isto": 1900,
      "hoy": 1901,
      "padre": 1902,
      "##tia": 1903,
      "##jes": 1904,
      "ellas": 1905,
      "##una": 1906,
      "cuya": 1907,
      "ojos": 1908,
      "hub": 1909,
      "##ác": 1910,
      "##ientos": 1911,
      "sea": 1912,
      "Don": 1913,
      "ahora": 1914,
      "super": 1915,
      "cuyo": 1916,
      "cosa": 1917,
      "##uelo": 1918,
      "##tando": 1919,
      "dé": 1920,
      "Bu": 1921,
      "agua": 1922,
      "dias": 1923,
      "quier": 1924,
      "Señ": 1925,
      "resul": 1926,
      "ofre": 1927,
      "fuerza": 1928,
      "##rir": 1929,
      "mos": 1930,
      "##encias": 1931,
      "mí": 1932,
      "Mé": 1933,
      "je": 1934,
      "neg": 1935,
      "##uro": 1936,
      "habían": 1937,
      "##oma": 1938,
      "Para": 1939,
      "edi": 1940,
      "causa": 1941,
      "bra": 1942,
      "distin": 1943,
      "arro": 1944,
      "famil": 1945,
      "habian": 1946,
      "vis": 1947,
      "cosas": 1948,
      "##cre": 1949,
      "##mpl": 1950,
      "der": 1951,
      "provincia": 1952,
      "Rey": 1953,
      "##cun": 1954,
      "nuevo": 1955,
      "comun": 1956,
      "tre": 1957,
      "obra": 1958,
      "conv": 1959,
      "dire": 1960,
      "13": 1961,
      "Ro": 1962,
      "##esen": 1963,
      "noti": 1964,
      "Po": 1965,
      "tener": 1966,
      "##yos": 1967,
      "##osotros": 1968,
      "algo": 1969,
      "sólo": 1970,
      "habit": 1971,
      "muerte": 1972,
      "##cado": 1973,
      "##inar": 1974,
      "armas": 1975,
      "igu": 1976,
      "##ile": 1977,
      "##ría": 1978,
      "manera": 1979,
      "bus": 1980,
      "sold": 1981,
      "000": 1982,
      "dirig": 1983,
      "dio": 1984,
      "##ire": 1985,
      "nuestros": 1986,
      "##cial": 1987,
      "##ece": 1988,
      "##dio": 1989,
      "ri": 1990,
      "repres": 1991,
      "##culo": 1992,
      "encu": 1993,
      "##ós": 1994,
      "##fica": 1995,
      "gri": 1996,
      "##erio": 1997,
      "##ific": 1998,
      "##glesia": 1999,
      "Qué": 2000,
      "cabeza": 2001,
      "##tación": 2002,
      "cuales": 2003,
      "##dor": 2004,
      "##gado": 2005,
      "Col": 2006,
      "##ilo": 2007,
      "##cional": 2008,
      "##dir": 2009,
      "##entras": 2010,
      "llegar": 2011,
      "rom": 2012,
      "##áti": 2013,
      "blan": 2014,
      "comer": 2015,
      "##men": 2016,
      "##sos": 2017,
      "##pit": 2018,
      "##ritu": 2019,
      "muchas": 2020,
      "LA": 2021,
      "contr": 2022,
      "##anza": 2023,
      "##amiento": 2024,
      "tes": 2025,
      "españoles": 2026,
      "tenía": 2027,
      "publ": 2028,
      "apro": 2029,
      "estre": 2030,
      "##via": 2031,
      "hici": 2032,
      "Cal": 2033,
      "##có": 2034,
      "ún": 2035,
      "Yo": 2036,
      "reun": 2037,
      "20": 2038,
      "##onel": 2039,
      "##rando": 2040,
      "##ecer": 2041,
      "Ab": 2042,
      "comple": 2043,
      "amor": 2044,
      "inde": 2045,
      "##ua": 2046,
      "relig": 2047,
      "gente": 2048,
      "##tio": 2049,
      "están": 2050,
      "##ho": 2051,
      "extra": 2052,
      "caso": 2053,
      "##bió": 2054,
      "cent": 2055,
      "##yó": 2056,
      "primer": 2057,
      "cora": 2058,
      "##uesto": 2059,
      "inm": 2060,
      "embargo": 2061,
      "cabal": 2062,
      "vista": 2063,
      "vir": 2064,
      "lado": 2065,
      "pl": 2066,
      "##iso": 2067,
      "##bas": 2068,
      "##cin": 2069,
      "Mu": 2070,
      "##pul": 2071,
      "##ública": 2072,
      "##lado": 2073,
      "##ral": 2074,
      "##gre": 2075,
      "##idente": 2076,
      "Gobierno": 2077,
      "fue": 2078,
      "cont": 2079,
      "ningun": 2080,
      "rela": 2081,
      "acom": 2082,
      "apo": 2083,
      "ban": 2084,
      "oblig": 2085,
      "gobern": 2086,
      "Esta": 2087,
      "efecto": 2088,
      "clas": 2089,
      "##itos": 2090,
      "parece": 2091,
      "##segu": 2092,
      "fuera": 2093,
      "tuvo": 2094,
      "tarde": 2095,
      "##OR": 2096,
      "manif": 2097,
      "tienen": 2098,
      "##dida": 2099,
      "suces": 2100,
      "##eración": 2101,
      "favor": 2102,
      "escu": 2103,
      "##media": 2104,
      "último": 2105,
      "##gue": 2106,
      "debe": 2107,
      "##g̃": 2108,
      "caball": 2109,
      "##torio": 2110,
      "Estado": 2111,
      "##lica": 2112,
      "compañ": 2113,
      "consider": 2114,
      "estu": 2115,
      "##char": 2116,
      "##und": 2117,
      "cl": 2118,
      "##dades": 2119,
      "##anas": 2120,
      "##tá": 2121,
      "##ete": 2122,
      "ción": 2123,
      "##unca": 2124,
      "Gran": 2125,
      "capital": 2126,
      "##rad": 2127,
      "fra": 2128,
      "buen": 2129,
      "Anton": 2130,
      "jo": 2131,
      "sil": 2132,
      "manos": 2133,
      "the": 2134,
      "eso": 2135,
      "##ell": 2136,
      "cub": 2137,
      "on": 2138,
      "visto": 2139,
      "##ientes": 2140,
      "##tener": 2141,
      "cerca": 2142,
      "estaban": 2143,
      "sen": 2144,
      "antigu": 2145,
      "cuerpo": 2146,
      "acer": 2147,
      "siguiente": 2148,
      "historia": 2149,
      "##olución": 2150,
      "##illo": 2151,
      "Sa": 2152,
      "bre": 2153,
      "pregun": 2154,
      "momento": 2155,
      "##ilidad": 2156,
      "hemos": 2157,
      "##fo": 2158,
      "##ira": 2159,
      "épo": 2160,
      "descub": 2161,
      "fues": 2162,
      "seis": 2163,
      "##erva": 2164,
      "inv": 2165,
      "encuent": 2166,
      "paso": 2167,
      "##ced": 2168,
      "constitu": 2169,
      "##ll": 2170,
      "II": 2171,
      "##ama": 2172,
      "circun": 2173,
      "encar": 2174,
      "dado": 2175,
      "Te": 2176,
      "mucha": 2177,
      "##alo": 2178,
      "##quier": 2179,
      "##terior": 2180,
      "##uela": 2181,
      "oro": 2182,
      "diez": 2183,
      "##migo": 2184,
      "hijo": 2185,
      "##ip": 2186,
      "##table": 2187,
      "algún": 2188,
      "aten": 2189,
      "##tada": 2190,
      "##fa": 2191,
      "Ex": 2192,
      "persona": 2193,
      "##rden": 2194,
      "##ender": 2195,
      "##tido": 2196,
      "ata": 2197,
      "##ismo": 2198,
      "Mad": 2199,
      "##greso": 2200,
      "pin": 2201,
      "libertad": 2202,
      "##eles": 2203,
      "Antonio": 2204,
      "conqu": 2205,
      "ol": 2206,
      "compren": 2207,
      "alma": 2208,
      "ocup": 2209,
      "Ya": 2210,
      "frente": 2211,
      "##ará": 2212,
      "##IST": 2213,
      "##AD": 2214,
      "recono": 2215,
      "herm": 2216,
      "inmedia": 2217,
      "Fern": 2218,
      "##ign": 2219,
      "##rid": 2220,
      "objeto": 2221,
      "juzg": 2222,
      "##tivos": 2223,
      "particular": 2224,
      "partes": 2225,
      "##pecto": 2226,
      "gan": 2227,
      "##dra": 2228,
      "##ál": 2229,
      "##don": 2230,
      "Is": 2231,
      "primero": 2232,
      "siendo": 2233,
      "vuel": 2234,
      "fon": 2235,
      "##íritu": 2236,
      "##respon": 2237,
      "Rep": 2238,
      "##sión": 2239,
      "##ítu": 2240,
      "##tiago": 2241,
      "##cien": 2242,
      "##ing": 2243,
      "##mar": 2244,
      "isla": 2245,
      "ou": 2246,
      "Pe": 2247,
      "##cta": 2248,
      "##istas": 2249,
      "batal": 2250,
      "crist": 2251,
      "emple": 2252,
      "General": 2253,
      "voz": 2254,
      "##cor": 2255,
      "##IC": 2256,
      "nosotros": 2257,
      "puesto": 2258,
      "##LO": 2259,
      "##osos": 2260,
      "##iene": 2261,
      "interes": 2262,
      "25": 2263,
      "tenia": 2264,
      "##izar": 2265,
      "civil": 2266,
      "##mientos": 2267,
      "plaza": 2268,
      "nunca": 2269,
      "##ial": 2270,
      "cinco": 2271,
      "acab": 2272,
      "##tante": 2273,
      "sir": 2274,
      "dese": 2275,
      "leguas": 2276,
      "durante": 2277,
      "##ill": 2278,
      "éste": 2279,
      "cara": 2280,
      "impor": 2281,
      "cul": 2282,
      "Santiago": 2283,
      "##ju": 2284,
      "suf": 2285,
      "militar": 2286,
      "ocas": 2287,
      "das": 2288,
      "respe": 2289,
      "personas": 2290,
      "lab": 2291,
      "mientras": 2292,
      "domin": 2293,
      "##vieron": 2294,
      "costa": 2295,
      "##ger": 2296,
      "figu": 2297,
      "respon": 2298,
      "##entar": 2299,
      "contes": 2300,
      "Cuando": 2301,
      "calle": 2302,
      "##yas": 2303,
      "CA": 2304,
      "lan": 2305,
      "sor": 2306,
      "fir": 2307,
      "##éndo": 2308,
      "soldados": 2309,
      "##onte": 2310,
      "##olo": 2311,
      "##iciones": 2312,
      "19": 2313,
      "razón": 2314,
      "Bo": 2315,
      "podr": 2316,
      "leg": 2317,
      "cierto": 2318,
      "ár": 2319,
      "Cab": 2320,
      "##por": 2321,
      "cuad": 2322,
      "##itas": 2323,
      "vie": 2324,
      "##eta": 2325,
      "and": 2326,
      "##ús": 2327,
      "enemigo": 2328,
      "##cto": 2329,
      "minist": 2330,
      "##ares": 2331,
      "##gust": 2332,
      "correspon": 2333,
      "##osas": 2334,
      "enter": 2335,
      "##ental": 2336,
      "##tiv": 2337,
      "aquellas": 2338,
      "capitán": 2339,
      "fuerzas": 2340,
      "##jecu": 2341,
      "Can": 2342,
      "tér": 2343,
      "difer": 2344,
      "So": 2345,
      "##érica": 2346,
      "valor": 2347,
      "buena": 2348,
      "María": 2349,
      "días": 2350,
      "campo": 2351,
      "bel": 2352,
      "tos": 2353,
      "fel": 2354,
      "vein": 2355,
      "envi": 2356,
      "##rio": 2357,
      "hubiera": 2358,
      "Cam": 2359,
      "mente": 2360,
      "##ris": 2361,
      "##rados": 2362,
      "poner": 2363,
      "casas": 2364,
      "##ban": 2365,
      "suce": 2366,
      "cuenta": 2367,
      "##oro": 2368,
      "constru": 2369,
      "##taron": 2370,
      "##iro": 2371,
      "iba": 2372,
      "##g̃a": 2373,
      "dicha": 2374,
      "aband": 2375,
      "##edad": 2376,
      "##cciones": 2377,
      "mov": 2378,
      "##ñana": 2379,
      "##tió": 2380,
      "##alidad": 2381,
      "##cida": 2382,
      "##ór": 2383,
      "##mento": 2384,
      "estar": 2385,
      "palabras": 2386,
      "Señor": 2387,
      "sé": 2388,
      "##minist": 2389,
      "época": 2390,
      "##éis": 2391,
      "##gular": 2392,
      "cumpl": 2393,
      "##orn": 2394,
      "##val": 2395,
      "vues": 2396,
      "##ispo": 2397,
      "saber": 2398,
      "espíritu": 2399,
      "30": 2400,
      "atra": 2401,
      "Francia": 2402,
      "mando": 2403,
      "##ído": 2404,
      "er": 2405,
      "##aria": 2406,
      "##stan": 2407,
      "án": 2408,
      "comen": 2409,
      "felig": 2410,
      "##iores": 2411,
      "seme": 2412,
      "terren": 2413,
      "mem": 2414,
      "##rica": 2415,
      "cómo": 2416,
      "pronto": 2417,
      "cien": 2418,
      "puerta": 2419,
      "población": 2420,
      "##zó": 2421,
      "abs": 2422,
      "orig": 2423,
      "duda": 2424,
      "tropas": 2425,
      "##ísimo": 2426,
      "escrib": 2427,
      "##eció": 2428,
      "##iego": 2429,
      "mater": 2430,
      "##irse": 2431,
      "##bos": 2432,
      "estudi": 2433,
      "##quiera": 2434,
      "gust": 2435,
      "##ula": 2436,
      "Mor": 2437,
      "Madrid": 2438,
      "##be": 2439,
      "terri": 2440,
      "viv": 2441,
      "mad": 2442,
      "us": 2443,
      "##ierto": 2444,
      "Nue": 2445,
      "##esta": 2446,
      "pais": 2447,
      "inte": 2448,
      "derecho": 2449,
      "quin": 2450,
      "Jun": 2451,
      "##clam": 2452,
      "##ficio": 2453,
      "carta": 2454,
      "somb": 2455,
      "anim": 2456,
      "be": 2457,
      "abandon": 2458,
      "##cti": 2459,
      "Di": 2460,
      "lim": 2461,
      "siglo": 2462,
      "##cir": 2463,
      "##eric": 2464,
      "vas": 2465,
      "Como": 2466,
      "pasar": 2467,
      "idea": 2468,
      "mañana": 2469,
      "##adie": 2470,
      "##nas": 2471,
      "##ctu": 2472,
      "##ard": 2473,
      "ello": 2474,
      "##unci": 2475,
      "##entas": 2476,
      "##mit": 2477,
      "todavía": 2478,
      "fund": 2479,
      "etc": 2480,
      "##ber": 2481,
      "luz": 2482,
      "##rez": 2483,
      "satis": 2484,
      "desem": 2485,
      "disp": 2486,
      "##gó": 2487,
      "esos": 2488,
      "semej": 2489,
      "cele": 2490,
      "##lante": 2491,
      "villa": 2492,
      "familia": 2493,
      "##ácter": 2494,
      "##titud": 2495,
      "Mo": 2496,
      "HIST": 2497,
      "fil": 2498,
      "unas": 2499,
      "##tran": 2500,
      "preci": 2501,
      "América": 2502,
      "Era": 2503,
      "falta": 2504,
      "dep": 2505,
      "24": 2506,
      "enfer": 2507,
      "conc": 2508,
      "##orme": 2509,
      "aleg": 2510,
      "##resa": 2511,
      "##inación": 2512,
      "##vent": 2513,
      "opin": 2514,
      "##vin": 2515,
      "21": 2516,
      "vin": 2517,
      "##cid": 2518,
      "22": 2519,
      "esf": 2520,
      "volun": 2521,
      "agu": 2522,
      "Sin": 2523,
      "comba": 2524,
      "paz": 2525,
      "llegó": 2526,
      "alcan": 2527,
      "##isión": 2528,
      "ces": 2529,
      "veci": 2530,
      "tomar": 2531,
      "##pan": 2532,
      "##ires": 2533,
      "##omo": 2534,
      "sur": 2535,
      "dol": 2536,
      "conce": 2537,
      "ocho": 2538,
      "puerto": 2539,
      "arm": 2540,
      "corazón": 2541,
      "##xico": 2542,
      "aguas": 2543,
      "acompañ": 2544,
      "##diendo": 2545,
      "ejecu": 2546,
      "indu": 2547,
      "##rada": 2548,
      "dif": 2549,
      "trabajo": 2550,
      "pag": 2551,
      "Hab": 2552,
      "desgra": 2553,
      "gal": 2554,
      "##erdo": 2555,
      "amigo": 2556,
      "##EL": 2557,
      "bor": 2558,
      "habitantes": 2559,
      "##fes": 2560,
      "##llo": 2561,
      "##ide": 2562,
      "len": 2563,
      "iglesia": 2564,
      "##th": 2565,
      "Luis": 2566,
      "fru": 2567,
      "##éndose": 2568,
      "##ORI": 2569,
      "pesar": 2570,
      "varios": 2571,
      "presente": 2572,
      "hijos": 2573,
      "secre": 2574,
      "refer": 2575,
      "carácter": 2576,
      "redu": 2577,
      "nueva": 2578,
      "##cidos": 2579,
      "patria": 2580,
      "##zado": 2581,
      "trist": 2582,
      "van": 2583,
      "ur": 2584,
      "nego": 2585,
      "será": 2586,
      "Pres": 2587,
      "español": 2588,
      "##IN": 2589,
      "##IL": 2590,
      "suer": 2591,
      "exten": 2592,
      "México": 2593,
      "pelig": 2594,
      "señal": 2595,
      "##enci": 2596,
      "lín": 2597,
      "colon": 2598,
      "##tán": 2599,
      "li": 2600,
      "tenido": 2601,
      "Ja": 2602,
      "hora": 2603,
      "divis": 2604,
      "##tica": 2605,
      "##tín": 2606,
      "trans": 2607,
      "vic": 2608,
      "Manuel": 2609,
      "sitio": 2610,
      "##ización": 2611,
      "##icios": 2612,
      "pág": 2613,
      "costu": 2614,
      "ima": 2615,
      "##ítulo": 2616,
      "artí": 2617,
      "##onso": 2618,
      "principio": 2619,
      "##RO": 2620,
      "##ye": 2621,
      "corri": 2622,
      "declar": 2623,
      "Una": 2624,
      "##dición": 2625,
      "##ioso": 2626,
      "bal": 2627,
      "perten": 2628,
      "bastante": 2629,
      "cie": 2630,
      "primeros": 2631,
      "##TA": 2632,
      "hermos": 2633,
      "pad": 2634,
      "cuid": 2635,
      "ros": 2636,
      "23": 2637,
      "soci": 2638,
      "perman": 2639,
      "partido": 2640,
      "indep": 2641,
      "clar": 2642,
      "pudo": 2643,
      "##iles": 2644,
      "asegu": 2645,
      "Desp": 2646,
      "##ándole": 2647,
      "palabra": 2648,
      "##rdenes": 2649,
      "gas": 2650,
      "República": 2651,
      "sangre": 2652,
      "Or": 2653,
      "fuese": 2654,
      "madre": 2655,
      "sua": 2656,
      "##iano": 2657,
      "##iado": 2658,
      "aún": 2659,
      "triun": 2660,
      "##rera": 2661,
      "import": 2662,
      "Du": 2663,
      "pobre": 2664,
      "lí": 2665,
      "hos": 2666,
      "dentro": 2667,
      "##ÓN": 2668,
      "181": 2669,
      "##taban": 2670,
      "ejer": 2671,
      "##ix": 2672,
      "igual": 2673,
      "Pas": 2674,
      "##ecido": 2675,
      "##ema": 2676,
      "hablar": 2677,
      "recu": 2678,
      "obst": 2679,
      "##ró": 2680,
      "corre": 2681,
      "public": 2682,
      "cit": 2683,
      "mismos": 2684,
      "##ola": 2685,
      "joven": 2686,
      "monta": 2687,
      "##yec": 2688,
      "##íamos": 2689,
      "Gar": 2690,
      "num": 2691,
      "frances": 2692,
      "gar": 2693,
      "posible": 2694,
      "elec": 2695,
      "##sion": 2696,
      "Ale": 2697,
      "media": 2698,
      "deter": 2699,
      "expres": 2700,
      "##uesta": 2701,
      "##rim": 2702,
      "pasado": 2703,
      "pan": 2704,
      "enemigos": 2705,
      "##dias": 2706,
      "habl": 2707,
      "coronel": 2708,
      "##vidu": 2709,
      "pasa": 2710,
      "suerte": 2711,
      "ninguna": 2712,
      "Tor": 2713,
      "ge": 2714,
      "##ron": 2715,
      "segundo": 2716,
      "nao": 2717,
      "pap": 2718,
      "##ám": 2719,
      "nadie": 2720,
      "horas": 2721,
      "ocur": 2722,
      "Jul": 2723,
      "hubi": 2724,
      "##gna": 2725,
      "Jo": 2726,
      "fuego": 2727,
      "##amento": 2728,
      "manifes": 2729,
      "marcha": 2730,
      "alto": 2731,
      "salir": 2732,
      "vino": 2733,
      "política": 2734,
      "Perú": 2735,
      "##cuencia": 2736,
      "fuerte": 2737,
      "Ten": 2738,
      "ejemp": 2739,
      "podía": 2740,
      "dad": 2741,
      "az": 2742,
      "##emb": 2743,
      "##RA": 2744,
      "pocos": 2745,
      "Ah": 2746,
      "##unto": 2747,
      "obras": 2748,
      "##illas": 2749,
      "espa": 2750,
      "ilust": 2751,
      "profun": 2752,
      "##rag": 2753,
      "Pues": 2754,
      "##empos": 2755,
      "##ine": 2756,
      "jefe": 2757,
      "Así": 2758,
      "##posición": 2759,
      "clase": 2760,
      "##culos": 2761,
      "Real": 2762,
      "##mentos": 2763,
      "pueden": 2764,
      "nuestras": 2765,
      "28": 2766,
      "Buenos": 2767,
      "26": 2768,
      "##arca": 2769,
      "##esión": 2770,
      "principal": 2771,
      "come": 2772,
      "individu": 2773,
      "##cían": 2774,
      "ori": 2775,
      "nes": 2776,
      "id": 2777,
      "Chile": 2778,
      "182": 2779,
      "Vic": 2780,
      "aum": 2781,
      "##iar": 2782,
      "cob": 2783,
      "##tilla": 2784,
      "administ": 2785,
      "##toria": 2786,
      "apre": 2787,
      "gen": 2788,
      "llan": 2789,
      "##esa": 2790,
      "27": 2791,
      "reco": 2792,
      "ren": 2793,
      "##crip": 2794,
      "Mig": 2795,
      "vesti": 2796,
      "##rido": 2797,
      "nación": 2798,
      "har": 2799,
      "##ts": 2800,
      "preten": 2801,
      "actu": 2802,
      "im": 2803,
      "##vel": 2804,
      "Fel": 2805,
      "gol": 2806,
      "##imientos": 2807,
      "justicia": 2808,
      "##iga": 2809,
      "pen": 2810,
      "gobernador": 2811,
      "##dez": 2812,
      "sabe": 2813,
      "##iéndose": 2814,
      "lit": 2815,
      "dejar": 2816,
      "Después": 2817,
      "EL": 2818,
      "##dan": 2819,
      "##rá": 2820,
      "expe": 2821,
      "largo": 2822,
      "honor": 2823,
      "fo": 2824,
      "retir": 2825,
      "sem": 2826,
      "divers": 2827,
      "tiempos": 2828,
      "##ísima": 2829,
      "##gal": 2830,
      "Mas": 2831,
      "admi": 2832,
      "órdenes": 2833,
      "##ír": 2834,
      "color": 2835,
      "int": 2836,
      "##fico": 2837,
      "##TU": 2838,
      "resist": 2839,
      "Miguel": 2840,
      "tales": 2841,
      "fre": 2842,
      "din": 2843,
      "ron": 2844,
      "proce": 2845,
      "##inado": 2846,
      "termin": 2847,
      "##gü": 2848,
      "llamado": 2849,
      "hacen": 2850,
      "Estados": 2851,
      "##eran": 2852,
      "##cad": 2853,
      "llevar": 2854,
      "noticia": 2855,
      "puso": 2856,
      "##bio": 2857,
      "##iosa": 2858,
      "nu": 2859,
      "##ono": 2860,
      "Fernando": 2861,
      "pies": 2862,
      "suelo": 2863,
      "según": 2864,
      "Do": 2865,
      "hubo": 2866,
      "gener": 2867,
      "cé": 2868,
      "##endencia": 2869,
      "##uda": 2870,
      "##íos": 2871,
      "Aires": 2872,
      "##lem": 2873,
      "##stitu": 2874,
      "##ORIA": 2875,
      "##OL": 2876,
      "esas": 2877,
      "pesos": 2878,
      "ras": 2879,
      "Carlos": 2880,
      "##tario": 2881,
      "##pir": 2882,
      "Ra": 2883,
      "Norte": 2884,
      "##yendo": 2885,
      "halla": 2886,
      "público": 2887,
      "volver": 2888,
      "cad": 2889,
      "##ror": 2890,
      "Ay": 2891,
      "cur": 2892,
      "DEL": 2893,
      "##fi": 2894,
      "um": 2895,
      "leyes": 2896,
      "jeneral": 2897,
      "Her": 2898,
      "##cientos": 2899,
      "##quil": 2900,
      "influ": 2901,
      "##ñad": 2902,
      "##ridad": 2903,
      "Entre": 2904,
      "##tico": 2905,
      "ao": 2906,
      "varias": 2907,
      "tur": 2908,
      "##ong": 2909,
      "mujeres": 2910,
      "fá": 2911,
      "prue": 2912,
      "trad": 2913,
      "##rer": 2914,
      "##tillo": 2915,
      "##ieran": 2916,
      "Euro": 2917,
      "Rio": 2918,
      "Fe": 2919,
      "pros": 2920,
      "recor": 2921,
      "##bu": 2922,
      "pod": 2923,
      "hicieron": 2924,
      "oficiales": 2925,
      "veinte": 2926,
      "##para": 2927,
      "##turas": 2928,
      "185": 2929,
      "cabo": 2930,
      "dan": 2931,
      "amar": 2932,
      "##hu": 2933,
      "jam": 2934,
      "terreno": 2935,
      "Min": 2936,
      "apenas": 2937,
      "árb": 2938,
      "##ást": 2939,
      "ga": 2940,
      "sist": 2941,
      "##tón": 2942,
      "ech": 2943,
      "servicio": 2944,
      "destru": 2945,
      "interior": 2946,
      "##quer": 2947,
      "##iva": 2948,
      "repar": 2949,
      "tú": 2950,
      "señora": 2951,
      "anterior": 2952,
      "##laciones": 2953,
      "amigos": 2954,
      "situación": 2955,
      "##ficios": 2956,
      "CAP": 2957,
      "ign": 2958,
      "hechos": 2959,
      "##cación": 2960,
      "##tus": 2961,
      "nacional": 2962,
      "186": 2963,
      "HISTORIA": 2964,
      "empez": 2965,
      "habiendo": 2966,
      "testi": 2967,
      "pala": 2968,
      "provincias": 2969,
      "prote": 2970,
      "bril": 2971,
      "##ianza": 2972,
      "fer": 2973,
      "29": 2974,
      "ideas": 2975,
      "especie": 2976,
      "##iedo": 2977,
      "##TE": 2978,
      "Tam": 2979,
      "##tien": 2980,
      "estra": 2981,
      "necesario": 2982,
      "##bel": 2983,
      "##édi": 2984,
      "nave": 2985,
      "Gua": 2986,
      "sorp": 2987,
      "pró": 2988,
      "##gía": 2989,
      "conci": 2990,
      "necesidad": 2991,
      "proyec": 2992,
      "III": 2993,
      "entrar": 2994,
      "capa": 2995,
      "perfec": 2996,
      "Ob": 2997,
      "##sta": 2998,
      "represent": 2999,
      "territorio": 3000,
      "abund": 3001,
      "##iedad": 3002,
      "propio": 3003,
      "##chi": 3004,
      "tengo": 3005,
      "sue": 3006,
      "señores": 3007,
      "Cruz": 3008,
      "superior": 3009,
      "##dios": 3010,
      "importan": 3011,
      "Ori": 3012,
      "##isa": 3013,
      "aux": 3014,
      "deber": 3015,
      "conver": 3016,
      "reino": 3017,
      "##stancias": 3018,
      "##pt": 3019,
      "lig": 3020,
      "haciendo": 3021,
      "motivo": 3022,
      "repu": 3023,
      "##elos": 3024,
      "instru": 3025,
      "##andante": 3026,
      "pública": 3027,
      "bos": 3028,
      "decre": 3029,
      "dul": 3030,
      "##com": 3031,
      "Desde": 3032,
      "Hu": 3033,
      "ningún": 3034,
      "##inta": 3035,
      "cho": 3036,
      "Europa": 3037,
      "conclu": 3038,
      "Ap": 3039,
      "##áp": 3040,
      "trib": 3041,
      "gr": 3042,
      "##icación": 3043,
      "venta": 3044,
      "autoridad": 3045,
      "##ale": 3046,
      "Monte": 3047,
      "cia": 3048,
      "##ame": 3049,
      "propor": 3050,
      "Tu": 3051,
      "##anes": 3052,
      "haya": 3053,
      "fondo": 3054,
      "Santo": 3055,
      "##tería": 3056,
      "libre": 3057,
      "##adamente": 3058,
      "quienes": 3059,
      "impos": 3060,
      "Pla": 3061,
      "ví": 3062,
      "##eral": 3063,
      "dic": 3064,
      "##diente": 3065,
      "VI": 3066,
      "plata": 3067,
      "ev": 3068,
      "sola": 3069,
      "separ": 3070,
      "Capit": 3071,
      "Ta": 3072,
      "podia": 3073,
      "corte": 3074,
      "##cipe": 3075,
      "##RE": 3076,
      "##gosto": 3077,
      "lejos": 3078,
      "arri": 3079,
      "cielo": 3080,
      "##tera": 3081,
      "puntos": 3082,
      "vent": 3083,
      "inten": 3084,
      "organ": 3085,
      "##tía": 3086,
      "distingu": 3087,
      "vig": 3088,
      "##rios": 3089,
      "##ies": 3090,
      "Ver": 3091,
      "quedó": 3092,
      "meses": 3093,
      "##dieron": 3094,
      "permi": 3095,
      "viaje": 3096,
      "##cl": 3097,
      "##tarse": 3098,
      "antiguo": 3099,
      "##ipe": 3100,
      "comercio": 3101,
      "Sur": 3102,
      "sacri": 3103,
      "allá": 3104,
      "adelante": 3105,
      "##onz": 3106,
      "nar": 3107,
      "acep": 3108,
      "noble": 3109,
      "Hist": 3110,
      "hacía": 3111,
      "fácil": 3112,
      "añad": 3113,
      "##eraciones": 3114,
      "alguno": 3115,
      "##rible": 3116,
      "americ": 3117,
      "elev": 3118,
      "mostr": 3119,
      "##gel": 3120,
      "##ila": 3121,
      "boca": 3122,
      "##lores": 3123,
      "##tivas": 3124,
      "Go": 3125,
      "voluntad": 3126,
      "Pue": 3127,
      "##loria": 3128,
      "Villa": 3129,
      "hija": 3130,
      "183": 3131,
      "184": 3132,
      "rode": 3133,
      "lengua": 3134,
      "colum": 3135,
      "##cimientos": 3136,
      "viol": 3137,
      "libro": 3138,
      "mandó": 3139,
      "conte": 3140,
      "31": 3141,
      "siete": 3142,
      "##iere": 3143,
      "##jado": 3144,
      "Pr": 3145,
      "dom": 3146,
      "##gla": 3147,
      "##tidad": 3148,
      "salió": 3149,
      "dign": 3150,
      "tantos": 3151,
      "ense": 3152,
      "##rey": 3153,
      "maes": 3154,
      "llegado": 3155,
      "línea": 3156,
      "Ve": 3157,
      "conocer": 3158,
      "auxil": 3159,
      "naturaleza": 3160,
      "##mir": 3161,
      "50": 3162,
      "ocul": 3163,
      "hallar": 3164,
      "ses": 3165,
      "eleg": 3166,
      "##lin": 3167,
      "Ven": 3168,
      "##ges": 3169,
      "##tero": 3170,
      "avan": 3171,
      "aba": 3172,
      "tin": 3173,
      "##aro": 3174,
      "Gal": 3175,
      "##jero": 3176,
      "##té": 3177,
      "esfuer": 3178,
      "##ortun": 3179,
      "asi": 3180,
      "##tadas": 3181,
      "ocasión": 3182,
      "río": 3183,
      "recur": 3184,
      "ind": 3185,
      "##ierta": 3186,
      "escla": 3187,
      "Sus": 3188,
      "Domin": 3189,
      "##óm": 3190,
      "oril": 3191,
      "tas": 3192,
      "principales": 3193,
      "magn": 3194,
      "rob": 3195,
      "##elas": 3196,
      "tanta": 3197,
      "##mino": 3198,
      "##cienda": 3199,
      "revolución": 3200,
      "obe": 3201,
      "distancia": 3202,
      "prob": 3203,
      "dando": 3204,
      "Diego": 3205,
      "segunda": 3206,
      "opinión": 3207,
      "##ite": 3208,
      "ésta": 3209,
      "##zco": 3210,
      "absolu": 3211,
      "oc": 3212,
      "##rito": 3213,
      "cargo": 3214,
      "##zan": 3215,
      "tribu": 3216,
      "##gáo": 3217,
      "docu": 3218,
      "##bal": 3219,
      "##ósito": 3220,
      "##zaba": 3221,
      "Be": 3222,
      "movimiento": 3223,
      "##imas": 3224,
      "presidente": 3225,
      "##jeros": 3226,
      "Bol": 3227,
      "##erra": 3228,
      "##TO": 3229,
      "##CIÓN": 3230,
      "ec": 3231,
      "##lara": 3232,
      "He": 3233,
      "memoria": 3234,
      "Crist": 3235,
      "empe": 3236,
      "vecinos": 3237,
      "atre": 3238,
      "quiere": 3239,
      "cruz": 3240,
      "iz": 3241,
      "Puer": 3242,
      "casti": 3243,
      "##aso": 3244,
      "Pal": 3245,
      "Pre": 3246,
      "##ildo": 3247,
      "##dal": 3248,
      "bene": 3249,
      "##tades": 3250,
      "ingles": 3251,
      "##ctos": 3252,
      "piedra": 3253,
      "ambos": 3254,
      "sign": 3255,
      "##till": 3256,
      "podido": 3257,
      "##monio": 3258,
      "##iosos": 3259,
      "##terra": 3260,
      "raz": 3261,
      "además": 3262,
      "mais": 3263,
      "consigu": 3264,
      "compr": 3265,
      "IV": 3266,
      "centro": 3267,
      "medios": 3268,
      "arreg": 3269,
      "tenían": 3270,
      "hermano": 3271,
      "##ines": 3272,
      "##LA": 3273,
      "##dem": 3274,
      "cuesti": 3275,
      "tir": 3276,
      "##bles": 3277,
      "Ber": 3278,
      "llama": 3279,
      "br": 3280,
      "prepar": 3281,
      "mez": 3282,
      "187": 3283,
      "quis": 3284,
      "común": 3285,
      "antigua": 3286,
      "arti": 3287,
      "daba": 3288,
      "Ci": 3289,
      "##cados": 3290,
      "pose": 3291,
      "ín": 3292,
      "extre": 3293,
      "indust": 3294,
      "##tismo": 3295,
      "circunstancias": 3296,
      "última": 3297,
      "##didos": 3298,
      "determin": 3299,
      "fort": 3300,
      "Esto": 3301,
      "suel": 3302,
      "##one": 3303,
      "gru": 3304,
      "##gación": 3305,
      "calles": 3306,
      "Nueva": 3307,
      "##lla": 3308,
      "vio": 3309,
      "march": 3310,
      "##icip": 3311,
      "40": 3312,
      "parecía": 3313,
      "##iamente": 3314,
      "Cuba": 3315,
      "Ingla": 3316,
      "arre": 3317,
      "##ñar": 3318,
      "pasó": 3319,
      "arte": 3320,
      "dolor": 3321,
      "##ficul": 3322,
      "aire": 3323,
      "doña": 3324,
      "respecto": 3325,
      "dur": 3326,
      "##fía": 3327,
      "Sol": 3328,
      "coloc": 3329,
      "contribu": 3330,
      "impres": 3331,
      "##ram": 3332,
      "caballo": 3333,
      "##entado": 3334,
      "moder": 3335,
      "##UE": 3336,
      "##rique": 3337,
      "Ter": 3338,
      "procur": 3339,
      "prove": 3340,
      "batalla": 3341,
      "repe": 3342,
      "importancia": 3343,
      "atención": 3344,
      "##jó": 3345,
      "único": 3346,
      "entrada": 3347,
      "##poner": 3348,
      "##gl": 3349,
      "preciso": 3350,
      "tierras": 3351,
      "rique": 3352,
      "decía": 3353,
      "junto": 3354,
      "##cando": 3355,
      "menor": 3356,
      "##arias": 3357,
      "##onse": 3358,
      "##pre": 3359,
      "debia": 3360,
      "has": 3361,
      "##pol": 3362,
      "virtud": 3363,
      "Jes": 3364,
      "conserv": 3365,
      "imper": 3366,
      "##tales": 3367,
      "cuyos": 3368,
      "##ctubre": 3369,
      "##quis": 3370,
      "dinero": 3371,
      "##tl": 3372,
      "suje": 3373,
      "seguir": 3374,
      "##diciones": 3375,
      "za": 3376,
      "##ecía": 3377,
      "volvió": 3378,
      "gloria": 3379,
      "tomó": 3380,
      "XV": 3381,
      "##villa": 3382,
      "##cada": 3383,
      "caballos": 3384,
      "##encio": 3385,
      "Ram": 3386,
      "despe": 3387,
      "Congreso": 3388,
      "hubiese": 3389,
      "pelo": 3390,
      "##iana": 3391,
      "ado": 3392,
      "##onia": 3393,
      "incon": 3394,
      "olvid": 3395,
      "##óme": 3396,
      "##mbres": 3397,
      "cau": 3398,
      "ng̃a": 3399,
      "##tiembre": 3400,
      "cañ": 3401,
      "pra": 3402,
      "##íncipe": 3403,
      "pene": 3404,
      "##ere": 3405,
      "Carta": 3406,
      "##este": 3407,
      "vos": 3408,
      "##TULO": 3409,
      "defensa": 3410,
      "dificul": 3411,
      "Ade": 3412,
      "##ivers": 3413,
      "contrario": 3414,
      "Felipe": 3415,
      "Minist": 3416,
      "extran": 3417,
      "Pu": 3418,
      "despa": 3419,
      "##ecen": 3420,
      "sociedad": 3421,
      "Sí": 3422,
      "Lib": 3423,
      "##III": 3424,
      "EN": 3425,
      "##si": 3426,
      "principios": 3427,
      "conde": 3428,
      "##ime": 3429,
      "Inglaterra": 3430,
      "concur": 3431,
      "dirección": 3432,
      "##erador": 3433,
      "##ablemente": 3434,
      "Del": 3435,
      "##arro": 3436,
      "sistema": 3437,
      "hallaba": 3438,
      "derechos": 3439,
      "amena": 3440,
      "patrio": 3441,
      "muerto": 3442,
      "multi": 3443,
      "asist": 3444,
      "##ianos": 3445,
      "jue": 3446,
      "##cí": 3447,
      "##eas": 3448,
      "edad": 3449,
      "admir": 3450,
      "término": 3451,
      "trabajos": 3452,
      "##lez": 3453,
      "##pia": 3454,
      "##ice": 3455,
      "gusto": 3456,
      "desapar": 3457,
      "##fac": 3458,
      "imag": 3459,
      "ram": 3460,
      "camp": 3461,
      "Ser": 3462,
      "##poco": 3463,
      "afec": 3464,
      "Provin": 3465,
      "lin": 3466,
      "##cab": 3467,
      "##uras": 3468,
      "Ur": 3469,
      "delante": 3470,
      "Cap": 3471,
      "##TI": 3472,
      "propia": 3473,
      "##ierro": 3474,
      "##rero": 3475,
      "##ré": 3476,
      "noticias": 3477,
      "##caba": 3478,
      "prision": 3479,
      "##lón": 3480,
      "doctor": 3481,
      "próx": 3482,
      "##ches": 3483,
      "cuyas": 3484,
      "dió": 3485,
      "bon": 3486,
      "ep": 3487,
      "Castilla": 3488,
      "##quí": 3489,
      "elem": 3490,
      "due": 3491,
      "Presidente": 3492,
      "qual": 3493,
      "dedi": 3494,
      "##OM": 3495,
      "Cór": 3496,
      "##pl": 3497,
      "dieron": 3498,
      "##ardo": 3499,
      "##vol": 3500,
      "##ervar": 3501,
      "servir": 3502,
      "Ce": 3503,
      "Je": 3504,
      "dejó": 3505,
      "Unidos": 3506,
      "valle": 3507,
      "exclam": 3508,
      "Vir": 3509,
      "altura": 3510,
      "esca": 3511,
      "lla": 3512,
      "Todo": 3513,
      "##idor": 3514,
      "ber": 3515,
      "seguida": 3516,
      "aj": 3517,
      "##teriores": 3518,
      "##uña": 3519,
      "adelan": 3520,
      "acto": 3521,
      "Emp": 3522,
      "##udo": 3523,
      "sober": 3524,
      "##ND": 3525,
      "gén": 3526,
      "queda": 3527,
      "ord": 3528,
      "##iese": 3529,
      "##anto": 3530,
      "cla": 3531,
      "sería": 3532,
      "treinta": 3533,
      "##umb": 3534,
      "##xo": 3535,
      "mui": 3536,
      "iban": 3537,
      "##trodu": 3538,
      "ignor": 3539,
      "agrad": 3540,
      "##gada": 3541,
      "##tivamente": 3542,
      "##ól": 3543,
      "Au": 3544,
      "observa": 3545,
      "creer": 3546,
      "conquist": 3547,
      "emb": 3548,
      "celeb": 3549,
      "avis": 3550,
      "doc": 3551,
      "##enso": 3552,
      "RE": 3553,
      "equi": 3554,
      "##orma": 3555,
      "demos": 3556,
      "Julio": 3557,
      "##tion": 3558,
      "Gonz": 3559,
      "fortuna": 3560,
      "acos": 3561,
      "##icamente": 3562,
      "ran": 3563,
      "miser": 3564,
      "independencia": 3565,
      "solem": 3566,
      "derro": 3567,
      "origen": 3568,
      "##tés": 3569,
      "##trás": 3570,
      "##usión": 3571,
      "##mbre": 3572,
      "##CA": 3573,
      "naturales": 3574,
      "##óg": 3575,
      "observ": 3576,
      "resultado": 3577,
      "brazos": 3578,
      "##riendo": 3579,
      "Nues": 3580,
      "##tiles": 3581,
      "acción": 3582,
      "fan": 3583,
      "izquier": 3584,
      "lic": 3585,
      "exig": 3586,
      "Martin": 3587,
      "división": 3588,
      "eu": 3589,
      "debía": 3590,
      "##tamiento": 3591,
      "consegu": 3592,
      "salva": 3593,
      "título": 3594,
      "fecha": 3595,
      "mit": 3596,
      "##cidas": 3597,
      "##nes": 3598,
      "Vil": 3599,
      "reme": 3600,
      "ejemplo": 3601,
      "AL": 3602,
      "ens": 3603,
      "quién": 3604,
      "seria": 3605,
      "Id": 3606,
      "Imp": 3607,
      "Roma": 3608,
      "entus": 3609,
      "sentido": 3610,
      "Tom": 3611,
      "norte": 3612,
      "demas": 3613,
      "franceses": 3614,
      "rum": 3615,
      "pena": 3616,
      "##partam": 3617,
      "existencia": 3618,
      "##legio": 3619,
      "32": 3620,
      "##aría": 3621,
      "empren": 3622,
      "Ru": 3623,
      "Gobern": 3624,
      "sepul": 3625,
      "aconte": 3626,
      "tendr": 3627,
      "conducta": 3628,
      "rios": 3629,
      "##arle": 3630,
      "glor": 3631,
      "Hay": 3632,
      "buscar": 3633,
      "antiguos": 3634,
      "tantas": 3635,
      "León": 3636,
      "presencia": 3637,
      "Martín": 3638,
      "fron": 3639,
      "papel": 3640,
      "mol": 3641,
      "rebel": 3642,
      "mist": 3643,
      "##xic": 3644,
      "jamás": 3645,
      "recibir": 3646,
      "##tz": 3647,
      "interés": 3648,
      "##pez": 3649,
      "35": 3650,
      "aprove": 3651,
      "viejo": 3652,
      "##ablo": 3653,
      "semejante": 3654,
      "##arlo": 3655,
      "##brero": 3656,
      "triste": 3657,
      "dipu": 3658,
      "##au": 3659,
      "Alonso": 3660,
      "urna": 3661,
      "dichos": 3662,
      "##arla": 3663,
      "facul": 3664,
      "Domingo": 3665,
      "ple": 3666,
      "##jico": 3667,
      "cierta": 3668,
      "##idencia": 3669,
      "ale": 3670,
      "simp": 3671,
      "uso": 3672,
      "encuentra": 3673,
      "enci": 3674,
      "pié": 3675,
      "##sul": 3676,
      "##iencia": 3677,
      "##tim": 3678,
      "Guad": 3679,
      "##vio": 3680,
      "alta": 3681,
      "respec": 3682,
      "exac": 3683,
      "culti": 3684,
      "##cés": 3685,
      "All": 3686,
      "Ital": 3687,
      "grave": 3688,
      "Tal": 3689,
      "derecha": 3690,
      "##gio": 3691,
      "##orio": 3692,
      "entra": 3693,
      "difí": 3694,
      "reales": 3695,
      "pul": 3696,
      "##lad": 3697,
      "##iéndo": 3698,
      "pequeña": 3699,
      "188": 3700,
      "##iste": 3701,
      "introdu": 3702,
      "##crib": 3703,
      "moral": 3704,
      "representa": 3705,
      "carac": 3706,
      "mara": 3707,
      "silencio": 3708,
      "##viembre": 3709,
      "campaña": 3710,
      "33": 3711,
      "bur": 3712,
      "oficial": 3713,
      "conquista": 3714,
      "##ant": 3715,
      "##ocu": 3716,
      "Cos": 3717,
      "##izado": 3718,
      "Os": 3719,
      "nota": 3720,
      "Ni": 3721,
      "artill": 3722,
      "pequeño": 3723,
      "cru": 3724,
      "Iglesia": 3725,
      "ped": 3726,
      "ingen": 3727,
      "##tarios": 3728,
      "intelig": 3729,
      "soy": 3730,
      "hom": 3731,
      "herman": 3732,
      "Za": 3733,
      "Fer": 3734,
      "nie": 3735,
      "##ment": 3736,
      "Ad": 3737,
      "##cidad": 3738,
      "regres": 3739,
      "templo": 3740,
      "histó": 3741,
      "##uri": 3742,
      "atribu": 3743,
      "solici": 3744,
      "consecuencia": 3745,
      "Dpt": 3746,
      "##obre": 3747,
      "exam": 3748,
      "deseo": 3749,
      "Cer": 3750,
      "Ne": 3751,
      "##lio": 3752,
      "Fr": 3753,
      "Res": 3754,
      "acerca": 3755,
      "##él": 3756,
      "##tenido": 3757,
      "aus": 3758,
      "convento": 3759,
      "buenos": 3760,
      "mayores": 3761,
      "##zada": 3762,
      "##tiene": 3763,
      "ocupa": 3764,
      "dejando": 3765,
      "impe": 3766,
      "aspecto": 3767,
      "##raba": 3768,
      "##dencia": 3769,
      "##inario": 3770,
      "##umbre": 3771,
      "##idi": 3772,
      "doce": 3773,
      "##itado": 3774,
      "##tiendo": 3775,
      "palacio": 3776,
      "##óse": 3777,
      "cuarto": 3778,
      "colo": 3779,
      "##tador": 3780,
      "##entemente": 3781,
      "ben": 3782,
      "##itud": 3783,
      "naciones": 3784,
      "##pado": 3785,
      "##gados": 3786,
      "exper": 3787,
      "##gno": 3788,
      "sum": 3789,
      "haci": 3790,
      "salud": 3791,
      "española": 3792,
      "descon": 3793,
      "desen": 3794,
      "Mer": 3795,
      "pér": 3796,
      "##iódi": 3797,
      "##qués": 3798,
      "quiso": 3799,
      "buques": 3800,
      "Bel": 3801,
      "##ezas": 3802,
      "pueda": 3803,
      "infer": 3804,
      "notable": 3805,
      "##jan": 3806,
      "padres": 3807,
      "acaso": 3808,
      "Dr": 3809,
      "comisión": 3810,
      "LOS": 3811,
      "Cá": 3812,
      "##dill": 3813,
      "ciudades": 3814,
      "solamente": 3815,
      "not": 3816,
      "##onal": 3817,
      "espacio": 3818,
      "sim": 3819,
      "islas": 3820,
      "Aun": 3821,
      "##ich": 3822,
      "bienes": 3823,
      "##inal": 3824,
      "pus": 3825,
      "últimos": 3826,
      "##ónde": 3827,
      "vivir": 3828,
      "Bal": 3829,
      "##viese": 3830,
      "sar": 3831,
      "recom": 3832,
      "##tellan": 3833,
      "##rón": 3834,
      "##uca": 3835,
      "relación": 3836,
      "sean": 3837,
      "afir": 3838,
      "dob": 3839,
      "Cortés": 3840,
      "cualquiera": 3841,
      "Italia": 3842,
      "##tem": 3843,
      "cha": 3844,
      "ciones": 3845,
      "Aquel": 3846,
      "oscu": 3847,
      "##érez": 3848,
      "perder": 3849,
      "parecer": 3850,
      "deben": 3851,
      "XX": 3852,
      "##yen": 3853,
      "dor": 3854,
      "pudiera": 3855,
      "some": 3856,
      "##sas": 3857,
      "compon": 3858,
      "Historia": 3859,
      "##rieron": 3860,
      "numeros": 3861,
      "escuad": 3862,
      "cantidad": 3863,
      "tropa": 3864,
      "Indias": 3865,
      "refle": 3866,
      "regular": 3867,
      "Alf": 3868,
      "resol": 3869,
      "acuerdo": 3870,
      "##abri": 3871,
      "guarn": 3872,
      "arriba": 3873,
      "adqui": 3874,
      "comis": 3875,
      "prueba": 3876,
      "##GU": 3877,
      "##yeron": 3878,
      "##tidos": 3879,
      "Aust": 3880,
      "árboles": 3881,
      "tratado": 3882,
      "Có": 3883,
      "facil": 3884,
      "sorpren": 3885,
      "ast": 3886,
      "junta": 3887,
      "asunto": 3888,
      "entusias": 3889,
      "diferentes": 3890,
      "pier": 3891,
      "ministro": 3892,
      "div": 3893,
      "céle": 3894,
      "cura": 3895,
      "tampoco": 3896,
      "lucha": 3897,
      "már": 3898,
      "Pon": 3899,
      "alar": 3900,
      "figura": 3901,
      "##ori": 3902,
      "viene": 3903,
      "peligro": 3904,
      "comandante": 3905,
      "Mayo": 3906,
      "##tida": 3907,
      "cuidado": 3908,
      "36": 3909,
      "Ho": 3910,
      "larga": 3911,
      "##áis": 3912,
      "reti": 3913,
      "resp": 3914,
      "##zob": 3915,
      "prác": 3916,
      "revolu": 3917,
      "apoder": 3918,
      "mala": 3919,
      "Sevilla": 3920,
      "##ático": 3921,
      "siglos": 3922,
      "imperio": 3923,
      "Lor": 3924,
      "cambio": 3925,
      "Mal": 3926,
      "Puerto": 3927,
      "##ini": 3928,
      "##asen": 3929,
      "##didas": 3930,
      "##lones": 3931,
      "apres": 3932,
      "Vera": 3933,
      "periódi": 3934,
      "##xim": 3935,
      "##emente": 3936,
      "Nic": 3937,
      "Lugo": 3938,
      "##ifica": 3939,
      "Méjico": 3940,
      "Esp": 3941,
      "diri": 3942,
      "##ibles": 3943,
      "##ED": 3944,
      "verdadero": 3945,
      "Bra": 3946,
      "oficio": 3947,
      "dicen": 3948,
      "##vido": 3949,
      "dorm": 3950,
      "pec": 3951,
      "jefes": 3952,
      "algu": 3953,
      "cate": 3954,
      "ine": 3955,
      "cel": 3956,
      "propósito": 3957,
      "##tuvo": 3958,
      "tamb": 3959,
      "##sp": 3960,
      "individuos": 3961,
      "##ámara": 3962,
      "flor": 3963,
      "enga": 3964,
      "confianza": 3965,
      "concep": 3966,
      "nuevas": 3967,
      "gentes": 3968,
      "Cha": 3969,
      "tab": 3970,
      "Gobernador": 3971,
      "costumbres": 3972,
      "##col": 3973,
      "180": 3974,
      "divi": 3975,
      "llen": 3976,
      "siguientes": 3977,
      "##erto": 3978,
      "##éase": 3979,
      "##ñado": 3980,
      "verific": 3981,
      "##dras": 3982,
      "##anzas": 3983,
      "34": 3984,
      "Cre": 3985,
      "##gi": 3986,
      "th": 3987,
      "supre": 3988,
      "encontrar": 3989,
      "descan": 3990,
      "compañía": 3991,
      "éstos": 3992,
      "##undo": 3993,
      "prome": 3994,
      "100": 3995,
      "poca": 3996,
      "##íst": 3997,
      "relaciones": 3998,
      "metros": 3999,
      "Oc": 4000,
      "creo": 4001,
      "faz": 4002,
      "##abe": 4003,
      "mesa": 4004,
      "tenian": 4005,
      "mismas": 4006,
      "francés": 4007,
      "juris": 4008,
      "seguro": 4009,
      "izquierda": 4010,
      "lleva": 4011,
      "##arqu": 4012,
      "##ledo": 4013,
      "titu": 4014,
      "quiz": 4015,
      "Lima": 4016,
      "##rán": 4017,
      "morir": 4018,
      "eter": 4019,
      "blanco": 4020,
      "Valencia": 4021,
      "escrito": 4022,
      "intereses": 4023,
      "Portu": 4024,
      "cualquier": 4025,
      "importante": 4026,
      "mues": 4027,
      "##eda": 4028,
      "precis": 4029,
      "nombres": 4030,
      "instante": 4031,
      "montañas": 4032,
      "má": 4033,
      "##cerdo": 4034,
      "Todos": 4035,
      "feliz": 4036,
      "##gent": 4037,
      "negro": 4038,
      "##ices": 4039,
      "formar": 4040,
      "ador": 4041,
      "##tific": 4042,
      "descono": 4043,
      "##tase": 4044,
      "##isco": 4045,
      "flores": 4046,
      "Pueb": 4047,
      "##ém": 4048,
      "popul": 4049,
      "quedar": 4050,
      "terc": 4051,
      "dem": 4052,
      "##eme": 4053,
      "quiero": 4054,
      "##adora": 4055,
      "##guar": 4056,
      "##cuenta": 4057,
      "puedo": 4058,
      "institu": 4059,
      "arran": 4060,
      "##grá": 4061,
      "deba": 4062,
      "edificio": 4063,
      "##ilar": 4064,
      "caracter": 4065,
      "pensamiento": 4066,
      "especial": 4067,
      "Granada": 4068,
      "nueve": 4069,
      "SE": 4070,
      "caballero": 4071,
      "##rum": 4072,
      "espec": 4073,
      "Doña": 4074,
      "##yor": 4075,
      "querido": 4076,
      "Sta": 4077,
      "cen": 4078,
      "lugares": 4079,
      "##hib": 4080,
      "Va": 4081,
      "empresa": 4082,
      "actual": 4083,
      "contestó": 4084,
      "log": 4085,
      "##rano": 4086,
      "dios": 4087,
      "llaman": 4088,
      "firm": 4089,
      "recibió": 4090,
      "euro": 4091,
      "##dón": 4092,
      "golpe": 4093,
      "##tol": 4094,
      "nuevos": 4095,
      "cole": 4096,
      "contemp": 4097,
      "Pan": 4098,
      "Guer": 4099,
      "imposible": 4100,
      "##siones": 4101,
      "presenta": 4102,
      "##vado": 4103,
      "##éndole": 4104,
      "desarro": 4105,
      "##trar": 4106,
      "##ferencia": 4107,
      "quería": 4108,
      "rostro": 4109,
      "fus": 4110,
      "campos": 4111,
      "evitar": 4112,
      "##iosas": 4113,
      "##quez": 4114,
      "##jada": 4115,
      "atraves": 4116,
      "##ENT": 4117,
      "##ierra": 4118,
      "Ben": 4119,
      "Ciudad": 4120,
      "tuvieron": 4121,
      "consul": 4122,
      "##minos": 4123,
      "##IO": 4124,
      "insur": 4125,
      "Mr": 4126,
      "Ros": 4127,
      "##ph": 4128,
      "momentos": 4129,
      "recursos": 4130,
      "teniente": 4131,
      "breve": 4132,
      "##ulo": 4133,
      "alim": 4134,
      "Andr": 4135,
      "acord": 4136,
      "república": 4137,
      "sospe": 4138,
      "##zando": 4139,
      "costas": 4140,
      "entró": 4141,
      "estuvo": 4142,
      "##icidad": 4143,
      "##tina": 4144,
      "ases": 4145,
      "combate": 4146,
      "Constitu": 4147,
      "suyo": 4148,
      "arras": 4149,
      "artillería": 4150,
      "recon": 4151,
      "Capitán": 4152,
      "total": 4153,
      "mexic": 4154,
      "##abana": 4155,
      "necesit": 4156,
      "sacar": 4157,
      "vul": 4158,
      "##ure": 4159,
      "XI": 4160,
      "##venir": 4161,
      "obstante": 4162,
      "##rase": 4163,
      "Rec": 4164,
      "habita": 4165,
      "37": 4166,
      "sucesos": 4167,
      "##rigo": 4168,
      "militares": 4169,
      "45": 4170,
      "##cepción": 4171,
      "triunfo": 4172,
      "Enton": 4173,
      "susp": 4174,
      "##cón": 4175,
      "juicio": 4176,
      "discur": 4177,
      "sac": 4178,
      "posición": 4179,
      "terrible": 4180,
      "sencil": 4181,
      "nas": 4182,
      "##ivo": 4183,
      "##diencia": 4184,
      "municip": 4185,
      "Ov": 4186,
      "términos": 4187,
      "venir": 4188,
      "recibido": 4189,
      "ráp": 4190,
      "conocido": 4191,
      "caer": 4192,
      "decreto": 4193,
      "edu": 4194,
      "seu": 4195,
      "mencion": 4196,
      "##guna": 4197,
      "mitad": 4198,
      "acre": 4199,
      "materia": 4200,
      "discu": 4201,
      "ido": 4202,
      "satisfac": 4203,
      "aver": 4204,
      "mg̃a": 4205,
      "##jeron": 4206,
      "difícil": 4207,
      "incl": 4208,
      "hacienda": 4209,
      "gracias": 4210,
      "viento": 4211,
      "venido": 4212,
      "##guay": 4213,
      "murió": 4214,
      "mag": 4215,
      "##tró": 4216,
      "sacerdo": 4217,
      "cincuenta": 4218,
      "condiciones": 4219,
      "fáb": 4220,
      "Tra": 4221,
      "##IS": 4222,
      "Entonces": 4223,
      "diciendo": 4224,
      "europe": 4225,
      "socor": 4226,
      "##ormes": 4227,
      "tí": 4228,
      "lad": 4229,
      "resuel": 4230,
      "Son": 4231,
      "triunf": 4232,
      "cuestión": 4233,
      "protes": 4234,
      "García": 4235,
      "adop": 4236,
      "##radas": 4237,
      "esco": 4238,
      "##entales": 4239,
      "siti": 4240,
      "llor": 4241,
      "frecu": 4242,
      "puertas": 4243,
      "Estos": 4244,
      "##rea": 4245,
      "declara": 4246,
      "proclam": 4247,
      "##dicion": 4248,
      "habría": 4249,
      "También": 4250,
      "38": 4251,
      "Ga": 4252,
      "llevaba": 4253,
      "género": 4254,
      "obispo": 4255,
      "inmediatamente": 4256,
      "predi": 4257,
      "humil": 4258,
      "proces": 4259,
      "mús": 4260,
      "ninguno": 4261,
      "##lada": 4262,
      "##ramos": 4263,
      "méri": 4264,
      "##unda": 4265,
      "mur": 4266,
      "escal": 4267,
      "Bur": 4268,
      "Oh": 4269,
      "caballería": 4270,
      "##are": 4271,
      "##jen": 4272,
      "apa": 4273,
      "vuelta": 4274,
      "ora": 4275,
      "Bern": 4276,
      "sufici": 4277,
      "Agosto": 4278,
      "##rico": 4279,
      "teniendo": 4280,
      "respeto": 4281,
      "##ífico": 4282,
      "pagar": 4283,
      "ánimo": 4284,
      "firme": 4285,
      "niños": 4286,
      "##idores": 4287,
      "Mag": 4288,
      "nom": 4289,
      "perdido": 4290,
      "alter": 4291,
      "baja": 4292,
      "conocimiento": 4293,
      "seguridad": 4294,
      "conj": 4295,
      "##gues": 4296,
      "resto": 4297,
      "##terio": 4298,
      "enseñ": 4299,
      "familias": 4300,
      "suma": 4301,
      "##demos": 4302,
      "libros": 4303,
      "raza": 4304,
      "ejerci": 4305,
      "##rasil": 4306,
      "despre": 4307,
      "ass": 4308,
      "cartas": 4309,
      "##uno": 4310,
      "Pag": 4311,
      "Abril": 4312,
      "portu": 4313,
      "conserva": 4314,
      "muertos": 4315,
      "esperanza": 4316,
      "religión": 4317,
      "##idade": 4318,
      "ciento": 4319,
      "descubri": 4320,
      "##mania": 4321,
      "hermosa": 4322,
      "desgraci": 4323,
      "castellan": 4324,
      "##dado": 4325,
      "##sar": 4326,
      "Córdo": 4327,
      "##guez": 4328,
      "##rí": 4329,
      "##ade": 4330,
      "minu": 4331,
      "santa": 4332,
      "##llas": 4333,
      "corona": 4334,
      "jó": 4335,
      "habla": 4336,
      "infan": 4337,
      "##tudes": 4338,
      "pobres": 4339,
      "##lesi": 4340,
      "artículo": 4341,
      "##enda": 4342,
      "generales": 4343,
      "pecho": 4344,
      "curso": 4345,
      "negros": 4346,
      "##entó": 4347,
      "Fué": 4348,
      "impon": 4349,
      "##cripción": 4350,
      "abajo": 4351,
      "confes": 4352,
      "conciencia": 4353,
      "grado": 4354,
      "comunic": 4355,
      "ali": 4356,
      "social": 4357,
      "39": 4358,
      "bol": 4359,
      "Vi": 4360,
      "extraord": 4361,
      "verdadera": 4362,
      "vuestra": 4363,
      "##uestos": 4364,
      "funda": 4365,
      "político": 4366,
      "CON": 4367,
      "sentimiento": 4368,
      "primeras": 4369,
      "amist": 4370,
      "llu": 4371,
      "##stancia": 4372,
      "##ábamos": 4373,
      "##abilidad": 4374,
      "príncipe": 4375,
      "##dientes": 4376,
      "ape": 4377,
      "sens": 4378,
      "niño": 4379,
      "tomado": 4380,
      "desgracia": 4381,
      "avent": 4382,
      "compañeros": 4383,
      "cuerpos": 4384,
      "medida": 4385,
      "administración": 4386,
      "##ática": 4387,
      "indí": 4388,
      "dici": 4389,
      "estoy": 4390,
      "llega": 4391,
      "proporcion": 4392,
      "resolución": 4393,
      "##aman": 4394,
      "Dici": 4395,
      "tratar": 4396,
      "costumbre": 4397,
      "castillo": 4398,
      "primi": 4399,
      "caci": 4400,
      "adver": 4401,
      "##rían": 4402,
      "##lico": 4403,
      "digo": 4404,
      "hacían": 4405,
      "dejado": 4406,
      "##uelas": 4407,
      "brazo": 4408,
      "##tumb": 4409,
      "Joa": 4410,
      "cuantos": 4411,
      "60": 4412,
      "ES": 4413,
      "descen": 4414,
      "pasos": 4415,
      "Toledo": 4416,
      "existe": 4417,
      "42": 4418,
      "constante": 4419,
      "ciencia": 4420,
      "Conse": 4421,
      "hero": 4422,
      "sul": 4423,
      "##lares": 4424,
      "sombra": 4425,
      "Oviedo": 4426,
      "fres": 4427,
      "##usa": 4428,
      "ja": 4429,
      "azul": 4430,
      "podría": 4431,
      "Em": 4432,
      "tomo": 4433,
      "rig": 4434,
      "completamente": 4435,
      "##aran": 4436,
      "##iscal": 4437,
      "teatro": 4438,
      "##quie": 4439,
      "##uco": 4440,
      "pronunci": 4441,
      "cruel": 4442,
      "haberse": 4443,
      "##ctores": 4444,
      "Coronel": 4445,
      "##mites": 4446,
      "##abel": 4447,
      "tenemos": 4448,
      "mel": 4449,
      "entender": 4450,
      "Junio": 4451,
      "multitud": 4452,
      "monum": 4453,
      "miento": 4454,
      "contar": 4455,
      "##quia": 4456,
      "##ke": 4457,
      "pedir": 4458,
      "ans": 4459,
      "##erías": 4460,
      "##pó": 4461,
      "igualmente": 4462,
      "monte": 4463,
      "causas": 4464,
      "abra": 4465,
      "##lon": 4466,
      "consejo": 4467,
      "##veres": 4468,
      "nove": 4469,
      "deja": 4470,
      "conden": 4471,
      "ambas": 4472,
      "Isla": 4473,
      "##zaron": 4474,
      "Españ": 4475,
      "Cómo": 4476,
      "demasiado": 4477,
      "siquiera": 4478,
      "servicios": 4479,
      "Sil": 4480,
      "singular": 4481,
      "##úa": 4482,
      "Hern": 4483,
      "##zon": 4484,
      "##viera": 4485,
      "##cá": 4486,
      "##rup": 4487,
      "mirada": 4488,
      "##ctura": 4489,
      "bueno": 4490,
      "apos": 4491,
      "##tantes": 4492,
      "profes": 4493,
      "reyes": 4494,
      "negocios": 4495,
      "Alemania": 4496,
      "sigue": 4497,
      "llegaron": 4498,
      "##edes": 4499,
      "##cionales": 4500,
      "##tres": 4501,
      "cuarenta": 4502,
      "##ienen": 4503,
      "##IA": 4504,
      "alcal": 4505,
      "##dó": 4506,
      "##omas": 4507,
      "Portugal": 4508,
      "prud": 4509,
      "Art": 4510,
      "sosten": 4511,
      "preguntó": 4512,
      "victoria": 4513,
      "celebr": 4514,
      "cuán": 4515,
      "manda": 4516,
      "##lesiást": 4517,
      "pocas": 4518,
      "enferme": 4519,
      "av": 4520,
      "##ICA": 4521,
      "precip": 4522,
      "recuer": 4523,
      "jóven": 4524,
      "posesión": 4525,
      "gracia": 4526,
      "Austria": 4527,
      "minas": 4528,
      "fortal": 4529,
      "esfuerzos": 4530,
      "tus": 4531,
      "sú": 4532,
      "Maria": 4533,
      "privi": 4534,
      "Enero": 4535,
      "proyecto": 4536,
      "Octubre": 4537,
      "##ij": 4538,
      "##uma": 4539,
      "41": 4540,
      "48": 4541,
      "prom": 4542,
      "parro": 4543,
      "encan": 4544,
      "tranqu": 4545,
      "500": 4546,
      "quiera": 4547,
      "industria": 4548,
      "reina": 4549,
      "conveniente": 4550,
      "conforme": 4551,
      "escas": 4552,
      "piedras": 4553,
      "##yan": 4554,
      "##sula": 4555,
      "##ñez": 4556,
      "disposición": 4557,
      "##amientos": 4558,
      "recuerdo": 4559,
      "hé": 4560,
      "##amb": 4561,
      "Jesús": 4562,
      "despo": 4563,
      "##ual": 4564,
      "influencia": 4565,
      "animales": 4566,
      "hacerse": 4567,
      "Luego": 4568,
      "oportun": 4569,
      "200": 4570,
      "orgu": 4571,
      "fuertes": 4572,
      "##dral": 4573,
      "traslad": 4574,
      "Cons": 4575,
      "infin": 4576,
      "déla": 4577,
      "##arme": 4578,
      "marido": 4579,
      "inú": 4580,
      "podían": 4581,
      "reclam": 4582,
      "confir": 4583,
      "cambi": 4584,
      "Blan": 4585,
      "excel": 4586,
      "##gon": 4587,
      "##idamente": 4588,
      "##iros": 4589,
      "montes": 4590,
      "##ERO": 4591,
      "pase": 4592,
      "salida": 4593,
      "Sar": 4594,
      "toma": 4595,
      "ves": 4596,
      "casos": 4597,
      "trata": 4598,
      "defender": 4599,
      "dulce": 4600,
      "##CO": 4601,
      "util": 4602,
      "elementos": 4603,
      "##lados": 4604,
      "bár": 4605,
      "##pes": 4606,
      "tribun": 4607,
      "Fu": 4608,
      "encuentran": 4609,
      "##entan": 4610,
      "célebre": 4611,
      "situado": 4612,
      "Padre": 4613,
      "##CION": 4614,
      "forman": 4615,
      "44": 4616,
      "##jaba": 4617,
      "Colomb": 4618,
      "invas": 4619,
      "remo": 4620,
      "Barcel": 4621,
      "##dores": 4622,
      "##aciones": 4623,
      "Reg": 4624,
      "estudio": 4625,
      "ost": 4626,
      "##endido": 4627,
      "doctr": 4628,
      "médi": 4629,
      "riqueza": 4630,
      "##illos": 4631,
      "##ys": 4632,
      "##idez": 4633,
      "éx": 4634,
      "objetos": 4635,
      "43": 4636,
      "jurisdi": 4637,
      "rin": 4638,
      "paci": 4639,
      "##ella": 4640,
      "duque": 4641,
      "Habana": 4642,
      "operaciones": 4643,
      "espal": 4644,
      "jorn": 4645,
      "supon": 4646,
      "Enrique": 4647,
      "santo": 4648,
      "efectos": 4649,
      "jur": 4650,
      "exclamó": 4651,
      "Junta": 4652,
      "Plata": 4653,
      "obede": 4654,
      "propie": 4655,
      "Diciembre": 4656,
      "compar": 4657,
      "Gra": 4658,
      "##juz": 4659,
      "actos": 4660,
      "hierro": 4661,
      "curi": 4662,
      "##vera": 4663,
      "miemb": 4664,
      "##grafía": 4665,
      "##iales": 4666,
      "##usto": 4667,
      "##icias": 4668,
      "soldado": 4669,
      "##IB": 4670,
      "llamada": 4671,
      "Marzo": 4672,
      "##arquía": 4673,
      "aca": 4674,
      "jard": 4675,
      "##rosa": 4676,
      "##et": 4677,
      "mandar": 4678,
      "corriente": 4679,
      "desempe": 4680,
      "Provincia": 4681,
      "Catal": 4682,
      "mío": 4683,
      "Reyes": 4684,
      "Allí": 4685,
      "París": 4686,
      "situada": 4687,
      "SAN": 4688,
      "##xto": 4689,
      "##vención": 4690,
      "hallan": 4691,
      "Vicente": 4692,
      "ama": 4693,
      "fati": 4694,
      "##pira": 4695,
      "poeta": 4696,
      "Dia": 4697,
      "pensar": 4698,
      "##dillera": 4699,
      "##partamento": 4700,
      "Agu": 4701,
      "presentó": 4702,
      "Sab": 4703,
      "grues": 4704,
      "viendo": 4705,
      "completa": 4706,
      "esposa": 4707,
      "##tidas": 4708,
      "expedición": 4709,
      "Da": 4710,
      "vícti": 4711,
      "##isla": 4712,
      "Andrés": 4713,
      "##sto": 4714,
      "tum": 4715,
      "deses": 4716,
      "##cura": 4717,
      "escribir": 4718,
      "hospit": 4719,
      "lej": 4720,
      "##ágri": 4721,
      "practi": 4722,
      "madera": 4723,
      "volv": 4724,
      "entusiasmo": 4725,
      "Flor": 4726,
      "human": 4727,
      "##cieron": 4728,
      "Mis": 4729,
      "apla": 4730,
      "bes": 4731,
      "acostumb": 4732,
      "##zados": 4733,
      "única": 4734,
      "Pala": 4735,
      "carne": 4736,
      "alegría": 4737,
      "gastos": 4738,
      "amo": 4739,
      "autoridades": 4740,
      "comb": 4741,
      "aplic": 4742,
      "base": 4743,
      "partida": 4744,
      "puente": 4745,
      "edificios": 4746,
      "##icion": 4747,
      "Estas": 4748,
      "##ándola": 4749,
      "sentir": 4750,
      "##ICO": 4751,
      "AR": 4752,
      "Bas": 4753,
      "datos": 4754,
      "che": 4755,
      "destin": 4756,
      "Ara": 4757,
      "tol": 4758,
      "enf": 4759,
      "##cina": 4760,
      "dónde": 4761,
      "##vuel": 4762,
      "##ábase": 4763,
      "rem": 4764,
      "buenas": 4765,
      "Rom": 4766,
      "##ut": 4767,
      "##iertos": 4768,
      "lágri": 4769,
      "##gando": 4770,
      "##dían": 4771,
      "claro": 4772,
      "mejores": 4773,
      "consa": 4774,
      "##tara": 4775,
      "##stru": 4776,
      "Barcelona": 4777,
      "Aquí": 4778,
      "Porque": 4779,
      "hermanos": 4780,
      "espan": 4781,
      "##ciales": 4782,
      "Véase": 4783,
      "esperar": 4784,
      "##eramente": 4785,
      "destino": 4786,
      "##UM": 4787,
      "propiedad": 4788,
      "fuesen": 4789,
      "supo": 4790,
      "alde": 4791,
      "##ecre": 4792,
      "##eres": 4793,
      "estim": 4794,
      "arb": 4795,
      "##garse": 4796,
      "desta": 4797,
      "llegada": 4798,
      "clases": 4799,
      "Pérez": 4800,
      "diversas": 4801,
      "miedo": 4802,
      "pá": 4803,
      "adi": 4804,
      "dispos": 4805,
      "Ana": 4806,
      "poblaciones": 4807,
      "##gido": 4808,
      "sala": 4809,
      "prisioneros": 4810,
      "##ende": 4811,
      "##quina": 4812,
      "nombrado": 4813,
      "llamar": 4814,
      "razones": 4815,
      "##gri": 4816,
      "estando": 4817,
      "##uf": 4818,
      "Ang": 4819,
      "Brasil": 4820,
      "documentos": 4821,
      "sel": 4822,
      "##teros": 4823,
      "sostener": 4824,
      "encom": 4825,
      "resistencia": 4826,
      "ingleses": 4827,
      "calor": 4828,
      "vel": 4829,
      "flo": 4830,
      "espi": 4831,
      "##carse": 4832,
      "citado": 4833,
      "placer": 4834,
      "Quién": 4835,
      "delic": 4836,
      "voy": 4837,
      "AN": 4838,
      "##chado": 4839,
      "podrá": 4840,
      "recha": 4841,
      "logr": 4842,
      "##arte": 4843,
      "consiguiente": 4844,
      "abrir": 4845,
      "Ahora": 4846,
      "##orias": 4847,
      "##garon": 4848,
      "Nada": 4849,
      "límites": 4850,
      "##amas": 4851,
      "Tar": 4852,
      "##ane": 4853,
      "##mirante": 4854,
      "qui": 4855,
      "retra": 4856,
      "##taciones": 4857,
      "46": 4858,
      "vac": 4859,
      "##endiente": 4860,
      "cuadro": 4861,
      "propos": 4862,
      "Señora": 4863,
      "comenzó": 4864,
      "murm": 4865,
      "irre": 4866,
      "realidad": 4867,
      "##ínsula": 4868,
      "virey": 4869,
      "ton": 4870,
      "##teca": 4871,
      "desembar": 4872,
      "peso": 4873,
      "cortes": 4874,
      "pele": 4875,
      "conten": 4876,
      "##ambre": 4877,
      "Mel": 4878,
      "##ivamente": 4879,
      "desper": 4880,
      "repro": 4881,
      "##OB": 4882,
      "##tieron": 4883,
      "univers": 4884,
      "CAPI": 4885,
      "##inaria": 4886,
      "47": 4887,
      "Bor": 4888,
      "##ísimos": 4889,
      "##iero": 4890,
      "##ck": 4891,
      "piezas": 4892,
      "##jando": 4893,
      "occid": 4894,
      "espl": 4895,
      "emperador": 4896,
      "particulares": 4897,
      "hecha": 4898,
      "públicos": 4899,
      "##íase": 4900,
      "mandado": 4901,
      "##ins": 4902,
      "encontró": 4903,
      "##bil": 4904,
      "Riv": 4905,
      "respondió": 4906,
      "anteriores": 4907,
      "ídem": 4908,
      "temor": 4909,
      "fle": 4910,
      "inquie": 4911,
      "##eca": 4912,
      "encer": 4913,
      "Coruña": 4914,
      "cristianos": 4915,
      "##untos": 4916,
      "habrá": 4917,
      "completo": 4918,
      "popular": 4919,
      "##eratura": 4920,
      "##anda": 4921,
      "Algun": 4922,
      "blanca": 4923,
      "há": 4924,
      "suya": 4925,
      "ayud": 4926,
      "ahí": 4927,
      "eclesiást": 4928,
      "cari": 4929,
      "males": 4930,
      "orilla": 4931,
      "comprender": 4932,
      "##cadas": 4933,
      "ble": 4934,
      "Dos": 4935,
      "consum": 4936,
      "ocupar": 4937,
      "columna": 4938,
      "impul": 4939,
      "Aunque": 4940,
      "medidas": 4941,
      "Rod": 4942,
      "##tividad": 4943,
      "tru": 4944,
      "asomb": 4945,
      "superfici": 4946,
      "jul": 4947,
      "##fé": 4948,
      "mister": 4949,
      "aco": 4950,
      "vamos": 4951,
      "##ID": 4952,
      "almas": 4953,
      "distrito": 4954,
      "##tua": 4955,
      "##vación": 4956,
      "##bro": 4957,
      "humana": 4958,
      "design": 4959,
      "##genes": 4960,
      "##oración": 4961,
      "##cam": 4962,
      "##untamiento": 4963,
      "##up": 4964,
      "especialmente": 4965,
      "##uo": 4966,
      "busca": 4967,
      "Conde": 4968,
      "buque": 4969,
      "Ministro": 4970,
      "digno": 4971,
      "##gena": 4972,
      "perpe": 4973,
      "Th": 4974,
      "daban": 4975,
      "amistad": 4976,
      "cadá": 4977,
      "##juzg": 4978,
      "Pi": 4979,
      "lleno": 4980,
      "##ló": 4981,
      "econ": 4982,
      "persegu": 4983,
      "ciertos": 4984,
      "Cara": 4985,
      "##sado": 4986,
      "Isabel": 4987,
      "##vador": 4988,
      "oriental": 4989,
      "altar": 4990,
      "deten": 4991,
      "##ulas": 4992,
      "éxito": 4993,
      "bri": 4994,
      "##ison": 4995,
      "desn": 4996,
      "decia": 4997,
      "##idal": 4998,
      "##vios": 4999,
      "##ecieron": 5000,
      "apoy": 5001,
      "histori": 5002,
      "Ger": 5003,
      "remi": 5004,
      "bosques": 5005,
      "perse": 5006,
      "##camente": 5007,
      "Joaqu": 5008,
      "long": 5009,
      "cabildo": 5010,
      "provis": 5011,
      "merced": 5012,
      "fines": 5013,
      "siguió": 5014,
      "convo": 5015,
      "Agust": 5016,
      "caminos": 5017,
      "suyos": 5018,
      "bru": 5019,
      "Sen": 5020,
      "rico": 5021,
      "correr": 5022,
      "##dente": 5023,
      "torre": 5024,
      "cerro": 5025,
      "reconocer": 5026,
      "55": 5027,
      "IN": 5028,
      "ace": 5029,
      "Córdoba": 5030,
      "devo": 5031,
      "ala": 5032,
      "##diz": 5033,
      "##itó": 5034,
      "punta": 5035,
      "labios": 5036,
      "pura": 5037,
      "##glés": 5038,
      "##gaba": 5039,
      "sentimientos": 5040,
      "inspir": 5041,
      "gover": 5042,
      "tenga": 5043,
      "##ull": 5044,
      "suceso": 5045,
      "gobier": 5046,
      "##ficos": 5047,
      "##mán": 5048,
      "##ím": 5049,
      "dirij": 5050,
      "congreso": 5051,
      "##rump": 5052,
      "matri": 5053,
      "##UR": 5054,
      "dispon": 5055,
      "diversos": 5056,
      "leer": 5057,
      "Il": 5058,
      "Tan": 5059,
      "##erna": 5060,
      "llamó": 5061,
      "##ticos": 5062,
      "Consejo": 5063,
      "cató": 5064,
      "##nal": 5065,
      "Fa": 5066,
      "##hat": 5067,
      "Mayor": 5068,
      "Alvar": 5069,
      "ria": 5070,
      "artes": 5071,
      "explic": 5072,
      "##emia": 5073,
      "Inf": 5074,
      "Bre": 5075,
      "##gro": 5076,
      "espada": 5077,
      "ment": 5078,
      "carrera": 5079,
      "compa": 5080,
      "niña": 5081,
      "Noviembre": 5082,
      "##citos": 5083,
      "##sación": 5084,
      "mira": 5085,
      "persu": 5086,
      "##bia": 5087,
      "Sobre": 5088,
      "orillas": 5089,
      "evid": 5090,
      "Vall": 5091,
      "países": 5092,
      "##ándolo": 5093,
      "ataque": 5094,
      "Vol": 5095,
      "Nos": 5096,
      "##rias": 5097,
      "piso": 5098,
      "vecin": 5099,
      "conoce": 5100,
      "taba": 5101,
      "foi": 5102,
      "formado": 5103,
      "misión": 5104,
      "PAR": 5105,
      "detal": 5106,
      "incor": 5107,
      "ciertas": 5108,
      "rendi": 5109,
      "mérito": 5110,
      "semejantes": 5111,
      "lágrimas": 5112,
      "pañ": 5113,
      "##ficación": 5114,
      "inteligencia": 5115,
      "Colombia": 5116,
      "##dian": 5117,
      "##ses": 5118,
      "##tino": 5119,
      "Febrero": 5120,
      "##edor": 5121,
      "##minu": 5122,
      "vieron": 5123,
      "##ccion": 5124,
      "##plic": 5125,
      "##zobispo": 5126,
      "asal": 5127,
      "1a": 5128,
      "pasaba": 5129,
      "##estas": 5130,
      "##gadas": 5131,
      "ilustre": 5132,
      "non": 5133,
      "pare": 5134,
      "rece": 5135,
      "##iqu": 5136,
      "pien": 5137,
      "##uncia": 5138,
      "vapor": 5139,
      "capitu": 5140,
      "civilización": 5141,
      "fen": 5142,
      "dirigió": 5143,
      "##ecían": 5144,
      "debió": 5145,
      "ré": 5146,
      "estilo": 5147,
      "kil": 5148,
      "##ález": 5149,
      "oir": 5150,
      "##oral": 5151,
      "elo": 5152,
      "simple": 5153,
      "perío": 5154,
      "ofrece": 5155,
      "##ore": 5156,
      "plu": 5157,
      "mesmo": 5158,
      "indio": 5159,
      "aprovech": 5160,
      "mé": 5161,
      "##reros": 5162,
      "dije": 5163,
      "infel": 5164,
      "comunicación": 5165,
      "viva": 5166,
      "establecer": 5167,
      "culto": 5168,
      "Alcal": 5169,
      "capilla": 5170,
      "Audi": 5171,
      "Fil": 5172,
      "pone": 5173,
      "temer": 5174,
      "00": 5175,
      "ademas": 5176,
      "ruido": 5177,
      "##remos": 5178,
      "49": 5179,
      "ener": 5180,
      "Pol": 5181,
      "conseguir": 5182,
      "##video": 5183,
      "pequeños": 5184,
      "pérdida": 5185,
      "##hua": 5186,
      "notables": 5187,
      "##cruz": 5188,
      "lago": 5189,
      "extremo": 5190,
      "jóvenes": 5191,
      "ganado": 5192,
      "cumplir": 5193,
      "##ciente": 5194,
      "maestro": 5195,
      "Eu": 5196,
      "Pablo": 5197,
      "##pie": 5198,
      "elección": 5199,
      "Lon": 5200,
      "dispu": 5201,
      "##etas": 5202,
      "Mientras": 5203,
      "prodi": 5204,
      "rib": 5205,
      "tradu": 5206,
      "##grado": 5207,
      "colonia": 5208,
      "trono": 5209,
      "instrum": 5210,
      "precios": 5211,
      "llevó": 5212,
      "##dula": 5213,
      "amp": 5214,
      "##adic": 5215,
      "##iertas": 5216,
      "Alfonso": 5217,
      "establecimiento": 5218,
      "##amble": 5219,
      "insurre": 5220,
      "##caron": 5221,
      "##ancias": 5222,
      "espres": 5223,
      "hubieran": 5224,
      "Az": 5225,
      "##mina": 5226,
      "Castro": 5227,
      "alf": 5228,
      "ciudadanos": 5229,
      "formas": 5230,
      "inglés": 5231,
      "##amo": 5232,
      "carre": 5233,
      "##blic": 5234,
      "consideración": 5235,
      "Jer": 5236,
      "LAS": 5237,
      "haga": 5238,
      "tado": 5239,
      "##tencia": 5240,
      "##caciones": 5241,
      "##ándoles": 5242,
      "condición": 5243,
      "##ieren": 5244,
      "colores": 5245,
      "restos": 5246,
      "seno": 5247,
      "##ticas": 5248,
      "80": 5249,
      "his": 5250,
      "ancho": 5251,
      "anunci": 5252,
      "remedio": 5253,
      "##leta": 5254,
      "capaz": 5255,
      "##san": 5256,
      "gua": 5257,
      "veía": 5258,
      "agri": 5259,
      "band": 5260,
      "encima": 5261,
      "prohib": 5262,
      "importantes": 5263,
      "debían": 5264,
      "corta": 5265,
      "vuestro": 5266,
      "labor": 5267,
      "##gusto": 5268,
      "ambi": 5269,
      "belle": 5270,
      "##entro": 5271,
      "##ni": 5272,
      "Bien": 5273,
      "anci": 5274,
      "far": 5275,
      "quedaron": 5276,
      "##frica": 5277,
      "##oros": 5278,
      "Nuevo": 5279,
      "dra": 5280,
      "calidad": 5281,
      "progres": 5282,
      "quedado": 5283,
      "enteramente": 5284,
      "##cla": 5285,
      "legua": 5286,
      "salido": 5287,
      "##od": 5288,
      "revolucion": 5289,
      "##lid": 5290,
      "apren": 5291,
      "##cao": 5292,
      "quince": 5293,
      "##iblio": 5294,
      "##ragón": 5295,
      "Igna": 5296,
      "disf": 5297,
      "Constitución": 5298,
      "179": 5299,
      "##CIA": 5300,
      "letras": 5301,
      "mayo": 5302,
      "preocu": 5303,
      "lhe": 5304,
      "Lle": 5305,
      "nombra": 5306,
      "defens": 5307,
      "aquello": 5308,
      "##ÍTULO": 5309,
      "marqués": 5310,
      "##tuoso": 5311,
      "adorn": 5312,
      "fiesta": 5313,
      "construcción": 5314,
      "##rin": 5315,
      "González": 5316,
      "##izada": 5317,
      "principalmente": 5318,
      "dila": 5319,
      "críti": 5320,
      "CAPITULO": 5321,
      "51": 5322,
      "esclavos": 5323,
      "##bes": 5324,
      "grupo": 5325,
      "ul": 5326,
      "##iden": 5327,
      "##PA": 5328,
      "exa": 5329,
      "local": 5330,
      "##vés": 5331,
      "Grande": 5332,
      "pela": 5333,
      "compe": 5334,
      "bah": 5335,
      "propios": 5336,
      "Sebas": 5337,
      "hues": 5338,
      "##GO": 5339,
      "##cultura": 5340,
      "romp": 5341,
      "salvar": 5342,
      "52": 5343,
      "Liber": 5344,
      "##adero": 5345,
      "##into": 5346,
      "envió": 5347,
      "incen": 5348,
      "columnas": 5349,
      "##udal": 5350,
      "##roso": 5351,
      "##bra": 5352,
      "Nicol": 5353,
      "basta": 5354,
      "Pen": 5355,
      "##ándome": 5356,
      "##licos": 5357,
      "diz": 5358,
      "sabía": 5359,
      "caballeros": 5360,
      "##amor": 5361,
      "bárbar": 5362,
      "Montevideo": 5363,
      "much": 5364,
      "batallón": 5365,
      "adj": 5366,
      "hermana": 5367,
      "llena": 5368,
      "armada": 5369,
      "conservar": 5370,
      "diferencia": 5371,
      "artículos": 5372,
      "ruinas": 5373,
      "estran": 5374,
      "esté": 5375,
      "tío": 5376,
      "##alu": 5377,
      "##uti": 5378,
      "##DO": 5379,
      "propon": 5380,
      "consecu": 5381,
      "Casa": 5382,
      "matar": 5383,
      "hallaban": 5384,
      "segura": 5385,
      "##dedor": 5386,
      "unión": 5387,
      "concepto": 5388,
      "##iss": 5389,
      "cree": 5390,
      "##ezuela": 5391,
      "clima": 5392,
      "abril": 5393,
      "guardia": 5394,
      "sr": 5395,
      "##usos": 5396,
      "CAPÍTULO": 5397,
      "quem": 5398,
      "peda": 5399,
      "inj": 5400,
      "personal": 5401,
      "Jefe": 5402,
      "VII": 5403,
      "##tones": 5404,
      "bro": 5405,
      "##mer": 5406,
      "deseos": 5407,
      "Fé": 5408,
      "##inete": 5409,
      "Segun": 5410,
      "hermoso": 5411,
      "escuela": 5412,
      "consta": 5413,
      "Mil": 5414,
      "##her": 5415,
      "echar": 5416,
      "##abal": 5417,
      "Hasta": 5418,
      "autores": 5419,
      "maravil": 5420,
      "apreci": 5421,
      "##uc": 5422,
      "caudi": 5423,
      "héro": 5424,
      "rato": 5425,
      "54": 5426,
      "honra": 5427,
      "##lia": 5428,
      "comprome": 5429,
      "aquél": 5430,
      "##uez": 5431,
      "guarnición": 5432,
      "##amá": 5433,
      "rica": 5434,
      "só": 5435,
      "religiosos": 5436,
      "##ff": 5437,
      "Asia": 5438,
      "Oriente": 5439,
      "canal": 5440,
      "som": 5441,
      "##igna": 5442,
      "bosque": 5443,
      "hostil": 5444,
      "descar": 5445,
      "felicidad": 5446,
      "vivo": 5447,
      "Zara": 5448,
      "hacerlo": 5449,
      "inoc": 5450,
      "56": 5451,
      "levantar": 5452,
      "únicamente": 5453,
      "Fra": 5454,
      "subs": 5455,
      "##ísimas": 5456,
      "ques": 5457,
      "escol": 5458,
      "sueño": 5459,
      "##abo": 5460,
      "vengan": 5461,
      "##stas": 5462,
      "seus": 5463,
      "miembros": 5464,
      "geo": 5465,
      "##vedra": 5466,
      "millas": 5467,
      "53": 5468,
      "##omía": 5469,
      "millones": 5470,
      "Virgen": 5471,
      "ais": 5472,
      "##ívar": 5473,
      "cuartel": 5474,
      "yer": 5475,
      "aman": 5476,
      "indisp": 5477,
      "menes": 5478,
      "sierra": 5479,
      "traer": 5480,
      "andar": 5481,
      "secreto": 5482,
      "coron": 5483,
      "fol": 5484,
      "##árcel": 5485,
      "quedaba": 5486,
      "##úcar": 5487,
      "verse": 5488,
      "##bres": 5489,
      "##endientes": 5490,
      "##didad": 5491,
      "##tecas": 5492,
      "distribu": 5493,
      "curios": 5494,
      "##zaban": 5495,
      "vulgar": 5496,
      "Ge": 5497,
      "háb": 5498,
      "alre": 5499,
      "heridos": 5500,
      "##llos": 5501,
      "Ignacio": 5502,
      "Mur": 5503,
      "vive": 5504,
      "rar": 5505,
      "sobr": 5506,
      "Navar": 5507,
      "presi": 5508,
      "##arcas": 5509,
      "Lleg": 5510,
      "##cán": 5511,
      "dichas": 5512,
      "escar": 5513,
      "idi": 5514,
      "profundo": 5515,
      "gor": 5516,
      "restable": 5517,
      "atrás": 5518,
      "peligros": 5519,
      "Tiene": 5520,
      "Mendo": 5521,
      "##jera": 5522,
      "Cortes": 5523,
      "##caban": 5524,
      "##int": 5525,
      "Loren": 5526,
      "salieron": 5527,
      "rej": 5528,
      "genio": 5529,
      "##titu": 5530,
      "##ique": 5531,
      "escribió": 5532,
      "mue": 5533,
      "##hor": 5534,
      "300": 5535,
      "precio": 5536,
      "##ham": 5537,
      "exces": 5538,
      "archi": 5539,
      "pareció": 5540,
      "##qué": 5541,
      "Paris": 5542,
      "##enciado": 5543,
      "Rob": 5544,
      "##QU": 5545,
      "##ello": 5546,
      "##ída": 5547,
      "llamaba": 5548,
      "formando": 5549,
      "mane": 5550,
      "visita": 5551,
      "##itan": 5552,
      "dilig": 5553,
      "Valle": 5554,
      "##ii": 5555,
      "encuentro": 5556,
      "música": 5557,
      "##ug": 5558,
      "pequeñas": 5559,
      "##áz": 5560,
      "bandera": 5561,
      "encontraba": 5562,
      "tercera": 5563,
      "daño": 5564,
      "empezó": 5565,
      "vigor": 5566,
      "tron": 5567,
      "##bara": 5568,
      "Rafa": 5569,
      "levantó": 5570,
      "desor": 5571,
      "tomando": 5572,
      "##udar": 5573,
      "##uestas": 5574,
      "conta": 5575,
      "terrenos": 5576,
      "sust": 5577,
      "Veracruz": 5578,
      "##ly": 5579,
      "auxilio": 5580,
      "diputados": 5581,
      "muger": 5582,
      "cop": 5583,
      "puestos": 5584,
      "sirve": 5585,
      "Nicolás": 5586,
      "dá": 5587,
      "gent": 5588,
      "##ramento": 5589,
      "moros": 5590,
      "Cristó": 5591,
      "MAR": 5592,
      "mía": 5593,
      "70": 5594,
      "región": 5595,
      "horiz": 5596,
      "Cádiz": 5597,
      "##fos": 5598,
      "conser": 5599,
      "continuó": 5600,
      "reflex": 5601,
      "jes": 5602,
      "Antes": 5603,
      "servido": 5604,
      "Dis": 5605,
      "reli": 5606,
      "Puebla": 5607,
      "liter": 5608,
      "##omé": 5609,
      "cá": 5610,
      "##ricas": 5611,
      "##dres": 5612,
      "montaña": 5613,
      "##igas": 5614,
      "##ka": 5615,
      "encen": 5616,
      "idem": 5617,
      "##son": 5618,
      "debajo": 5619,
      "##ular": 5620,
      "separa": 5621,
      "quando": 5622,
      "Lopez": 5623,
      "ase": 5624,
      "rein": 5625,
      "##uelos": 5626,
      "vege": 5627,
      "##quite": 5628,
      "rumbo": 5629,
      "podemos": 5630,
      "brig": 5631,
      "hojas": 5632,
      "hol": 5633,
      "fama": 5634,
      "actividad": 5635,
      "aos": 5636,
      "ano": 5637,
      "ministros": 5638,
      "experim": 5639,
      "##trado": 5640,
      "poes": 5641,
      "meridi": 5642,
      "##tándose": 5643,
      "humano": 5644,
      "##BA": 5645,
      "alm": 5646,
      "hambre": 5647,
      "Sebasti": 5648,
      "##vada": 5649,
      "##amblea": 5650,
      "abo": 5651,
      "carga": 5652,
      "Sierra": 5653,
      "voces": 5654,
      "pár": 5655,
      "Patri": 5656,
      "aque": 5657,
      "satisfacción": 5658,
      "encontrado": 5659,
      "150": 5660,
      "##piración": 5661,
      "Además": 5662,
      "##pación": 5663,
      "pudieron": 5664,
      "Aragón": 5665,
      "nobles": 5666,
      "##ADO": 5667,
      "##donos": 5668,
      "##esto": 5669,
      "##ñe": 5670,
      "Bolívar": 5671,
      "serán": 5672,
      "cámara": 5673,
      "efica": 5674,
      "##ológ": 5675,
      "sas": 5676,
      "manten": 5677,
      "superficie": 5678,
      "Bogo": 5679,
      "##canos": 5680,
      "PA": 5681,
      "suble": 5682,
      "atro": 5683,
      "178": 5684,
      "dificultades": 5685,
      "##xa": 5686,
      "ral": 5687,
      "Obispo": 5688,
      "##EZ": 5689,
      "semb": 5690,
      "##onde": 5691,
      "asiento": 5692,
      "África": 5693,
      "capítulo": 5694,
      "interrump": 5695,
      "fiel": 5696,
      "agra": 5697,
      "revel": 5698,
      "Paz": 5699,
      "##iesen": 5700,
      "CU": 5701,
      "Audiencia": 5702,
      "Nuestra": 5703,
      "##teo": 5704,
      "##íz": 5705,
      "compos": 5706,
      "##enes": 5707,
      "##ología": 5708,
      "##guardia": 5709,
      "especies": 5710,
      "##anti": 5711,
      "##cib": 5712,
      "58": 5713,
      "darle": 5714,
      "árbol": 5715,
      "dueño": 5716,
      "##ónimo": 5717,
      "arreglo": 5718,
      "MA": 5719,
      "##torios": 5720,
      "quedando": 5721,
      "asuntos": 5722,
      "obstá": 5723,
      "##tlan": 5724,
      "57": 5725,
      "Quer": 5726,
      "EST": 5727,
      "##cidente": 5728,
      "mural": 5729,
      "partidos": 5730,
      "cua": 5731,
      "antiguas": 5732,
      "cumplimiento": 5733,
      "imagen": 5734,
      "Mol": 5735,
      "##adolid": 5736,
      "oído": 5737,
      "escuadra": 5738,
      "##unta": 5739,
      "través": 5740,
      "##jestad": 5741,
      "cuel": 5742,
      "confun": 5743,
      "##ÍA": 5744,
      "##rie": 5745,
      "pareci": 5746,
      "humanidad": 5747,
      "Setiembre": 5748,
      "alem": 5749,
      "vió": 5750,
      "##licación": 5751,
      "modi": 5752,
      "dignidad": 5753,
      "período": 5754,
      "sale": 5755,
      "##cro": 5756,
      "NO": 5757,
      "entendi": 5758,
      "fortaleza": 5759,
      "depos": 5760,
      "ferro": 5761,
      "porvenir": 5762,
      "excep": 5763,
      "Fuer": 5764,
      "##ídos": 5765,
      "##ventud": 5766,
      "##eos": 5767,
      "##vados": 5768,
      "cria": 5769,
      "##ERA": 5770,
      "lon": 5771,
      "Torre": 5772,
      "satisfe": 5773,
      "ustedes": 5774,
      "##tente": 5775,
      "llevando": 5776,
      "##cedentes": 5777,
      "agosto": 5778,
      "inútil": 5779,
      "acome": 5780,
      "##vir": 5781,
      "##usia": 5782,
      "##pel": 5783,
      "##IV": 5784,
      "##pole": 5785,
      "refiere": 5786,
      "Costa": 5787,
      "reca": 5788,
      "##inda": 5789,
      "líneas": 5790,
      "##grada": 5791,
      "quie": 5792,
      "pregunta": 5793,
      "Guerra": 5794,
      "libres": 5795,
      "liberal": 5796,
      "cama": 5797,
      "##rense": 5798,
      "Cabildo": 5799,
      "secretario": 5800,
      "sufrir": 5801,
      "Salvador": 5802,
      "##vier": 5803,
      "consist": 5804,
      "##ést": 5805,
      "##ombre": 5806,
      "##ército": 5807,
      "expresión": 5808,
      "##abil": 5809,
      "direc": 5810,
      "verde": 5811,
      "##entaba": 5812,
      "sesenta": 5813,
      "jurisdicción": 5814,
      "asegurar": 5815,
      "Mendoza": 5816,
      "sabido": 5817,
      "vieja": 5818,
      "pel": 5819,
      "alas": 5820,
      "frutos": 5821,
      "inform": 5822,
      "satisfa": 5823,
      "hue": 5824,
      "##gip": 5825,
      "##édito": 5826,
      "##ang": 5827,
      "Cristóbal": 5828,
      "animal": 5829,
      "confi": 5830,
      "respons": 5831,
      "##arlos": 5832,
      "plantas": 5833,
      "cordillera": 5834,
      "grito": 5835,
      "CH": 5836,
      "##imen": 5837,
      "políticos": 5838,
      "Ramón": 5839,
      "##raban": 5840,
      "vener": 5841,
      "escena": 5842,
      "obis": 5843,
      "##hos": 5844,
      "hayan": 5845,
      "##ítulos": 5846,
      "juventud": 5847,
      "horror": 5848,
      "lector": 5849,
      "##dría": 5850,
      "##enca": 5851,
      "Conf": 5852,
      "##mes": 5853,
      "##pal": 5854,
      "##CIONES": 5855,
      "guard": 5856,
      "##iti": 5857,
      "impro": 5858,
      "existen": 5859,
      "##viesen": 5860,
      "fec": 5861,
      "gefe": 5862,
      "Vd": 5863,
      "sucedió": 5864,
      "infantería": 5865,
      "Mun": 5866,
      "##izados": 5867,
      "extensión": 5868,
      "##EM": 5869,
      "tribus": 5870,
      "Sant": 5871,
      "justo": 5872,
      "considerable": 5873,
      "Rafael": 5874,
      "##eco": 5875,
      "deman": 5876,
      "dispuesto": 5877,
      "##iller": 5878,
      "tiran": 5879,
      "##teras": 5880,
      "halló": 5881,
      "##trando": 5882,
      "central": 5883,
      "prisión": 5884,
      "dura": 5885,
      "siguiendo": 5886,
      "##drá": 5887,
      "facultades": 5888,
      "camin": 5889,
      "mantener": 5890,
      "##ela": 5891,
      "diver": 5892,
      "esfuerzo": 5893,
      "continuar": 5894,
      "comision": 5895,
      "fruto": 5896,
      "capri": 5897,
      "mejic": 5898,
      "Esc": 5899,
      "##taña": 5900,
      "inn": 5901,
      "##inch": 5902,
      "##rillo": 5903,
      "##tillas": 5904,
      "Comandante": 5905,
      "negocio": 5906,
      "abundancia": 5907,
      "##taría": 5908,
      "chil": 5909,
      "##cano": 5910,
      "##gor": 5911,
      "altos": 5912,
      "##ibilidad": 5913,
      "##yes": 5914,
      "##glesias": 5915,
      "fís": 5916,
      "disposiciones": 5917,
      "##ficas": 5918,
      "cál": 5919,
      "##reza": 5920,
      "##gió": 5921,
      "inferior": 5922,
      "Indios": 5923,
      "##rores": 5924,
      "graves": 5925,
      "cubierto": 5926,
      "record": 5927,
      "monas": 5928,
      "Doc": 5929,
      "blo": 5930,
      "##dí": 5931,
      "perdon": 5932,
      "59": 5933,
      "Sala": 5934,
      "##mada": 5935,
      "##amentos": 5936,
      "malo": 5937,
      "##pio": 5938,
      "modes": 5939,
      "esperanzas": 5940,
      "##zadas": 5941,
      "altas": 5942,
      "ventajas": 5943,
      "vasal": 5944,
      "Valladolid": 5945,
      "desas": 5946,
      "##crito": 5947,
      "Secre": 5948,
      "leal": 5949,
      "corto": 5950,
      "grandeza": 5951,
      "conmigo": 5952,
      "retirada": 5953,
      "##erse": 5954,
      "julio": 5955,
      "##ueva": 5956,
      "republic": 5957,
      "Avi": 5958,
      "famos": 5959,
      "referido": 5960,
      "comien": 5961,
      "contiene": 5962,
      "##nidad": 5963,
      "Concepción": 5964,
      "Orden": 5965,
      "gab": 5966,
      "onde": 5967,
      "##pro": 5968,
      "vano": 5969,
      "constitución": 5970,
      "indispens": 5971,
      "cárcel": 5972,
      "Está": 5973,
      "perf": 5974,
      "##cula": 5975,
      "alegre": 5976,
      "prece": 5977,
      "fundad": 5978,
      "refor": 5979,
      "testigo": 5980,
      "espectá": 5981,
      "conti": 5982,
      "agre": 5983,
      "menester": 5984,
      "##ay": 5985,
      "prima": 5986,
      "Bogotá": 5987,
      "##abas": 5988,
      "cerem": 5989,
      "ricos": 5990,
      "prime": 5991,
      "cón": 5992,
      "resulta": 5993,
      "quizá": 5994,
      "##bor": 5995,
      "##ement": 5996,
      "perfectamente": 5997,
      "##pulos": 5998,
      "poderoso": 5999,
      "resultados": 6000,
      "amb": 6001,
      "hablando": 6002,
      "apoyo": 6003,
      "##ómez": 6004,
      "acababa": 6005,
      "reserv": 6006,
      "177": 6007,
      "insign": 6008,
      "##ándolos": 6009,
      "francesa": 6010,
      "copia": 6011,
      "##izó": 6012,
      "ponerse": 6013,
      "emba": 6014,
      "incom": 6015,
      "famoso": 6016,
      "aqui": 6017,
      "fusil": 6018,
      "aparece": 6019,
      "##uta": 6020,
      "dí": 6021,
      "##RAN": 6022,
      "progreso": 6023,
      "vestido": 6024,
      "##bación": 6025,
      "Paraguay": 6026,
      "pic": 6027,
      "patr": 6028,
      "inmensa": 6029,
      "supremo": 6030,
      "comunica": 6031,
      "puertos": 6032,
      "azo": 6033,
      "fero": 6034,
      "cens": 6035,
      "americanos": 6036,
      "ris": 6037,
      "envuel": 6038,
      "apun": 6039,
      "CAR": 6040,
      "Herrera": 6041,
      "sonri": 6042,
      "##genas": 6043,
      "enero": 6044,
      "debido": 6045,
      "ensa": 6046,
      "sorpresa": 6047,
      "dejaba": 6048,
      "crimin": 6049,
      "Dist": 6050,
      "pú": 6051,
      "presa": 6052,
      "##rarse": 6053,
      "mila": 6054,
      "carb": 6055,
      "ascen": 6056,
      "pidió": 6057,
      "negra": 6058,
      "brillante": 6059,
      "persuad": 6060,
      "##idel": 6061,
      "querer": 6062,
      "cion": 6063,
      "fabri": 6064,
      "##gué": 6065,
      "produce": 6066,
      "cobre": 6067,
      "defini": 6068,
      "ocasiones": 6069,
      "reunión": 6070,
      "Ponte": 6071,
      "Corte": 6072,
      "odio": 6073,
      "prem": 6074,
      "orgullo": 6075,
      "procedi": 6076,
      "Gómez": 6077,
      "152": 6078,
      "ejecución": 6079,
      "médico": 6080,
      "hogar": 6081,
      "empleados": 6082,
      "##iu": 6083,
      "##abes": 6084,
      "Guar": 6085,
      "Med": 6086,
      "##dase": 6087,
      "gun": 6088,
      "salv": 6089,
      "75": 6090,
      "noches": 6091,
      "sión": 6092,
      "celo": 6093,
      "pluma": 6094,
      "##áronse": 6095,
      "##óst": 6096,
      "##ensas": 6097,
      "##chez": 6098,
      "consigo": 6099,
      "dificultad": 6100,
      "esperaba": 6101,
      "cano": 6102,
      "Ál": 6103,
      "##éano": 6104,
      "conmo": 6105,
      "virtudes": 6106,
      "Lorenzo": 6107,
      "servid": 6108,
      "##enza": 6109,
      "fundación": 6110,
      "prefer": 6111,
      "Ej": 6112,
      "##pera": 6113,
      "cayó": 6114,
      "##icía": 6115,
      "llevan": 6116,
      "hablaba": 6117,
      "error": 6118,
      "vil": 6119,
      "155": 6120,
      "fla": 6121,
      "Rodrigo": 6122,
      "creyó": 6123,
      "Agustín": 6124,
      "##mol": 6125,
      "motivos": 6126,
      "pis": 6127,
      "ór": 6128,
      "Cés": 6129,
      "luna": 6130,
      "Burgos": 6131,
      "marzo": 6132,
      "huer": 6133,
      "ñas": 6134,
      "##cau": 6135,
      "original": 6136,
      "escon": 6137,
      "marchar": 6138,
      "baj": 6139,
      "##osamente": 6140,
      "##gao": 6141,
      "terror": 6142,
      "labr": 6143,
      "##IT": 6144,
      "Dire": 6145,
      "##eso": 6146,
      "Reina": 6147,
      "despren": 6148,
      "empeño": 6149,
      "llevado": 6150,
      "impedir": 6151,
      "armon": 6152,
      "razon": 6153,
      "obtener": 6154,
      "absoluta": 6155,
      "torn": 6156,
      "CAS": 6157,
      "rel": 6158,
      "ministerio": 6159,
      "##álo": 6160,
      "Ol": 6161,
      "Vel": 6162,
      "LIB": 6163,
      "ital": 6164,
      "ropa": 6165,
      "capitanes": 6166,
      "espon": 6167,
      "##CH": 6168,
      "masa": 6169,
      "belleza": 6170,
      "##US": 6171,
      "inconven": 6172,
      "cañones": 6173,
      "Pad": 6174,
      "frecuencia": 6175,
      "##áticas": 6176,
      "prosper": 6177,
      "solemne": 6178,
      "##boa": 6179,
      "Mem": 6180,
      "##chada": 6181,
      "bres": 6182,
      "Just": 6183,
      "mus": 6184,
      "disper": 6185,
      "pasando": 6186,
      "circunstancia": 6187,
      "próximo": 6188,
      "##tamos": 6189,
      "Emperador": 6190,
      "##gios": 6191,
      "once": 6192,
      "colonias": 6193,
      "resta": 6194,
      "doble": 6195,
      "defec": 6196,
      "153": 6197,
      "Neg": 6198,
      "##uró": 6199,
      "fuente": 6200,
      "parecen": 6201,
      "aprob": 6202,
      "tono": 6203,
      "400": 6204,
      "##cra": 6205,
      "glo": 6206,
      "154": 6207,
      "espar": 6208,
      "empu": 6209,
      "talento": 6210,
      "Sim": 6211,
      "desf": 6212,
      "serie": 6213,
      "##INA": 6214,
      "nov": 6215,
      "rocas": 6216,
      "limit": 6217,
      "ef": 6218,
      "detrás": 6219,
      "saben": 6220,
      "guerras": 6221,
      "##andro": 6222,
      "monarca": 6223,
      "tranquil": 6224,
      "##sen": 6225,
      "subir": 6226,
      "Había": 6227,
      "acaba": 6228,
      "##tla": 6229,
      "disminu": 6230,
      "##jados": 6231,
      "obligado": 6232,
      "Má": 6233,
      "##lando": 6234,
      "##ulto": 6235,
      "Guz": 6236,
      "protección": 6237,
      "ee": 6238,
      "legíti": 6239,
      "set": 6240,
      "importa": 6241,
      "Comp": 6242,
      "##VA": 6243,
      "ejercicio": 6244,
      "Durante": 6245,
      "##izarro": 6246,
      "víveres": 6247,
      "observar": 6248,
      "inmenso": 6249,
      "suficiente": 6250,
      "octubre": 6251,
      "investi": 6252,
      "inclin": 6253,
      "Ama": 6254,
      "pasiones": 6255,
      "nivel": 6256,
      "documento": 6257,
      "argent": 6258,
      "sazón": 6259,
      "añadió": 6260,
      "##ázquez": 6261,
      "Compañ": 6262,
      "##lamos": 6263,
      "mandaba": 6264,
      "planta": 6265,
      "Hernán": 6266,
      "hospital": 6267,
      "##rente": 6268,
      "veinti": 6269,
      "varas": 6270,
      "HISTÓ": 6271,
      "##eira": 6272,
      "##amba": 6273,
      "##tiende": 6274,
      "Sac": 6275,
      "rei": 6276,
      "promo": 6277,
      "ug": 6278,
      "práctica": 6279,
      "muros": 6280,
      "##izas": 6281,
      "dixo": 6282,
      "injust": 6283,
      "61": 6284,
      "castigo": 6285,
      "riv": 6286,
      "##rones": 6287,
      "Orense": 6288,
      "antigü": 6289,
      "concil": 6290,
      "desorden": 6291,
      "##raron": 6292,
      "traje": 6293,
      "juntos": 6294,
      "tembl": 6295,
      "vinieron": 6296,
      "jesu": 6297,
      "descubrir": 6298,
      "dibu": 6299,
      "entera": 6300,
      "cubierta": 6301,
      "equivo": 6302,
      "##fera": 6303,
      "aguar": 6304,
      "65": 6305,
      "aviso": 6306,
      "visitar": 6307,
      "alo": 6308,
      "##chó": 6309,
      "estudios": 6310,
      "##gestad": 6311,
      "arru": 6312,
      "lados": 6313,
      "emig": 6314,
      "vid": 6315,
      "instrucción": 6316,
      "pusieron": 6317,
      "misa": 6318,
      "Venezuela": 6319,
      "quit": 6320,
      "##IG": 6321,
      "vienen": 6322,
      "##amen": 6323,
      "periódico": 6324,
      "regiones": 6325,
      "veo": 6326,
      "Hacienda": 6327,
      "marin": 6328,
      "prepara": 6329,
      "cabezas": 6330,
      "Pam": 6331,
      "gritos": 6332,
      "##tían": 6333,
      "Tú": 6334,
      "160": 6335,
      "Más": 6336,
      "nerv": 6337,
      "visit": 6338,
      "##cr": 6339,
      "##RES": 6340,
      "bordo": 6341,
      "HISTÓRI": 6342,
      "##mita": 6343,
      "até": 6344,
      "##udos": 6345,
      "sacrific": 6346,
      "juez": 6347,
      "puedan": 6348,
      "Gonzalo": 6349,
      "profunda": 6350,
      "permit": 6351,
      "arquite": 6352,
      "##drí": 6353,
      "qua": 6354,
      "procu": 6355,
      "189": 6356,
      "velo": 6357,
      "muito": 6358,
      "##tt": 6359,
      "recordar": 6360,
      "##umer": 6361,
      "62": 6362,
      "##tea": 6363,
      "versos": 6364,
      "tama": 6365,
      "ries": 6366,
      "manifies": 6367,
      "enorme": 6368,
      "terra": 6369,
      "indígenas": 6370,
      "##dados": 6371,
      "preso": 6372,
      "necesidades": 6373,
      "junio": 6374,
      "##ribles": 6375,
      "rever": 6376,
      "describ": 6377,
      "##umen": 6378,
      "fatal": 6379,
      "bis": 6380,
      "religioso": 6381,
      "vecino": 6382,
      "alcalde": 6383,
      "gig": 6384,
      "sucede": 6385,
      "enfermedad": 6386,
      "##tienen": 6387,
      "moles": 6388,
      "agreg": 6389,
      "exci": 6390,
      "abor": 6391,
      "cacique": 6392,
      "##has": 6393,
      "Gas": 6394,
      "necesita": 6395,
      "##iri": 6396,
      "café": 6397,
      "##igue": 6398,
      "destac": 6399,
      "##jara": 6400,
      "muestra": 6401,
      "##mó": 6402,
      "ruina": 6403,
      "mayoría": 6404,
      "irri": 6405,
      "##LE": 6406,
      "regal": 6407,
      "patriotismo": 6408,
      "pasión": 6409,
      "inici": 6410,
      "##inarios": 6411,
      "Ló": 6412,
      "letra": 6413,
      "JU": 6414,
      "peor": 6415,
      "##mado": 6416,
      "sangri": 6417,
      "##eciendo": 6418,
      "dispar": 6419,
      "guarda": 6420,
      "Er": 6421,
      "##ificación": 6422,
      "##ában": 6423,
      "imaginación": 6424,
      "Rodrí": 6425,
      "##ósitos": 6426,
      "##jal": 6427,
      "elle": 6428,
      "##entamente": 6429,
      "testimonio": 6430,
      "##ienda": 6431,
      "fas": 6432,
      "material": 6433,
      "##ze": 6434,
      "herido": 6435,
      "horrible": 6436,
      "emin": 6437,
      "Vill": 6438,
      "funcion": 6439,
      "Mos": 6440,
      "continente": 6441,
      "##MA": 6442,
      "Var": 6443,
      "##entación": 6444,
      "proceder": 6445,
      "ofrecer": 6446,
      "magist": 6447,
      "##iras": 6448,
      "estamos": 6449,
      "Toda": 6450,
      "eres": 6451,
      "voto": 6452,
      "ás": 6453,
      "vigil": 6454,
      "colegio": 6455,
      "##ivas": 6456,
      "Ast": 6457,
      "seguido": 6458,
      "cír": 6459,
      "##ijo": 6460,
      "##tuosa": 6461,
      "hai": 6462,
      "discip": 6463,
      "provo": 6464,
      "papeles": 6465,
      "alb": 6466,
      "generalmente": 6467,
      "conversación": 6468,
      "pobl": 6469,
      "educación": 6470,
      "sujuzg": 6471,
      "pasaron": 6472,
      "ester": 6473,
      "Pos": 6474,
      "magní": 6475,
      "miseria": 6476,
      "actitud": 6477,
      "dominio": 6478,
      "jornada": 6479,
      "obscu": 6480,
      "##cara": 6481,
      "abrió": 6482,
      "here": 6483,
      "mirar": 6484,
      "cuello": 6485,
      "Cristo": 6486,
      "ínti": 6487,
      "##ALES": 6488,
      "tim": 6489,
      "curiosidad": 6490,
      "cias": 6491,
      "##ume": 6492,
      "aci": 6493,
      "condes": 6494,
      "##ADA": 6495,
      "soberano": 6496,
      "##han": 6497,
      "subl": 6498,
      "ger": 6499,
      "rentas": 6500,
      "pago": 6501,
      "obse": 6502,
      "##endas": 6503,
      "reprodu": 6504,
      "invad": 6505,
      "Ir": 6506,
      "iguales": 6507,
      "guardar": 6508,
      "significa": 6509,
      "dispuso": 6510,
      "vuelto": 6511,
      "##ille": 6512,
      "paredes": 6513,
      "valiente": 6514,
      "posi": 6515,
      "Gre": 6516,
      "tranquilidad": 6517,
      "DO": 6518,
      "##ÑA": 6519,
      "Reino": 6520,
      "Cate": 6521,
      "útil": 6522,
      "##uestra": 6523,
      "productos": 6524,
      "##viendo": 6525,
      "##ilas": 6526,
      "silla": 6527,
      "preven": 6528,
      "arreba": 6529,
      "blancos": 6530,
      "quo": 6531,
      "invierno": 6532,
      "cib": 6533,
      "bendi": 6534,
      "##goza": 6535,
      "estación": 6536,
      "derrota": 6537,
      "##aré": 6538,
      "formación": 6539,
      "Cartagena": 6540,
      "publicó": 6541,
      "energía": 6542,
      "rap": 6543,
      "verdaderamente": 6544,
      "##cible": 6545,
      "Eso": 6546,
      "Lin": 6547,
      "inmor": 6548,
      "ang": 6549,
      "ampl": 6550,
      "retro": 6551,
      "digna": 6552,
      "63": 6553,
      "##reo": 6554,
      "##renta": 6555,
      "pensaba": 6556,
      "prolon": 6557,
      "laguna": 6558,
      "pál": 6559,
      "##lano": 6560,
      "discre": 6561,
      "fácilmente": 6562,
      "administra": 6563,
      "Cada": 6564,
      "aves": 6565,
      "minutos": 6566,
      "quedan": 6567,
      "asim": 6568,
      "Nar": 6569,
      "##pois": 6570,
      "pací": 6571,
      "##amanca": 6572,
      "prensa": 6573,
      "##cales": 6574,
      "persecu": 6575,
      "redon": 6576,
      "##menes": 6577,
      "fábrica": 6578,
      "acor": 6579,
      "éstas": 6580,
      "Yuca": 6581,
      "trato": 6582,
      "Hoy": 6583,
      "fur": 6584,
      "figuras": 6585,
      "176": 6586,
      "##dario": 6587,
      "lei": 6588,
      "mode": 6589,
      "GU": 6590,
      "vía": 6591,
      "Anna": 6592,
      "doctrina": 6593,
      "aho": 6594,
      "escritor": 6595,
      "fér": 6596,
      "sier": 6597,
      "mento": 6598,
      "##DE": 6599,
      "comarca": 6600,
      "Tol": 6601,
      "##ude": 6602,
      "propias": 6603,
      "despues": 6604,
      "longitud": 6605,
      "Rodríguez": 6606,
      "##lera": 6607,
      "##gem": 6608,
      "Ella": 6609,
      "##lina": 6610,
      "vist": 6611,
      "bahía": 6612,
      "##rilla": 6613,
      "encontra": 6614,
      "Cla": 6615,
      "despacho": 6616,
      "vencer": 6617,
      "##óvil": 6618,
      "Álvar": 6619,
      "campamento": 6620,
      "marina": 6621,
      "oposición": 6622,
      "hará": 6623,
      "rue": 6624,
      "producir": 6625,
      "ilum": 6626,
      "superiores": 6627,
      "Colon": 6628,
      "beneficio": 6629,
      "adu": 6630,
      "contener": 6631,
      "lá": 6632,
      "##vida": 6633,
      "residencia": 6634,
      "perm": 6635,
      "escritores": 6636,
      "excl": 6637,
      "##ledad": 6638,
      "##cua": 6639,
      "Magdal": 6640,
      "Ban": 6641,
      "##cioso": 6642,
      "beb": 6643,
      "notar": 6644,
      "latitud": 6645,
      "Napole": 6646,
      "López": 6647,
      "Amb": 6648,
      "Joaquín": 6649,
      "##sal": 6650,
      "##quias": 6651,
      "exal": 6652,
      "Santan": 6653,
      "observaciones": 6654,
      "espiritu": 6655,
      "##bian": 6656,
      "desarrollo": 6657,
      "venía": 6658,
      "respuesta": 6659,
      "##visión": 6660,
      "Poco": 6661,
      "Martínez": 6662,
      "cump": 6663,
      "pruebas": 6664,
      "enfermo": 6665,
      "##vamente": 6666,
      "espedicion": 6667,
      "pudiese": 6668,
      "llo": 6669,
      "Vamos": 6670,
      "individuo": 6671,
      "68": 6672,
      "Ac": 6673,
      "departamento": 6674,
      "Palacio": 6675,
      "arma": 6676,
      "PRO": 6677,
      "Rosa": 6678,
      "##ellos": 6679,
      "diciembre": 6680,
      "vari": 6681,
      "encargado": 6682,
      "debo": 6683,
      "Algunos": 6684,
      "##ederación": 6685,
      "tiro": 6686,
      "reda": 6687,
      "ayer": 6688,
      "vela": 6689,
      "consol": 6690,
      "##vista": 6691,
      "##ades": 6692,
      "organización": 6693,
      "Muer": 6694,
      "enér": 6695,
      "humilde": 6696,
      "compuesta": 6697,
      "##pin": 6698,
      "resistir": 6699,
      "refu": 6700,
      "aproxim": 6701,
      "Campo": 6702,
      "tren": 6703,
      "##erales": 6704,
      "presentes": 6705,
      "doscientos": 6706,
      "riquezas": 6707,
      "ara": 6708,
      "admiración": 6709,
      "##ERN": 6710,
      "nacido": 6711,
      "desl": 6712,
      "##ELA": 6713,
      "comprende": 6714,
      "otor": 6715,
      "Londres": 6716,
      "Fernan": 6717,
      "abierto": 6718,
      "perteneci": 6719,
      "Zaragoza": 6720,
      "perju": 6721,
      "##gamos": 6722,
      "##gura": 6723,
      "perio": 6724,
      "emo": 6725,
      "acompañado": 6726,
      "quinientos": 6727,
      "políticas": 6728,
      "romanos": 6729,
      "##uros": 6730,
      "vale": 6731,
      "reba": 6732,
      "decirse": 6733,
      "##lao": 6734,
      "interesante": 6735,
      "cose": 6736,
      "torno": 6737,
      "débil": 6738,
      "cient": 6739,
      "enviado": 6740,
      "##zones": 6741,
      "##vora": 6742,
      "##trio": 6743,
      "pudieran": 6744,
      "mina": 6745,
      "piedad": 6746,
      "##laron": 6747,
      "ciudadano": 6748,
      "acontecimientos": 6749,
      "##legios": 6750,
      "conviene": 6751,
      "64": 6752,
      "rigor": 6753,
      "Nacional": 6754,
      "##arán": 6755,
      "unif": 6756,
      "aconse": 6757,
      "##lantes": 6758,
      "##inato": 6759,
      "llevaban": 6760,
      "pieza": 6761,
      "Hol": 6762,
      "disim": 6763,
      "Fo": 6764,
      "##umas": 6765,
      "##empla": 6766,
      "##áticos": 6767,
      "necesaria": 6768,
      "sentía": 6769,
      "##jarse": 6770,
      "Magdalena": 6771,
      "arco": 6772,
      "##ux": 6773,
      "Hon": 6774,
      "Prim": 6775,
      "151": 6776,
      "tempes": 6777,
      "impresión": 6778,
      "arroyo": 6779,
      "Men": 6780,
      "##ith": 6781,
      "matrimonio": 6782,
      "oficios": 6783,
      "arena": 6784,
      "patio": 6785,
      "debemos": 6786,
      "grados": 6787,
      "##laba": 6788,
      "suas": 6789,
      "Univers": 6790,
      "##érida": 6791,
      "##tarle": 6792,
      "abandonar": 6793,
      "##mite": 6794,
      "Dipu": 6795,
      "##cero": 6796,
      "##tará": 6797,
      "pués": 6798,
      "compla": 6799,
      "bella": 6800,
      "españolas": 6801,
      "##éc": 6802,
      "compañero": 6803,
      "eng": 6804,
      "157": 6805,
      "fiestas": 6806,
      "qne": 6807,
      "fuga": 6808,
      "crédito": 6809,
      "hablado": 6810,
      "suele": 6811,
      "tambien": 6812,
      "Tur": 6813,
      "mero": 6814,
      "##ditos": 6815,
      "##icioso": 6816,
      "ald": 6817,
      "chos": 6818,
      "grupos": 6819,
      "LE": 6820,
      "hun": 6821,
      "peti": 6822,
      "156": 6823,
      "dama": 6824,
      "representación": 6825,
      "tribunal": 6826,
      "descubierto": 6827,
      "bó": 6828,
      "##gara": 6829,
      "Mariano": 6830,
      "funciones": 6831,
      "empres": 6832,
      "poesía": 6833,
      "habitación": 6834,
      "ejércitos": 6835,
      "inex": 6836,
      "Muy": 6837,
      "rebeldes": 6838,
      "desesper": 6839,
      "Jor": 6840,
      "consent": 6841,
      "largas": 6842,
      "vuelve": 6843,
      "movimientos": 6844,
      "perpetu": 6845,
      "obser": 6846,
      "recuerdos": 6847,
      "Lis": 6848,
      "tocar": 6849,
      "Vo": 6850,
      "quebr": 6851,
      "discurso": 6852,
      "sabio": 6853,
      "##bios": 6854,
      "febrero": 6855,
      "dedu": 6856,
      "venia": 6857,
      "##licó": 6858,
      "##aderos": 6859,
      "cuch": 6860,
      "kilóme": 6861,
      "Pizarro": 6862,
      "toca": 6863,
      "reno": 6864,
      "tradición": 6865,
      "edific": 6866,
      "##triz": 6867,
      "MÉ": 6868,
      "dipl": 6869,
      "acá": 6870,
      "culpa": 6871,
      "##alla": 6872,
      "coro": 6873,
      "extranjeros": 6874,
      "Are": 6875,
      "IX": 6876,
      "sacu": 6877,
      "Príncipe": 6878,
      "##egas": 6879,
      "playa": 6880,
      "flu": 6881,
      "##tanto": 6882,
      "##arra": 6883,
      "espectáculo": 6884,
      "##tamen": 6885,
      "Oeste": 6886,
      "##eis": 6887,
      "##bito": 6888,
      "quieren": 6889,
      "XVI": 6890,
      "Pac": 6891,
      "jud": 6892,
      "oír": 6893,
      "acredi": 6894,
      "Napoleón": 6895,
      "Santander": 6896,
      "##irá": 6897,
      "##dencias": 6898,
      "Caball": 6899,
      "liberales": 6900,
      "corresponde": 6901,
      "##esas": 6902,
      "##anía": 6903,
      "69": 6904,
      "exterior": 6905,
      "Castillo": 6906,
      "##tirse": 6907,
      "cere": 6908,
      "##ciles": 6909,
      "##inosa": 6910,
      "Cabo": 6911,
      "creía": 6912,
      "final": 6913,
      "conjunto": 6914,
      "contaba": 6915,
      "súb": 6916,
      "ría": 6917,
      "Dic": 6918,
      "alturas": 6919,
      "fom": 6920,
      "wh": 6921,
      "om": 6922,
      "caudal": 6923,
      "juzgar": 6924,
      "##gida": 6925,
      "espera": 6926,
      "marques": 6927,
      "salón": 6928,
      "fab": 6929,
      "judi": 6930,
      "penas": 6931,
      "supuesto": 6932,
      "noviembre": 6933,
      "policía": 6934,
      "##poli": 6935,
      "Tla": 6936,
      "##bran": 6937,
      "resuelto": 6938,
      "exclus": 6939,
      "crimen": 6940,
      "últimas": 6941,
      "occidental": 6942,
      "The": 6943,
      "llano": 6944,
      "Compañía": 6945,
      "##dito": 6946,
      "Supre": 6947,
      "##tum": 6948,
      "periódicos": 6949,
      "socorro": 6950,
      "audiencia": 6951,
      "Uru": 6952,
      "##aje": 6953,
      "Prin": 6954,
      "66": 6955,
      "Flores": 6956,
      "Sán": 6957,
      "##entando": 6958,
      "##íso": 6959,
      "Mira": 6960,
      "##teles": 6961,
      "ocasion": 6962,
      "precisamente": 6963,
      "universal": 6964,
      "reempla": 6965,
      "trabaj": 6966,
      "aust": 6967,
      "incorpor": 6968,
      "reac": 6969,
      "patriotas": 6970,
      "caba": 6971,
      "##unció": 6972,
      "tipo": 6973,
      "sabia": 6974,
      "grad": 6975,
      "navios": 6976,
      "estados": 6977,
      "tuv": 6978,
      "tomaron": 6979,
      "##gia": 6980,
      "##tzin": 6981,
      "simpa": 6982,
      "Rivera": 6983,
      "lenguaje": 6984,
      "entregar": 6985,
      "##tást": 6986,
      "##gata": 6987,
      "regist": 6988,
      "Galicia": 6989,
      "confer": 6990,
      "67": 6991,
      "divid": 6992,
      "obediencia": 6993,
      "sentencia": 6994,
      "sacrificio": 6995,
      "##gui": 6996,
      "setiembre": 6997,
      "lecho": 6998,
      "##deros": 6999,
      "empie": 7000,
      "##ork": 7001,
      "##terrán": 7002,
      "cuantas": 7003,
      "vé": 7004,
      "Valdi": 7005,
      "##turb": 7006,
      "enamor": 7007,
      "calma": 7008,
      "Cuán": 7009,
      "catedral": 7010,
      "desierto": 7011,
      "admirable": 7012,
      "##ulos": 7013,
      "##quen": 7014,
      "distra": 7015,
      "descubrimiento": 7016,
      "aventur": 7017,
      "públicas": 7018,
      "Án": 7019,
      "##UN": 7020,
      "##adier": 7021,
      "aso": 7022,
      "extraño": 7023,
      "agricultura": 7024,
      "caracteres": 7025,
      "bierno": 7026,
      "sombrero": 7027,
      "licencia": 7028,
      "anu": 7029,
      "idioma": 7030,
      "lum": 7031,
      "##zuela": 7032,
      "##acan": 7033,
      "espantos": 7034,
      "fenóm": 7035,
      "consign": 7036,
      "##AY": 7037,
      "##ilio": 7038,
      "viven": 7039,
      "##ife": 7040,
      "##darios": 7041,
      "gros": 7042,
      "##arde": 7043,
      "Trib": 7044,
      "mision": 7045,
      "VIII": 7046,
      "Contin": 7047,
      "auda": 7048,
      "cristian": 7049,
      "##hi": 7050,
      "comida": 7051,
      "mirando": 7052,
      "feder": 7053,
      "pintores": 7054,
      "Rosas": 7055,
      "##AB": 7056,
      "alli": 7057,
      "infeliz": 7058,
      "##cáo": 7059,
      "llegaba": 7060,
      "cariño": 7061,
      "valles": 7062,
      "dada": 7063,
      "bello": 7064,
      "lluvia": 7065,
      "frío": 7066,
      "nacionales": 7067,
      "conocía": 7068,
      "hice": 7069,
      "Teniente": 7070,
      "pudiendo": 7071,
      "cristiana": 7072,
      "##rador": 7073,
      "158": 7074,
      "atacar": 7075,
      "##ñó": 7076,
      "verti": 7077,
      "abundante": 7078,
      "##cita": 7079,
      "72": 7080,
      "##inados": 7081,
      "grav": 7082,
      "declaró": 7083,
      "ajust": 7084,
      "aren": 7085,
      "dientes": 7086,
      "##ple": 7087,
      "victor": 7088,
      "oyó": 7089,
      "Quin": 7090,
      "darse": 7091,
      "Salamanca": 7092,
      "vestidos": 7093,
      "##edades": 7094,
      "americano": 7095,
      "turb": 7096,
      "intención": 7097,
      "##ridos": 7098,
      "entero": 7099,
      "##DI": 7100,
      "paseo": 7101,
      "##ensión": 7102,
      "hubiesen": 7103,
      "sonrisa": 7104,
      "##abia": 7105,
      "falle": 7106,
      "puro": 7107,
      "frontera": 7108,
      "alcanzar": 7109,
      "particip": 7110,
      "##hon": 7111,
      "tel": 7112,
      "ocupado": 7113,
      "sól": 7114,
      "pira": 7115,
      "##cillo": 7116,
      "navegación": 7117,
      "propa": 7118,
      "presentar": 7119,
      "ausencia": 7120,
      "Uno": 7121,
      "hiciese": 7122,
      "Tomás": 7123,
      "Argent": 7124,
      "opiniones": 7125,
      "consecuencias": 7126,
      "ii": 7127,
      "sustitu": 7128,
      "Cuzco": 7129,
      "Todas": 7130,
      "Br": 7131,
      "175": 7132,
      "char": 7133,
      "##ivia": 7134,
      "reunir": 7135,
      "##gueses": 7136,
      "Oro": 7137,
      "##ezca": 7138,
      "nú": 7139,
      "##idí": 7140,
      "trabajar": 7141,
      "resplan": 7142,
      "caza": 7143,
      "vaci": 7144,
      "quitar": 7145,
      "plano": 7146,
      "produjo": 7147,
      "arist": 7148,
      "habiéndose": 7149,
      "plazas": 7150,
      "cron": 7151,
      "##eroso": 7152,
      "della": 7153,
      "filas": 7154,
      "ore": 7155,
      "facilidad": 7156,
      "iglesias": 7157,
      "podian": 7158,
      "impa": 7159,
      "instrucciones": 7160,
      "intento": 7161,
      "##peración": 7162,
      "##cemos": 7163,
      "zo": 7164,
      "trataba": 7165,
      "venganza": 7166,
      "estrecho": 7167,
      "instituciones": 7168,
      "##damente": 7169,
      "mares": 7170,
      "signific": 7171,
      "juego": 7172,
      "##sis": 7173,
      "##árse": 7174,
      "argu": 7175,
      "presos": 7176,
      "indud": 7177,
      "##mamente": 7178,
      "conocida": 7179,
      "inmediato": 7180,
      "71": 7181,
      "sao": 7182,
      "necesarios": 7183,
      "##obo": 7184,
      "ayuda": 7185,
      "##rimir": 7186,
      "Ejército": 7187,
      "sobres": 7188,
      "aumento": 7189,
      "##ernos": 7190,
      "##dice": 7191,
      "##deras": 7192,
      "clam": 7193,
      "##dadas": 7194,
      "Pontevedra": 7195,
      "fueran": 7196,
      "##ariamente": 7197,
      "destruir": 7198,
      "##nto": 7199,
      "moneda": 7200,
      "159": 7201,
      "templos": 7202,
      "espalda": 7203,
      "nobleza": 7204,
      "ríos": 7205,
      "distante": 7206,
      "Quito": 7207,
      "salvo": 7208,
      "fantas": 7209,
      "Oli": 7210,
      "estens": 7211,
      "sacrificios": 7212,
      "sabemos": 7213,
      "##gulo": 7214,
      "acciones": 7215,
      "melan": 7216,
      "Nin": 7217,
      "Diaz": 7218,
      "merece": 7219,
      "ordinario": 7220,
      "vosotros": 7221,
      "esm": 7222,
      "vuestros": 7223,
      "seguía": 7224,
      "artíst": 7225,
      "Duque": 7226,
      "citada": 7227,
      "##egr": 7228,
      "hermosura": 7229,
      "##ey": 7230,
      "VIL": 7231,
      "##udas": 7232,
      "canón": 7233,
      "Guadala": 7234,
      "probar": 7235,
      "COM": 7236,
      "cuál": 7237,
      "##iblioteca": 7238,
      "och": 7239,
      "denomin": 7240,
      "parecían": 7241,
      "sever": 7242,
      "##lana": 7243,
      "poderes": 7244,
      "constitucional": 7245,
      "já": 7246,
      "Gil": 7247,
      "cristal": 7248,
      "##leo": 7249,
      "canto": 7250,
      "81": 7251,
      "Rusia": 7252,
      "hacien": 7253,
      "##ecida": 7254,
      "gobiernos": 7255,
      "##inarias": 7256,
      "memor": 7257,
      "Tres": 7258,
      "##ense": 7259,
      "rodi": 7260,
      "##rial": 7261,
      "##bur": 7262,
      "##itación": 7263,
      "##aná": 7264,
      "fic": 7265,
      "##vias": 7266,
      "cadáver": 7267,
      "Torres": 7268,
      "pájar": 7269,
      "ago": 7270,
      "##lamento": 7271,
      "luces": 7272,
      "Colón": 7273,
      "Doctor": 7274,
      "##tural": 7275,
      "cán": 7276,
      "hechas": 7277,
      "cuidados": 7278,
      "Aran": 7279,
      "trató": 7280,
      "Sánchez": 7281,
      "castellano": 7282,
      "supl": 7283,
      "depois": 7284,
      "subsist": 7285,
      "##cedente": 7286,
      "##ñada": 7287,
      "Estre": 7288,
      "barrio": 7289,
      "DI": 7290,
      "pastor": 7291,
      "grie": 7292,
      "franque": 7293,
      "##ides": 7294,
      "82": 7295,
      "Marqués": 7296,
      "mercan": 7297,
      "gre": 7298,
      "vasallos": 7299,
      "ps": 7300,
      "##grad": 7301,
      "Gabri": 7302,
      "Sólo": 7303,
      "##use": 7304,
      "##pic": 7305,
      "##endió": 7306,
      "##teza": 7307,
      "llamaban": 7308,
      "aper": 7309,
      "declaración": 7310,
      "seda": 7311,
      "Parece": 7312,
      "fes": 7313,
      "##unt": 7314,
      "Acad": 7315,
      "POR": 7316,
      "##éramos": 7317,
      "empleo": 7318,
      "pese": 7319,
      "Soci": 7320,
      "sun": 7321,
      "neral": 7322,
      "llegando": 7323,
      "dioses": 7324,
      "ciu": 7325,
      "disfru": 7326,
      "Rica": 7327,
      "Jane": 7328,
      "##bol": 7329,
      "puesta": 7330,
      "##oba": 7331,
      "polvo": 7332,
      "Greg": 7333,
      "##diese": 7334,
      "Fray": 7335,
      "averigu": 7336,
      "##judi": 7337,
      "votos": 7338,
      "árabes": 7339,
      "correg": 7340,
      "tercer": 7341,
      "inmediata": 7342,
      "##cs": 7343,
      "épocas": 7344,
      "tienes": 7345,
      "mineral": 7346,
      "##uto": 7347,
      "ardiente": 7348,
      "componen": 7349,
      "##iel": 7350,
      "largos": 7351,
      "angust": 7352,
      "comerci": 7353,
      "retirarse": 7354,
      "##ciosos": 7355,
      "emprender": 7356,
      "fondos": 7357,
      "reve": 7358,
      "obligación": 7359,
      "Cámara": 7360,
      "útiles": 7361,
      "##ish": 7362,
      "##larse": 7363,
      "Medina": 7364,
      "reinado": 7365,
      "##at": 7366,
      "ramo": 7367,
      "operación": 7368,
      "elegante": 7369,
      "##tible": 7370,
      "##tanos": 7371,
      "tendrá": 7372,
      "bem": 7373,
      "maríti": 7374,
      "necesarias": 7375,
      "##inada": 7376,
      "clara": 7377,
      "enfermos": 7378,
      "logró": 7379,
      "acar": 7380,
      "elevado": 7381,
      "suelen": 7382,
      "Andes": 7383,
      "ina": 7384,
      "religiosas": 7385,
      "78": 7386,
      "tros": 7387,
      "vemos": 7388,
      "conceb": 7389,
      "Ese": 7390,
      "that": 7391,
      "sirven": 7392,
      "sitios": 7393,
      "arcos": 7394,
      "clero": 7395,
      "Bernardo": 7396,
      "caudillo": 7397,
      "90": 7398,
      "Vie": 7399,
      "civiles": 7400,
      "Dista": 7401,
      "UN": 7402,
      "##ans": 7403,
      "correspondiente": 7404,
      "director": 7405,
      "viejos": 7406,
      "quisiera": 7407,
      "conducir": 7408,
      "dejan": 7409,
      "##egos": 7410,
      "##zca": 7411,
      "carn": 7412,
      "transf": 7413,
      "Hos": 7414,
      "##ián": 7415,
      "numerosos": 7416,
      "fie": 7417,
      "opon": 7418,
      "inh": 7419,
      "romper": 7420,
      "poniendo": 7421,
      "##pula": 7422,
      "utilidad": 7423,
      "detener": 7424,
      "##ler": 7425,
      "César": 7426,
      "##indo": 7427,
      "criado": 7428,
      "##chs": 7429,
      "##dero": 7430,
      "cabe": 7431,
      "161": 7432,
      "##iesta": 7433,
      "Oriental": 7434,
      "inmediaciones": 7435,
      "##ht": 7436,
      "Almirante": 7437,
      "##jón": 7438,
      "cultivo": 7439,
      "fras": 7440,
      "Santos": 7441,
      "##tifica": 7442,
      "insul": 7443,
      "realistas": 7444,
      "circu": 7445,
      "sacerdotes": 7446,
      "alcance": 7447,
      "Vega": 7448,
      "Península": 7449,
      "##risto": 7450,
      "estan": 7451,
      "víctimas": 7452,
      "ordenó": 7453,
      "##amp": 7454,
      "prudencia": 7455,
      "diese": 7456,
      "conocimientos": 7457,
      "##ons": 7458,
      "monasterio": 7459,
      "cubrir": 7460,
      "Sor": 7461,
      "Nuestro": 7462,
      "extranjero": 7463,
      "it": 7464,
      "eno": 7465,
      "afirma": 7466,
      "chas": 7467,
      "Bartol": 7468,
      "gabinete": 7469,
      "asom": 7470,
      "##orado": 7471,
      "detalles": 7472,
      "##ex": 7473,
      "ultra": 7474,
      "##gidos": 7475,
      "##ricos": 7476,
      "ahor": 7477,
      "ideal": 7478,
      "tía": 7479,
      "justific": 7480,
      "##vam": 7481,
      "venían": 7482,
      "explo": 7483,
      "páginas": 7484,
      "agradable": 7485,
      "lujo": 7486,
      "malos": 7487,
      "##rue": 7488,
      "vence": 7489,
      "esfor": 7490,
      "sintió": 7491,
      "desembo": 7492,
      "Alej": 7493,
      "Fal": 7494,
      "ocurrido": 7495,
      "74": 7496,
      "##rillos": 7497,
      "viajero": 7498,
      "AM": 7499,
      "contempl": 7500,
      "##adoras": 7501,
      "##RIO": 7502,
      "Medi": 7503,
      "jamas": 7504,
      "escalera": 7505,
      "77": 7506,
      "##ÁN": 7507,
      "sacerdote": 7508,
      "##chor": 7509,
      "ridí": 7510,
      "apell": 7511,
      "efectu": 7512,
      "contento": 7513,
      "##cientas": 7514,
      "entrado": 7515,
      "Cató": 7516,
      "violencia": 7517,
      "rara": 7518,
      "hacian": 7519,
      "83": 7520,
      "nombramiento": 7521,
      "abierta": 7522,
      "repi": 7523,
      "prete": 7524,
      "sedu": 7525,
      "corr": 7526,
      "ochenta": 7527,
      "señorita": 7528,
      "##elo": 7529,
      "caz": 7530,
      "huel": 7531,
      "##ipo": 7532,
      "##íes": 7533,
      "rema": 7534,
      "Cuer": 7535,
      "sacó": 7536,
      "saque": 7537,
      "##lus": 7538,
      "hered": 7539,
      "##ko": 7540,
      "paral": 7541,
      "##EO": 7542,
      "ensan": 7543,
      "Janeiro": 7544,
      "##entri": 7545,
      "gui": 7546,
      "COR": 7547,
      "Tes": 7548,
      "cio": 7549,
      "tena": 7550,
      "presti": 7551,
      "aceptar": 7552,
      "Imperio": 7553,
      "##dura": 7554,
      "establecido": 7555,
      "600": 7556,
      "sop": 7557,
      "novedad": 7558,
      "73": 7559,
      "##tez": 7560,
      "bondad": 7561,
      "Calif": 7562,
      "escep": 7563,
      "##del": 7564,
      "Bon": 7565,
      "##tano": 7566,
      "dez": 7567,
      "##tlán": 7568,
      "volvieron": 7569,
      "verano": 7570,
      "lectura": 7571,
      "##turo": 7572,
      "##ari": 7573,
      "mexicanos": 7574,
      "Pri": 7575,
      "juramento": 7576,
      "prisionero": 7577,
      "##idencias": 7578,
      "fuere": 7579,
      "ganados": 7580,
      "erig": 7581,
      "##nador": 7582,
      "hoi": 7583,
      "Guti": 7584,
      "habló": 7585,
      "europeos": 7586,
      "aldea": 7587,
      "##RU": 7588,
      "bóve": 7589,
      "tuve": 7590,
      "mensa": 7591,
      "dijeron": 7592,
      "consiste": 7593,
      "vientos": 7594,
      "Papa": 7595,
      "paga": 7596,
      "conform": 7597,
      "guarde": 7598,
      "inmortal": 7599,
      "##inaciones": 7600,
      "kilómetros": 7601,
      "ocupaba": 7602,
      "considera": 7603,
      "##imación": 7604,
      "76": 7605,
      "levanta": 7606,
      "cléri": 7607,
      "##asi": 7608,
      "económ": 7609,
      "Már": 7610,
      "abre": 7611,
      "bia": 7612,
      "Bah": 7613,
      "ventana": 7614,
      "##dis": 7615,
      "nubes": 7616,
      "162": 7617,
      "DES": 7618,
      "cristiano": 7619,
      "Eran": 7620,
      "terminar": 7621,
      "eru": 7622,
      "##erío": 7623,
      "mul": 7624,
      "##entados": 7625,
      "##ZA": 7626,
      "fieles": 7627,
      "##clu": 7628,
      "recinto": 7629,
      "Isid": 7630,
      "##ónica": 7631,
      "echó": 7632,
      "demo": 7633,
      "repugn": 7634,
      "##idalgo": 7635,
      "SU": 7636,
      "##xi": 7637,
      "Yucatán": 7638,
      "obrar": 7639,
      "religiosa": 7640,
      "Bri": 7641,
      "filoso": 7642,
      "##jadas": 7643,
      "Sebastian": 7644,
      "invasión": 7645,
      "indispensable": 7646,
      "##ciosa": 7647,
      "Bartolomé": 7648,
      "suponer": 7649,
      "Cel": 7650,
      "##arnos": 7651,
      "Mara": 7652,
      "nacimiento": 7653,
      "cólera": 7654,
      "publica": 7655,
      "ciencias": 7656,
      "85": 7657,
      "ines": 7658,
      "testigos": 7659,
      "##terías": 7660,
      "monstru": 7661,
      "##quera": 7662,
      "mención": 7663,
      "MON": 7664,
      "##adura": 7665,
      "cuestiones": 7666,
      "Sob": 7667,
      "pertenece": 7668,
      "hallarse": 7669,
      "fidel": 7670,
      "ído": 7671,
      "Estaba": 7672,
      "vender": 7673,
      "Calle": 7674,
      "maravillos": 7675,
      "enérg": 7676,
      "dormir": 7677,
      "municipal": 7678,
      "insist": 7679,
      "particularmente": 7680,
      "##gante": 7681,
      "rojo": 7682,
      "somos": 7683,
      "##esar": 7684,
      "señoras": 7685,
      "fuentes": 7686,
      "miraba": 7687,
      "DON": 7688,
      "Blanco": 7689,
      "CO": 7690,
      "manifestó": 7691,
      "dueños": 7692,
      "dedos": 7693,
      "distinguido": 7694,
      "##tiz": 7695,
      "Castel": 7696,
      "provincial": 7697,
      "barra": 7698,
      "caridad": 7699,
      "recob": 7700,
      "hel": 7701,
      "agit": 7702,
      "habido": 7703,
      "Valdivia": 7704,
      "partir": 7705,
      "sufrido": 7706,
      "##cázar": 7707,
      "chac": 7708,
      "84": 7709,
      "Nie": 7710,
      "##cedes": 7711,
      "tercero": 7712,
      "naves": 7713,
      "nació": 7714,
      "piados": 7715,
      "reconocimiento": 7716,
      "tristeza": 7717,
      "Bretaña": 7718,
      "##ance": 7719,
      "tall": 7720,
      "manus": 7721,
      "Caracas": 7722,
      "##rida": 7723,
      "inver": 7724,
      "deseaba": 7725,
      "Rosario": 7726,
      "nombró": 7727,
      "Otro": 7728,
      "víctima": 7729,
      "asimismo": 7730,
      "##tías": 7731,
      "##chando": 7732,
      "Catedral": 7733,
      "claridad": 7734,
      "diré": 7735,
      "muchacho": 7736,
      "publicado": 7737,
      "##tasen": 7738,
      "codi": 7739,
      "inci": 7740,
      "##ili": 7741,
      "Sub": 7742,
      "reserva": 7743,
      "pasan": 7744,
      "llanura": 7745,
      "Pie": 7746,
      "##CCIÓN": 7747,
      "alum": 7748,
      "nombrar": 7749,
      "Nación": 7750,
      "##cones": 7751,
      "sed": 7752,
      "romano": 7753,
      "habéis": 7754,
      "##gaban": 7755,
      "##ética": 7756,
      "##urado": 7757,
      "facultad": 7758,
      "Exc": 7759,
      "cultura": 7760,
      "cima": 7761,
      "aven": 7762,
      "debian": 7763,
      "Alejandro": 7764,
      "Navarra": 7765,
      "interpre": 7766,
      "poses": 7767,
      "coche": 7768,
      "horizonte": 7769,
      "satisfacer": 7770,
      "une": 7771,
      "Puente": 7772,
      "artista": 7773,
      "149": 7774,
      "##ANA": 7775,
      "dejaron": 7776,
      "moderna": 7777,
      "compro": 7778,
      "literatura": 7779,
      "nuevamente": 7780,
      "continuo": 7781,
      "##vez": 7782,
      "enla": 7783,
      "ambición": 7784,
      "##iver": 7785,
      "ainda": 7786,
      "ramos": 7787,
      "escritos": 7788,
      "monarquía": 7789,
      "entraron": 7790,
      "délos": 7791,
      "auto": 7792,
      "##guen": 7793,
      "pelos": 7794,
      "##ste": 7795,
      "diga": 7796,
      "Gabriel": 7797,
      "##sem": 7798,
      "compuesto": 7799,
      "hombros": 7800,
      "encargo": 7801,
      "dij": 7802,
      "rayos": 7803,
      "Él": 7804,
      "peregr": 7805,
      "arbit": 7806,
      "##vit": 7807,
      "ventaja": 7808,
      "compara": 7809,
      "tuviese": 7810,
      "enseñanza": 7811,
      "##verse": 7812,
      "esla": 7813,
      "##quete": 7814,
      "descripción": 7815,
      "bajar": 7816,
      "trigo": 7817,
      "##zgo": 7818,
      "santos": 7819,
      "For": 7820,
      "##erro": 7821,
      "comunes": 7822,
      "monumentos": 7823,
      "absoluto": 7824,
      "Nor": 7825,
      "intr": 7826,
      "Escu": 7827,
      "negocia": 7828,
      "suave": 7829,
      "repuso": 7830,
      "grab": 7831,
      "primo": 7832,
      "##edores": 7833,
      "pobla": 7834,
      "Poder": 7835,
      "hú": 7836,
      "##ampa": 7837,
      "destro": 7838,
      "##gente": 7839,
      "loco": 7840,
      "##cola": 7841,
      "baile": 7842,
      "despreci": 7843,
      "escala": 7844,
      "Io": 7845,
      "descanso": 7846,
      "##íe": 7847,
      "Amp": 7848,
      "Ti": 7849,
      "deberes": 7850,
      "lectores": 7851,
      "crea": 7852,
      "bando": 7853,
      "##idió": 7854,
      "##izan": 7855,
      "copi": 7856,
      "presentan": 7857,
      "pom": 7858,
      "arrib": 7859,
      "tratados": 7860,
      "MS": 7861,
      "poetas": 7862,
      "absur": 7863,
      "experiencia": 7864,
      "Sud": 7865,
      "cédula": 7866,
      "bién": 7867,
      "municiones": 7868,
      "##CU": 7869,
      "##taria": 7870,
      "miserable": 7871,
      "coo": 7872,
      "dirigir": 7873,
      "Fernán": 7874,
      "Vire": 7875,
      "##tana": 7876,
      "##entada": 7877,
      "rego": 7878,
      "precau": 7879,
      "##TAL": 7880,
      "##taro": 7881,
      "quizás": 7882,
      "Tre": 7883,
      "perjudi": 7884,
      "incre": 7885,
      "secun": 7886,
      "habt": 7887,
      "cercan": 7888,
      "##ugo": 7889,
      "Guadalajara": 7890,
      "Cent": 7891,
      "tenta": 7892,
      "usur": 7893,
      "seres": 7894,
      "cun": 7895,
      "##cencia": 7896,
      "##gráfica": 7897,
      "antigüedad": 7898,
      "Rico": 7899,
      "contras": 7900,
      "##tte": 7901,
      "##alia": 7902,
      "porción": 7903,
      "ia": 7904,
      "##gentes": 7905,
      "##lase": 7906,
      "pensamientos": 7907,
      "encarn": 7908,
      "salvajes": 7909,
      "explica": 7910,
      "with": 7911,
      "posterior": 7912,
      "##inó": 7913,
      "patrió": 7914,
      "preguntas": 7915,
      "Ayuntamiento": 7916,
      "##iéndole": 7917,
      "Cerv": 7918,
      "Victoria": 7919,
      "ignorancia": 7920,
      "79": 7921,
      "sesión": 7922,
      "querían": 7923,
      "Lan": 7924,
      "peru": 7925,
      "derram": 7926,
      "sirvió": 7927,
      "Casas": 7928,
      "piel": 7929,
      "desc": 7930,
      "cuadros": 7931,
      "ánimos": 7932,
      "##cesa": 7933,
      "##gol": 7934,
      "hijas": 7935,
      "barran": 7936,
      "cidade": 7937,
      "##áns": 7938,
      "indica": 7939,
      "hala": 7940,
      "##torce": 7941,
      "##quila": 7942,
      "imperial": 7943,
      "barro": 7944,
      "materiales": 7945,
      "Bolivia": 7946,
      "174": 7947,
      "##izca": 7948,
      "recibe": 7949,
      "demostra": 7950,
      "##góes": 7951,
      "héroe": 7952,
      "legisla": 7953,
      "##IM": 7954,
      "bomb": 7955,
      "Océano": 7956,
      "##ub": 7957,
      "pit": 7958,
      "trá": 7959,
      "arzobispo": 7960,
      "roca": 7961,
      "formó": 7962,
      "gos": 7963,
      "##DA": 7964,
      "fundó": 7965,
      "aguard": 7966,
      "##tab": 7967,
      "armados": 7968,
      "##gle": 7969,
      "concer": 7970,
      "cargos": 7971,
      "realizar": 7972,
      "anciano": 7973,
      "ira": 7974,
      "custo": 7975,
      "Arti": 7976,
      "estatu": 7977,
      "##ejo": 7978,
      "negar": 7979,
      "concluir": 7980,
      "Ul": 7981,
      "Tri": 7982,
      "##ENTOS": 7983,
      "Lie": 7984,
      "decían": 7985,
      "metal": 7986,
      "próxima": 7987,
      "Patria": 7988,
      "nace": 7989,
      "mozo": 7990,
      "inglesa": 7991,
      "##güenza": 7992,
      "dó": 7993,
      "robust": 7994,
      "##ísmo": 7995,
      "duró": 7996,
      "##yn": 7997,
      "verá": 7998,
      "Sep": 7999,
      "##ot": 8000,
      "##iciosa": 8001,
      "sucedido": 8002,
      "Pin": 8003,
      "sof": 8004,
      "esperando": 8005,
      "planes": 8006,
      "quedaban": 8007,
      "doncel": 8008,
      "reducido": 8009,
      "favorable": 8010,
      "Apenas": 8011,
      "diputado": 8012,
      "círculo": 8013,
      "Dol": 8014,
      "lun": 8015,
      "trae": 8016,
      "probable": 8017,
      "apareció": 8018,
      "setenta": 8019,
      "delito": 8020,
      "##unal": 8021,
      "manifiesta": 8022,
      "ramas": 8023,
      "indis": 8024,
      "ayuntamiento": 8025,
      "Leon": 8026,
      "ocupación": 8027,
      "besti": 8028,
      "##chan": 8029,
      "frase": 8030,
      "##bamos": 8031,
      "##ánd": 8032,
      "numerosas": 8033,
      "##rantes": 8034,
      "##ington": 8035,
      "referir": 8036,
      "domést": 8037,
      "nem": 8038,
      "##osidad": 8039,
      "##gaciones": 8040,
      "riesgo": 8041,
      "bala": 8042,
      "##cé": 8043,
      "prosperidad": 8044,
      "##RIM": 8045,
      "##eranía": 8046,
      "zona": 8047,
      "escul": 8048,
      "señales": 8049,
      "bron": 8050,
      "##urias": 8051,
      "zar": 8052,
      "apara": 8053,
      "circular": 8054,
      "retroce": 8055,
      "reta": 8056,
      "part": 8057,
      "tesoro": 8058,
      "Catalina": 8059,
      "suceder": 8060,
      "Fre": 8061,
      "ilus": 8062,
      "continuación": 8063,
      "##seo": 8064,
      "americana": 8065,
      "resolvió": 8066,
      "Secretario": 8067,
      "Guana": 8068,
      "Zam": 8069,
      "haz": 8070,
      "bergan": 8071,
      "##pados": 8072,
      "##ladas": 8073,
      "destinado": 8074,
      "límite": 8075,
      "jardín": 8076,
      "formaban": 8077,
      "odi": 8078,
      "##wn": 8079,
      "exe": 8080,
      "eman": 8081,
      "abri": 8082,
      "escuelas": 8083,
      "necesitaba": 8084,
      "##ise": 8085,
      "##úne": 8086,
      "compañías": 8087,
      "Panamá": 8088,
      "dies": 8089,
      "Solo": 8090,
      "histórico": 8091,
      "Gregorio": 8092,
      "gratitud": 8093,
      "caña": 8094,
      "conquistadores": 8095,
      "contradic": 8096,
      "Total": 8097,
      "llamados": 8098,
      "informe": 8099,
      "ventanas": 8100,
      "parecido": 8101,
      "conces": 8102,
      "##cilla": 8103,
      "colocado": 8104,
      "##ps": 8105,
      "gene": 8106,
      "Andal": 8107,
      "adquirir": 8108,
      "anno": 8109,
      "presentado": 8110,
      "combatir": 8111,
      "proposición": 8112,
      "aut": 8113,
      "establecimientos": 8114,
      "rie": 8115,
      "##uar": 8116,
      "finalmente": 8117,
      "pensó": 8118,
      "Adelan": 8119,
      "derrib": 8120,
      "blancas": 8121,
      "##AM": 8122,
      "##éronse": 8123,
      "Carmen": 8124,
      "errores": 8125,
      "##temala": 8126,
      "trastor": 8127,
      "repent": 8128,
      "perdió": 8129,
      "Cuenca": 8130,
      "Egip": 8131,
      "adonde": 8132,
      "##rú": 8133,
      "obliga": 8134,
      "MU": 8135,
      "dados": 8136,
      "oriente": 8137,
      "aumentar": 8138,
      "fos": 8139,
      "dose": 8140,
      "Jose": 8141,
      "monumento": 8142,
      "azúcar": 8143,
      "##alco": 8144,
      "manifestar": 8145,
      "navio": 8146,
      "sentado": 8147,
      "Arro": 8148,
      "Aquella": 8149,
      "##jaron": 8150,
      "Mir": 8151,
      "##erta": 8152,
      "Maes": 8153,
      "confusión": 8154,
      "Municip": 8155,
      "oy": 8156,
      "##ija": 8157,
      "Majestad": 8158,
      "cerros": 8159,
      "acus": 8160,
      "##quita": 8161,
      "##andal": 8162,
      "conflic": 8163,
      "lanza": 8164,
      "Usted": 8165,
      "##minación": 8166,
      "recoger": 8167,
      "Ata": 8168,
      "dominación": 8169,
      "caja": 8170,
      "historiador": 8171,
      "Dé": 8172,
      "reh": 8173,
      "enviar": 8174,
      "hallaron": 8175,
      "##lectu": 8176,
      "acabó": 8177,
      "constantemente": 8178,
      "##vidad": 8179,
      "escrita": 8180,
      "proyectos": 8181,
      "bras": 8182,
      "ingenio": 8183,
      "suprema": 8184,
      "Señores": 8185,
      "Director": 8186,
      "Nu": 8187,
      "encontramos": 8188,
      "##óso": 8189,
      "oí": 8190,
      "##jía": 8191,
      "oper": 8192,
      "##tadores": 8193,
      "cantar": 8194,
      "Plaza": 8195,
      "renta": 8196,
      "##endía": 8197,
      "163": 8198,
      "gefes": 8199,
      "retiró": 8200,
      "Cala": 8201,
      "reforma": 8202,
      "##tables": 8203,
      "pude": 8204,
      "bárbaros": 8205,
      "##AJ": 8206,
      "cita": 8207,
      "Chi": 8208,
      "Bea": 8209,
      "Vas": 8210,
      "##cipes": 8211,
      "levantado": 8212,
      "Clara": 8213,
      "##jue": 8214,
      "envol": 8215,
      "miró": 8216,
      "Villar": 8217,
      "##quio": 8218,
      "probablemente": 8219,
      "pasados": 8220,
      "marchó": 8221,
      "producto": 8222,
      "damas": 8223,
      "164": 8224,
      "Fernandez": 8225,
      "habíamos": 8226,
      "fijar": 8227,
      "jueces": 8228,
      "Jac": 8229,
      "Esa": 8230,
      "contestación": 8231,
      "harto": 8232,
      "##ñal": 8233,
      "encontraron": 8234,
      "##unción": 8235,
      "##ley": 8236,
      "estancia": 8237,
      "vaya": 8238,
      "Rib": 8239,
      "Marina": 8240,
      "improvis": 8241,
      "sincer": 8242,
      "##trópoli": 8243,
      "tá": 8244,
      "mono": 8245,
      "estad": 8246,
      "##olas": 8247,
      "ani": 8248,
      "criados": 8249,
      "zapa": 8250,
      "distintas": 8251,
      "##cus": 8252,
      "mercad": 8253,
      "encam": 8254,
      "discusión": 8255,
      "pared": 8256,
      "parroquia": 8257,
      "Jorge": 8258,
      "reinos": 8259,
      "precipit": 8260,
      "ciertamente": 8261,
      "algodón": 8262,
      "respetable": 8263,
      "piernas": 8264,
      "##rupción": 8265,
      "##ers": 8266,
      "##todo": 8267,
      "##eamente": 8268,
      "corrientes": 8269,
      "humo": 8270,
      "nieve": 8271,
      "retrato": 8272,
      "##ERAL": 8273,
      "dele": 8274,
      "casu": 8275,
      "convers": 8276,
      "by": 8277,
      "almirante": 8278,
      "##ritos": 8279,
      "regoci": 8280,
      "pur": 8281,
      "propuso": 8282,
      "impulso": 8283,
      "##timos": 8284,
      "172": 8285,
      "##jido": 8286,
      "estension": 8287,
      "estru": 8288,
      "sabes": 8289,
      "absolutamente": 8290,
      "bue": 8291,
      "indigna": 8292,
      "limos": 8293,
      "unidad": 8294,
      "##digo": 8295,
      "accid": 8296,
      "crey": 8297,
      "XXX": 8298,
      "podrían": 8299,
      "86": 8300,
      "mortal": 8301,
      "defendi": 8302,
      "juntas": 8303,
      "Hua": 8304,
      "##bri": 8305,
      "poderosa": 8306,
      "catorce": 8307,
      "intri": 8308,
      "Guatemala": 8309,
      "conoci": 8310,
      "ofreció": 8311,
      "celebrar": 8312,
      "tristes": 8313,
      "desgraciado": 8314,
      "instrumentos": 8315,
      "rápidamente": 8316,
      "nor": 8317,
      "repente": 8318,
      "ponen": 8319,
      "banda": 8320,
      "##mós": 8321,
      "producido": 8322,
      "Sociedad": 8323,
      "tempo": 8324,
      "princi": 8325,
      "construir": 8326,
      "portugueses": 8327,
      "tienda": 8328,
      "cuentas": 8329,
      "afecto": 8330,
      "recomp": 8331,
      "partidarios": 8332,
      "frag": 8333,
      "perro": 8334,
      "títulos": 8335,
      "##dirse": 8336,
      "sín": 8337,
      "fundar": 8338,
      "histórica": 8339,
      "Cataluña": 8340,
      "Álvarez": 8341,
      "##RAS": 8342,
      "Otra": 8343,
      "plomo": 8344,
      "##éndoles": 8345,
      "sepulcro": 8346,
      "mármol": 8347,
      "tamaño": 8348,
      "comm": 8349,
      "##jaban": 8350,
      "esposo": 8351,
      "ganar": 8352,
      "toler": 8353,
      "corp": 8354,
      "proble": 8355,
      "enti": 8356,
      "creyendo": 8357,
      "gana": 8358,
      "##ind": 8359,
      "fundado": 8360,
      "conservación": 8361,
      "Les": 8362,
      "resid": 8363,
      "Hé": 8364,
      "desdi": 8365,
      "fuegos": 8366,
      "conocidos": 8367,
      "disciplina": 8368,
      "cae": 8369,
      "Guiller": 8370,
      "lien": 8371,
      "##resión": 8372,
      "calum": 8373,
      "historiadores": 8374,
      "seren": 8375,
      "regla": 8376,
      "Río": 8377,
      "enormes": 8378,
      "materias": 8379,
      "decirlo": 8380,
      "formal": 8381,
      "sembl": 8382,
      "cónsul": 8383,
      "88": 8384,
      "consejos": 8385,
      "##cordia": 8386,
      "regreso": 8387,
      "XIV": 8388,
      "Libertador": 8389,
      "pide": 8390,
      "replicó": 8391,
      "Juana": 8392,
      "Núm": 8393,
      "Moreno": 8394,
      "grueso": 8395,
      "Peña": 8396,
      "ESPA": 8397,
      "alrededor": 8398,
      "##cana": 8399,
      "dominios": 8400,
      "esl": 8401,
      "notas": 8402,
      "respectivos": 8403,
      "haciendas": 8404,
      "Academia": 8405,
      "##uz": 8406,
      "vencido": 8407,
      "abst": 8408,
      "atmós": 8409,
      "proceso": 8410,
      "fren": 8411,
      "##chaba": 8412,
      "Inde": 8413,
      "candida": 8414,
      "Ejecu": 8415,
      "atender": 8416,
      "moradores": 8417,
      "advertir": 8418,
      "tráns": 8419,
      "rea": 8420,
      "171": 8421,
      "165": 8422,
      "divina": 8423,
      "hacerle": 8424,
      "llegan": 8425,
      "tabaco": 8426,
      "##tuario": 8427,
      "amante": 8428,
      "miradas": 8429,
      "##izos": 8430,
      "embo": 8431,
      "embara": 8432,
      "##caso": 8433,
      "##diós": 8434,
      "Trin": 8435,
      "87": 8436,
      "dim": 8437,
      "viuda": 8438,
      "tea": 8439,
      "##érrez": 8440,
      "justa": 8441,
      "elemento": 8442,
      "ejercer": 8443,
      "ventura": 8444,
      "Dec": 8445,
      "agora": 8446,
      "correspondencia": 8447,
      "abandonado": 8448,
      "ner": 8449,
      "was": 8450,
      "vice": 8451,
      "##capa": 8452,
      "provecho": 8453,
      "##ted": 8454,
      "##ifa": 8455,
      "##ábanse": 8456,
      "sagrado": 8457,
      "dista": 8458,
      "##ensos": 8459,
      "cañón": 8460,
      "habria": 8461,
      "vivos": 8462,
      "##lix": 8463,
      "prudente": 8464,
      "Universidad": 8465,
      "##quinas": 8466,
      "##XX": 8467,
      "##amante": 8468,
      "elecciones": 8469,
      "lluvias": 8470,
      "espaldas": 8471,
      "razas": 8472,
      "viajes": 8473,
      "insurrección": 8474,
      "Pir": 8475,
      "rú": 8476,
      "##onado": 8477,
      "170": 8478,
      "Tru": 8479,
      "nome": 8480,
      "olor": 8481,
      "##ji": 8482,
      "##icis": 8483,
      "Arzobispo": 8484,
      "##ider": 8485,
      "eterna": 8486,
      "acento": 8487,
      "fé": 8488,
      "incur": 8489,
      "restitu": 8490,
      "vimos": 8491,
      "Feder": 8492,
      "presen": 8493,
      "Alba": 8494,
      "empleado": 8495,
      "##laga": 8496,
      "menores": 8497,
      "Hor": 8498,
      "ego": 8499,
      "llenos": 8500,
      "##ística": 8501,
      "rég": 8502,
      "##iación": 8503,
      "solos": 8504,
      "Jaime": 8505,
      "plen": 8506,
      "XII": 8507,
      "Anti": 8508,
      "pintura": 8509,
      "Bust": 8510,
      "drama": 8511,
      "acuer": 8512,
      "huir": 8513,
      "hiciera": 8514,
      "tap": 8515,
      "suplic": 8516,
      "##tepec": 8517,
      "comprar": 8518,
      "cualidades": 8519,
      "bases": 8520,
      "recog": 8521,
      "eficaz": 8522,
      "Tras": 8523,
      "partidas": 8524,
      "##dul": 8525,
      "traición": 8526,
      "173": 8527,
      "Mora": 8528,
      "acha": 8529,
      "ricas": 8530,
      "fragata": 8531,
      "##vangel": 8532,
      "semp": 8533,
      "veh": 8534,
      "##cent": 8535,
      "##cumb": 8536,
      "##diar": 8537,
      "cola": 8538,
      "##ólogo": 8539,
      "##cripciones": 8540,
      "Ministerio": 8541,
      "Velázquez": 8542,
      "##har": 8543,
      "800": 8544,
      "pera": 8545,
      "tó": 8546,
      "advers": 8547,
      "quanto": 8548,
      "Potos": 8549,
      "fundada": 8550,
      "sociales": 8551,
      "revuel": 8552,
      "lograr": 8553,
      "Españoles": 8554,
      "deser": 8555,
      "olvido": 8556,
      "##dera": 8557,
      "##igne": 8558,
      "ponía": 8559,
      "proporción": 8560,
      "costado": 8561,
      "terribles": 8562,
      "Asi": 8563,
      "filosofía": 8564,
      "valientes": 8565,
      "defensores": 8566,
      "tranquilo": 8567,
      "sobresal": 8568,
      "inclu": 8569,
      "##izadas": 8570,
      "amores": 8571,
      "##umo": 8572,
      "representantes": 8573,
      "persecución": 8574,
      "romana": 8575,
      "semblante": 8576,
      "Pacífico": 8577,
      "##tines": 8578,
      "colocar": 8579,
      "vincia": 8580,
      "cadena": 8581,
      "##ellón": 8582,
      "sumamente": 8583,
      "Californ": 8584,
      "Teo": 8585,
      "##gam": 8586,
      "intelectu": 8587,
      "Departamento": 8588,
      "desvan": 8589,
      "gritó": 8590,
      "rival": 8591,
      "escribe": 8592,
      "duros": 8593,
      "excelente": 8594,
      "##tag": 8595,
      "ejecutar": 8596,
      "##ty": 8597,
      "168": 8598,
      "independiente": 8599,
      "##pido": 8600,
      "York": 8601,
      "gigantes": 8602,
      "lista": 8603,
      "extin": 8604,
      "Silva": 8605,
      "frecuentes": 8606,
      "Otros": 8607,
      "sufri": 8608,
      "Mes": 8609,
      "contenido": 8610,
      "armonía": 8611,
      "##bla": 8612,
      "tengan": 8613,
      "revol": 8614,
      "acabar": 8615,
      "##blas": 8616,
      "contor": 8617,
      "tern": 8618,
      "imprenta": 8619,
      "lament": 8620,
      "nal": 8621,
      "discí": 8622,
      "empresas": 8623,
      "tante": 8624,
      "##monios": 8625,
      "rebelión": 8626,
      "##edi": 8627,
      "sombras": 8628,
      "soberanía": 8629,
      "observación": 8630,
      "89": 8631,
      "verdaderos": 8632,
      "##denal": 8633,
      "naturalmente": 8634,
      "##dimiento": 8635,
      "filóso": 8636,
      "##piraciones": 8637,
      "cortar": 8638,
      "indicado": 8639,
      "Ofici": 8640,
      "##entaron": 8641,
      "comenzaron": 8642,
      "fidelidad": 8643,
      "##LAS": 8644,
      "estatua": 8645,
      "Aben": 8646,
      "península": 8647,
      "cientí": 8648,
      "uma": 8649,
      "##tacion": 8650,
      "Lisboa": 8651,
      "Valpara": 8652,
      "Li": 8653,
      "Pom": 8654,
      "##iendas": 8655,
      "renunci": 8656,
      "prestar": 8657,
      "Rev": 8658,
      "Buena": 8659,
      "bené": 8660,
      "##dico": 8661,
      "trescientos": 8662,
      "REV": 8663,
      "##dol": 8664,
      "amiga": 8665,
      "palo": 8666,
      "denom": 8667,
      "permiso": 8668,
      "##urar": 8669,
      "Figu": 8670,
      "venga": 8671,
      "cabellos": 8672,
      "escribano": 8673,
      "##menta": 8674,
      "##alter": 8675,
      "intervención": 8676,
      "##jio": 8677,
      "##quito": 8678,
      "siguen": 8679,
      "papa": 8680,
      "Lope": 8681,
      "ferrocar": 8682,
      "ave": 8683,
      "peñas": 8684,
      "presentaba": 8685,
      "obstáculos": 8686,
      "tiem": 8687,
      "espiritual": 8688,
      "Af": 8689,
      "elevación": 8690,
      "federal": 8691,
      "llos": 8692,
      "meter": 8693,
      "sublime": 8694,
      "##MP": 8695,
      "##áy": 8696,
      "desprecio": 8697,
      "tercio": 8698,
      "##OLU": 8699,
      "##úl": 8700,
      "comi": 8701,
      "governo": 8702,
      "sabios": 8703,
      "misterio": 8704,
      "alboro": 8705,
      "obtuvo": 8706,
      "disponer": 8707,
      "creación": 8708,
      "crí": 8709,
      "legal": 8710,
      "régimen": 8711,
      "##tillos": 8712,
      "realmente": 8713,
      "equival": 8714,
      "asombro": 8715,
      "hil": 8716,
      "brillantes": 8717,
      "ilustres": 8718,
      "eva": 8719,
      "bols": 8720,
      "atmósfera": 8721,
      "gozar": 8722,
      "personajes": 8723,
      "Gutiérrez": 8724,
      "Acu": 8725,
      "##bí": 8726,
      "buscando": 8727,
      "penetrar": 8728,
      "nado": 8729,
      "soledad": 8730,
      "estor": 8731,
      "##case": 8732,
      "##onas": 8733,
      "formada": 8734,
      "povo": 8735,
      "mediante": 8736,
      "hallado": 8737,
      "cesar": 8738,
      "golfo": 8739,
      "página": 8740,
      "##vitud": 8741,
      "fier": 8742,
      "##ibus": 8743,
      "formid": 8744,
      "##río": 8745,
      "Distrito": 8746,
      "##ule": 8747,
      "consuelo": 8748,
      "Cura": 8749,
      "pico": 8750,
      "tarea": 8751,
      "honrado": 8752,
      "flan": 8753,
      "espes": 8754,
      "Potosí": 8755,
      "ardor": 8756,
      "XIII": 8757,
      "##hes": 8758,
      "Asamblea": 8759,
      "grandi": 8760,
      "acces": 8761,
      "quieres": 8762,
      "##guer": 8763,
      "solu": 8764,
      "responsabilidad": 8765,
      "##tú": 8766,
      "quel": 8767,
      "##gento": 8768,
      "##quisición": 8769,
      "NA": 8770,
      "##GA": 8771,
      "olas": 8772,
      "##ñan": 8773,
      "Alm": 8774,
      "entrega": 8775,
      "divino": 8776,
      "calific": 8777,
      "##iers": 8778,
      "evidente": 8779,
      "orí": 8780,
      "instal": 8781,
      "elevada": 8782,
      "Excmo": 8783,
      "##vó": 8784,
      "Uruguay": 8785,
      "sucesor": 8786,
      "desconf": 8787,
      "##yu": 8788,
      "##cala": 8789,
      "rayo": 8790,
      "variedad": 8791,
      "muched": 8792,
      "##dedores": 8793,
      "Filip": 8794,
      "antecedentes": 8795,
      "fiscal": 8796,
      "##ry": 8797,
      "torres": 8798,
      "##ortuna": 8799,
      "##ivos": 8800,
      "viajeros": 8801,
      "convir": 8802,
      "fundamento": 8803,
      "rodillas": 8804,
      "invi": 8805,
      "prín": 8806,
      "quatro": 8807,
      "queriendo": 8808,
      "##tencias": 8809,
      "Benito": 8810,
      "Leg": 8811,
      "veían": 8812,
      "tendría": 8813,
      "Hemos": 8814,
      "##berto": 8815,
      "tig": 8816,
      "Día": 8817,
      "fortific": 8818,
      "120": 8819,
      "NÚ": 8820,
      "ocupó": 8821,
      "Bay": 8822,
      "diplom": 8823,
      "##ñaba": 8824,
      "satisfecho": 8825,
      "considerar": 8826,
      "semana": 8827,
      "Mundo": 8828,
      "Española": 8829,
      "sagr": 8830,
      "pidiendo": 8831,
      "##gase": 8832,
      "esti": 8833,
      "##itario": 8834,
      "outros": 8835,
      "Tem": 8836,
      "trajo": 8837,
      "##orán": 8838,
      "Sancho": 8839,
      "llegamos": 8840,
      "##fre": 8841,
      "Bueno": 8842,
      "departam": 8843,
      "On": 8844,
      "Tierra": 8845,
      "paciencia": 8846,
      "temperatura": 8847,
      "Ruiz": 8848,
      "análo": 8849,
      "enfermedades": 8850,
      "compatrio": 8851,
      "vencedor": 8852,
      "##choso": 8853,
      "consiguió": 8854,
      "##iencias": 8855,
      "magnífico": 8856,
      "detuvo": 8857,
      "afici": 8858,
      "bajas": 8859,
      "sujeto": 8860,
      "apoderarse": 8861,
      "examen": 8862,
      "devol": 8863,
      "expor": 8864,
      "frases": 8865,
      "##randa": 8866,
      "Alvarado": 8867,
      "Ala": 8868,
      "##rab": 8869,
      "##usieron": 8870,
      "diligencia": 8871,
      "##ensiones": 8872,
      "Exmo": 8873,
      "dores": 8874,
      "prisa": 8875,
      "##lij": 8876,
      "examinar": 8877,
      "##oría": 8878,
      "novel": 8879,
      "origin": 8880,
      "contrar": 8881,
      "dictamen": 8882,
      "cum": 8883,
      "Pob": 8884,
      "##anim": 8885,
      "##duras": 8886,
      "tránsito": 8887,
      "golpes": 8888,
      "##éndolo": 8889,
      "impre": 8890,
      "Pueblo": 8891,
      "acta": 8892,
      "##jeras": 8893,
      "reducir": 8894,
      "##ernación": 8895,
      "sobrino": 8896,
      "Málaga": 8897,
      "Constan": 8898,
      "continua": 8899,
      "obten": 8900,
      "informes": 8901,
      "lenguas": 8902,
      "crítica": 8903,
      "maíz": 8904,
      "premio": 8905,
      "##entaban": 8906,
      "duro": 8907,
      "cumplido": 8908,
      "##fecto": 8909,
      "India": 8910,
      "96": 8911,
      "##vino": 8912,
      "compas": 8913,
      "mexicano": 8914,
      "##ecidos": 8915,
      "Senado": 8916,
      "166": 8917,
      "TO": 8918,
      "protector": 8919,
      "minerales": 8920,
      "tuviera": 8921,
      "relacion": 8922,
      "##rencia": 8923,
      "cuesta": 8924,
      "pedido": 8925,
      "ofrecen": 8926,
      "fazer": 8927,
      "muestras": 8928,
      "raro": 8929,
      "##asa": 8930,
      "extraña": 8931,
      "exactitud": 8932,
      "##uría": 8933,
      "anda": 8934,
      "garan": 8935,
      "veremos": 8936,
      "Ante": 8937,
      "aques": 8938,
      "ea": 8939,
      "##cante": 8940,
      "desal": 8941,
      "lison": 8942,
      "salen": 8943,
      "##grama": 8944,
      "siente": 8945,
      "##ampar": 8946,
      "aparecer": 8947,
      "vicios": 8948,
      "##rales": 8949,
      "constancia": 8950,
      "hablan": 8951,
      "recomend": 8952,
      "furor": 8953,
      "92": 8954,
      "descom": 8955,
      "##cerse": 8956,
      "Lim": 8957,
      "catal": 8958,
      "vivía": 8959,
      "edición": 8960,
      "colonos": 8961,
      "##ERI": 8962,
      "regimiento": 8963,
      "furi": 8964,
      "##lección": 8965,
      "##cadura": 8966,
      "##amar": 8967,
      "imá": 8968,
      "insignific": 8969,
      "##END": 8970,
      "circuns": 8971,
      "##inte": 8972,
      "##ceres": 8973,
      "venida": 8974,
      "Maxim": 8975,
      "Provincias": 8976,
      "libras": 8977,
      "oscuro": 8978,
      "perros": 8979,
      "faltaba": 8980,
      "cí": 8981,
      "ayudar": 8982,
      "dignos": 8983,
      "innumer": 8984,
      "ater": 8985,
      "pilo": 8986,
      "##sb": 8987,
      "actualmente": 8988,
      "##guera": 8989,
      "mula": 8990,
      "aristoc": 8991,
      "##imento": 8992,
      "Alma": 8993,
      "conservan": 8994,
      "mentos": 8995,
      "eleva": 8996,
      "propiedades": 8997,
      "##fas": 8998,
      "culp": 8999,
      "XVII": 9000,
      "desconocido": 9001,
      "intim": 9002,
      "vuestras": 9003,
      "destinos": 9004,
      "zas": 9005,
      "Rojas": 9006,
      "ios": 9007,
      "pendiente": 9008,
      "vidas": 9009,
      "Alcalá": 9010,
      "Muño": 9011,
      "progresos": 9012,
      "Capital": 9013,
      "consideraciones": 9014,
      "tiros": 9015,
      "abrigo": 9016,
      "casta": 9017,
      "muel": 9018,
      "art": 9019,
      "entregó": 9020,
      "Gib": 9021,
      "Lar": 9022,
      "##sel": 9023,
      "tard": 9024,
      "famosa": 9025,
      "ojo": 9026,
      "menudo": 9027,
      "reunido": 9028,
      "corriendo": 9029,
      "Tengo": 9030,
      "pesca": 9031,
      "habitaciones": 9032,
      "cubiertas": 9033,
      "distintos": 9034,
      "acordó": 9035,
      "##gros": 9036,
      "asust": 9037,
      "felici": 9038,
      "Adelantado": 9039,
      "chis": 9040,
      "chico": 9041,
      "diario": 9042,
      "Andalu": 9043,
      "Nosotros": 9044,
      "##tísimo": 9045,
      "derra": 9046,
      "Vis": 9047,
      "absor": 9048,
      "##ielo": 9049,
      "reform": 9050,
      "deste": 9051,
      "##tificación": 9052,
      "##ericor": 9053,
      "ración": 9054,
      "IND": 9055,
      "##oraciones": 9056,
      "siguieron": 9057,
      "villas": 9058,
      "Morales": 9059,
      "##ther": 9060,
      "castigar": 9061,
      "meridional": 9062,
      "##itz": 9063,
      "cabec": 9064,
      "Sem": 9065,
      "ene": 9066,
      "posiciones": 9067,
      "pretexto": 9068,
      "##óes": 9069,
      "muchacha": 9070,
      "gravedad": 9071,
      "devor": 9072,
      "estableció": 9073,
      "nó": 9074,
      "sensible": 9075,
      "lev": 9076,
      "permanecer": 9077,
      "permaneció": 9078,
      "##VI": 9079,
      "pedazos": 9080,
      "vergüenza": 9081,
      "##íme": 9082,
      "cif": 9083,
      "REVOLU": 9084,
      "Esper": 9085,
      "esplén": 9086,
      "Virey": 9087,
      "conocen": 9088,
      "Oa": 9089,
      "##amarca": 9090,
      "mejicanos": 9091,
      "##gin": 9092,
      "fija": 9093,
      "muro": 9094,
      "##izaba": 9095,
      "escandal": 9096,
      "LIBRO": 9097,
      "Indep": 9098,
      "##porte": 9099,
      "Ins": 9100,
      "ofrecía": 9101,
      "##BL": 9102,
      "humor": 9103,
      "bisan": 9104,
      "responder": 9105,
      "cans": 9106,
      "95": 9107,
      "imit": 9108,
      "##tid": 9109,
      "camar": 9110,
      "directamente": 9111,
      "NÚM": 9112,
      "inces": 9113,
      "##rillas": 9114,
      "privilegio": 9115,
      "lóg": 9116,
      "ocurrió": 9117,
      "profund": 9118,
      "caciques": 9119,
      "##lanes": 9120,
      "Nadie": 9121,
      "##ranza": 9122,
      "Qui": 9123,
      "llevaron": 9124,
      "reconocido": 9125,
      "Har": 9126,
      "And": 9127,
      "##ándolas": 9128,
      "miras": 9129,
      "93": 9130,
      "salía": 9131,
      "felices": 9132,
      "procesión": 9133,
      "SO": 9134,
      "Grecia": 9135,
      "eme": 9136,
      "##onía": 9137,
      "vasto": 9138,
      "saliendo": 9139,
      "##tinos": 9140,
      "dro": 9141,
      "producen": 9142,
      "tributo": 9143,
      "contemplar": 9144,
      "enca": 9145,
      "aliento": 9146,
      "espanto": 9147,
      "jardines": 9148,
      "91": 9149,
      "rapidez": 9150,
      "red": 9151,
      "bellas": 9152,
      "gesto": 9153,
      "vís": 9154,
      "##QUE": 9155,
      "licenciado": 9156,
      "##chu": 9157,
      "jente": 9158,
      "##zarse": 9159,
      "abandono": 9160,
      "sáb": 9161,
      "abol": 9162,
      "comprom": 9163,
      "posee": 9164,
      "Alto": 9165,
      "assim": 9166,
      "hábil": 9167,
      "Hig": 9168,
      "Guerrero": 9169,
      "fison": 9170,
      "oeste": 9171,
      "Marcos": 9172,
      "encomend": 9173,
      "##erona": 9174,
      "curioso": 9175,
      "mugeres": 9176,
      "Justicia": 9177,
      "Chan": 9178,
      "China": 9179,
      "convic": 9180,
      "perjuicio": 9181,
      "##éla": 9182,
      "##grafo": 9183,
      "sesiones": 9184,
      "Dar": 9185,
      "señalado": 9186,
      "Aca": 9187,
      "Zamora": 9188,
      "Guillermo": 9189,
      "conozco": 9190,
      "estuvieron": 9191,
      "honores": 9192,
      "radic": 9193,
      "Guzman": 9194,
      "bara": 9195,
      "##pores": 9196,
      "##ecto": 9197,
      "reunidos": 9198,
      "Archi": 9199,
      "mezcl": 9200,
      "providencias": 9201,
      "##fort": 9202,
      "hermosas": 9203,
      "elel": 9204,
      "reparti": 9205,
      "##land": 9206,
      "barba": 9207,
      "Bajo": 9208,
      "solicitud": 9209,
      "empieza": 9210,
      "Argentina": 9211,
      "carru": 9212,
      "nen": 9213,
      "entendido": 9214,
      "cadáveres": 9215,
      "Simón": 9216,
      "haza": 9217,
      "extraordinario": 9218,
      "tumba": 9219,
      "##ectos": 9220,
      "personaje": 9221,
      "ingra": 9222,
      "Llam": 9223,
      "reglas": 9224,
      "##tamento": 9225,
      "criminal": 9226,
      "##cador": 9227,
      "prosigu": 9228,
      "griegos": 9229,
      "At": 9230,
      "sección": 9231,
      "clás": 9232,
      "##ICE": 9233,
      "Egipto": 9234,
      "Dice": 9235,
      "esle": 9236,
      "##tela": 9237,
      "ai": 9238,
      "Muñoz": 9239,
      "gres": 9240,
      "termina": 9241,
      "aflu": 9242,
      "lat": 9243,
      "aliados": 9244,
      "Fin": 9245,
      "##cn": 9246,
      "##ví": 9247,
      "hago": 9248,
      "##ites": 9249,
      "expon": 9250,
      "Magestad": 9251,
      "estrecha": 9252,
      "disgust": 9253,
      "169": 9254,
      "ocupan": 9255,
      "bajos": 9256,
      "167": 9257,
      "reo": 9258,
      "resolver": 9259,
      "##ROS": 9260,
      "AP": 9261,
      "elles": 9262,
      "yendo": 9263,
      "exager": 9264,
      "Julián": 9265,
      "ceder": 9266,
      "rumor": 9267,
      "gado": 9268,
      "him": 9269,
      "modelo": 9270,
      "esclavitud": 9271,
      "are": 9272,
      "devoción": 9273,
      "dades": 9274,
      "seguramente": 9275,
      "oido": 9276,
      "Ud": 9277,
      "fór": 9278,
      "sois": 9279,
      "cú": 9280,
      "obligó": 9281,
      "Chu": 9282,
      "logrado": 9283,
      "Sir": 9284,
      "##éndola": 9285,
      "Igu": 9286,
      "vit": 9287,
      "##ensible": 9288,
      "##vian": 9289,
      "arbi": 9290,
      "desaparecido": 9291,
      "esplend": 9292,
      "cerrar": 9293,
      "##teres": 9294,
      "Cuar": 9295,
      "permitir": 9296,
      "arrastr": 9297,
      "##ándonos": 9298,
      "##CAS": 9299,
      "Cho": 9300,
      "##TES": 9301,
      "plumas": 9302,
      "Colonia": 9303,
      "recorrer": 9304,
      "hech": 9305,
      "##licas": 9306,
      "serlo": 9307,
      "Blas": 9308,
      "##ciencia": 9309,
      "cuento": 9310,
      "beneficios": 9311,
      "jar": 9312,
      "habitan": 9313,
      "Gaspar": 9314,
      "Ill": 9315,
      "hoja": 9316,
      "modernos": 9317,
      "reformas": 9318,
      "Ángel": 9319,
      "dándole": 9320,
      "cumbre": 9321,
      "asalto": 9322,
      "Supremo": 9323,
      "Ll": 9324,
      "Ví": 9325,
      "##cipación": 9326,
      "coste": 9327,
      "apas": 9328,
      "árabe": 9329,
      "instrumento": 9330,
      "##alupe": 9331,
      "vd": 9332,
      "##eto": 9333,
      "obligados": 9334,
      "cometido": 9335,
      "despob": 9336,
      "manifiesto": 9337,
      "impuesto": 9338,
      "mostró": 9339,
      "frutas": 9340,
      "##pito": 9341,
      "ced": 9342,
      "claust": 9343,
      "Pra": 9344,
      "Miranda": 9345,
      "lealtad": 9346,
      "relie": 9347,
      "falda": 9348,
      "##CE": 9349,
      "últimamente": 9350,
      "bronce": 9351,
      "##hal": 9352,
      "exer": 9353,
      "lee": 9354,
      "amanecer": 9355,
      "carbón": 9356,
      "Pl": 9357,
      "texto": 9358,
      "entraba": 9359,
      "canoas": 9360,
      "Provid": 9361,
      "repetir": 9362,
      "repetidas": 9363,
      "húme": 9364,
      "##dil": 9365,
      "##unas": 9366,
      "Hace": 9367,
      "profundidad": 9368,
      "auxilios": 9369,
      "Jal": 9370,
      "vier": 9371,
      "vire": 9372,
[...]
