[MASK]
[PAD]
[UNK]
[CLS]
[SEP]
!
"
#
$
%
&
'
(
)
*
+
,
-
.
/
0
1
2
3
4
5
6
7
8
9
:
;
<
=
>
?
@
A
B
C
D
E
F
G
H
I
J
K
L
M
N
O
P
Q
R
S
T
U
V
W
X
Y
Z
[
\
]
^
_
`
a
b
c
d
e
f
g
h
i
j
k
l
m
n
o
p
q
r
s
t
u
v
w
x
y
z
{
|
}
~
¡
¢
£
¤
¥
¦
§
¨
©
ª
«
®
°
±
²
³
´
µ
¶
·
¸
¹
º
»
¼
½
¾
¿
À
Á
Â
Ã
Ä
Å
Æ
Ç
È
É
Ê
Ë
Ì
Í
Î
Ï
Ñ
Ò
Ó
Ô
Ö
×
Ù
Ú
Û
Ü
ß
à
á
â
ã
ä
å
æ
ç
è
é
ê
ë
ì
í
î
ï
ñ
ò
ó
ô
õ
ö
ø
ù
ú
û
ü
ý
þ
ā
ą
ć
Č
ē
ĕ
Ě
ğ
ī
ĭ
İ
ı
Ł
ł
ń
Ň
ň
ō
ŏ
Ő
ő
Œ
œ
ř
ś
Ş
ş
Š
š
ť
ū
ŭ
ů
ű
ż
Ž
ſ
ɔ
ʳ
ʺ
˙
ˡ
̃
̄
̈
ͬ
Α
Β
Γ
Δ
Ε
Ζ
Η
Θ
Ι
Κ
Λ
Μ
Ν
Ξ
Ο
Π
Ρ
Σ
Τ
Υ
Φ
Χ
Ψ
ά
έ
ή
ί
α
β
γ
δ
ε
ζ
η
θ
ι
κ
λ
μ
ν
ξ
ο
π
ρ
ς
σ
τ
υ
φ
χ
ψ
ω
ϊ
ό
ύ
ώ
ϰ
А
В
Г
Е
З
И
К
Л
М
О
С
Т
Ь
Э
Я
а
б
в
г
д
е
з
и
й
к
л
н
о
п
р
с
т
у
ф
х
ш
я
і
א
ך
כ
ל
מ
ר
ת
ا
ج
س
ع
ل
م
ن
ه
ي
ᘔ
ᴬ
ᵃ
ᵉ
ᵐ
ᵒ
ᶜ
ἀ
ἁ
ἂ
ἄ
ἅ
ἆ
Ἀ
ἐ
ἑ
ἔ
Ἐ
Ἑ
Ἕ
ἠ
ἡ
ἢ
ἤ
ἰ
ἱ
ἴ
ἵ
ἶ
Ἰ
Ἴ
ὀ
ὁ
ὃ
ὄ
ὅ
Ὄ
ὐ
ὑ
ὔ
ὖ
ὗ
ὡ
ὤ
ὥ
ὦ
Ὠ
Ὦ
Ὧ
ὰ
ά
ὲ
έ
ὴ
ή
ὶ
ί
ὸ
ό
ὺ
ύ
ὼ
ώ
ᾅ
ᾖ
ᾗ
ᾳ
ᾶ
ᾷ
᾽
ῃ
ῆ
ῇ
ῑ
ῖ
Ὶ
ῥ
ῦ
Ῥ
ῳ
ῶ
ῷ
–
—
―
‘
’
‛
“
”
„
‟
†
•
…
′
″
‹
›
※
⁄
⁴
⁷
⁹
₁
₂
₃
₅
₆
€
₹
₺
₽
₿
℃
™
⅔
⅛
→
↓
−
√
∪
∴
≤
⊙
⑇
─
│
┼
║
╱
╲
▔
■
□
▲
►
▼
★
☨
♦
✓
✚
❖
第
##a
##s
##p
##r
##i
##c
##e
##n
##J
##o
##x
##t
##l
##í
##g
##m
##j
##z
##X
##6
##4
##0
##d
##C
##u
##h
##ç
##v
##b
##á
##f
##é
##O
##A
##N
##ú
##R
##I
##M
##E
##L
##ó
##q
##y
##ü
##8
##P
##Í
##Z
##S
##H
##T
##2
##B
##K
##Ü
##1
##9
##U
##k
##7
##F
##V
##3
##5
##Y
##G
##Á
##w
##â
##D
##ê
##ñ
##°
##έ
##γ
##ε
##ι
##ν
##ē
##º
##è
##Ó
##Ñ
##Û
##ύ
##ρ
##α
##ς
##©
##Q
##W
##Ú
##Ã
##³
##ò
##É
##ä
##¹
##̃
##£
##ل
##ع
##ج
##م
##ô
##î
##æ
##π
##λ
##ί
##τ
##ο
##υ
##™
##à
##ἀ
##μ
##¥
##ù
##±
##œ
##ą
##⅔
##Ç
##®
##Ì
##ã
##ı
##ì
##κ
##ί
##ω
##ā
##ἴ
##θ
##½
##õ
##φ
##ώ
##Æ
##È
##ï
##ö
##⁷
##⁹
##⁄
##₅
##₃
##ī
##ά
##β
##έ
##Ò
##ª
##■
##ō
##ë
##η
##ʺ
##ύ
##σ
##ů
##ὐ
##ῷ
##о
##₂
##ὗ
##€
##♦
##²
##ϰ
##ά
##ᵒ
##χ
##ῆ
##δ
##ὸ
##Â
##ῦ
##ή
##ζ
##Ï
##₿
##ű
##ῖ
##ὶ
##´
##ř
##ό
##ό
##ῶ
##ˡ
##×
##↓
##ξ
##а
##д
##і
##е
##ᾶ
##ή
##ὲ
##˙
##ὴ
##û
##Ö
##Ő
##ū
##Ě
##ĕ
##ć
##ᵉ
##å
##À
##ἰ
##Л
##¸
##ᾳ
##ῑ
##¤
##❖
##̈
##ὼ
##¦
##ῳ
##¾
##│
##Å
##ſ
##¼
##Ь
##ś
##ø
##ý
##¨
##ŏ
##ĭ
##ὰ
##Ë
##ώ
##ɔ
##¢
##в
##с
##и
##р
##ő
##ל
##א
##ך
##ὺ
##ż
##т
##к
##š
##ὔ
##Ä
##ŭ
##►
##Ô
##ß
##▔
##╲
##ר
##ת
##ῃ
##ῇ
##б
##з
##ᶜ
##Ι
##̄
##Ê
##ἶ
##п
##₺
##ň
##Œ
##ᾷ
##н
##ł
##─
##ш
##г
##х
##й
##ϊ
##ἁ
##Î
##ń
##л
##س
##ا
##ن
##ي
##ه
##Χ
##Θ
##Υ
##Σ
##₁
##₆
##ἱ
##Ň
##ἠ
##ψ
##᾽
##ὅ
##İ
##℃
##┼
##ğ
##ὖ
##Ł
##ᵐ
##ş
##ὀ
##я
##║
##И
##Т
##Е
##О
##Г
##ᾗ
##ͬ
##Ο
de
##os
##er
##en
##as
##es
##ar
##an
##on
##ue
##or
##ci
##ad
la
que
en
##al
el
##st
##ent
con
##do
##in
##ab
##re
se
su
##ra
##om
los
##ri
##ro
un
##ti
##ón
al
##am
##di
del
por
es
##to
##un
est
##ta
##le
re
##la
##ado
##te
di
las
##ch
no
par
in
##ol
##id
##is
##ía
##ic
com
##ente
cu
##de
##ción
##ia
##il
##em
##res
##gu
des
##lo
##cu
si
##ran
##que
##tu
##ier
##cia
##io
para
ha
##ada
le
to
##ero
una
##ir
##el
lo
##ec
##go
pro
##ien
##tr
##aba
hab
mu
##ob
##da
##ca
##ando
##se
##ues
##it
me
sus
##ones
##ist
##co
##uer
##im
##ce
##pa
como
##ados
##mp
##ter
an
ca
##án
##qu
##za
##dos
##ás
##dad
ex
##ig
##tes
##ento
##los
##mo
##ué
ar
##era
po
##tra
##tos
##us
per
##ici
##po
##ma
##ales
sin
##ios
##idad
##gun
##cho
ma
##ie
##pe
pa
##omb
ac
##tro
##ul
##jo
##ras
El
ser
##ido
mis
qu
res
##ores
man
pr
##ib
tan
##encia
##amente
as
##um
##tar
##las
cor
##én
ent
##les
##ciones
##aban
ob
##vo
##quel
##ión
cas
más
##tas
##va
ten
##ica
En
##ante
##ara
mas
##ru
pre
aquel
##ga
##ían
##me
na
esta
##ez
##iz
##tor
La
mi
##der
San
##mi
sob
##cer
do
este
##das
##lar
##ten
pue
ap
ab
ver
##ur
##lan
##ces
ci
pri
##pañ
dos
##du
pas
##ve
lle
##tros
don
##gar
car
##ina
esp
gran
##adas
##bi
ni
##vi
##ver
era
##ida
Al
##ed
am
ti
imp
mo
Est
pres
sobre
##cha
##ens
pero
sol
##no
sal
##ba
##ino
##able
ba
##aron
sa
Es
fuer
cons
##asta
##endo
##je
##ico
esc
entre
##entes
for
##ano
##entos
##ora
mar
##den
##ño
##ener
##lam
##mente
cam
##oso
Por
##emp
todo
18
algun
##cion
cos
he
tra
comp
##ana
##con
##na
##ust
Con
dis
hasta
pe
cab
Se
##mos
##enta
Re
desp
ter
vi
ya
nues
##cas
pu
##eros
##bl
co
todos
em
##rib
son
muy
ad
señ
so
##car
##ís
No
##amos
##uel
medi
ve
##ador
##ena
prov
##ias
rep
##cio
##ren
##cias
##ven
homb
##eneral
or
prim
##arse
Mar
fué
pues
##so
lu
##ros
ra
mismo
##jos
te
nos
##tal
deb
##ués
##eces
men
##ér
da
indi
##ja
cap
##des
##mas
##fici
##ña
prop
él
cal
parte
##ños
##cos
cuando
##ín
ven
tam
porque
##chos
##iendo
##ian
emp
##ya
col
bien
tr
An
##eron
ch
au
donde
##fer
##ún
bu
##eg
##antes
tu
##udad
##tras
##bre
##ario
##tado
##gua
había
cual
##iento
du
##empo
##cip
lib
fa
tien
##if
##all
cre
aun
mon
##tó
##és
pueb
mil
##ió
nomb
inter
##yo
##par
##til
tiempo
desde
##emos
DE
Ma
les
ju
##dose
pos
##ern
##tad
hu
##ala
##ías
habia
ciudad
her
##tin
##pon
Los
toda
De
ella
sab
después
cer
##ierno
dist
##min
Ca
##eci
llam
##ito
han
gob
tom
##bién
##dia
gu
##cen
vol
inf
##per
##illa
yo
##fec
##ese
##lti
In
##00
##zo
##ac
nue
may
hacer
##ona
##tan
##ieron
prin
otros
##tri
##van
Ch
##idos
conf
fin
##cur
Ju
parti
##zas
##can
##iera
##lu
Cu
ej
##gos
##itu
esto
##lig
##iente
##var
##ita
##man
todas
otro
también
##dr
general
##bar
can
os
contra
cono
##oria
hi
const
pers
##osa
##ista
##sa
##rist
##úbl
otra
dec
dej
##gn
##ion
val
pla
tal
Car
all
princip
ro
deci
##cción
##ior
##rig
está
##pos
quien
##tur
uno
##uego
pun
mayor
segu
pob
##ril
vez
##che
##esti
##and
##dido
sino
aquella
##cil
fi
hay
##tura
ellos
sent
##rado
señor
pes
ag
tier
neces
Ar
san
tres
Cor
##ío
##ase
dest
##eza
pal
Fran
##iones
##paña
Su
va
así
ho
pon
##tre
##bo
rec
años
ins
op
##chas
mor
menos
Gu
mal
reci
##dar
Juan
dar
of
pi
ay
dia
##vid
guer
##gan
##itar
##adre
poco
segun
haber
##empre
estos
var
##vos
fal
casa
15
vo
##nos
Pero
capit
qué
fun
tiene
##dió
anti
##miento
##eo
solo
reg
##ima
pueblo
##anos
lleg
año
estaba
##gún
siempre
Com
hombres
aqu
##izo
min
muer
exp
españ
sido
##oles
parec
##fic
Pa
gra
antes
tanto
nombre
dicho
vida
##ár
ce
ocu
##ición
cada
##guas
puer
##olu
mes
últi
##sted
##RI
##rar
##áo
inst
##más
verdad
##íti
Cas
orden
##almente
##ton
sigu
espe
##cido
algunos
##vas
tro
##he
ele
##ándo
hombre
pol
##adores
##lación
##gen
poder
hecho
otras
##II
##ándose
provin
##ria
dijo
medio
##cis
##fe
ah
cuan
España
usted
cier
##ancia
##atro
mej
mer
##ud
mun
##qui
##jas
##gra
##li
Des
tar
##jer
allí
mucho
##OS
caus
##AS
##eno
lugar
Las
estas
##ién
##zón
17
##lic
tierra
entr
##tud
##tir
serv
puede
encon
##ene
##úm
ést
ade
##imo
To
##ura
aunque
form
##lor
##ible
##tivo
##cep
Lu
hizo
pie
fr
bar
tor
##udi
decir
Mon
gobierno
##gles
qued
##pi
ne
##ER
Si
real
guerra
Un
##tamente
##pu
##mb
fe
##cía
##endi
##imiento
Dios
##ves
den
sub
##pec
##onces
hist
##cri
bo
##ort
natur
ref
##zos
traba
##éri
##zar
ide
nin
##vil
##ES
##cal
eran
##cito
is
##día
enem
Jos
##vis
rey
16
guar
hon
##áb
hor
def
autor
##ques
dere
##ea
aquí
ofici
contin
##enas
##eras
entonces
##omin
##ación
Lo
##idades
nada
misma
jun
bas
quer
##ería
ir
##tis
efec
Le
##ribu
As
bajo
##elig
fran
núm
ese
go
Qu
fam
##imos
tras
tem
esper
públ
Par
##inas
hal
##erv
muchos
sig
embar
##ome
af
##tam
ta
fueron
pens
##icos
##pas
encontr
conse
##ge
rev
Gob
##gas
##ables
##ord
hacia
cin
produ
##AN
lar
##EN
##enos
##uso
hum
mujer
noche
sí
grandes
consid
nuestra
##ha
Santa
sos
##ólo
José
10
##rante
ley
liber
apar
##oc
cuer
##ñas
grande
tran
##taba
palab
llev
##end
##icio
##br
especi
cir
ejér
escri
##idas
##ble
Ped
Man
luego
punto
##igo
pron
##vers
indios
modo
##CI
rio
##inos
Per
nuestro
et
mand
Val
veces
hace
temp
##arios
patri
esa
Me
exist
Que
##AR
ru
Am
##tados
##icia
dice
##orm
situ
día
demás
plan
##iv
casi
acu
cuatro
il
fu
aquellos
12
##ciendo
obs
##gr
##rió
ll
recib
just
mejor
mom
##igos
##ST
ante
Pedro
##ON
inc
present
##cul
##ne
Na
##cel
##ctor
##AL
país
##ensa
##cios
Francis
Sal
##vor
estado
Ba
alguna
##gres
sup
##embre
tri
##jar
cri
cr
cuanto
person
##mon
juz
##iza
descu
##tí
políti
prof
Este
Sr
mir
unos
##orte
peque
14
Co
##cimiento
algunas
at
##ruz
##ág
##ración
obje
##tiva
##cono
condu
mano
##igu
mundo
##cular
conven
Francisco
Bar
número
forma
desa
pueblos
##vió
via
primera
##tores
##leg
cuar
ejército
camino
##vía
estable
##ció
Ha
continu
pudi
hall
11
có
##icas
##reg
Pro
levan
Mi
natural
##tel
##isto
hoy
padre
##tia
##jes
ellas
##una
cuya
ojos
hub
##ác
##ientos
sea
Don
ahora
super
cuyo
cosa
##uelo
##tando
dé
Bu
agua
dias
quier
Señ
resul
ofre
fuerza
##rir
mos
##encias
mí
Mé
je
neg
##uro
habían
##oma
Para
edi
causa
bra
distin
arro
famil
habian
vis
cosas
##cre
##mpl
der
provincia
Rey
##cun
nuevo
comun
tre
obra
conv
dire
13
Ro
##esen
noti
Po
tener
##yos
##osotros
algo
sólo
habit
muerte
##cado
##inar
armas
igu
##ile
##ría
manera
bus
sold
000
dirig
dio
##ire
nuestros
##cial
##ece
##dio
ri
repres
##culo
encu
##ós
##fica
gri
##erio
##ific
##glesia
Qué
cabeza
##tación
cuales
##dor
##gado
Col
##ilo
##cional
##dir
##entras
llegar
rom
##áti
blan
comer
##men
##sos
##pit
##ritu
muchas
LA
contr
##anza
##amiento
tes
españoles
tenía
publ
apro
estre
##via
hici
Cal
##có
ún
Yo
reun
20
##onel
##rando
##ecer
Ab
comple
amor
inde
##ua
relig
gente
##tio
están
##ho
extra
caso
##bió
cent
##yó
primer
cora
##uesto
inm
embargo
cabal
vista
vir
lado
pl
##iso
##bas
##cin
Mu
##pul
##ública
##lado
##ral
##gre
##idente
Gobierno
fue
cont
ningun
rela
acom
apo
ban
oblig
gobern
Esta
efecto
clas
##itos
parece
##segu
fuera
tuvo
tarde
##OR
manif
tienen
##dida
suces
##eración
favor
escu
##media
último
##gue
debe
##g̃
caball
##torio
Estado
##lica
compañ
consider
estu
##char
##und
cl
##dades
##anas
##tá
##ete
ción
##unca
Gran
capital
##rad
fra
buen
Anton
jo
sil
manos
the
eso
##ell
cub
on
visto
##ientes
##tener
cerca
estaban
sen
antigu
cuerpo
acer
siguiente
historia
##olución
##illo
Sa
bre
pregun
momento
##ilidad
hemos
##fo
##ira
épo
descub
fues
seis
##erva
inv
encuent
paso
##ced
constitu
##ll
II
##ama
circun
encar
dado
Te
mucha
##alo
##quier
##terior
##uela
oro
diez
##migo
hijo
##ip
##table
algún
aten
##tada
##fa
Ex
persona
##rden
##ender
##tido
ata
##ismo
Mad
##greso
pin
libertad
##eles
Antonio
conqu
ol
compren
alma
ocup
Ya
frente
##ará
##IST
##AD
recono
herm
inmedia
Fern
##ign
##rid
objeto
juzg
##tivos
particular
partes
##pecto
gan
##dra
##ál
##don
Is
primero
siendo
vuel
fon
##íritu
##respon
Rep
##sión
##ítu
##tiago
##cien
##ing
##mar
isla
ou
Pe
##cta
##istas
batal
crist
emple
General
voz
##cor
##IC
nosotros
puesto
##LO
##osos
##iene
interes
25
tenia
##izar
civil
##mientos
plaza
nunca
##ial
cinco
acab
##tante
sir
dese
leguas
durante
##ill
éste
cara
impor
cul
Santiago
##ju
suf
militar
ocas
das
respe
personas
lab
mientras
domin
##vieron
costa
##ger
figu
respon
##entar
contes
Cuando
calle
##yas
CA
lan
sor
fir
##éndo
soldados
##onte
##olo
##iciones
19
razón
Bo
podr
leg
cierto
ár
Cab
##por
cuad
##itas
vie
##eta
and
##ús
enemigo
##cto
minist
##ares
##gust
correspon
##osas
enter
##ental
##tiv
aquellas
capitán
fuerzas
##jecu
Can
tér
difer
So
##érica
valor
buena
María
días
campo
bel
tos
fel
vein
envi
##rio
hubiera
Cam
mente
##ris
##rados
poner
casas
##ban
suce
cuenta
##oro
constru
##taron
##iro
iba
##g̃a
dicha
aband
##edad
##cciones
mov
##ñana
##tió
##alidad
##cida
##ór
##mento
estar
palabras
Señor
sé
##minist
época
##éis
##gular
cumpl
##orn
##val
vues
##ispo
saber
espíritu
30
atra
Francia
mando
##ído
er
##aria
##stan
án
comen
felig
##iores
seme
terren
mem
##rica
cómo
pronto
cien
puerta
población
##zó
abs
orig
duda
tropas
##ísimo
escrib
##eció
##iego
mater
##irse
##bos
estudi
##quiera
gust
##ula
Mor
Madrid
##be
terri
viv
mad
us
##ierto
Nue
##esta
pais
inte
derecho
quin
Jun
##clam
##ficio
carta
somb
anim
be
abandon
##cti
Di
lim
siglo
##cir
##eric
vas
Como
pasar
idea
mañana
##adie
##nas
##ctu
##ard
ello
##unci
##entas
##mit
todavía
fund
etc
##ber
luz
##rez
satis
desem
disp
##gó
esos
semej
cele
##lante
villa
familia
##ácter
##titud
Mo
HIST
fil
unas
##tran
preci
América
Era
falta
dep
24
enfer
conc
##orme
aleg
##resa
##inación
##vent
opin
##vin
21
vin
##cid
22
esf
volun
agu
Sin
comba
paz
llegó
alcan
##isión
ces
veci
tomar
##pan
##ires
##omo
sur
dol
conce
ocho
puerto
arm
corazón
##xico
aguas
acompañ
##diendo
ejecu
indu
##rada
dif
trabajo
pag
Hab
desgra
gal
##erdo
amigo
##EL
bor
habitantes
##fes
##llo
##ide
len
iglesia
##th
Luis
fru
##éndose
##ORI
pesar
varios
presente
hijos
secre
refer
carácter
redu
nueva
##cidos
patria
##zado
trist
van
ur
nego
será
Pres
español
##IN
##IL
suer
exten
México
pelig
señal
##enci
lín
colon
##tán
li
tenido
Ja
hora
divis
##tica
##tín
trans
vic
Manuel
sitio
##ización
##icios
pág
costu
ima
##ítulo
artí
##onso
principio
##RO
##ye
corri
declar
Una
##dición
##ioso
bal
perten
bastante
cie
primeros
##TA
hermos
pad
cuid
ros
23
soci
perman
partido
indep
clar
pudo
##iles
asegu
Desp
##ándole
palabra
##rdenes
gas
República
sangre
Or
fuese
madre
sua
##iano
##iado
aún
triun
##rera
import
Du
pobre
lí
hos
dentro
##ÓN
181
##taban
ejer
##ix
igual
Pas
##ecido
##ema
hablar
recu
obst
##ró
corre
public
cit
mismos
##ola
joven
monta
##yec
##íamos
Gar
num
frances
gar
posible
elec
##sion
Ale
media
deter
expres
##uesta
##rim
pasado
pan
enemigos
##dias
habl
coronel
##vidu
pasa
suerte
ninguna
Tor
ge
##ron
segundo
nao
pap
##ám
nadie
horas
ocur
Jul
hubi
##gna
Jo
fuego
##amento
manifes
marcha
alto
salir
vino
política
Perú
##cuencia
fuerte
Ten
ejemp
podía
dad
az
##emb
##RA
pocos
Ah
##unto
obras
##illas
espa
ilust
profun
##rag
Pues
##empos
##ine
jefe
Así
##posición
clase
##culos
Real
##mentos
pueden
nuestras
28
Buenos
26
##arca
##esión
principal
come
individu
##cían
ori
nes
id
Chile
182
Vic
aum
##iar
cob
##tilla
administ
##toria
apre
gen
llan
##esa
27
reco
ren
##crip
Mig
vesti
##rido
nación
har
##ts
preten
actu
im
##vel
Fel
gol
##imientos
justicia
##iga
pen
gobernador
##dez
sabe
##iéndose
lit
dejar
Después
EL
##dan
##rá
expe
largo
honor
fo
retir
sem
divers
tiempos
##ísima
##gal
Mas
admi
órdenes
##ír
color
int
##fico
##TU
resist
Miguel
tales
fre
din
ron
proce
##inado
termin
##gü
llamado
hacen
Estados
##eran
##cad
llevar
noticia
puso
##bio
##iosa
nu
##ono
Fernando
pies
suelo
según
Do
hubo
gener
cé
##endencia
##uda
##íos
Aires
##lem
##stitu
##ORIA
##OL
esas
pesos
ras
Carlos
##tario
##pir
Ra
Norte
##yendo
halla
público
volver
cad
##ror
Ay
cur
DEL
##fi
um
leyes
jeneral
Her
##cientos
##quil
influ
##ñad
##ridad
Entre
##tico
ao
varias
tur
##ong
mujeres
fá
prue
trad
##rer
##tillo
##ieran
Euro
Rio
Fe
pros
recor
##bu
pod
hicieron
oficiales
veinte
##para
##turas
185
cabo
dan
amar
##hu
jam
terreno
Min
apenas
árb
##ást
ga
sist
##tón
ech
servicio
destru
interior
##quer
##iva
repar
tú
señora
anterior
##laciones
amigos
situación
##ficios
CAP
ign
hechos
##cación
##tus
nacional
186
HISTORIA
empez
habiendo
testi
pala
provincias
prote
bril
##ianza
fer
29
ideas
especie
##iedo
##TE
Tam
##tien
estra
necesario
##bel
##édi
nave
Gua
sorp
pró
##gía
conci
necesidad
proyec
III
entrar
capa
perfec
Ob
##sta
represent
territorio
abund
##iedad
propio
##chi
tengo
sue
señores
Cruz
superior
##dios
importan
Ori
##isa
aux
deber
conver
reino
##stancias
##pt
lig
haciendo
motivo
repu
##elos
instru
##andante
pública
bos
decre
dul
##com
Desde
Hu
ningún
##inta
cho
Europa
conclu
Ap
##áp
trib
gr
##icación
venta
autoridad
##ale
Monte
cia
##ame
propor
Tu
##anes
haya
fondo
Santo
##tería
libre
##adamente
quienes
impos
Pla
ví
##eral
dic
##diente
VI
plata
ev
sola
separ
Capit
Ta
podia
corte
##cipe
##RE
##gosto
lejos
arri
cielo
##tera
puntos
vent
inten
organ
##tía
distingu
vig
##rios
##ies
Ver
quedó
meses
##dieron
permi
viaje
##cl
##tarse
antiguo
##ipe
comercio
Sur
sacri
allá
adelante
##onz
nar
acep
noble
Hist
hacía
fácil
añad
##eraciones
alguno
##rible
americ
elev
mostr
##gel
##ila
boca
##lores
##tivas
Go
voluntad
Pue
##loria
Villa
hija
183
184
rode
lengua
colum
##cimientos
viol
libro
mandó
conte
31
siete
##iere
##jado
Pr
dom
##gla
##tidad
salió
dign
tantos
ense
##rey
maes
llegado
línea
Ve
conocer
auxil
naturaleza
##mir
50
ocul
hallar
ses
eleg
##lin
Ven
##ges
##tero
avan
aba
tin
##aro
Gal
##jero
##té
esfuer
##ortun
asi
##tadas
ocasión
río
recur
ind
##ierta
escla
Sus
Domin
##óm
oril
tas
principales
magn
rob
##elas
tanta
##mino
##cienda
revolución
obe
distancia
prob
dando
Diego
segunda
opinión
##ite
ésta
##zco
absolu
oc
##rito
cargo
##zan
tribu
##gáo
docu
##bal
##ósito
##zaba
Be
movimiento
##imas
presidente
##jeros
Bol
##erra
##TO
##CIÓN
ec
##lara
He
memoria
Crist
empe
vecinos
atre
quiere
cruz
iz
Puer
casti
##aso
Pal
Pre
##ildo
##dal
bene
##tades
ingles
##ctos
piedra
ambos
sign
##till
podido
##monio
##iosos
##terra
raz
además
mais
consigu
compr
IV
centro
medios
arreg
tenían
hermano
##ines
##LA
##dem
cuesti
tir
##bles
Ber
llama
br
prepar
mez
187
quis
común
antigua
arti
daba
Ci
##cados
pose
ín
extre
indust
##tismo
circunstancias
última
##didos
determin
fort
Esto
suel
##one
gru
##gación
calles
Nueva
##lla
vio
march
##icip
40
parecía
##iamente
Cuba
Ingla
arre
##ñar
pasó
arte
dolor
##ficul
aire
doña
respecto
dur
##fía
Sol
coloc
contribu
impres
##ram
caballo
##entado
moder
##UE
##rique
Ter
procur
prove
batalla
repe
importancia
atención
##jó
único
entrada
##poner
##gl
preciso
tierras
rique
decía
junto
##cando
menor
##arias
##onse
##pre
debia
has
##pol
virtud
Jes
conserv
imper
##tales
cuyos
##ctubre
##quis
dinero
##tl
suje
seguir
##diciones
za
##ecía
volvió
gloria
tomó
XV
##villa
##cada
caballos
##encio
Ram
despe
Congreso
hubiese
pelo
##iana
ado
##onia
incon
olvid
##óme
##mbres
cau
ng̃a
##tiembre
cañ
pra
##íncipe
pene
##ere
Carta
##este
vos
##TULO
defensa
dificul
Ade
##ivers
contrario
Felipe
Minist
extran
Pu
despa
##ecen
sociedad
Sí
Lib
##III
EN
##si
principios
conde
##ime
Inglaterra
concur
dirección
##erador
##ablemente
Del
##arro
sistema
hallaba
derechos
amena
patrio
muerto
multi
asist
##ianos
jue
##cí
##eas
edad
admir
término
trabajos
##lez
##pia
##ice
gusto
desapar
##fac
imag
ram
camp
Ser
##poco
afec
Provin
lin
##cab
##uras
Ur
delante
Cap
##TI
propia
##ierro
##rero
##ré
noticias
##caba
prision
##lón
doctor
próx
##ches
cuyas
dió
bon
ep
Castilla
##quí
elem
due
Presidente
qual
dedi
##OM
Cór
##pl
dieron
##ardo
##vol
##ervar
servir
Ce
Je
dejó
Unidos
valle
exclam
Vir
altura
esca
lla
Todo
##idor
ber
seguida
aj
##teriores
##uña
adelan
acto
Emp
##udo
sober
##ND
gén
queda
ord
##iese
##anto
cla
sería
treinta
##umb
##xo
mui
iban
##trodu
ignor
agrad
##gada
##tivamente
##ól
Au
observa
creer
conquist
emb
celeb
avis
doc
##enso
RE
equi
##orma
demos
Julio
##tion
Gonz
fortuna
acos
##icamente
ran
miser
independencia
solem
derro
origen
##tés
##trás
##usión
##mbre
##CA
naturales
##óg
observ
resultado
brazos
##riendo
Nues
##tiles
acción
fan
izquier
lic
exig
Martin
división
eu
debía
##tamiento
consegu
salva
título
fecha
mit
##cidas
##nes
Vil
reme
ejemplo
AL
ens
quién
seria
Id
Imp
Roma
entus
sentido
Tom
norte
demas
franceses
rum
pena
##partam
existencia
##legio
32
##aría
empren
Ru
Gobern
sepul
aconte
tendr
conducta
rios
##arle
glor
Hay
buscar
antiguos
tantas
León
presencia
Martín
fron
papel
mol
rebel
mist
##xic
jamás
recibir
##tz
interés
##pez
35
aprove
viejo
##ablo
semejante
##arlo
##brero
triste
dipu
##au
Alonso
urna
dichos
##arla
facul
Domingo
ple
##jico
cierta
##idencia
ale
simp
uso
encuentra
enci
pié
##sul
##iencia
##tim
Guad
##vio
alta
respec
exac
culti
##cés
All
Ital
grave
Tal
derecha
##gio
##orio
entra
difí
reales
pul
##lad
##iéndo
pequeña
188
##iste
introdu
##crib
moral
representa
carac
mara
silencio
##viembre
campaña
33
bur
oficial
conquista
##ant
##ocu
Cos
##izado
Os
nota
Ni
artill
pequeño
cru
Iglesia
ped
ingen
##tarios
intelig
soy
hom
herman
Za
Fer
nie
##ment
Ad
##cidad
regres
templo
histó
##uri
atribu
solici
consecuencia
Dpt
##obre
exam
deseo
Cer
Ne
##lio
Fr
Res
acerca
##él
##tenido
aus
convento
buenos
mayores
##zada
##tiene
ocupa
dejando
impe
aspecto
##raba
##dencia
##inario
##umbre
##idi
doce
##itado
##tiendo
palacio
##óse
cuarto
colo
##tador
##entemente
ben
##itud
naciones
##pado
##gados
exper
##gno
sum
haci
salud
española
descon
desen
Mer
pér
##iódi
##qués
quiso
buques
Bel
##ezas
pueda
infer
notable
##jan
padres
acaso
Dr
comisión
LOS
Cá
##dill
ciudades
solamente
not
##onal
espacio
sim
islas
Aun
##ich
bienes
##inal
pus
últimos
##ónde
vivir
Bal
##viese
sar
recom
##tellan
##rón
##uca
relación
sean
afir
dob
Cortés
cualquiera
Italia
##tem
cha
ciones
Aquel
oscu
##érez
perder
parecer
deben
XX
##yen
dor
pudiera
some
##sas
compon
Historia
##rieron
numeros
escuad
cantidad
tropa
Indias
refle
regular
Alf
resol
acuerdo
##abri
guarn
arriba
adqui
comis
prueba
##GU
##yeron
##tidos
Aust
árboles
tratado
Có
facil
sorpren
ast
junta
asunto
entusias
diferentes
pier
ministro
div
céle
cura
tampoco
lucha
már
Pon
alar
figura
##ori
viene
peligro
comandante
Mayo
##tida
cuidado
36
Ho
larga
##áis
reti
resp
##zob
prác
revolu
apoder
mala
Sevilla
##ático
siglos
imperio
Lor
cambio
Mal
Puerto
##ini
##asen
##didas
##lones
apres
Vera
periódi
##xim
##emente
Nic
Lugo
##ifica
Méjico
Esp
diri
##ibles
##ED
verdadero
Bra
oficio
dicen
##vido
dorm
pec
jefes
algu
cate
ine
cel
propósito
##tuvo
tamb
##sp
individuos
##ámara
flor
enga
confianza
concep
nuevas
gentes
Cha
tab
Gobernador
costumbres
##col
180
divi
llen
siguientes
##erto
##éase
##ñado
verific
##dras
##anzas
34
Cre
##gi
th
supre
encontrar
descan
compañía
éstos
##undo
prome
100
poca
##íst
relaciones
metros
Oc
creo
faz
##abe
mesa
tenian
mismas
francés
juris
seguro
izquierda
lleva
##arqu
##ledo
titu
quiz
Lima
##rán
morir
eter
blanco
Valencia
escrito
intereses
Portu
cualquier
importante
mues
##eda
precis
nombres
instante
montañas
má
##cerdo
Todos
feliz
##gent
negro
##ices
formar
ador
##tific
descono
##tase
##isco
flores
Pueb
##ém
popul
quedar
terc
dem
##eme
quiero
##adora
##guar
##cuenta
puedo
institu
arran
##grá
deba
edificio
##ilar
caracter
pensamiento
especial
Granada
nueve
SE
caballero
##rum
espec
Doña
##yor
querido
Sta
cen
lugares
##hib
Va
empresa
actual
contestó
log
##rano
dios
llaman
firm
recibió
euro
##dón
golpe
##tol
nuevos
cole
contemp
Pan
Guer
imposible
##siones
presenta
##vado
##éndole
desarro
##trar
##ferencia
quería
rostro
fus
campos
evitar
##iosas
##quez
##jada
atraves
##ENT
##ierra
Ben
Ciudad
tuvieron
consul
##minos
##IO
insur
Mr
Ros
##ph
momentos
recursos
teniente
breve
##ulo
alim
Andr
acord
república
sospe
##zando
costas
entró
estuvo
##icidad
##tina
ases
combate
Constitu
suyo
arras
artillería
recon
Capitán
total
mexic
##abana
necesit
sacar
vul
##ure
XI
##venir
obstante
##rase
Rec
habita
37
sucesos
##rigo
militares
45
##cepción
triunfo
Enton
susp
##cón
juicio
discur
sac
posición
terrible
sencil
nas
##ivo
##diencia
municip
Ov
términos
venir
recibido
ráp
conocido
caer
decreto
edu
seu
mencion
##guna
mitad
acre
materia
discu
ido
satisfac
aver
mg̃a
##jeron
difícil
incl
hacienda
gracias
viento
venido
##guay
murió
mag
##tró
sacerdo
cincuenta
condiciones
fáb
Tra
##IS
Entonces
diciendo
europe
socor
##ormes
tí
lad
resuel
Son
triunf
cuestión
protes
García
adop
##radas
esco
##entales
siti
llor
frecu
puertas
Estos
##rea
declara
proclam
##dicion
habría
También
38
Ga
llevaba
género
obispo
inmediatamente
predi
humil
proces
mús
ninguno
##lada
##ramos
méri
##unda
mur
escal
Bur
Oh
caballería
##are
##jen
apa
vuelta
ora
Bern
sufici
Agosto
##rico
teniendo
respeto
##ífico
pagar
ánimo
firme
niños
##idores
Mag
nom
perdido
alter
baja
conocimiento
seguridad
conj
##gues
resto
##terio
enseñ
familias
suma
##demos
libros
raza
ejerci
##rasil
despre
ass
cartas
##uno
Pag
Abril
portu
conserva
muertos
esperanza
religión
##idade
ciento
descubri
##mania
hermosa
desgraci
castellan
##dado
##sar
Córdo
##guez
##rí
##ade
minu
santa
##llas
corona
jó
habla
infan
##tudes
pobres
##lesi
artículo
##enda
generales
pecho
curso
negros
##entó
Fué
impon
##cripción
abajo
confes
conciencia
grado
comunic
ali
social
39
bol
Vi
extraord
verdadera
vuestra
##uestos
funda
político
CON
sentimiento
primeras
amist
llu
##stancia
##ábamos
##abilidad
príncipe
##dientes
ape
sens
niño
tomado
desgracia
avent
compañeros
cuerpos
medida
administración
##ática
indí
dici
estoy
llega
proporcion
resolución
##aman
Dici
tratar
costumbre
castillo
primi
caci
adver
##rían
##lico
digo
hacían
dejado
##uelas
brazo
##tumb
Joa
cuantos
60
ES
descen
pasos
Toledo
existe
42
constante
ciencia
Conse
hero
sul
##lares
sombra
Oviedo
fres
##usa
ja
azul
podría
Em
tomo
rig
completamente
##aran
##iscal
teatro
##quie
##uco
pronunci
cruel
haberse
##ctores
Coronel
##mites
##abel
tenemos
mel
entender
Junio
multitud
monum
miento
contar
##quia
##ke
pedir
ans
##erías
##pó
igualmente
monte
causas
abra
##lon
consejo
##veres
nove
deja
conden
ambas
Isla
##zaron
Españ
Cómo
demasiado
siquiera
servicios
Sil
singular
##úa
Hern
##zon
##viera
##cá
##rup
mirada
##ctura
bueno
apos
##tantes
profes
reyes
negocios
Alemania
sigue
llegaron
##edes
##cionales
##tres
cuarenta
##ienen
##IA
alcal
##dó
##omas
Portugal
prud
Art
sosten
preguntó
victoria
celebr
cuán
manda
##lesiást
pocas
enferme
av
##ICA
precip
recuer
jóven
posesión
gracia
Austria
minas
fortal
esfuerzos
tus
sú
Maria
privi
Enero
proyecto
Octubre
##ij
##uma
41
48
prom
parro
encan
tranqu
500
quiera
industria
reina
conveniente
conforme
escas
piedras
##yan
##sula
##ñez
disposición
##amientos
recuerdo
hé
##amb
Jesús
despo
##ual
influencia
animales
hacerse
Luego
oportun
200
orgu
fuertes
##dral
traslad
Cons
infin
déla
##arme
marido
inú
podían
reclam
confir
cambi
Blan
excel
##gon
##idamente
##iros
montes
##ERO
pase
salida
Sar
toma
ves
casos
trata
defender
dulce
##CO
util
elementos
##lados
bár
##pes
tribun
Fu
encuentran
##entan
célebre
situado
Padre
##CION
forman
44
##jaba
Colomb
invas
remo
Barcel
##dores
##aciones
Reg
estudio
ost
##endido
doctr
médi
riqueza
##illos
##ys
##idez
éx
objetos
43
jurisdi
rin
paci
##ella
duque
Habana
operaciones
espal
jorn
supon
Enrique
santo
efectos
jur
exclamó
Junta
Plata
obede
propie
Diciembre
compar
Gra
##juz
actos
hierro
curi
##vera
miemb
##grafía
##iales
##usto
##icias
soldado
##IB
llamada
Marzo
##arquía
aca
jard
##rosa
##et
mandar
corriente
desempe
Provincia
Catal
mío
Reyes
Allí
París
situada
SAN
##xto
##vención
hallan
Vicente
ama
fati
##pira
poeta
Dia
pensar
##dillera
##partamento
Agu
presentó
Sab
grues
viendo
completa
esposa
##tidas
expedición
Da
vícti
##isla
Andrés
##sto
tum
deses
##cura
escribir
hospit
lej
##ágri
practi
madera
volv
entusiasmo
Flor
human
##cieron
Mis
apla
bes
acostumb
##zados
única
Pala
carne
alegría
gastos
amo
autoridades
comb
aplic
base
partida
puente
edificios
##icion
Estas
##ándola
sentir
##ICO
AR
Bas
datos
che
destin
Ara
tol
enf
##cina
dónde
##vuel
##ábase
rem
buenas
Rom
##ut
##iertos
lágri
##gando
##dían
claro
mejores
consa
##tara
##stru
Barcelona
Aquí
Porque
hermanos
espan
##ciales
Véase
esperar
##eramente
destino
##UM
propiedad
fuesen
supo
alde
##ecre
##eres
estim
arb
##garse
desta
llegada
clases
Pérez
diversas
miedo
pá
adi
dispos
Ana
poblaciones
##gido
sala
prisioneros
##ende
##quina
nombrado
llamar
razones
##gri
estando
##uf
Ang
Brasil
documentos
sel
##teros
sostener
encom
resistencia
ingleses
calor
vel
flo
espi
##carse
citado
placer
Quién
delic
voy
AN
##chado
podrá
recha
logr
##arte
consiguiente
abrir
Ahora
##orias
##garon
Nada
límites
##amas
Tar
##ane
##mirante
qui
retra
##taciones
46
vac
##endiente
cuadro
propos
Señora
comenzó
murm
irre
realidad
##ínsula
virey
ton
##teca
desembar
peso
cortes
pele
conten
##ambre
Mel
##ivamente
desper
repro
##OB
##tieron
univers
CAPI
##inaria
47
Bor
##ísimos
##iero
##ck
piezas
##jando
occid
espl
emperador
particulares
hecha
públicos
##íase
mandado
##ins
encontró
##bil
Riv
respondió
anteriores
ídem
temor
fle
inquie
##eca
encer
Coruña
cristianos
##untos
habrá
completo
popular
##eratura
##anda
Algun
blanca
há
suya
ayud
ahí
eclesiást
cari
males
orilla
comprender
##cadas
ble
Dos
consum
ocupar
columna
impul
Aunque
medidas
Rod
##tividad
tru
asomb
superfici
jul
##fé
mister
aco
vamos
##ID
almas
distrito
##tua
##vación
##bro
humana
design
##genes
##oración
##cam
##untamiento
##up
especialmente
##uo
busca
Conde
buque
Ministro
digno
##gena
perpe
Th
daban
amistad
cadá
##juzg
Pi
lleno
##ló
econ
persegu
ciertos
Cara
##sado
Isabel
##vador
oriental
altar
deten
##ulas
éxito
bri
##ison
desn
decia
##idal
##vios
##ecieron
apoy
histori
Ger
remi
bosques
perse
##camente
Joaqu
long
cabildo
provis
merced
fines
siguió
convo
Agust
caminos
suyos
bru
Sen
rico
correr
##dente
torre
cerro
reconocer
55
IN
ace
Córdoba
devo
ala
##diz
##itó
punta
labios
pura
##glés
##gaba
sentimientos
inspir
gover
tenga
##ull
suceso
gobier
##ficos
##mán
##ím
dirij
congreso
##rump
matri
##UR
dispon
diversos
leer
Il
Tan
##erna
llamó
##ticos
Consejo
cató
##nal
Fa
##hat
Mayor
Alvar
ria
artes
explic
##emia
Inf
Bre
##gro
espada
ment
carrera
compa
niña
Noviembre
##citos
##sación
mira
persu
##bia
Sobre
orillas
evid
Vall
países
##ándolo
ataque
Vol
Nos
##rias
piso
vecin
conoce
taba
foi
formado
misión
PAR
detal
incor
ciertas
rendi
mérito
semejantes
lágrimas
pañ
##ficación
inteligencia
Colombia
##dian
##ses
##tino
Febrero
##edor
##minu
vieron
##ccion
##plic
##zobispo
asal
1a
pasaba
##estas
##gadas
ilustre
non
pare
rece
##iqu
pien
##uncia
vapor
capitu
civilización
fen
dirigió
##ecían
debió
ré
estilo
kil
##ález
oir
##oral
elo
simple
perío
ofrece
##ore
plu
mesmo
indio
aprovech
mé
##reros
dije
infel
comunicación
viva
establecer
culto
Alcal
capilla
Audi
Fil
pone
temer
00
ademas
ruido
##remos
49
ener
Pol
conseguir
##video
pequeños
pérdida
##hua
notables
##cruz
lago
extremo
jóvenes
ganado
cumplir
##ciente
maestro
Eu
Pablo
##pie
elección
Lon
dispu
##etas
Mientras
prodi
rib
tradu
##grado
colonia
trono
instrum
precios
llevó
##dula
amp
##adic
##iertas
Alfonso
establecimiento
##amble
insurre
##caron
##ancias
espres
hubieran
Az
##mina
Castro
alf
ciudadanos
formas
inglés
##amo
carre
##blic
consideración
Jer
LAS
haga
tado
##tencia
##caciones
##ándoles
condición
##ieren
colores
restos
seno
##ticas
80
his
ancho
anunci
remedio
##leta
capaz
##san
gua
veía
agri
band
encima
prohib
importantes
debían
corta
vuestro
labor
##gusto
ambi
belle
##entro
##ni
Bien
anci
far
quedaron
##frica
##oros
Nuevo
dra
calidad
progres
quedado
enteramente
##cla
legua
salido
##od
revolucion
##lid
apren
##cao
quince
##iblio
##ragón
Igna
disf
Constitución
179
##CIA
letras
mayo
preocu
lhe
Lle
nombra
defens
aquello
##ÍTULO
marqués
##tuoso
adorn
fiesta
construcción
##rin
González
##izada
principalmente
dila
críti
CAPITULO
51
esclavos
##bes
grupo
ul
##iden
##PA
exa
local
##vés
Grande
pela
compe
bah
propios
Sebas
hues
##GO
##cultura
romp
salvar
52
Liber
##adero
##into
envió
incen
columnas
##udal
##roso
##bra
Nicol
basta
Pen
##ándome
##licos
diz
sabía
caballeros
##amor
bárbar
Montevideo
much
batallón
adj
hermana
llena
armada
conservar
diferencia
artículos
ruinas
estran
esté
tío
##alu
##uti
##DO
propon
consecu
Casa
matar
hallaban
segura
##dedor
unión
concepto
##iss
cree
##ezuela
clima
abril
guardia
sr
##usos
CAPÍTULO
quem
peda
inj
personal
Jefe
VII
##tones
bro
##mer
deseos
Fé
##inete
Segun
hermoso
escuela
consta
Mil
##her
echar
##abal
Hasta
autores
maravil
apreci
##uc
caudi
héro
rato
54
honra
##lia
comprome
aquél
##uez
guarnición
##amá
rica
só
religiosos
##ff
Asia
Oriente
canal
som
##igna
bosque
hostil
descar
felicidad
vivo
Zara
hacerlo
inoc
56
levantar
únicamente
Fra
subs
##ísimas
ques
escol
sueño
##abo
vengan
##stas
seus
miembros
geo
##vedra
millas
53
##omía
millones
Virgen
ais
##ívar
cuartel
yer
aman
indisp
menes
sierra
traer
andar
secreto
coron
fol
##árcel
quedaba
##úcar
verse
##bres
##endientes
##didad
##tecas
distribu
curios
##zaban
vulgar
Ge
háb
alre
heridos
##llos
Ignacio
Mur
vive
rar
sobr
Navar
presi
##arcas
Lleg
##cán
dichas
escar
idi
profundo
gor
restable
atrás
peligros
Tiene
Mendo
##jera
Cortes
##caban
##int
Loren
salieron
rej
genio
##titu
##ique
escribió
mue
##hor
300
precio
##ham
exces
archi
pareció
##qué
Paris
##enciado
Rob
##QU
##ello
##ída
llamaba
formando
mane
visita
##itan
dilig
Valle
##ii
encuentro
música
##ug
pequeñas
##áz
bandera
encontraba
tercera
daño
empezó
vigor
tron
##bara
Rafa
levantó
desor
tomando
##udar
##uestas
conta
terrenos
sust
Veracruz
##ly
auxilio
diputados
muger
cop
puestos
sirve
Nicolás
dá
gent
##ramento
moros
Cristó
MAR
mía
70
región
horiz
Cádiz
##fos
conser
continuó
reflex
jes
Antes
servido
Dis
reli
Puebla
liter
##omé
cá
##ricas
##dres
montaña
##igas
##ka
encen
idem
##son
debajo
##ular
separa
quando
Lopez
ase
rein
##uelos
vege
##quite
rumbo
podemos
brig
hojas
hol
fama
actividad
aos
ano
ministros
experim
##trado
poes
meridi
##tándose
humano
##BA
alm
hambre
Sebasti
##vada
##amblea
abo
carga
Sierra
voces
pár
Patri
aque
satisfacción
encontrado
150
##piración
Además
##pación
pudieron
Aragón
nobles
##ADO
##donos
##esto
##ñe
Bolívar
serán
cámara
efica
##ológ
sas
manten
superficie
Bogo
##canos
PA
suble
atro
178
dificultades
##xa
ral
Obispo
##EZ
semb
##onde
asiento
África
capítulo
interrump
fiel
agra
revel
Paz
##iesen
CU
Audiencia
Nuestra
##teo
##íz
compos
##enes
##ología
##guardia
especies
##anti
##cib
58
darle
árbol
dueño
##ónimo
arreglo
MA
##torios
quedando
asuntos
obstá
##tlan
57
Quer
EST
##cidente
mural
partidos
cua
antiguas
cumplimiento
imagen
Mol
##adolid
oído
escuadra
##unta
través
##jestad
cuel
confun
##ÍA
##rie
pareci
humanidad
Setiembre
alem
vió
##licación
modi
dignidad
período
sale
##cro
NO
entendi
fortaleza
depos
ferro
porvenir
excep
Fuer
##ídos
##ventud
##eos
##vados
cria
##ERA
lon
Torre
satisfe
ustedes
##tente
llevando
##cedentes
agosto
inútil
acome
##vir
##usia
##pel
##IV
##pole
refiere
Costa
reca
##inda
líneas
##grada
quie
pregunta
Guerra
libres
liberal
cama
##rense
Cabildo
secretario
sufrir
Salvador
##vier
consist
##ést
##ombre
##ército
expresión
##abil
direc
verde
##entaba
sesenta
jurisdicción
asegurar
Mendoza
sabido
vieja
pel
alas
frutos
inform
satisfa
hue
##gip
##édito
##ang
Cristóbal
animal
confi
respons
##arlos
plantas
cordillera
grito
CH
##imen
políticos
Ramón
##raban
vener
escena
obis
##hos
hayan
##ítulos
juventud
horror
lector
##dría
##enca
Conf
##mes
##pal
##CIONES
guard
##iti
impro
existen
##viesen
fec
gefe
Vd
sucedió
infantería
Mun
##izados
extensión
##EM
tribus
Sant
justo
considerable
Rafael
##eco
deman
dispuesto
##iller
tiran
##teras
halló
##trando
central
prisión
dura
siguiendo
##drá
facultades
camin
mantener
##ela
diver
esfuerzo
continuar
comision
fruto
capri
mejic
Esc
##taña
inn
##inch
##rillo
##tillas
Comandante
negocio
abundancia
##taría
chil
##cano
##gor
altos
##ibilidad
##yes
##glesias
fís
disposiciones
##ficas
cál
##reza
##gió
inferior
Indios
##rores
graves
cubierto
record
monas
Doc
blo
##dí
perdon
59
Sala
##mada
##amentos
malo
##pio
modes
esperanzas
##zadas
altas
ventajas
vasal
Valladolid
desas
##crito
Secre
leal
corto
grandeza
conmigo
retirada
##erse
julio
##ueva
republic
Avi
famos
referido
comien
contiene
##nidad
Concepción
Orden
gab
onde
##pro
vano
constitución
indispens
cárcel
Está
perf
##cula
alegre
prece
fundad
refor
testigo
espectá
conti
agre
menester
##ay
prima
Bogotá
##abas
cerem
ricos
prime
cón
resulta
quizá
##bor
##ement
perfectamente
##pulos
poderoso
resultados
amb
hablando
apoyo
##ómez
acababa
reserv
177
insign
##ándolos
francesa
copia
##izó
ponerse
emba
incom
famoso
aqui
fusil
aparece
##uta
dí
##RAN
progreso
vestido
##bación
Paraguay
pic
patr
inmensa
supremo
comunica
puertos
azo
fero
cens
americanos
ris
envuel
apun
CAR
Herrera
sonri
##genas
enero
debido
ensa
sorpresa
dejaba
crimin
Dist
pú
presa
##rarse
mila
carb
ascen
pidió
negra
brillante
persuad
##idel
querer
cion
fabri
##gué
produce
cobre
defini
ocasiones
reunión
Ponte
Corte
odio
prem
orgullo
procedi
Gómez
152
ejecución
médico
hogar
empleados
##iu
##abes
Guar
Med
##dase
gun
salv
75
noches
sión
celo
pluma
##áronse
##óst
##ensas
##chez
consigo
dificultad
esperaba
cano
Ál
##éano
conmo
virtudes
Lorenzo
servid
##enza
fundación
prefer
Ej
##pera
cayó
##icía
llevan
hablaba
error
vil
155
fla
Rodrigo
creyó
Agustín
##mol
motivos
pis
ór
Cés
luna
Burgos
marzo
huer
ñas
##cau
original
escon
marchar
baj
##osamente
##gao
terror
labr
##IT
Dire
##eso
Reina
despren
empeño
llevado
impedir
armon
razon
obtener
absoluta
torn
CAS
rel
ministerio
##álo
Ol
Vel
LIB
ital
ropa
capitanes
espon
##CH
masa
belleza
##US
inconven
cañones
Pad
frecuencia
##áticas
prosper
solemne
##boa
Mem
##chada
bres
Just
mus
disper
pasando
circunstancia
próximo
##tamos
Emperador
##gios
once
colonias
resta
doble
defec
153
Neg
##uró
fuente
parecen
aprob
tono
400
##cra
glo
154
espar
empu
talento
Sim
desf
serie
##INA
nov
rocas
limit
ef
detrás
saben
guerras
##andro
monarca
tranquil
##sen
subir
Había
acaba
##tla
disminu
##jados
obligado
Má
##lando
##ulto
Guz
protección
ee
legíti
set
importa
Comp
##VA
ejercicio
Durante
##izarro
víveres
observar
inmenso
suficiente
octubre
investi
inclin
Ama
pasiones
nivel
documento
argent
sazón
añadió
##ázquez
Compañ
##lamos
mandaba
planta
Hernán
hospital
##rente
veinti
varas
HISTÓ
##eira
##amba
##tiende
Sac
rei
promo
ug
práctica
muros
##izas
dixo
injust
61
castigo
riv
##rones
Orense
antigü
concil
desorden
##raron
traje
juntos
tembl
vinieron
jesu
descubrir
dibu
entera
cubierta
equivo
##fera
aguar
65
aviso
visitar
alo
##chó
estudios
##gestad
arru
lados
emig
vid
instrucción
pusieron
misa
Venezuela
quit
##IG
vienen
##amen
periódico
regiones
veo
Hacienda
marin
prepara
cabezas
Pam
gritos
##tían
Tú
160
Más
nerv
visit
##cr
##RES
bordo
HISTÓRI
##mita
até
##udos
sacrific
juez
puedan
Gonzalo
profunda
permit
arquite
##drí
qua
procu
189
velo
muito
##tt
recordar
##umer
62
##tea
versos
tama
ries
manifies
enorme
terra
indígenas
##dados
preso
necesidades
junio
##ribles
rever
describ
##umen
fatal
bis
religioso
vecino
alcalde
gig
sucede
enfermedad
##tienen
moles
agreg
exci
abor
cacique
##has
Gas
necesita
##iri
café
##igue
destac
##jara
muestra
##mó
ruina
mayoría
irri
##LE
regal
patriotismo
pasión
inici
##inarios
Ló
letra
JU
peor
##mado
sangri
##eciendo
dispar
guarda
Er
##ificación
##ában
imaginación
Rodrí
##ósitos
##jal
elle
##entamente
testimonio
##ienda
fas
material
##ze
herido
horrible
emin
Vill
funcion
Mos
continente
##MA
Var
##entación
proceder
ofrecer
magist
##iras
estamos
Toda
eres
voto
ás
vigil
colegio
##ivas
Ast
seguido
cír
##ijo
##tuosa
hai
discip
provo
papeles
alb
generalmente
conversación
pobl
educación
sujuzg
pasaron
ester
Pos
magní
miseria
actitud
dominio
jornada
obscu
##cara
abrió
here
mirar
cuello
Cristo
ínti
##ALES
tim
curiosidad
cias
##ume
aci
condes
##ADA
soberano
##han
subl
ger
rentas
pago
obse
##endas
reprodu
invad
Ir
iguales
guardar
significa
dispuso
vuelto
##ille
paredes
valiente
posi
Gre
tranquilidad
DO
##ÑA
Reino
Cate
útil
##uestra
productos
##viendo
##ilas
silla
preven
arreba
blancos
quo
invierno
cib
bendi
##goza
estación
derrota
##aré
formación
Cartagena
publicó
energía
rap
verdaderamente
##cible
Eso
Lin
inmor
ang
ampl
retro
digna
63
##reo
##renta
pensaba
prolon
laguna
pál
##lano
discre
fácilmente
administra
Cada
aves
minutos
quedan
asim
Nar
##pois
pací
##amanca
prensa
##cales
persecu
redon
##menes
fábrica
acor
éstas
Yuca
trato
Hoy
fur
figuras
176
##dario
lei
mode
GU
vía
Anna
doctrina
aho
escritor
fér
sier
mento
##DE
comarca
Tol
##ude
propias
despues
longitud
Rodríguez
##lera
##gem
Ella
##lina
vist
bahía
##rilla
encontra
Cla
despacho
vencer
##óvil
Álvar
campamento
marina
oposición
hará
rue
producir
ilum
superiores
Colon
beneficio
adu
contener
lá
##vida
residencia
perm
escritores
excl
##ledad
##cua
Magdal
Ban
##cioso
beb
notar
latitud
Napole
López
Amb
Joaquín
##sal
##quias
exal
Santan
observaciones
espiritu
##bian
desarrollo
venía
respuesta
##visión
Poco
Martínez
cump
pruebas
enfermo
##vamente
espedicion
pudiese
llo
Vamos
individuo
68
Ac
departamento
Palacio
arma
PRO
Rosa
##ellos
diciembre
vari
encargado
debo
Algunos
##ederación
tiro
reda
ayer
vela
consol
##vista
##ades
organización
Muer
enér
humilde
compuesta
##pin
resistir
refu
aproxim
Campo
tren
##erales
presentes
doscientos
riquezas
ara
admiración
##ERN
nacido
desl
##ELA
comprende
otor
Londres
Fernan
abierto
perteneci
Zaragoza
perju
##gamos
##gura
perio
emo
acompañado
quinientos
políticas
romanos
##uros
vale
reba
decirse
##lao
interesante
cose
torno
débil
cient
enviado
##zones
##vora
##trio
pudieran
mina
piedad
##laron
ciudadano
acontecimientos
##legios
conviene
64
rigor
Nacional
##arán
unif
aconse
##lantes
##inato
llevaban
pieza
Hol
disim
Fo
##umas
##empla
##áticos
necesaria
sentía
##jarse
Magdalena
arco
##ux
Hon
Prim
151
tempes
impresión
arroyo
Men
##ith
matrimonio
oficios
arena
patio
debemos
grados
##laba
suas
Univers
##érida
##tarle
abandonar
##mite
Dipu
##cero
##tará
pués
compla
bella
españolas
##éc
compañero
eng
157
fiestas
qne
fuga
crédito
hablado
suele
tambien
Tur
mero
##ditos
##icioso
ald
chos
grupos
LE
hun
peti
156
dama
representación
tribunal
descubierto
bó
##gara
Mariano
funciones
empres
poesía
habitación
ejércitos
inex
Muy
rebeldes
desesper
Jor
consent
largas
vuelve
movimientos
perpetu
obser
recuerdos
Lis
tocar
Vo
quebr
discurso
sabio
##bios
febrero
dedu
venia
##licó
##aderos
cuch
kilóme
Pizarro
toca
reno
tradición
edific
##triz
MÉ
dipl
acá
culpa
##alla
coro
extranjeros
Are
IX
sacu
Príncipe
##egas
playa
flu
##tanto
##arra
espectáculo
##tamen
Oeste
##eis
##bito
quieren
XVI
Pac
jud
oír
acredi
Napoleón
Santander
##irá
##dencias
Caball
liberales
corresponde
##esas
##anía
69
exterior
Castillo
##tirse
cere
##ciles
##inosa
Cabo
creía
final
conjunto
contaba
súb
ría
Dic
alturas
fom
wh
om
caudal
juzgar
##gida
espera
marques
salón
fab
judi
penas
supuesto
noviembre
policía
##poli
Tla
##bran
resuelto
exclus
crimen
últimas
occidental
The
llano
Compañía
##dito
Supre
##tum
periódicos
socorro
audiencia
Uru
##aje
Prin
66
Flores
Sán
##entando
##íso
Mira
##teles
ocasion
precisamente
universal
reempla
trabaj
aust
incorpor
reac
patriotas
caba
##unció
tipo
sabia
grad
navios
estados
tuv
tomaron
##gia
##tzin
simpa
Rivera
lenguaje
entregar
##tást
##gata
regist
Galicia
confer
67
divid
obediencia
sentencia
sacrificio
##gui
setiembre
lecho
##deros
empie
##ork
##terrán
cuantas
vé
Valdi
##turb
enamor
calma
Cuán
catedral
desierto
admirable
##ulos
##quen
distra
descubrimiento
aventur
públicas
Án
##UN
##adier
aso
extraño
agricultura
caracteres
bierno
sombrero
licencia
anu
idioma
lum
##zuela
##acan
espantos
fenóm
consign
##AY
##ilio
viven
##ife
##darios
gros
##arde
Trib
mision
VIII
Contin
auda
cristian
##hi
comida
mirando
feder
pintores
Rosas
##AB
alli
infeliz
##cáo
llegaba
cariño
valles
dada
bello
lluvia
frío
nacionales
conocía
hice
Teniente
pudiendo
cristiana
##rador
158
atacar
##ñó
verti
abundante
##cita
72
##inados
grav
declaró
ajust
aren
dientes
##ple
victor
oyó
Quin
darse
Salamanca
vestidos
##edades
americano
turb
intención
##ridos
entero
##DI
paseo
##ensión
hubiesen
sonrisa
##abia
falle
puro
frontera
alcanzar
particip
##hon
tel
ocupado
sól
pira
##cillo
navegación
propa
presentar
ausencia
Uno
hiciese
Tomás
Argent
opiniones
consecuencias
ii
sustitu
Cuzco
Todas
Br
175
char
##ivia
reunir
##gueses
Oro
##ezca
nú
##idí
trabajar
resplan
caza
vaci
quitar
plano
produjo
arist
habiéndose
plazas
cron
##eroso
della
filas
ore
facilidad
iglesias
podian
impa
instrucciones
intento
##peración
##cemos
zo
trataba
venganza
estrecho
instituciones
##damente
mares
signific
juego
##sis
##árse
argu
presos
indud
##mamente
conocida
inmediato
71
sao
necesarios
##obo
ayuda
##rimir
Ejército
sobres
aumento
##ernos
##dice
##deras
clam
##dadas
Pontevedra
fueran
##ariamente
destruir
##nto
moneda
159
templos
espalda
nobleza
ríos
distante
Quito
salvo
fantas
Oli
estens
sacrificios
sabemos
##gulo
acciones
melan
Nin
Diaz
merece
ordinario
vosotros
esm
vuestros
seguía
artíst
Duque
citada
##egr
hermosura
##ey
VIL
##udas
canón
Guadala
probar
COM
cuál
##iblioteca
och
denomin
parecían
sever
##lana
poderes
constitucional
já
Gil
cristal
##leo
canto
81
Rusia
hacien
##ecida
gobiernos
##inarias
memor
Tres
##ense
rodi
##rial
##bur
##itación
##aná
fic
##vias
cadáver
Torres
pájar
ago
##lamento
luces
Colón
Doctor
##tural
cán
hechas
cuidados
Aran
trató
Sánchez
castellano
supl
depois
subsist
##cedente
##ñada
Estre
barrio
DI
pastor
grie
franque
##ides
82
Marqués
mercan
gre
vasallos
ps
##grad
Gabri
Sólo
##use
##pic
##endió
##teza
llamaban
aper
declaración
seda
Parece
fes
##unt
Acad
POR
##éramos
empleo
pese
Soci
sun
neral
llegando
dioses
ciu
disfru
Rica
Jane
##bol
puesta
##oba
polvo
Greg
##diese
Fray
averigu
##judi
votos
árabes
correg
tercer
inmediata
##cs
épocas
tienes
mineral
##uto
ardiente
componen
##iel
largos
angust
comerci
retirarse
##ciosos
emprender
fondos
reve
obligación
Cámara
útiles
##ish
##larse
Medina
reinado
##at
ramo
operación
elegante
##tible
##tanos
tendrá
bem
maríti
necesarias
##inada
clara
enfermos
logró
acar
elevado
suelen
Andes
ina
religiosas
78
tros
vemos
conceb
Ese
that
sirven
sitios
arcos
clero
Bernardo
caudillo
90
Vie
civiles
Dista
UN
##ans
correspondiente
director
viejos
quisiera
conducir
dejan
##egos
##zca
carn
transf
Hos
##ián
numerosos
fie
opon
inh
romper
poniendo
##pula
utilidad
detener
##ler
César
##indo
criado
##chs
##dero
cabe
161
##iesta
Oriental
inmediaciones
##ht
Almirante
##jón
cultivo
fras
Santos
##tifica
insul
realistas
circu
sacerdotes
alcance
Vega
Península
##risto
estan
víctimas
ordenó
##amp
prudencia
diese
conocimientos
##ons
monasterio
cubrir
Sor
Nuestro
extranjero
it
eno
afirma
chas
Bartol
gabinete
asom
##orado
detalles
##ex
ultra
##gidos
##ricos
ahor
ideal
tía
justific
##vam
venían
explo
páginas
agradable
lujo
malos
##rue
vence
esfor
sintió
desembo
Alej
Fal
ocurrido
74
##rillos
viajero
AM
contempl
##adoras
##RIO
Medi
jamas
escalera
77
##ÁN
sacerdote
##chor
ridí
apell
efectu
contento
##cientas
entrado
Cató
violencia
rara
hacian
83
nombramiento
abierta
repi
prete
sedu
corr
ochenta
señorita
##elo
caz
huel
##ipo
##íes
rema
Cuer
sacó
saque
##lus
hered
##ko
paral
##EO
ensan
Janeiro
##entri
gui
COR
Tes
cio
tena
presti
aceptar
Imperio
##dura
establecido
600
sop
novedad
73
##tez
bondad
Calif
escep
##del
Bon
##tano
dez
##tlán
volvieron
verano
lectura
##turo
##ari
mexicanos
Pri
juramento
prisionero
##idencias
fuere
ganados
erig
##nador
hoi
Guti
habló
europeos
aldea
##RU
bóve
tuve
mensa
dijeron
consiste
vientos
Papa
paga
conform
guarde
inmortal
##inaciones
kilómetros
ocupaba
considera
##imación
76
levanta
cléri
##asi
económ
Már
abre
bia
Bah
ventana
##dis
nubes
162
DES
cristiano
Eran
terminar
eru
##erío
mul
##entados
##ZA
fieles
##clu
recinto
Isid
##ónica
echó
demo
repugn
##idalgo
SU
##xi
Yucatán
obrar
religiosa
Bri
filoso
##jadas
Sebastian
invasión
indispensable
##ciosa
Bartolomé
suponer
Cel
##arnos
Mara
nacimiento
cólera
publica
ciencias
85
ines
testigos
##terías
monstru
##quera
mención
MON
##adura
cuestiones
Sob
pertenece
hallarse
fidel
ído
Estaba
vender
Calle
maravillos
enérg
dormir
municipal
insist
particularmente
##gante
rojo
somos
##esar
señoras
fuentes
miraba
DON
Blanco
CO
manifestó
dueños
dedos
distinguido
##tiz
Castel
provincial
barra
caridad
recob
hel
agit
habido
Valdivia
partir
sufrido
##cázar
chac
84
Nie
##cedes
tercero
naves
nació
piados
reconocimiento
tristeza
Bretaña
##ance
tall
manus
Caracas
##rida
inver
deseaba
Rosario
nombró
Otro
víctima
asimismo
##tías
##chando
Catedral
claridad
diré
muchacho
publicado
##tasen
codi
inci
##ili
Sub
reserva
pasan
llanura
Pie
##CCIÓN
alum
nombrar
Nación
##cones
sed
romano
habéis
##gaban
##ética
##urado
facultad
Exc
cultura
cima
aven
debian
Alejandro
Navarra
interpre
poses
coche
horizonte
satisfacer
une
Puente
artista
149
##ANA
dejaron
moderna
compro
literatura
nuevamente
continuo
##vez
enla
ambición
##iver
ainda
ramos
escritos
monarquía
entraron
délos
auto
##guen
pelos
##ste
diga
Gabriel
##sem
compuesto
hombros
encargo
dij
rayos
Él
peregr
arbit
##vit
ventaja
compara
tuviese
enseñanza
##verse
esla
##quete
descripción
bajar
trigo
##zgo
santos
For
##erro
comunes
monumentos
absoluto
Nor
intr
Escu
negocia
suave
repuso
grab
primo
##edores
pobla
Poder
hú
##ampa
destro
##gente
loco
##cola
baile
despreci
escala
Io
descanso
##íe
Amp
Ti
deberes
lectores
crea
bando
##idió
##izan
copi
presentan
pom
arrib
tratados
MS
poetas
absur
experiencia
Sud
cédula
bién
municiones
##CU
##taria
miserable
coo
dirigir
Fernán
Vire
##tana
##entada
rego
precau
##TAL
##taro
quizás
Tre
perjudi
incre
secun
habt
cercan
##ugo
Guadalajara
Cent
tenta
usur
seres
cun
##cencia
##gráfica
antigüedad
Rico
contras
##tte
##alia
porción
ia
##gentes
##lase
pensamientos
encarn
salvajes
explica
with
posterior
##inó
patrió
preguntas
Ayuntamiento
##iéndole
Cerv
Victoria
ignorancia
79
sesión
querían
Lan
peru
derram
sirvió
Casas
piel
desc
cuadros
ánimos
##cesa
##gol
hijas
barran
cidade
##áns
indica
hala
##torce
##quila
imperial
barro
materiales
Bolivia
174
##izca
recibe
demostra
##góes
héroe
legisla
##IM
bomb
Océano
##ub
pit
trá
arzobispo
roca
formó
gos
##DA
fundó
aguard
##tab
armados
##gle
concer
cargos
realizar
anciano
ira
custo
Arti
estatu
##ejo
negar
concluir
Ul
Tri
##ENTOS
Lie
decían
metal
próxima
Patria
nace
mozo
inglesa
##güenza
dó
robust
##ísmo
duró
##yn
verá
Sep
##ot
##iciosa
sucedido
Pin
sof
esperando
planes
quedaban
doncel
reducido
favorable
Apenas
diputado
círculo
Dol
lun
trae
probable
apareció
setenta
delito
##unal
manifiesta
ramas
indis
ayuntamiento
Leon
ocupación
besti
##chan
frase
##bamos
##ánd
numerosas
##rantes
##ington
referir
domést
nem
##osidad
##gaciones
riesgo
bala
##cé
prosperidad
##RIM
##eranía
zona
escul
señales
bron
##urias
zar
apara
circular
retroce
reta
part
tesoro
Catalina
suceder
Fre
ilus
continuación
##seo
americana
resolvió
Secretario
Guana
Zam
haz
bergan
##pados
##ladas
destinado
límite
jardín
formaban
odi
##wn
exe
eman
abri
escuelas
necesitaba
##ise
##úne
compañías
Panamá
dies
Solo
histórico
Gregorio
gratitud
caña
conquistadores
contradic
Total
llamados
informe
ventanas
parecido
conces
##cilla
colocado
##ps
gene
Andal
adquirir
anno
presentado
combatir
proposición
aut
establecimientos
rie
##uar
finalmente
pensó
Adelan
derrib
blancas
##AM
##éronse
Carmen
errores
##temala
trastor
repent
perdió
Cuenca
Egip
adonde
##rú
obliga
MU
dados
oriente
aumentar
fos
dose
Jose
monumento
azúcar
##alco
manifestar
navio
sentado
Arro
Aquella
##jaron
Mir
##erta
Maes
confusión
Municip
oy
##ija
Majestad
cerros
acus
##quita
##andal
conflic
lanza
Usted
##minación
recoger
Ata
dominación
caja
historiador
Dé
reh
enviar
hallaron
##lectu
acabó
constantemente
##vidad
escrita
proyectos
bras
ingenio
suprema
Señores
Director
Nu
encontramos
##óso
oí
##jía
oper
##tadores
cantar
Plaza
renta
##endía
163
gefes
retiró
Cala
reforma
##tables
pude
bárbaros
##AJ
cita
Chi
Bea
Vas
##cipes
levantado
Clara
##jue
envol
miró
Villar
##quio
probablemente
pasados
marchó
producto
damas
164
Fernandez
habíamos
fijar
jueces
Jac
Esa
contestación
harto
##ñal
encontraron
##unción
##ley
estancia
vaya
Rib
Marina
improvis
sincer
##trópoli
tá
mono
estad
##olas
ani
criados
zapa
distintas
##cus
mercad
encam
discusión
pared
parroquia
Jorge
reinos
precipit
ciertamente
algodón
respetable
piernas
##rupción
##ers
##todo
##eamente
corrientes
humo
nieve
retrato
##ERAL
dele
casu
convers
by
almirante
##ritos
regoci
pur
propuso
impulso
##timos
172
##jido
estension
estru
sabes
absolutamente
bue
indigna
limos
unidad
##digo
accid
crey
XXX
podrían
86
mortal
defendi
juntas
Hua
##bri
poderosa
catorce
intri
Guatemala
conoci
ofreció
celebrar
tristes
desgraciado
instrumentos
rápidamente
nor
repente
ponen
banda
##mós
producido
Sociedad
tempo
princi
construir
portugueses
tienda
cuentas
afecto
recomp
partidarios
frag
perro
títulos
##dirse
sín
fundar
histórica
Cataluña
Álvarez
##RAS
Otra
plomo
##éndoles
sepulcro
mármol
tamaño
comm
##jaban
esposo
ganar
toler
corp
proble
enti
creyendo
gana
##ind
fundado
conservación
Les
resid
Hé
desdi
fuegos
conocidos
disciplina
cae
Guiller
lien
##resión
calum
historiadores
seren
regla
Río
enormes
materias
decirlo
formal
sembl
cónsul
88
consejos
##cordia
regreso
XIV
Libertador
pide
replicó
Juana
Núm
Moreno
grueso
Peña
ESPA
alrededor
##cana
dominios
esl
notas
respectivos
haciendas
Academia
##uz
vencido
abst
atmós
proceso
fren
##chaba
Inde
candida
Ejecu
atender
moradores
advertir
tráns
rea
171
165
divina
hacerle
llegan
tabaco
##tuario
amante
miradas
##izos
embo
embara
##caso
##diós
Trin
87
dim
viuda
tea
##érrez
justa
elemento
ejercer
ventura
Dec
agora
correspondencia
abandonado
ner
was
vice
##capa
provecho
##ted
##ifa
##ábanse
sagrado
dista
##ensos
cañón
habria
vivos
##lix
prudente
Universidad
##quinas
##XX
##amante
elecciones
lluvias
espaldas
razas
viajes
insurrección
Pir
rú
##onado
170
Tru
nome
olor
##ji
##icis
Arzobispo
##ider
eterna
acento
fé
incur
restitu
vimos
Feder
presen
Alba
empleado
##laga
menores
Hor
ego
llenos
##ística
rég
##iación
solos
Jaime
plen
XII
Anti
pintura
Bust
drama
acuer
huir
hiciera
tap
suplic
##tepec
comprar
cualidades
bases
recog
eficaz
Tras
partidas
##dul
traición
173
Mora
acha
ricas
fragata
##vangel
semp
veh
##cent
##cumb
##diar
cola
##ólogo
##cripciones
Ministerio
Velázquez
##har
800
pera
tó
advers
quanto
Potos
fundada
sociales
revuel
lograr
Españoles
deser
olvido
##dera
##igne
ponía
proporción
costado
terribles
Asi
filosofía
valientes
defensores
tranquilo
sobresal
inclu
##izadas
amores
##umo
representantes
persecución
romana
semblante
Pacífico
##tines
colocar
vincia
cadena
##ellón
sumamente
Californ
Teo
##gam
intelectu
Departamento
desvan
gritó
rival
escribe
duros
excelente
##tag
ejecutar
##ty
168
independiente
##pido
York
gigantes
lista
extin
Silva
frecuentes
Otros
sufri
Mes
contenido
armonía
##bla
tengan
revol
acabar
##blas
contor
tern
imprenta
lament
nal
discí
empresas
tante
##monios
rebelión
##edi
sombras
soberanía
observación
89
verdaderos
##denal
naturalmente
##dimiento
filóso
##piraciones
cortar
indicado
Ofici
##entaron
comenzaron
fidelidad
##LAS
estatua
Aben
península
cientí
uma
##tacion
Lisboa
Valpara
Li
Pom
##iendas
renunci
prestar
Rev
Buena
bené
##dico
trescientos
REV
##dol
amiga
palo
denom
permiso
##urar
Figu
venga
cabellos
escribano
##menta
##alter
intervención
##jio
##quito
siguen
papa
Lope
ferrocar
ave
peñas
presentaba
obstáculos
tiem
espiritual
Af
elevación
federal
llos
meter
sublime
##MP
##áy
desprecio
tercio
##OLU
##úl
comi
governo
sabios
misterio
alboro
obtuvo
disponer
creación
crí
legal
régimen
##tillos
realmente
equival
asombro
hil
brillantes
ilustres
eva
bols
atmósfera
gozar
personajes
Gutiérrez
Acu
##bí
buscando
penetrar
nado
soledad
estor
##case
##onas
formada
povo
mediante
hallado
cesar
golfo
página
##vitud
fier
##ibus
formid
##río
Distrito
##ule
consuelo
Cura
pico
tarea
honrado
flan
espes
Potosí
ardor
XIII
##hes
Asamblea
grandi
acces
quieres
##guer
solu
responsabilidad
##tú
quel
##gento
##quisición
NA
##GA
olas
##ñan
Alm
entrega
divino
calific
##iers
evidente
orí
instal
elevada
Excmo
##vó
Uruguay
sucesor
desconf
##yu
##cala
rayo
variedad
muched
##dedores
Filip
antecedentes
fiscal
##ry
torres
##ortuna
##ivos
viajeros
convir
fundamento
rodillas
invi
prín
quatro
queriendo
##tencias
Benito
Leg
veían
tendría
Hemos
##berto
tig
Día
fortific
120
NÚ
ocupó
Bay
diplom
##ñaba
satisfecho
considerar
semana
Mundo
Española
sagr
pidiendo
##gase
esti
##itario
outros
Tem
trajo
##orán
Sancho
llegamos
##fre
Bueno
departam
On
Tierra
paciencia
temperatura
Ruiz
análo
enfermedades
compatrio
vencedor
##choso
consiguió
##iencias
magnífico
detuvo
afici
bajas
sujeto
apoderarse
examen
devol
expor
frases
##randa
Alvarado
Ala
##rab
##usieron
diligencia
##ensiones
Exmo
dores
prisa
##lij
examinar
##oría
novel
origin
contrar
dictamen
cum
Pob
##anim
##duras
tránsito
golpes
##éndolo
impre
Pueblo
acta
##jeras
reducir
##ernación
sobrino
Málaga
Constan
continua
obten
informes
lenguas
crítica
maíz
premio
##entaban
duro
cumplido
##fecto
India
96
##vino
compas
mexicano
##ecidos
Senado
166
TO
protector
minerales
tuviera
relacion
##rencia
cuesta
pedido
ofrecen
fazer
muestras
raro
##asa
extraña
exactitud
##uría
anda
garan
veremos
Ante
aques
ea
##cante
desal
lison
salen
##grama
siente
##ampar
aparecer
vicios
##rales
constancia
hablan
recomend
furor
92
descom
##cerse
Lim
catal
vivía
edición
colonos
##ERI
regimiento
furi
##lección
##cadura
##amar
imá
insignific
##END
circuns
##inte
##ceres
venida
Maxim
Provincias
libras
oscuro
perros
faltaba
cí
ayudar
dignos
innumer
ater
pilo
##sb
actualmente
##guera
mula
aristoc
##imento
Alma
conservan
mentos
eleva
propiedades
##fas
culp
XVII
desconocido
intim
vuestras
destinos
zas
Rojas
ios
pendiente
vidas
Alcalá
Muño
progresos
Capital
consideraciones
tiros
abrigo
casta
muel
art
entregó
Gib
Lar
##sel
tard
famosa
ojo
menudo
reunido
corriendo
Tengo
pesca
habitaciones
cubiertas
distintos
acordó
##gros
asust
felici
Adelantado
chis
chico
diario
Andalu
Nosotros
##tísimo
derra
Vis
absor
##ielo
reform
deste
##tificación
##ericor
ración
IND
##oraciones
siguieron
villas
Morales
##ther
castigar
meridional
##itz
cabec
Sem
ene
posiciones
pretexto
##óes
muchacha
gravedad
devor
estableció
nó
sensible
lev
permanecer
permaneció
##VI
pedazos
vergüenza
##íme
cif
REVOLU
Esper
esplén
Virey
conocen
Oa
##amarca
mejicanos
##gin
fija
muro
##izaba
escandal
LIBRO
Indep
##porte
Ins
ofrecía
##BL
humor
bisan
responder
cans
95
imit
##tid
camar
directamente
NÚM
inces
##rillas
privilegio
lóg
ocurrió
profund
caciques
##lanes
Nadie
##ranza
Qui
llevaron
reconocido
Har
And
##ándolas
miras
93
salía
felices
procesión
SO
Grecia
eme
##onía
vasto
saliendo
##tinos
dro
producen
tributo
contemplar
enca
aliento
espanto
jardines
91
rapidez
red
bellas
gesto
vís
##QUE
licenciado
##chu
jente
##zarse
abandono
sáb
abol
comprom
posee
Alto
assim
hábil
Hig
Guerrero
fison
oeste
Marcos
encomend
##erona
curioso
mugeres
Justicia
Chan
China
convic
perjuicio
##éla
##grafo
sesiones
Dar
señalado
Aca
Zamora
Guillermo
conozco
estuvieron
honores
radic
Guzman
bara
##pores
##ecto
reunidos
Archi
mezcl
providencias
##fort
hermosas
elel
reparti
##land
barba
Bajo
solicitud
empieza
Argentina
carru
nen
entendido
cadáveres
Simón
haza
extraordinario
tumba
##ectos
personaje
ingra
Llam
reglas
##tamento
criminal
##cador
prosigu
griegos
At
sección
clás
##ICE
Egipto
Dice
esle
##tela
ai
Muñoz
gres
termina
aflu
lat
aliados
Fin
##cn
##ví
hago
##ites
expon
Magestad
estrecha
disgust
169
ocupan
bajos
167
reo
resolver
##ROS
AP
elles
yendo
exager
Julián
ceder
rumor
gado
him
modelo
esclavitud
are
devoción
dades
seguramente
oido
Ud
fór
sois
cú
obligó
Chu
logrado
Sir
##éndola
Igu
vit
##ensible
##vian
arbi
desaparecido
esplend
cerrar
##teres
Cuar
permitir
arrastr
##ándonos
##CAS
Cho
##TES
plumas
Colonia
recorrer
hech
##licas
serlo
Blas
##ciencia
cuento
beneficios
jar
habitan
Gaspar
Ill
hoja
modernos
reformas
Ángel
dándole
cumbre
asalto
Supremo
Ll
Ví
##cipación
coste
apas
árabe
instrumento
##alupe
vd
##eto
obligados
cometido
despob
manifiesto
impuesto
mostró
frutas
##pito
ced
claust
Pra
Miranda
lealtad
relie
falda
##CE
últimamente
bronce
##hal
exer
lee
amanecer
carbón
Pl
texto
entraba
canoas
Provid
repetir
repetidas
húme
##dil
##unas
Hace
profundidad
auxilios
Jal
vier
vire
acudir
desgracias
sepa
asegura
ame
##éndez
##tuvieron
siento
##quin
##ENTE
Bravo
97
delib
##emas
creemos
contacto
murallas
##geros
incendio
Ref
Cin
inocente
verdes
rodeado
Salazar
##izando
caprichos
frailes
DOC
permite
tribunales
mientos
paraje
Sul
citar
alianza
##reras
contrarios
Colegio
alimento
99
portugu
Tro
Calder
Callao
Artigas
claramente
huesos
acierto
1810
párra
Lsb
habrían
hier
recurso
inven
Batal
escap
sensa
engen
Siempre
Habiendo
primitiva
##arlas
debilidad
vapores
pensando
súbditos
Trinidad
##ep
solemn
Félix
Murcia
hagan
admitir
podrán
##doso
cip
trece
parle
rs
##güe
Tenía
desm
##iré
cuarta
comunicaciones
##endían
corazones
traído
##éndome
abundantes
vn
##jor
beber
muralla
Tribunal
chi
##ástima
colección
insin
fri
barbar
dram
gó
diera
perfecta
novela
impar
Inés
##ANO
PARA
embarcaciones
Córtes
California
alba
malas
##ung
archivo
alu
destrucción
##vento
informa
ofreci
Virrey
98
relo
pasaban
Ejecutivo
##cadores
##ptentri
llorar
Díaz
Alar
quebran
gloriosa
##ándalo
Chil
Punta
convid
##hel
esse
##tral
partió
Verdad
##ético
##cuador
asamblea
comarcas
Cm
risa
pormen
techo
interna
##maras
obedecer
##leto
invo
demanda
CI
verle
llenar
##diera
Cerro
pól
cubiertos
dulces
Dan
Die
##izarse
estraord
Jim
##UEL
##torial
encontraban
vecindario
inju
perdón
creen
conduce
olvidado
Clar
Andalucía
percib
PER
Tener
parientes
banderas
cou
Comisión
serio
compone
emoción
Nunca
hués
ceremon
ejemplar
##inetes
llanuras
ña
Palma
numerosa
brigadier
pesetas
ribera
##dole
##gamente
marineros
lentamente
##fin
excepción
cig
##ILE
maestros
gradu
escenas
masas
contestar
combates
##port
incapa
vencidos
##ragones
Ric
salvaje
embaj
sendo
batallones
gall
##eses
desigu
pode
conseguido
creído
olvidar
triunfos
Ran
resolu
prender
dará
bastantes
##hy
Madre
##aragua
granos
sempre
máx
Negro
Relig
enemiga
Via
negras
Zaca
##cionario
aprobación
impo
sy
##terráneo
suminist
canti
legis
requer
exter
dal
##quesa
oportuno
reposo
##dita
##nia
##cientes
afri
Esteban
Puerta
hda
tad
adornos
##zcoa
colos
Ilust
##eria
usar
estrellas
Soto
##valle
sete
concurso
héroes
##lim
94
##tto
comunidad
##TICA
##uración
fundam
campan
Cár
Jam
##vero
##quista
Lic
cog
volvía
borde
inscripción
numero
estremo
escudo
ocupaban
Jeneral
publicación
mezc
herida
muchedumbre
quar
disgusto
barco
cement
capi
##ash
influjo
eterno
presentarse
superst
someter
##cum
infun
aparte
Guadalupe
PRIM
rama
orientales
##uos
inicia
prose
aceite
##vadas
estás
dir
declarado
alguns
orgullos
Ep
máquina
apasion
Muchos
sujetos
Fernández
indign
sueldo
Habia
secular
especiales
modos
conquistas
atrev
##edas
ancha
enton
##ribe
decidido
Paraná
dito
Super
litera
##cente
Marta
oportunidad
Segu
huéspe
innumerables
##ipú
pir
porte
##ional
gargan
##jidos
Teresa
cuánto
faltar
prescin
His
corría
propuesto
depósito
guerreros
##iría
francos
estuviese
dirige
usos
##iende
nariz
Augusto
contemporán
Ib
rosa
pretensiones
mam
##cías
opuesto
##pent
rendir
ful
eco
Hidalgo
sex
delitos
##jua
##ñados
##vita
tomaba
perdida
capitales
domina
Atlán
##TRO
Sego
esperim
dester
seiscientos
Sres
deli
mariscal
fui
arreglar
pab
##ciende
madru
consi
mencionado
volviendo
##úblicas
agar
##ive
mulas
margen
Manila
Brig
diablo
##lanos
niñas
desenga
cjue
neu
alcaldes
andaba
privilegios
Corona
futuro
agrí
atravi
verificó
infante
tronco
ole
##UST
parar
##cable
##üa
dente
dudar
##ENCIA
cera
##gantes
##ute
diferente
toros
ásp
unido
##ecimiento
lodo
trascen
Iba
corren
dona
ceñ
penit
Gerona
##piro
interro
Hernando
inesper
##dea
precioso
##long
queria
escapar
Avila
doy
tempestad
Apar
pertenecen
##DU
reunió
tempor
##gonz
##uza
##tima
gem
marti
Puede
1820
tradiciones
Gol
##emen
tema
##inamente
##dica
presenci
##josa
inmóvil
concedió
pobreza
profundamente
vea
debida
sentidos
haría
bay
##manes
silves
##pirar
colomb
tranquila
estrem
##ium
inspec
caído
cres
suc
##enten
indicar
brus
tiranía
gro
##gencia
##rande
##cera
grand
##turbide
##udales
tambem
provisiones
hábito
exce
Llegó
fundador
XIX
tados
arroyos
ino
190
Gerónimo
rad
##fice
imagin
llegaban
glorias
fiebre
Vizca
hermosos
Duran
modific
ei
celebrado
##MO
llenas
deri
agentes
vicio
##orro
insigne
retaguardia
familiar
determinó
nido
seco
mate
conceder
lana
##énez
##zoso
escru
Gam
coger
##uan
indiferencia
Guaya
tiendas
terminó
Villal
té
oponer
cargas
vanguardia
deix
duas
poderosos
colinas
misioneros
melancó
Hue
##graph
gobernadores
declarar
estudiar
##lex
Vuestra
##árez
##tinas
añade
Geo
nece
nega
dolores
vasta
##ipa
##ENERAL
ligera
tinie
##TAS
##diéndose
géneros
cibdad
tie
##ILLA
mercado
campes
rancho
bio
entrando
Obs
saca
vueltas
oh
##ecas
Nota
escuchar
generoso
##mano
Obis
Gibral
discul
veia
quisieron
aparato
lina
ove
##ieros
##abor
##iosamente
acce
##cándose
infantes
##gaz
constituyen
expl
descubrió
eclesiástico
Laguna
bauti
indifer
Sch
espíritus
sacrist
Hen
globo
##lom
seman
diá
##queta
XVIII
abismo
Pach
instantes
causó
sucesivamente
ka
Vaya
heridas
calam
fronteras
Pá
producción
prestigio
##uy
pudiesen
fisonomía
enrique
habilidad
##usas
misiones
rincón
sencilla
comisionados
pierde
Carrera
humanas
Bena
Pág
territorios
situa
desar
##NDICE
parroqui
banco
ceremonia
preferencia
provisión
dencia
carro
yor
##irre
escándalo
reunirse
CHILE
celos
##vaciones
Plan
##pulo
paña
Cono
extraordinaria
método
##rentes
traía
empezaron
pólvora
feroz
comand
cala
voluntarios
##iam
##cillos
##quipa
glorioso
carretera
##táneamente
QUE
andu
cubr
táo
temprano
148
plebe
Alcalde
nist
aban
dejaban
separación
príncipes
ulti
orn
sierras
##mn
embria
##TOS
##vira
oración
##hia
##ENS
##tli
pater
Iturbide
aflig
##ear
##vío
##áron
sello
inac
cocina
mesma
aprovechar
Nicaragua
vara
demonio
separado
##ceta
corazon
función
##critos
##inariamente
crímenes
##gá
subió
##iada
##riles
Montes
Jesuc
Providencia
111
Gover
mezcla
bles
suso
acontecimiento
paises
renuncia
inquietud
Gor
##vie
podria
Corre
Repres
consagr
piensa
suyas
reson
convertido
Velas
##ou
temporal
inconvenientes
rápida
pájaros
Bauti
rele
Capítulo
NÚMERO
##urs
tele
judicial
Mérida
##gén
diferencias
publicar
##vedo
exacta
##bras
dellos
Calderón
##centes
conveniencia
Camp
Gon
Independencia
presidencia
##XICO
pensado
ermita
aplicación
sonre
##iares
##dri
conoció
distinción
demostrar
Mina
##GRA
essa
##uera
##paciones
##ENTO
quan
decad
##inadas
##eiro
recibieron
##ALA
Viv
infortun
debil
##embra
tirano
apresur
composición
metrópoli
simul
Blanca
ná
decisión
profesión
vegetación
querida
annos
sec
semejanza
Cle
vuelo
##ls
bajó
##doro
##ciado
superioridad
##verde
Administ
##dando
##landes
ataques
festi
##monos
##iáo
mapa
adentro
##hil
##pital
##tificaciones
Han
##tiese
repos
producciones
velas
sacado
divisiones
castellanos
seca
determinado
relij
Ze
murmuró
Vargas
indignación
desea
##egado
ocultar
MÉXICO
unidos
##ismos
proclama
##zonas
cerebro
enre
##irme
gallar
cambiar
##bó
Tucu
yugo
##íf
metro
usan
intenciones
arquitectura
elig
almo
escasa
ciego
risue
refuer
descuid
extrem
##iliano
##vila
uniforme
Vé
##laban
Según
descont
católica
esquina
alguien
Dí
flechas
hallándose
muchachos
##iciosos
Margar
números
apostó
mia
##orero
sopor
comienza
Antillas
you
torpe
dulz
serian
Jacin
rasgos
mec
leve
tardó
remon
##ved
##enerales
convenio
sencillo
obstáculo
vivas
auxiliar
Jesucristo
irregular
llas
##aste
celebró
AB
pasada
relativo
##yente
batallas
independientes
fresco
anch
salvación
Van
calcul
vanidad
concluido
Aten
##uch
##ical
##ánica
habitu
desaparecer
faldas
Villan
petición
Aya
Ves
147
supone
permanente
Luna
encontrarse
dirigido
fábricas
##arles
eri
traidor
MAN
juntamente
##ARA
representar
comedia
Tomo
##ñando
poniente
##gad
Conce
Anto
doctrinas
precep
Ley
Edu
oprim
reputación
Ferro
observan
ferv
##saciones
obispos
esplendor
pecu
délas
Guipú
omi
observado
gusta
alarma
##ner
##tienda
cercanías
Hall
##dés
Condes
pormenores
corrió
##rita
##isos
sagrada
instinto
##onato
fonde
Comen
añadir
adquirido
desesperación
##zaro
onsa
Segovia
zan
dispens
servi
capas
irres
Cervantes
Joáo
desarrol
##ORES
elector
multiplic
interesantes
##pla
veter
manifestado
averiguar
presum
cil
cpie
##zano
cerrado
oscuridad
##pus
##udio
ligero
Lá
##gins
##zobis
venerable
##éron
Bautista
##reas
##gulos
capaces
alrededores
##rección
perfección
morales
aparecen
130
maderas
retirar
opul
##iter
abrig
Creo
fenómeno
constituye
formidable
Ecuador
TOM
rab
prolong
##pico
Porto
continúa
##daba
##oras
loca
Pers
bi
inser
adelantado
estatuas
tinieblas
mod
explor
Popa
construido
entrañas
primavera
gue
##erial
arra
matan
Casi
##ericordia
AI
presentaron
Natural
##tona
##ORA
Algunas
pertenecientes
Náp
eg
quejas
##alapa
Dolores
Trist
##tesis
##ceros
naran
Eugen
conferencia
hombro
cuna
##cedores
Arequipa
##mis
mata
conflicto
##zana
traves
elocu
existir
Occidente
lia
1870
escolta
supe
Fon
verla
Aren
solemnidad
##gráfico
Valparaíso
POL
Filipinas
COL
alca
conducido
Diario
expresa
##tamientos
Federico
solas
Bil
##cy
decirle
Americ
firma
Nápoles
plazo
barcos
mostraba
primitivo
rá
##sele
bail
capacidad
##tándole
##cate
anarquía
domingo
sulf
blas
##LOS
pedazo
deca
sinies
espero
havia
apariencia
Dá
Wash
históricos
fis
140
usa
ana
déb
fantást
poster
mera
one
##ÍN
condi
NUE
liv
##tría
##ítica
aprecio
##pé
revo
complic
representante
artistas
presup
igualdad
Ren
poss
fijo
idén
inconveniente
griego
Pens
Mucho
despleg
canónigo
cuerda
individual
governador
Div
##bus
impru
majestad
solar
prodig
##ranca
pobladores
firmeza
redac
terminado
asistir
##igáo
sociedades
vestir
confirma
Dio
Evangel
mananti
ferrocarril
##ezco
salían
##rés
##viéndose
recta
varones
Caballero
##old
Lucía
250
##mió
llamaron
##guila
fría
Agua
nia
basti
##RIA
fl
anual
habil
mediados
edif
comenzar
fusiles
Tenerife
##abit
aclam
llamas
escribía
sta
SIG
artifici
Gom
posteriores
desagrad
debiendo
##tiéndose
natu
##EC
quinta
consumo
creí
##ÉS
maneras
desaf
inútiles
Año
##hum
anto
seguían
muebles
##dimos
permitido
populares
bóveda
##wa
resign
horizon
##tuosos
cordi
Coch
Ramí
infinito
EX
##yar
##gunas
amado
verso
llegue
plena
Far
##cesis
##tadura
necess
visible
##aray
Cru
##ánico
Escri
tura
judíos
daños
infam
filos
bord
conspiración
preciosas
vigilancia
##frad
laure
prendas
cómp
comprendido
aur
##itamente
##itor
maiz
preciosa
DOCUM
emi
descal
morada
nel
##abar
dirigida
vido
asilo
copa
##élago
Guipúzcoa
##plica
escritura
protesta
hostilidades
oye
yjuzg
sedi
estri
conventos
pendientes
obtenido
##quiere
fatiga
deis
líqu
##ele
execu
Ka
Pron
desma
envidia
borra
franqueza
##entarse
pata
francis
fugi
palacios
dido
Higgins
acomo
Ortiz
manifesta
vaso
Mateo
##ciosas
encanto
maior
advir
trabal
falso
divide
milicia
##mentar
Alca
amenaza
inferiores
oídos
abras
Guay
##uér
lanzas
anticip
##tito
alha
expul
tesoros
joyas
jesuitas
nio
pastos
##ting
centen
Pela
entendimiento
##LOM
serenidad
Braz
##tter
habi
intelectual
Cir
septentri
sexo
subalter
proposiciones
##iverso
casualidad
playas
mandando
rí
directa
1851
enseñar
esclavo
bloque
manto
Deb
subord
110
##NDO
tando
##RICA
##quiza
puramente
capitulación
##juato
formaba
cadenas
Tran
paño
terre
ducados
Sigu
silenci
cimientos
##jones
Pampl
compatriotas
##enden
ejemplos
oculta
700
hid
vacil
únicos
destinados
dejo
milicias
vivido
Bos
sano
bull
##bao
conocidas
regresó
##let
entran
juzgado
suficientes
lástima
##LAN
paja
bell
trajes
Cordillera
enfrente
Guayaquil
Tac
prelado
adul
defin
proveer
Ministros
estrib
proporciones
moderno
profesor
##itando
distritos
estableci
##omos
##didades
alcanza
atras
cito
Tampoco
atravesar
aborre
PROV
dho
Septiembre
símb
Atlántico
die
##identes
echa
##ñoso
crueldad
Asturias
humanos
pálido
pór
emplear
emprendió
Ponce
criatura
brigada
Leo
dita
afortun
trecho
departamentos
Ec
##gano
dirá
clu
Ramírez
Cl
ángulo
1814
topo
caída
tantes
fórm
Gibraltar
lie
table
creia
##CIO
VIAJ
##uh
ahi
125
activo
respectivas
##IÓN
determinación
revolucionarios
hipó
plie
arrancar
mese
##donado
Fuente
cuentan
ocurre
alterna
IL
llamarse
rior
##inares
actualidad
empleos
narración
estreme
##ISTA
1823
parque
acercó
fraile
##ignación
io
##jillo
##igan
145
vá
impresiones
alegres
Ricardo
Biblioteca
tib
##embar
servían
litoral
introducir
problema
piloto
moda
Florida
dudas
interme
balcón
exij
suge
##isis
patriota
pinturas
penetr
##gir
PARTE
disfra
Bib
direcciones
Molina
Tab
Sent
vers
intern
barca
Bustamante
Maximiliano
##letas
considerado
Juez
cham
from
obispado
bern
alumb
gris
regresar
coin
temper
##far
manu
Bro
tertu
Ri
Amazonas
cabecera
##gica
quebrada
trinch
concent
LU
demar
mili
amparo
enco
conservado
##embras
##mago
pagan
##urados
faltas
Unión
sargento
metales
ilustrado
Hubo
PED
inevit
yn
Cañ
puntu
##geles
commer
negoci
imponer
Comis
Gracias
susci
decidió
esperaban
instin
ena
pintor
hipo
volcan
Vergara
ib
Guardia
blica
##erosos
ejemplares
elegido
ARG
parecia
##ciación
varón
nube
inteligente
incesante
estall
Contra
faltan
misterioso
pecado
##inoso
secretos
Cur
##trase
toman
distinto
echado
defectos
##iscos
colocó
célebres
mens
transcur
Dom
imágenes
roja
selva
lanzó
##derse
abad
primor
outro
mado
insol
abundan
Jiménez
##dador
integ
ator
siones
pass
##monte
ángel
retirado
##ct
Prado
lust
leña
insu
arrojar
Cartago
apóst
indul
locura
guardias
Exp
reducida
##antías
##ÑO
extiende
princesa
conflu
desenvol
Constantino
convin
dirigiéndose
1861
sep
algua
##uncio
recuerda
prosa
logo
Vigo
##vaba
escaso
##estos
parale
tela
preparado
láp
##ville
fabrica
Bene
##UD
##eren
entiende
abusos
seguros
solución
divin
encontré
creencia
correspondientes
Vuel
manio
Valdés
deuda
postr
oli
fervor
Dese
##bada
darles
considerarse
encargó
Nao
infelices
milagros
nacer
pidi
toro
fatigas
quaes
dex
ilusión
dirigía
##tezuma
##gón
apel
empero
cuchillo
##iba
cuartos
vivían
##gesti
casado
pérdidas
##pata
pez
bolsillo
hilo
tido
##ciso
##titudes
sufrió
promesas
intendente
entregado
##imamente
predo
brin
muelle
##ius
luchas
convencido
##gero
lodos
perlas
magestad
audi
abogado
médicos
##ianas
acabamos
##ajes
facilitar
Pamplona
FRAN
##ullo
##bole
existían
balas
índole
contribución
muerta
pensa
alcanzó
revoluciones
orejas
cim
duer
dev
##ity
hallamos
Pobre
causado
cementerio
##zal
##istos
resu
solía
Espíritu
dadas
##orca
Maran
Soy
correo
Será
aventuras
fino
Ellos
caliente
perfecto
Hombre
cena
##itaba
opuesta
historias
engrande
estábamos
sancion
personales
penetra
##ctur
activa
##gador
siem
TER
tic
##ose
desampar
acum
##cinas
XL
##mín
##yr
Muchas
Aguilar
##usal
Campe
tancia
bienestar
homena
examin
exclusivamente
dog
esplic
prestado
##isas
pagca
ambiente
desigual
reos
hotel
Sober
codicia
Guanajuato
BAR
##íl
##jon
distinta
propietario
Washington
débiles
##úb
encierra
mín
Inten
eclesiásticos
plá
actuales
146
ofrecido
División
alemán
indudablemente
fachada
tím
sabiendo
pesso
Vida
nombrados
infame
arrepent
Hernández
arbitrio
VAL
##cena
##obe
HISTÓRICO
hábitos
italiano
QU
##dela
paisanos
descendientes
rias
Caserío
concluyó
continuaba
ignora
diariamente
entab
Libertad
extingu
##racia
poblado
aparición
cenizas
cantidades
Vene
cubre
musul
pois
infa
bancos
quinto
1830
europea
desgraciada
Ras
Viva
mutu
huyendo
formaron
benefici
gir
##umbres
bea
reñ
fez
Margarita
Aviran
esclar
almacen
huerta
repitió
Tel
Asunción
filosó
pil
##ídas
sud
##igno
bau
cóm
asistencia
GOB
cios
##VO
enm
ret
leído
##clo
Maldonado
fértil
tenaz
Cual
Aviraneta
estes
preciosos
puentes
aires
reloj
##eler
franco
existía
demostr
Villanueva
Carol
dre
luchar
criol
consideraba
apreciar
peculi
##camos
memorable
arrojó
riendo
##alle
desvent
entreten
hura
engaño
descubrimientos
pienso
cisco
curas
##enses
garantías
regulares
negociaciones
mani
prosiguió
egip
exquis
costos
agres
aqué
rúst
crecido
merecen
visitas
parajes
preguntar
reflexiones
Dónde
geral
ust
dero
vulgo
Melchor
Fue
moro
describir
magnífica
##ñosa
mostrar
atrevido
Cis
guna
##dremos
##raciones
Institu
sostenido
haré
Et
persigu
Mano
reparar
industri
sion
amable
senda
construcciones
escasez
interiores
puntas
mexicana
Vizcaya
Queré
org
propósitos
##ADOS
disimul
prosegu
dejamos
inmediatos
acarici
cazadores
##EB
anteces
Tir
puñal
##crita
Hospital
1S
Iz
cido
imi
majes
tinha
aldeas
Luisa
Rin
jer
##pica
astu
decadencia
BA
##ural
##tista
potencias
prev
electo
##ok
arroz
1821
presidio
obligaciones
AV
##ump
OB
##gable
brillo
Tanto
veras
providencia
valer
ayun
Cé
##idu
pureza
Ore
frecuentemente
verdu
sangu
##quilib
máquinas
estén
adh
pesad
##ñón
contando
adiv
pedia
chiqu
palos
volumen
peligroso
convertir
pañuelo
dulzura
solitar
déci
procurador
hazañas
##iduría
##drán
##imes
desempeñar
tripu
gasto
conquistador
##món
facciones
viejas
esen
esperan
Valde
deno
##itados
Estoy
cosecha
simples
cajas
Ele
RO
recel
Javier
##rian
##ceda
batir
haberle
signo
esfera
llave
ídolos
##LES
relativa
mance
ilusiones
Velasco
distinguir
lord
Inca
ordinarios
trage
conceptos
Banco
cuatrocientos
cuadra
Guadal
It
Ola
tia
Continu
deshon
Bio
Arch
leyenda
demuestra
MEM
##ellán
difunto
capricho
física
condesa
sínt
##JO
hoje
condujo
resultó
1812
marca
sube
Isidro
Trujillo
rena
corro
procurar
##orum
conh
esclam
##usta
sucumb
desin
101
tac
pretes
méritos
Acaso
##sáo
##lot
situados
revolucionario
contraste
madrugada
Tun
detenido
porém
coch
preparar
fg
Alberto
bote
representan
haciéndose
afirm
despertar
Memoria
garganta
##ód
reciente
planos
perfeccion
Mand
millares
amarillo
posesiones
estrella
rompió
ridículo
##goes
caudillos
revela
vib
guerrero
ternura
##ERRA
dedo
entrevista
dispuestos
despecho
apoderó
rápido
corrom
capítulos
descubre
Centro
trozos
ejecutivo
industrial
frió
esces
tratando
##embro
fantasía
inau
frater
procedimiento
Holanda
queremos
191
galería
afición
aposento
##ds
##vimos
Alb
entretanto
MAD
vivi
fina
##jena
refres
sirva
católico
##há
##uevas
batería
144
ayudante
##cual
ruidos
reacción
murieron
quasi
ropas
colonial
##vemente
muere
lidad
camisa
monjas
##sol
carros
##PÚ
##OBRE
estand
##dade
estará
anteriormente
1808
medias
descansar
rosas
exacto
##árs
Museo
memorias
heroica
Campos
riberas
Gir
##EI
outras
ocurrir
##xaca
##háo
compasión
preparativos
parcial
##iernos
##itada
referida
confesar
Alh
acordado
Lérida
incul
##peras
considerables
condenado
obsequio
baterías
##tástro
Luz
leche
destinada
lú
fray
violenta
vacío
católicos
Tales
jas
volcán
depósitos
ochocientos
llanos
debieron
adorno
Sig
descans
curiosos
SS
tonel
pouco
privado
##AND
##ENA
convenientes
Hues
miles
plante
bárbaro
Rios
comenzaba
##ctivo
alber
enferma
francesas
pretende
lienzo
##pita
esenci
hac
##itre
##pelo
##piélago
leyó
comedias
ng
inmig
llanto
mentira
128
Temp
Gri
Reales
poseía
tráfico
Puno
roto
vezes
adivin
flam
##tta
##ence
lagos
compra
temores
Espinosa
Ques
108
afirmar
aloj
lagunas
creían
varia
##ítico
propiamente
acercarse
Saa
procurando
Ebro
##lusión
enl
##undos
caras
concurrencia
despotismo
noventa
##torias
Nú
##irle
anal
aspiraciones
expuesto
tablas
femen
gozo
contribuir
sorprender
azules
Víctor
Bilbao
cerrada
trance
labores
resplande
indudable
esque
teníamos
segundos
restablecer
tán
oficinas
Media
Micho
metá
convencer
legítimo
uu
diab
conformidad
flota
explicar
alemanes
servidumbre
##timo
falsa
PROVIN
Sam
##mel
##alación
Paulo
honrad
ciendo
sabían
contrato
huellas
ordinaria
exige
criterio
fúne
##dilla
maltra
New
león
##itoria
102
outra
tributarios
perfum
comitiva
diente
inu
Garcia
elevadas
CONQU
propietarios
victorias
have
mercedes
##yese
##ustos
chim
jura
insurrectos
Ag
##dro
##berna
##yecto
levantarse
ada
servía
141
acabado
##ivio
Pregun
hermanas
Querétaro
##entarios
instancia
104
pronta
respetar
pertenecía
maestre
infancia
Mall
##domo
arch
medicina
poblar
procedimientos
escuadrón
sospecha
deu
later
observó
márgenes
cía
##joso
personalmente
ansí
comerciantes
Ima
Tama
Encar
estrech
categor
comisionado
ponga
retor
relato
jurado
fenómenos
véase
salones
estuviera
Crón
Urquiza
105
sorprendido
Pacheco
2o
Tin
arres
infierno
empezar
permitía
##ani
mió
##pil
##entre
haberlo
impaciencia
depar
Mexic
rededor
Barra
decretos
limosna
contado
palma
franca
Medio
##idar
dominar
Entr
Conclu
trom
recién
##CES
regalo
dans
promesa
Dió
avi
queja
concedido
oj
oía
##ép
porta
accion
crue
distingue
prendi
temiendo
bille
Sucre
desear
JUAN
doncella
##tentes
##tuosas
Márquez
ye
Boli
milagro
##ée
##entario
determina
tabla
elegancia
Ademas
catástro
sumo
parlam
##ulla
Huan
##uérf
marinos
oficina
cristianismo
PI
refugi
trág
air
incomo
sueldos
tudo
distancias
CAM
rehus
##pac
creado
empezaba
sepulc
##ruecos
ceremonias
pescado
121
inmediatas
ball
hin
urb
equipa
aquélla
mejillas
revesti
##cinco
##valo
aprox
fresca
##osím
##zcan
##enada
acad
traen
Corri
ponder
sia
##pano
aber
mah
mover
Mont
Tex
Gen
##quero
colina
efectivamente
port
estó
##endio
Decre
organizar
##peta
crisis
abandonó
clérigo
conm
##itl
sereno
##ficar
107
amenazas
##ICI
asc
biblioteca
##sed
##uli
violento
hiciesen
hablaban
filósofo
latina
carnes
repara
sabiduría
brutal
trab
atenciones
Paso
##ugh
ates
mamá
##vores
##ridas
sucesión
publicada
##quino
marino
senado
armado
Arroyo
Bus
138
institución
incendi
POLÍ
yerba
##tenci
debiera
Dem
##bón
##TRA
confiado
fij
alférez
lhes
##ñedo
apellido
estatura
deplor
elocuencia
Padres
esclus
Pes
Sando
Inter
103
numeroso
americanas
claustro
Tala
alcázar
cardenal
empa
##EDO
clérigos
fierro
desha
115
parroquial
estro
Todavía
Brazil
vín
ponían
132
señas
Abad
Voy
pabellón
Sici
##pen
carca
determinar
gunos
necesitan
delicado
##nar
##éndice
decor
contraria
secreta
introducción
criminales
Ler
##tom
##ére
quales
casarse
monedas
gobernar
madres
##INO
audacia
REVOLUCIÓN
quede
##derez
109
Cabrera
##iedades
advier
citados
nutri
GEO
Otras
##erón
Eul
lor
procuró
##ione
##lle
regu
permitió
discursos
atraviesa
Eduardo
atento
pasaje
Sue
##pto
delicad
AS
CAL
##eri
lav
##RID
retar
##lava
interino
refieren
##adra
135
1871
republicanos
inhabit
lazo
vocab
establecida
133
Saint
intér
sangrienta
semanas
impu
desaho
figurar
temblor
##bit
comodidad
desh
tuviesen
1860
Tomas
cado
visión
evacu
arr
##rosos
1813
sagrados
Bru
##cantes
##guo
tomada
ident
anoch
DOCUMENTOS
##rería
existia
expedicion
Jefes
sentim
bestias
##fu
##ixo
apreh
rigu
deso
inmensos
Excel
permanencia
juegos
Rem
blos
responde
Jesu
Has
##ae
vencedores
envidi
inflam
selvas
NE
Anca
goza
112
##tífice
imponente
Guzmán
rado
##tic
vecina
##unes
precauciones
cayeron
guas
canales
palm
Quien
##mien
Entretanto
Confederación
baños
coleg
comprendía
víspera
vej
cansan
trasladó
##ik
pares
##logo
excur
popula
##cay
124
corresponden
Jerusal
hur
seg
desgar
dividido
Aguirre
##áles
botel
sucesivo
soberbia
adoptar
##ginal
parciales
##tru
santuario
furia
admira
which
RES
estima
curar
exhib
Cáceres
definitiva
lección
excu
##uld
guía
echando
republicano
regocijo
Jalisco
Cri
Pur
crear
resi
Princip
##quilla
suspendi
Acab
dependencia
funcionarios
pav
traspor
##entísimo
carece
cobar
cruzar
castellana
ESP
ende
Comer
tonces
profe
proced
sabor
137
difíciles
sic
##elia
##tariamente
sirvi
aniquil
see
bailar
reconoció
Orte
campanas
pido
##irlo
perspec
Jue
##chuelo
exponer
Mediterráneo
insurgentes
##cucho
poema
misteriosa
atur
Coa
PLA
Argel
123
Minas
Ocu
##aga
lonj
Clemente
jor
139
andan
sombrío
##aras
conspir
orador
justamente
míst
extremos
garantía
Hum
vasos
libremente
contribuciones
Toro
sentó
limpi
placeres
##tísima
aguardiente
Nomb
comprendió
paisaje
bil
##ónicas
amenaz
anima
##joz
tenor
143
considerando
hem
Cuerpo
##hn
inspira
##ragona
cargado
diligencias
simpatía
paj
##rasen
##gens
cuarteles
breves
tocaba
metido
AT
##ieres
##icie
106
portugués
miel
apare
pantal
componía
Lab
chu
sencillez
Lara
##ciéndose
generosidad
##TÁN
##ceo
##viar
campi
oculto
Merced
usté
latín
cantón
Tejas
definitivamente
##gh
##óf
cargar
mino
asign
enemigas
##gresos
131
literaria
##quist
continuamente
admirar
simpatías
Oaxaca
Adiós
diesen
desbara
##tarlo
Segura
fuimos
Magal
imparcial
comedor
Siendo
espejo
vuelven
1811
##erario
tendencia
Espa
reglam
142
defenderse
##GRAF
peligrosa
Poniente
inclinación
##IX
##dom
disol
Méndez
##adera
Caci
enamorado
PE
estava
creencias
convier
estimación
pacto
bocas
bergantín
##íces
129
Número
posteridad
##ctas
noctur
##áneo
hacerla
llegase
##minis
fincas
##jares
Godo
presto
##SO
##tires
diarios
señala
párrafo
##ERAS
recibía
Central
Pil
##quía
Mauri
trozo
pref
ilha
##gusta
Claudio
mud
127
libertades
##pada
##hue
anhe
argumento
cuándo
##oble
##deste
recien
explicación
134
conquistar
jen
antemano
competencia
exceso
desconfianza
##pón
exi
terres
1822
tocó
vivió
136
##elio
acero
amon
desnudos
Memorias
Arist
viéndose
autos
ordenado
iniciativa
edades
##isca
anchas
apete
fum
##tiera
simb
##CIAS
economía
práctico
Piedra
sudor
bastar
intentar
rodean
cáte
pelas
andalu
1862
Recu
puestas
Indi
estragos
contienen
serían
Instru
Bada
linda
socorrer
indígena
angos
Tarragona
puedes
amaba
daría
barrios
derre
román
corrido
##ímetros
veinticinco
##onados
alcanzado
1850
aceptó
conocían
Islas
Fueron
Tib
Jerez
Ron
##barra
destierro
##JICO
Esco
impreso
##tions
Sebastián
assi
##grafos
gentil
rra
##tora
característ
lea
saludar
diciéndole
britán
recompensa
##tarla
verlo
mataron
Canarias
precisa
pechos
##ns
dispara
##ali
##ents
miserables
SA
restantes
irresist
Mam
comido
castillos
##ÑOL
misericordia
Campeche
Soc
ímp
GENERAL
##érico
Parte
##sivo
vna
jugue
ñor
##allar
sonriendo
chileno
eh
Marruecos
Mercedes
oscura
##cres
##coles
##ui
hable
viage
sueños
enseña
sepultura
Red
##cle
bravo
simplemente
Hizo
Oribe
inunda
apesar
abiertos
##álisis
espantosa
ARGENT
eje
##rs
##tle
debería
guiente
descuido
convul
comisario
Jalapa
SOBRE
##coa
atr
nando
suspir
traidores
##minio
Gue
yá
##nan
pleito
manifestaciones
Pereira
censo
##cea
emplea
CAB
concierto
novia
LO
lecciones
miraban
europeo
Acos
Pepe
acostumbrado
altares
MÉJICO
dha
Cuatro
sentarse
poniéndose
Lugar
Procur
pelea
Cán
duración
##UCA
Sea
conociendo
acompaña
elegantes
juicios
##ológico
Ancachs
decidir
crueles
celes
págs
marchaba
galo
##dentes
##erios
anhel
Wa
##lota
rada
##pida
amen
Quiz
126
##ei
Rei
cintura
privileg
comparación
vera
##laje
##chados
##ésemos
decoro
##3o
entradas
campana
rabia
##iertamente
haver
leales
inmensas
acabo
andando
suspender
miembro
íntimo
##eña
cómplic
vientre
viniendo
##jent
lastim
arque
potencia
abne
presta
##rill
Suiza
Adri
pelear
##TOR
##graf
envuelto
Muerte
esencial
IS
corn
grano
limpia
limpio
azar
Guan
insignificante
Ayacucho
Manoel
ló
incidente
chicos
Tratado
##fil
prefi
abur
verbo
retiro
relieve
taban
##uj
duras
cedió
persever
raras
Soria
##GOS
programa
vengar
Cauca
poblada
dedicado
desfil
ovejas
habrán
##parable
agente
recí
comercial
Cum
##ao
amantes
repre
llamadas
testamento
andaban
##icismo
Unos
invis
Murió
##pero
cabello
veian
criada
gi
##zi
##gancia
114
ed
##lal
##timiento
poseer
Núñez
JOS
equilib
caen
pastores
##rosas
venian
Castellan
buscaba
tamente
congre
elegir
epid
##itorio
señalar
##vando
aplica
heroico
VEN
had
tún
##berg
comenzado
Liniers
Zar
contó
##bítero
insinu
##ócra
unirse
galle
navega
ESPAÑOL
APÉ
XXV
sospechas
chilenos
Mala
122
armamento
Sid
resumen
reclu
descubierta
##tienden
Beatriz
pend
##PEND
##pea
ordem
Quir
##abele
distribución
órgano
rega
trascur
profundas
cometer
Evangelio
PEDRO
Apos
passa
inocencia
físico
MI
##for
exigencias
democr
Dor
cis
peces
##tay
llegué
conclusión
colocada
##ertos
##dosa
consistía
elevados
ann
HISTÓRICAS
inaugu
Justo
##vara
119
generosa
episo
desgraciados
sana
##tti
##PO
municipales
Arias
##rete
delin
cuadras
desapareció
engañar
##sim
herencia
Coro
servia
toria
mandaron
tuvimos
realista
delicada
cálculo
Eulalia
Ix
##inamarca
tud
anuales
proxim
Jacinto
deh
resent
jugar
Moc
unán
alc
serp
abus
decimos
existentes
proteger
denunci
##lemencia
teoría
generaciones
prácticas
defecto
Cul
enju
distantes
irse
tendencias
librar
expediciones
impresion
dimensiones
##váo
redo
118
dinas
Archivo
Sandoval
portal
perd
Salva
huérf
##itano
sumer
cambiado
Cob
##MI
##ológica
##edia
##UL
##cian
##queros
SI
Imperial
octa
conje
chan
cantos
adecu
117
viese
Situ
pieles
Roberto
Tucuman
habiéndo
Mata
mediodía
diremos
preval
despro
confesión
##árqu
##cismo
atraer
convicción
##ilia
loa
Corn
molesti
reflexion
arries
esmero
TOMO
publico
coloca
accidentes
discípulos
##íb
eclesiástica
Lázaro
##sor
##inan
113
probado
jesuí
mete
exposición
catedr
consulta
perseguir
jus
coa
Eugenio
retiraron
Ray
firmado
Vin
hones
ofi
##ipotenci
situadas
1817
1824
severa
rodeada
##dilleras
traducción
símbolo
Dere
deje
resal
transform
Op
yes
##vales
desist
propuesta
##OMB
oidor
impri
estaría
anchura
avanzar
adoptado
vecinas
Chaco
##onales
toque
extensa
expedi
Vázquez
fac
negó
##só
fundamental
pedi
morib
##heiro
##hao
angustia
declaraciones
aquéllos
caudales
Algo
distinguidos
SEGU
gruesa
detenerse
concesión
##bado
Antio
opera
Comun
frecuente
Edad
desol
aclar
##nio
##vían
##metro
tró
##ivel
desembarco
##veis
##renda
sucesores
bía
##eu
diminu
oraciones
Gui
injusticia
Ita
dirigirse
Revolución
fiera
##cles
severo
##rate
##éricas
pálida
reconoce
Saavedra
##rei
##posiciones
temperamento
tec
my
##eb
fortificaciones
116
choque
despojos
inutil
##ueve
##izaron
pronunció
Allá
consultar
Córdova
Toma
##gou
##ité
##trico
Casta
tex
tio
##Ã³
cientos
hondo
vecindad
Tara
##giendo
correspondía
Diputados
##mática
profundos
diócesis
escasos
Noti
infi
antepas
ídolo
verme
insectos
beso
##ERNO
barbarie
Bona
inspiración
hicimos
fertil
##ómetro
lograron
troncos
duelo
imb
tica
##yán
conve
Escrib
combinación
Gefe
Ortega
bian
cimiento
perdi
pasto
cobarde
merecido
imitar
asesinato
capitan
contaban
Calleja
reto
foram
primitivos
preocupaciones
ofer
procura
caserío
Bernard
paiz
Reco
##orial
##itana
##urada
darme
Jerónimo
isso
Pocos
1859
soberanos
absurdo
##jia
cuero
nauf
talla
gota
burla
precisión
##ársele
MADRID
Wil
ut
tributos
almacenes
Bis
cial
trope
suprim
Bár
tino
refi
episco
lejano
degol
descol
mozos
##pieza
sustancia
anex
prestó
señorío
##ificencia
contrad
sofoc
medal
guberna
Juárez
01
Hur
alz
pariente
meta
exag
ruego
estero
escel
confluencia
torrente
universo
proa
impla
perpetua
alumnos
Diez
##siva
amos
GRAN
##led
fragmentos
##cama
cabeci
temple
Camar
##vente
obreros
pleno
estómago
Sos
continuas
intentó
paseos
ampar
Hi
semi
aparente
silen
lance
prometido
lio
##oló
corrían
salto
acomod
sillas
celebra
aprender
lámp
inevitable
##viado
servidor
fieras
##pr
lego
conocemos
dividida
Dej
faltó
##éndolos
lazos
cocin
reducidos
1847
tirar
convoy
pavor
vacas
subde
reconoci
vér
##éa
conferencias
sinceridad
intérpre
##stmo
discordia
posibilidad
levantaba
perteneciente
Pronto
Ed
pour
dr
mén
nad
ue
traían
repúblicas
gobernación
recibiendo
piratas
Ou
unida
amada
bata
indemn
Badajoz
Ari
evo
##cub
mande
##ambu
cacao
expresado
Termin
repeti
##ficado
##tificado
carab
Chac
causar
greso
martirio
##pina
fijó
##aremos
mesas
ilustración
1848
colocados
manejo
##jante
##fal
Desa
autorizado
titulo
aplausos
Venecia
pintado
ecs
##umbr
cobrar
##éditos
transforma
##iena
1857
denominación
cumbres
destitu
dibujo
vistas
data
invasores
Nuñez
puse
##dré
indefin
generación
mandato
desiertos
##iciosas
niente
evidencia
crítico
contornos
avia
és
##NA
esencia
##gosa
referidos
Bernal
Santísima
acusación
##ORIAS
izquierdo
descrip
severidad
Hom
muitos
term
bastaba
1825
excelentes
cueva
ansi
costó
compens
magistrados
íntima
pájaro
Pompe
##mados
##jeda
depende
presupuesto
Huesca
Cid
##ucar
##entadas
pasamos
posibles
conservador
atribuciones
isto
capellán
limp
balcones
ingeniero
recípro
rante
bailes
representaba
procurado
pompa
mesti
##andes
ladrones
desarroll
regidores
levantando
completar
##ñones
maj
Quiro
##eméri
##ezcan
##verio
intrigas
##aderas
pertur
Produ
serena
conservaba
argentino
alaban
cív
##ienes
ocuparon
excepto
Fuera
varon
##culas
cauce
disputa
YUCA
##onga
##teria
pati
cerró
manifestación
Capilla
desconocida
Zacatecas
pí
abuelo
##poración
##tive
inme
veneración
Pot
todavia
destreza
1815
reliquias
##ondo
Lavalle
demostrado
propone
chinos
May
regia
##legado
atacado
totalmente
Mallorca
rre
##chen
guia
sirviendo
epie
avar
cofrad
tormento
levantan
septentrional
##ampo
tendido
tranquilamente
Cad
privada
difun
Tlax
órden
Pardo
titulado
dotes
nosso
pesado
centenares
Villas
##TON
##ñor
síntomas
##osímil
##quim
arrojo
fuertemente
remediar
aventura
acordar
Def
##tang
AD
US
sollo
novelas
jos
unidas
##onesa
chica
but
hospe
haciéndole
pierna
##uces
estancias
cansancio
lom
saco
agitación
Berm
tocado
##cedo
foras
talentos
formados
afán
##bias
##ficencia
Bayona
lógica
Bara
odios
##ki
libra
reconcil
eminente
Reci
integridad
##cie
Convento
##tadora
Romero
Bél
bit
novio
carril
##ólogos
aparecía
prior
Adu
puri
sonido
##rieto
dial
mare
afuera
acudió
conducto
dirijió
mio
admit
Jacobo
reedi
##istía
compan
adv
verdades
hubieron
nacionalidad
ansiedad
almor
Crónica
PO
hacemos
##úsculo
colosal
Cr
guardaba
increí
##inaba
##icanos
cambios
enviados
penin
fortalezas
Naturaleza
úl
cors
##gráficas
rechazar
##úbilo
Sec
##óla
embos
funesto
deseando
pretendía
Segundo
##GR
##cher
abuso
seña
luto
conducía
usaban
##bs
##íanse
Relación
abiertas
espadas
hig
india
plazuela
##huacan
Docu
preparaba
censura
diría
Sarmiento
repentinamente
COS
##onio
##omba
amigas
salvado
malicia
labranza
Canal
##jam
proven
apoderado
hogares
enojo
##ser
quedarse
electores
##ragio
feroces
Humb
dilu
certeza
valeroso
Salta
gesti
relativas
prevenido
indiferente
##quetes
ángeles
Elvira
relativos
recelo
##picio
pasadas
##tidumbre
escrupulos
catástrofe
##nado
concre
júbilo
telas
retroceder
IMP
##radores
##abu
Pascual
1828
terminada
modesto
almoh
tun
serran
ofreciendo
Durango
Corrientes
##ecimientos
sexos
Vier
mendi
milla
modifica
millón
juro
verdaderas
ordenanzas
escritas
##ARES
##ker
obli
tipos
marchas
damos
sera
humedad
Morelos
imitación
MEMORIAS
##bulo
ESPAÑA
jac
##namente
Donde
componían
inocentes
dante
migo
impuestos
raciones
gozaba
Salinas
ángulos
alimentos
cámaras
viera
forzoso
hacerme
ejue
Autor
desempeño
##COS
Oficiales
oidores
##jese
Espe
Marginal
teñ
##feras
Mondo
##inando
notorio
quitó
rodea
CONQUISTA
irresistible
nacen
Concha
declarando
Sicilia
##zuma
mató
##ibo
Escuela
demostraciones
##BLICA
Vos
parezca
raíces
mortales
DOM
Jar
alist
marea
levantaron
feligres
aumenta
hospitales
mercancías
tenéis
Conven
revista
pretensión
##uve
Relaciones
funesta
respetables
bellos
maravilla
##ructu
dous
##idencial
reinaba
##vieran
##idero
Anda
subido
míos
1863
##uales
ardientes
##dese
astron
racional
misterios
espontán
ARGENTINA
tación
##anta
##chadas
corral
impun
disem
discreción
##tent
perecer
estandarte
xv
inund
##cede
papá
Sacramento
Católicos
teatros
categoría
##JA
saltar
1852
aplauso
Jamás
Quesada
iner
necesito
Orientales
agrega
cic
norm
pio
caía
sacando
facción
##trica
##ganos
##gráficos
falleció
Riva
ami
meros
##rías
##CAN
##vala
##abilidades
cálculos
ridad
magna
cristales
rango
colec
informado
ciega
dedicó
docena
dormido
establecerse
sable
vías
##EA
caver
Arre
transpor
audaz
tormenta
Salió
Pel
Trad
estaciones
maravillas
SIGLO
##hin
hácia
sumas
##viana
Levan
territorial
Libro
encerrado
honradez
Narva
vertientes
Instituto
én
##pañas
presentaban
Roca
1833
sumisión
pretesto
##curio
matem
incó
Salas
Tacu
sublevación
contigo
subsistencia
Finalmente
abandonada
acompañaba
disponía
tendo
campe
trayendo
instancias
ordena
Tajo
conversión
cata
quita
tierna
##RIL
sospechar
RIO
acia
dei
aspir
Marques
1846
adhesión
##teniente
procede
afectos
Magist
Alvaro
periodo
ímpe
Sel
accidente
Villaf
CUBA
Compren
aga
avanzada
destacamento
##já
##bajo
1819
embajador
chimene
pagado
miran
##GUAY
literario
##dasen
dato
Union
tripulación
##ciano
Marco
eo
legu
metió
##iete
Cerca
setecientos
Lam
desó
Soledad
##jándose
recientemente
localidad
Jas
rol
ítem
esci
ofens
favorecer
modestia
horrores
centros
##FICA
enven
caida
linea
triunfante
anualmente
til
perdieron
corres
destruido
##03
derrotado
pulgadas
curiosa
Humbold
fueros
##ceptible
favorables
suelta
ANTI
tencia
##tala
reunidas
liger
Apo
mim
oyendo
##tigo
mostrando
corredor
ved
##gándose
dud
this
Inquisición
vestigios
vír
cortado
prelados
##gne
tardar
Parro
administrador
fana
suspiro
amargura
dolorosa
OR
##dre
entiendo
maci
vergonz
##landa
##ciosamente
separarse
PLATA
cle
trataron
##reno
cris
fasti
alhajas
afe
asper
1816
Herman
rales
##pres
secu
repito
vicario
históricas
manuscrito
##iados
Chia
ingenieros
Narvaez
turba
peculiar
##gatas
##valos
investigaciones
Caro
meridiano
##tibles
barón
comisiones
Viejo
GOBI
cuentos
Amar
boli
proponía
perso
Indu
cuadradas
estraño
precedente
##mase
Monter
ocupada
Pasó
provisional
cifra
Magallanes
mejorar
Almagro
Já
she
escrú
arrobas
figuran
anhelo
##we
dices
Apro
##zase
Manzan
resultar
viniese
##volencia
arzobis
carl
virgen
##rara
##ónico
##tasar
##anova
Mah
reunieron
vivamente
patrón
nador
chal
gober
extenso
harán
brevedad
Administración
Efec
biendo
##dam
##chel
ció
inscripciones
ondas
##neros
##cenas
referencia
Hun
tivo
gratu
Quevedo
acusado
aventa
TOR
gla
ño
Cuál
elevar
dignas
##jenas
detes
##izaban
bajando
rector
estuviesen
Austral
PROVINCIA
##cete
mandada
enn
firmó
RELA
##áyo
##tosa
faja
Monti
##pam
##ñeta
inno
horribles
Amor
rebelde
exis
Elena
amenazaba
alfomb
obscuro
fós
coco
##itudes
tropel
pintar
colonización
Capitu
bóvedas
##adavia
arcab
abriendo
##piran
encargados
REPÚ
remitir
párro
agregar
reservado
delicadeza
##ché
mejoras
Buen
Urb
gus
casó
Espar
Roque
##olog
soberana
Estrecho
##tigu
estú
escomb
inglesas
PU
reúne
diendo
Char
quieran
primeiro
originales
Igual
##dista
intran
tira
merecer
trasmi
ofrecían
sensación
estéril
linaje
##mosa
sostiene
mostrado
mejicano
federación
lis
melo
cansado
ocupando
heredero
Cama
##zu
sien
espantoso
concede
Pinto
estir
monarcas
arroja
extrava
consagrado
repugnancia
Bolivar
pozo
1840
carruaje
lúgu
sh
cielos
monó
instan
monstruo
compromiso
vado
cayendo
veje
dijimos
calumn
nía
impone
acompañaban
significación
respectivo
recomenda
indispensables
##ciar
##cott
Juz
##vares
tremen
ocupados
enferm
rastro
1845
Apu
bul
Palmas
atravesando
fall
##esse
resgu
traspas
relativamente
usado
flaque
Sé
##cules
reciben
deseado
Infante
perpetuo
cule
tratan
intermin
valen
necesariamente
1864
totalidad
recobrar
traia
agregó
abstra
hamb
##edera
##nación
aguardar
DA
Oficio
##ibil
sobra
confe
robo
Huer
Caz
circul
pregunté
1818
ecli
azote
lent
crece
recorrido
molino
pedía
Humboldt
Cau
Duero
tendrán
pp
secciones
Estrada
atentado
Ahí
1868
veneno
jornadas
brisa
##vial
vestida
Joaquin
canoa
##sidad
##len
##ful
Ald
reglamento
antiguamente
sirvieron
oscure
llorando
APÉNDICE
Abo
oto
##táb
principi
resultas
domici
POLÍTICA
mora
supieron
bondados
heroísmo
gigante
desalo
corrupción
formarse
convenido
ESTADO
pesada
apacible
proponer
peninsul
##isten
caminar
indire
esperiencia
animado
##tánzos
##huac
terciopelo
advierte
##tografía
compad
##vidas
Tolosa
liga
1855
ínte
abnegación
##uas
alza
cogió
Franco
Ambros
furioso
promul
remor
cente
##jil
partí
##trava
##cese
bravos
1854
1858
tribuna
descender
eficacia
Tá
dix
##tarlos
Inmedia
false
grato
improviso
Agü
Plin
cond
##urt
moralidad
##itarios
constituir
imposibilidad
fó
##endero
señaló
elogio
gala
umb
tesorero
echaron
culpable
Superior
altera
##eroa
##ióse
convenir
alcoba
antepasados
GOBIERNO
loma
yan
##adeo
eléc
traza
creyeron
Paula
Valent
custodia
bran
1836
despachó
ranch
MUNDO
ILUST
CAN
reír
invención
Paul
permanecía
tentativa
##riese
##tolo
locales
##obar
##uss
Bue
Cón
Gü
##áculo
Monas
moment
concilio
bastan
dirigieron
circunstan
##igua
encab
##zamos
Alcán
Esos
##ERTO
ingenios
peruanos
paralelo
Form
centa
honrados
concurrir
infinita
Bes
Caba
meio
##ámpa
raso
océano
felizmente
amonton
##inero
Comon
exactamente
##UELA
penosa
tria
wa
canta
Patr
sostuvo
diámetro
##arían
mantas
Escal
tomaban
Chilo
atroz
proli
acon
terremo
meseta
Decreto
Gan
allan
baga
posada
##ficamente
Quiero
Belg
confirm
sólida
cooperación
eb
##cén
vaga
lento
##lace
mati
sole
perspectiva
Quiroga
Hér
atribuye
socorros
Pagca
resca
disip
fuí
tregua
1865
modernas
recto
futura
embocadura
NUM
faltaban
pedes
mártires
mencionada
desastros
##cracia
uo
##quillo
elogios
sn
volúm
pronuncia
comunmente
quietud
perdiendo
Caldas
contentos
amarilla
gato
occidente
egoísmo
oríjen
met
prevenir
municipio
pronunciar
huevos
##álogo
estabele
cordilleras
Orle
magistrado
incapaz
espir
##biese
divisoria
TI
extraños
Torque
##uria
dig
cargados
protestas
BU
##entu
remos
galerías
alarm
eti
lenta
##CRI
abun
cuerdas
CASA
Dul
##ato
##pell
##idado
patas
campañas
Chim
móvil
incid
##ceb
nossa
Lucas
gruesos
geografía
##ET
##parte
extrañ
competente
##aduras
convenia
pasajeros
ménos
gü
##YA
##casen
indicaciones
cubren
concebir
establecidos
deberá
extraordinarias
gruesas
Cuánto
Fortuna
epí
fórmula
Cierto
guerrillas
constitucionales
corporación
bían
##RAL
##rit
guir
Cuad
##ganda
##ega
##ticar
cañas
acaban
tome
fijado
Ace
Num
##terios
cortas
salimos
cabell
ensue
renunciar
dragones
pertre
abe
cercano
##cillas
construyó
turbul
##bon
Maza
afian
conquistado
Ríos
ls
virrey
frust
##hual
Verde
mártir
redonda
soplo
pirám
Oca
deve
pierden
ál
##ilios
tomos
entraban
ganas
##éndonos
cep
##ORN
homens
Gaceta
famosos
##tistas
##uni
##lejo
cortos
calabo
mayordomo
comprendiendo
claras
distinguen
aristocr
##kes
##cima
##ster
##viano
auia
practicar
sentí
claros
agricul
##lería
##endar
caro
##ecidas
realización
acababan
Tuvo
auxiliares
añadiendo
##ambra
##ee
##inoco
humildes
cong
dello
abon
Bernardino
##diano
##low
Morro
ligeramente
ensal
sado
Cont
peste
concluye
perseguido
melancol
Cárden
elocuente
jinetes
procedentes
quedará
idola
MONTE
calcular
embarcó
sucedía
próximamente
##lador
perdidos
abrum
Bey
esterior
aristocracia
adiós
gún
jén
##ixa
Talca
feste
##jec
portada
##lea
##tese
##ERS
mandados
Canaria
fueren
cerco
arrojado
aurora
alojamiento
mág
##ks
##distas
granad
costo
perderse
Bélgica
##yun
##entura
Jaén
harina
1867
gravemente
griega
listas
Carras
pecados
3o
##dá
##dé
unir
premi
Convención
1856
retratos
Ste
autorización
Ville
Aquellos
parroquias
NUEVA
##ulación
ph
##ximo
tareas
exigir
desastre
##versión
Serv
fib
##din
##dones
##LIO
llevo
recibidos
SAL
##letos
Hacia
continuaron
delirio
##GRAFÍA
##zaga
priva
tardes
Monarca
excesos
infieles
FU
##yentes
dellas
##icar
##cuatro
callar
agita
manifestando
##REC
1832
marchando
humildad
dispone
fecun
adelantos
Pelayo
Vitoria
##jente
##zer
defen
reuniones
1829
apresuró
sustento
cigar
bautismo
exclu
patente
signos
beneméri
precaución
construida
1843
ocupaciones
exaltación
posteriormente
quemar
pru
##nato
palmas
boda
fruta
##ástica
1837
ansia
Hijo
##dada
continuando
1835
Represent
AND
Wal
flecha
idiomas
abunda
plato
sentada
mercados
escudos
combati
desórdenes
Hac
suplicio
económico
relu
##ieta
implor
suaves
ignoraba
remate
Comercio
traslación
obligaron
empezado
Batallón
Gloria
##víos
##ibes
natura
cantando
dominaba
1853
Español
Belgrano
##grar
quedase
sofo
volu
Valen
correos
velocidad
PR
quim
consin
Cuartel
Fiscal
pertenecían
econom
yerbas
##dolfo
roj
climas
Prusia
escombros
Dion
moverse
llamando
refug
centímetros
almuer
dinastía
Plinio
alzó
trem
dulc
trincheras
tez
analo
##tálogo
astro
Mosquera
obscuridad
Muerto
homenaje
Ces
##ciada
cación
Const
Christ
produc
arau
anochecer
redi
separados
verificado
desnudo
canas
opres
magníficos
nomin
venas
resoluciones
Correg
fuero
asegurado
1844
1879
oponerse
Fig
Neces
##cú
##forte
mantuvo
salí
goleta
##ICOS
acompañó
grandioso
sis
logra
movió
montan
instalación
prenda
piano
tertulia
##mones
alivio
análisis
pescadores
cesó
nervios
resplandor
##tn
##inela
tumulto
primeira
Basta
biblio
##ñadas
alquil
pasase
saludo
aumentó
Betánzos
pronunciado
tumul
ancianos
defensor
cubría
cabos
Luiz
llaves
producía
nn
##paba
sufre
comerciante
##diesen
##olos
pern
subiendo
##cienden
dispuesta
##colas
inaudi
bueyes
YUCATÁN
Yn
Portales
irá
señalando
solemnes
hueco
notado
##cayo
pequeñ
voluntariamente
nieto
solicitar
cronista
##fia
contradicción
esbel
Ingen
##EDA
cortesía
recordaba
##ctamente
##riga
inso
manchas
continú
bandos
##répito
devolver
alguacil
parado
poderosas
adversarios
JOSÉ
proximidad
##itim
##cimos
##selo
##lamiento
##ILL
importaba
incons
ae
Copia
taberna
ANALES
Banda
##inacion
plus
Vice
cooper
Mondoñedo
Dentro
Vino
##cino
##adilla
##telo
Debe
autén
mada
escur
aplas
creciente
quise
despeda
huéspedes
##vano
asientos
refugio
##TRODU
Flandes
desent
granito
Estable
raíz
interven
sosiego
Serrano
artístico
Católica
who
maga
tratamiento
1869
##árselo
dida
sincero
mancha
vayan
hallo
rasgo
volverse
##GUA
pacificación
estructura
observancia
Us
##ont
##ament
exteriores
acamp
previsión
corresponder
Brigadier
Gab
aseme
verb
montar
Sao
viviendo
europeas
##tuosamente
vendrá
cañon
presión
agrado
capitanía
desembocadura
mó
agru
frí
torrentes
turno
consentimiento
Diccionario
deliber
Yu
hielo
##ury
expresar
INTRODU
tigre
exportación
Alcántara
decidida
industrias
INS
dispersos
localidades
##iasta
dera
##tiza
cuáles
haces
any
comunicar
##blar
guardan
humilla
descubr
visitado
sobrina
PUE
caido
apropi
lanzar
cuidar
Hércules
delicioso
estím
forme
tomadas
##abamba
acometer
Cris
tada
Pastor
destinadas
Ambos
##legar
inquis
##cuaro
Reti
Teruel
sujeta
ensenada
anta
anales
cay
recibo
Compan
graciosa
clá
remotos
monopol
900
##ibre
disolución
Sede
##alli
Santafé
Morillo
avisos
350
dorado
desgraciadamente
comprometer
esmeral
posesion
Pul
##coso
appar
lleve
Respecto
reclamaciones
mís
Álava
anunció
haberla
defendido
##ventura
magnitud
comunicó
Cisneros
Garay
Sara
##ARRA
Vista
##ben
##ford
anuncia
##ánan
trajeron
valores
hicieran
pintoresco
Ferrol
ORI
vengo
dejase
Artes
justos
Camino
magnificencia
espresion
Caj
fila
algumas
sostenía
##lí
##forma
descontento
desagradable
tenientes
carpin
recibí
raros
negativa
casamiento
santidad
Orinoco
relámpa
Lerma
volúmenes
Lagos
trayecto
Patag
1827
##BIA
##orías
exhal
ratos
personalidad
cautivos
denominado
Huel
penetró
escultura
quím
vuelva
padr
echaba
brasile
bizar
incan
disuel
bode
fúnebre
Pern
realizado
limitado
depen
ocurren
huertas
vital
tla
##ceas
cartu
##risas
celesti
Torquemada
alguma
03
dándose
justas
dictador
carnic
mú
supi
logar
duquesa
eon
pidieron
formadas
Abd
benevolencia
líquido
suici
##ick
med
inspirado
##chón
Antón
daré
Paco
broma
Tez
requiere
inim
favores
fabulos
Lord
Sera
##alos
##aldo
entáo
Arri
sordo
ejecutado
extranjera
omni
vejez
Lla
cues
reducción
estimul
Jama
blanque
Expe
Pun
delan
##bita
oportuna
##ction
1826
demora
labradores
lamentable
##fan
Apóst
ejecutó
conservadores
bonita
Lec
##ÍS
##erno
cajón
gracioso
##pirando
##iremos
Cano
Rol
##wo
##guía
trazado
Conque
contesta
##edo
##PE
##orno
arca
ofender
subdi
roman
aprovechando
Comonfort
##pando
honda
mandamos
riqu
vireinato
esten
vega
cualesquiera
Arauco
comman
desb
terras
panor
Álvaro
telé
zapatos
ñoles
solitario
calzada
necesitar
atrevió
demol
Pros
nul
trém
erario
Victor
prodigios
judío
diestra
bernador
##rana
serra
pris
botas
miserias
Baltasar
Braga
profesores
noso
escra
emis
valenci
Cardenal
Navarro
legítima
##mana
##inha
##chaban
rubor
extender
artística
INDE
fiz
##trero
Abra
extrañas
Villam
veinticuatro
##jir
##eradores
margem
DEF
verdade
causaba
embarcación
Salto
narices
RA
devuel
carg
Incas
esperarse
ocuparse
qualquer
05
Edi
dicta
parape
Alcázar
existente
out
1831
tentativas
deshe
naciente
acudieron
sorprendió
oportunamente
describe
Claro
##CC
peones
mandé
procedió
remota
##ñiga
##entor
montón
estranjeros
escre
holandes
Ambrosio
##gé
hacha
##tóse
firmar
aumentado
Tudela
floreci
Borja
Quirós
INTRODUCCIÓN
ciales
ésto
sillón
desenf
celoso
solían
talvez
Amer
huestes
silvestres
##rándose
baño
puño
ignomin
arbitr
Hel
##vidos
##ises
ardi
prelim
pertenecer
Suprema
argumentos
##ult
Consul
fijos
Mons
Aún
estendi
cuenca
colm
##rést
tocando
transe
Nazar
lancha
acompañada
aseguró
desd
coches
fundo
apariencias
volvían
pisos
##vad
##titlan
Legisla
Soberano
Tunja
biz
##lra
Mariscal
honrada
pusiese
demostración
Fan
cro
lumbre
##ifi
dedica
##ness
AMERI
##tate
##ture
caser
acercaba
terminante
inspiraba
marquesa
económica
sit
##pote
esplica
pesa
cierra
Boh
repetidos
sitiados
secundar
Población
solemnemente
esencialmente
PAS
##mal
sustan
nova
bastón
encub
turcos
representado
##orosamente
adornado
Daniel
sobrevi
procuraba
dable
##emin
presbítero
trataban
sombreros
abrazar
##tierra
Paredes
1834
abrirse
Tesoro
agrícola
natal
sublevados
##iona
ane
Escor
movido
Municipalidad
tiago
Ign
lomas
##ienta
desment
tiranos
##nales
sometido
consagra
Rivadavia
Orleans
Sra
bigo
unía
suelto
obsequi
corregidor
maravilloso
enlre
SUS
goce
##ELL
admirables
italianos
resuci
off
ganó
lanchas
escuadrones
meu
doscientas
rendición
succes
travesía
##íg
vaca
trabajado
imaginar
muñ
raya
tiende
##eciese
intelij
rodeaban
cruces
tierno
##vana
##iega
limpieza
jornal
interrumpió
BO
enten
cional
medir
tejidos
fallo
adquirió
Figueroa
saberlo
garanti
##caden
TOTAL
##VID
##wer
queb
levantamiento
ensayo
Godoy
##isio
leones
##its
##urgo
Arce
240
pital
Aqu
Colorado
content
pretender
gau
arreci
algum
filósofos
electoral
Ojeda
##enga
motiv
dejarse
grata
##CIS
intent
pam
##ílica
establecidas
rumores
infati
reir
indias
agonía
##tíbulo
manifestaba
1866
Diputado
##nica
rub
deseaban
enviaba
penal
apercib
suscrib
##ombres
reser
Chor
recogido
reparo
científica
Gall
Reun
acompañar
tabern
feo
##drían
Boca
aceler
Entra
fals
adap
Bul
Fron
##cue
insensa
temible
semillas
Sonora
evan
armar
##eratriz
abrieron
apetito
enérgica
hacerles
permanecido
Pontífice
geográfica
trabajadores
COLOM
manuscritos
vehem
Tas
##uarte
prós
andado
responsable
promover
Religión
toneladas
ácido
##dulas
##ango
muitas
faltado
reverencia
explicaciones
derramar
Vá
deudas
estiende
nacio
bajan
costados
vende
dudo
conside
respectiva
Lorca
ladrón
hispano
##jento
salas
adher
rojas
entusiasta
candidato
Fir
##DOS
capel
candor
expan
dictadura
1842
desenlace
apoyado
perjuicios
Talavera
##cibles
inta
##belle
comprendo
apuntes
##PENDENCIA
##ucos
##dicho
canon
flex
diplomático
Dávila
Imagen
dela
movi
limita
Garci
Pis
estrépito
islo
guardi
aflic
Colección
sacaron
##omeo
##egados
produjeron
imperfec
Calatrava
estruendo
Zo
oyeron
qae
##abá
poética
salga
compañera
Cangas
1880
Josef
radical
fanatismo
detu
##rego
Concil
Descripción
conversaciones
componer
marítima
explotación
nados
##erosa
inmens
choz
Vela
volví
concern
##ight
juzga
corteza
Agüero
Acer
##ciados
Span
gras
indicada
Monta
suficientemente
criaturas
manufac
pregon
puñado
reduce
##americ
raices
enteras
ejercicios
infinitas
suponiendo
reaccion
navegar
desastres
cuidadosamente
Tabas
##onada
##elho
perci
convención
muchachas
Volvió
##def
carecía
discor
descarga
estipul
mosa
piden
secas
##tou
1841
Agustin
melancolía
Cárdenas
INDEPENDENCIA
##goso
encor
palmo
cultos
desembara
Chiloé
##ken
##undi
incer
dotado
amas
temía
prontamente
engañado
emancipación
convirtió
Sto
contienda
mantiene
ordenanza
Barba
establecieron
introdujo
Licenciado
sepulcros
MO
Vidal
brasil
##adía
##iten
casco
variar
pañoles
contro
volup
Salom
pedían
Leonor
dándoles
mide
cone
arren
Encon
Desgra
discípulo
verdugo
deg
paro
sincera
constantes
Resul
recordando
Rivas
##abón
##tinerario
220
gastar
desembarcar
fecunda
salvó
peñascos
acceso
Ceci
coman
Nuestros
Jú
hablamos
##quitos
quitado
##tancia
Carrillo
avanzó
cosechas
##est
hebre
volviese
gradas
dormía
uniform
Australia
##rane
Nov
maestra
penetrado
soberbio
suspensión
ANTON
fomento
gallinas
Hung
Reme
Joan
entierro
lé
##enti
hume
concejo
tuvieran
Tr
##melo
resultaba
hasla
jurí
huella
mansión
ofrecieron
##ecerse
representaciones
mercaderes
Esperanza
impuso
saliese
##ércoles
interesados
tradici
bloqueo
##gueras
emprést
Carre
Urdan
inclinado
##ñarse
falsos
votar
ocultos
alarde
invencible
astucia
mancebo
picos
##iño
##orra
quod
Supon
recientes
ill
amarill
Ramiro
simpático
bellezas
Padilla
rueda
##alas
##ienden
carecen
despidió
##iéndola
##abando
##ásemos
persist
feito
abandonando
entenderse
adivinar
peña
seguinte
onzas
ampli
zonas
prést
verificar
Ea
cuen
##isticio
trar
interesa
Tec
##cipa
##rem
ticia
código
positivo
plo
##eal
##áos
digan
##ciaciones
terior
elef
trabaja
##cingo
##greja
mien
##pí
juven
notablemente
acumul
ligereza
indicación
creó
Matan
decian
1838
Respon
muestran
desconocidos
esmer
##ueste
mana
Mac
sentados
montañ
##ineos
contribuyó
Zavala
escepcion
piadoso
Cielo
Tolu
vinos
Ultra
##bido
merecía
madri
contempla
justificar
sho
##hó
##ibe
esplo
##ianzas
charla
señorito
##gría
dueña
bárbara
inhum
fosse
Governador
Bla
##vasen
decirme
mirado
pérf
incluso
Regencia
##burgo
Vivero
Trans
bargo
Gobiernos
apertura
02
requis
##charon
popa
pongo
pique
señalada
Viendo
##guno
cogido
dependientes
Misiones
avenidas
moderación
Fab
arbole
##uroso
dejé
excelencia
huyó
principe
transac
indepen
niebla
aplaudi
Militar
desfigu
antro
actas
subterrán
confesor
impulsos
soportar
increíble
ímpetu
jener
Mariana
atacó
Julia
Palencia
ruedas
subalternos
Itur
hidal
infal
Carri
señalados
taller
calumnia
AC
##ZO
##cedió
chor
##ameda
proclamado
condenados
marinero
ILUSTR
Cesar
##pá
##ota
192
corporaciones
Cónsul
Cund
nera
vor
Sanl
embelle
confiar
##madura
estuve
##dalos
observando
1809
contemporáneos
##ína
resignación
##pulco
##iéndome
gunas
arquitecto
sutil
arenas
impas
abandona
escasas
otoño
##ñon
##qua
##medi
Ayala
regularidad
triunfar
Maestre
Antioquia
Inmediatamente
Mars
frescura
combinaciones
anunciaba
aduana
Bermú
Cic
##vre
ademán
Quijo
escaleras
bestia
Hungria
poé
Quil
redujo
próximos
ordinariamente
almuerzo
Pic
grá
bate
llenó
melhor
persuadir
desaliento
compromisos
mix
##radura
limites
afluentes
##tava
intol
Loreto
coinci
equilibrio
Plas
cambió
estudiado
arbustos
silvestre
reu
dit
paños
carita
##ally
guerrill
sustra
Fuerte
lus
águila
##onos
rez
inda
formul
tenerse
Aure
remol
eminentes
industriales
##deza
##ibio
compás
crónica
abandonaron
discutir
infinidad
Rena
Tim
Esm
confuso
temo
atravesó
sensibilidad
designios
marítimas
Vélez
##tens
##STI
1881
infinitos
refuerzos
envenen
bulto
##reira
##INAS
aceptado
desnuda
maravillosa
Monasterio
Av
respir
made
sangriento
Bahia
comu
##rese
exemp
##canas
##gasen
enviaron
fundamentos
poesías
cabaña
concesiones
##GUE
comodidades
##aV
##chiller
ratific
inflex
finca
pliego
patriótico
pés
##ueta
##orios
huyeron
clasific
Consider
Michoacan
inmo
muda
##laria
platos
Comand
pincel
tambor
mencionados
mantenía
austral
AMÉ
laureles
álos
infor
godos
SEÑ
silencioso
Mesa
bió
hí
copas
ignorante
entramb
designado
disgustos
alcaide
Tabasco
MOR
##ieza
recreo
asesinado
##varon
latino
cuent
ardu
arsen
##érs
riachuelo
adjudi
VIAJE
##reh
sele
aptitud
soñ
Chin
ocurría
sistemas
ventajos
fomentar
Carolina
##como
##vall
Correa
ponia
hallé
estup
##ONI
estudiantes
Tenia
Cres
oje
##erogl
##ibar
capillas
trabajando
210
órganos
Rincón
Monforte
asegurarse
ausente
sitiadores
Pampa
Villafranca
pia
##lora
##ert
##alte
##tat
factor
cuanti
favorito
perfume
pacífica
contemplando
tolerancia
proseguir
##kol
pavimento
Hurtado
tico
Ayer
exigía
precipitadamente
agrícolas
Gál
Sum
tera
##jica
##teos
Revista
transpar
Alem
Heredia
cauti
prometió
dés
esqui
##itá
salario
median
embajadores
REPÚBLICA
Zú
ach
fera
íbamos
##urd
tej
tormentos
considerablemente
chocola
Galle
archivos
archipiélago
emigrados
##arez
lava
gritando
##aloa
aplicar
CÁ
sorte
Moham
pacífico
##ambuco
mrs
up
##gativas
opuso
banquete
negociación
manantial
Iglesias
URU
pica
##uth
tomase
patrimonio
recibían
demues
consentir
información
Urdaneta
##organ
reja
desocu
reconociendo
introducido
atravesado
legislación
Observa
taron
##zanas
hog
muchísimo
carbon
aprobado
alumbr
Oficial
nan
##puesto
gobernantes
emplean
##quillos
concluida
dictar
cultivar
acostumbrados
capitular
zos
##sados
##antería
seas
Parecía
despertó
democracia
##udadanos
Cham
fracas
testimonios
dictado
Mauricio
##TAD
porto
donación
Arm
##ANDO
suertes
##NDA
##GRÁ
##gs
indicó
augusto
cesado
Quint
sostienen
llevándose
instruc
Quijote
Tlas
##picos
escab
colmo
evolución
##orey
mueve
aprobó
nervioso
aventureros
cláus
altamente
importe
valía
dictó
cruza
COMP
Estrella
derredor
cén
fim
jenerales
rapa
Matam
##minar
volar
sentar
Logro
influencias
doloroso
hablo
##RIN
convenía
fundaron
ordinarias
faculta
titulada
científico
injen
##ilos
goberna
conformes
adelantó
Fuentes
austria
presenciar
Xa
##gidas
##inea
Estando
civiliza
Motezuma
dizer
desesperado
grabado
erección
##zosa
contri
Peru
senadores
Hugo
minuto
vigorosa
modesta
grem
Ato
ileg
tendremos
Lago
##inosos
provechos
espectadores
08
pisto
##So
pror
##gat
guitar
empeñado
servidores
Acosta
Bermúdez
leido
Cay
tripul
Dijo
occas
contribuido
David
rejimiento
asociación
pessoas
Ia
juntar
fundadas
Bahía
comentarios
perdía
moriscos
Montal
avist
ostenta
persuadido
cabellera
LXX
Ramos
cieron
intitu
##ezol
rudo
resultan
llana
rencor
correrías
regalos
##burg
vora
##lé
Esté
rojos
Sua
llevase
avanza
cruci
pacíficos
Ocho
hubiere
asesino
reflexión
hambri
Sería
sendero
##uin
ente
Arg
armisticio
galante
ANTONIO
Cra
Ham
##quedad
##ceu
sábado
danza
##tuosidad
potes
reside
convertirse
emigración
Dicen
neutr
Octa
##ineros
aquelle
Cuanto
humill
PERÚ
Páez
##itores
entregarse
exerci
orgulloso
##vides
buscan
fábula
pareja
anoche
fundadores
abría
escase
queréis
Barre
caballerías
estudiante
folio
araucanos
ROM
##dicos
solares
confies
celebridad
deducir
##ilan
convenga
gustaba
URUGUAY
hy
##ça
dois
antecedente
Provis
Máximo
##pendi
##jios
públicamente
1849
presentación
##viene
chozas
##iéndolo
trasladado
quebradas
empiezan
vana
##omar
moza
indicios
##cinio
dividir
universidad
Pompeyo
Tlal
penos
enumer
caf
espresa
salidas
rota
colocadas
hospitalidad
vulgares
##animidad
desolación
##adizo
locu
Pasto
creerse
pronunciamiento
táuo
huésped
Mendi
Pilar
##rima
adora
afecciones
Elo
##obos
Contes
##rision
##quívo
ladrillo
desesperada
Angel
geó
Prelado
bendición
Geografía
intoler
Generales
Grandes
John
preocupación
implacable
Clo
Mus
agrup
botes
estrechas
borrar
tonto
funcionario
egipcios
##ñil
colegios
Ass
cré
Niño
##ológicos
Tul
perturb
Alta
ray
insensible
feudal
cazador
establece
agradecimiento
Fermín
celebrada
agravios
deduce
##adillo
reas
tender
presentando
conducen
rendido
organismo
Cele
murmur
fértiles
flanco
##fra
##iense
reprimir
sabéis
honrosa
prontitud
cumplió
indulto
custodi
delincu
cueros
actores
guisa
vago
VIH
avanzando
saludable
insultos
hazer
arbitrar
Fi
##ecia
arrim
galeras
Ildef
Instrucción
Esmeral
preguntaba
borras
poseen
lejanos
bruscamente
##zándose
desobe
corpor
##cería
coronas
sacristía
lám
##med
##urre
Chico
enteros
BAL
##tif
inmin
aspec
verás
capita
honrar
bandidos
gastado
Venus
indíjenas
hueso
caminando
Toluca
##bell
dichoso
##igar
##enciar
permanece
##gran
enar
reses
coroneles
trascend
Long
##yon
##deces
cerrados
enemi
horm
manantiales
cui
gallo
divisa
lienzos
revueltas
Wh
##dós
arjent
forzos
Cayo
Quiere
Partido
1873
alejar
Escorial
blando
##tile
##ceno
Carlota
diploma
Lú
enro
##isse
tocan
previn
pasé
##riguez
cubri
cuadrados
poético
matr
mapas
tomados
Lev
aumentando
asistió
áspero
fugitivos
Isa
##inelas
Albu
antiqu
Salado
virtu
Tenemos
ligeras
1888
SANTA
billetes
Logroño
##BO
erudito
Cédula
invisible
Ao
Cro
##pone
revés
ejerce
gentiles
domésticos
ME
tinta
detiene
##adme
cercado
variado
brazas
interesado
recuper
robado
adelantar
definitivo
##bú
##didamente
Muley
aseguran
despachos
1807
cuántos
satisfechos
##DIOS
conservando
Cámaras
heroicos
invadir
hechic
retablo
alt
##imien
Mañana
opresión
Monsal
230
discusiones
Popayan
cátedra
uua
##uran
mudar
repartir
Freiré
Orel
von
procedente
##imil
##blica
place
palad
pudimos
figuraba
semilla
gloriosos
detalle
inútilmente
hidro
Llo
Lau
cambia
servil
refiri
contenta
reconocida
laber
obstru
Mediodía
celeste
sede
desciende
##ándalos
mejora
rostros
vegetal
salvarse
Bárbara
Cien
Scott
anc
respirar
barb
dibujos
##rás
##ríos
Estu
Pedra
comerciales
Calvo
dominante
Maestro
cúpula
viernes
Aduana
Quintana
Cun
lomo
##yer
##ingu
dole
Matías
confis
Arcos
recibida
Capitanes
calamidades
criollos
##tear
##emias
##ules
dedicada
colocación
antigüedades
círculos
cumple
lante
pilas
##toma
##zes
##dosos
herir
enterado
intentado
Empez
argentina
consignar
dezir
despoblado
latin
sienes
tot
##quín
bajaba
despierta
citadas
##ragon
encier
respectivamente
necesitaban
##IDAD
cumpli
deslumb
lúgubre
Lad
tit
##fuer
descrito
nacion
##vari
agasa
provinciales
intemp
riesgos
Declar
Cinco
BE
##vase
##TAN
abren
##critas
pensión
Peral
Ferrer
acostumbrada
Diputación
Hal
##tao
aglom
boa
Albacete
Benavente
desdén
Cen
desac
##lasen
verte
##egre
Cuyo
vincias
permiten
emociones
Foi
reún
##chones
##terna
embarcarse
repetido
extranjeras
remedi
1883
Palacios
epidemia
##enario
hoguera
Ayres
encantos
patriótica
##ican
##eli
augusta
llamamos
españo
Amé
fáciles
Cartajena
amplia
Ninguna
estadística
mór
##sable
##lá
nacidos
poli
efectivo
únicas
Fons
line
tocante
##ONES
contemplación
composiciones
##íale
##cacion
##itaban
distri
MARÍA
Intendente
COLOMBIA
reza
Rozas
ridi
concordia
sacan
sombría
amarga
sostenida
Ave
Tos
rif
##trán
abdi
##sao
curiosas
Ningún
##íferos
diosa
##itanos
casada
##hech
candidatura
Aguas
Ibarra
Sy
Sigue
TRA
previa
passar
buf
apartar
aparecieron
escrip
vacuno
penitencia
trabalho
mic
##oa
##gones
##gáis
##deos
conste
decente
levantándose
arbol
mutuamente
BUR
##lín
##dante
intima
cían
##íp
##órico
encuentros
Alejan
violentamente
tempestades
commercio
intérprete
Sanlúcar
arros
corpul
abaste
ponto
expidió
subida
atribuir
retira
##ársela
Pirineos
pajar
Rela
mediana
conocieron
urgente
vulgarmente
peruano
Ultramar
fro
##ward
paragua
crecer
labrar
circulación
##questa
llevarse
##irez
inquieto
tradicional
seré
espor
finas
niega
precedido
##bis
##quisa
indican
##sose
secretas
besos
##VIDEO
rro
##udez
concor
##redo
##vedi
Occid
firmada
Caballeros
reemplazar
habitual
Celes
convi
cetro
quedaría
arrastrar
abraza
mercantil
pertrechos
foso
parlamento
##piter
súbito
vacilar
equ
##anismo
##ONA
1839
inteligentes
edificar
estalló
4o
Hip
perez
Esas
infra
teme
suplico
suavemente
pantanos
Segunda
comienzo
MONTEVIDEO
Jamaica
Ful
##daron
##dimientos
obsequ
apóstol
uns
espuma
##EROS
conservó
prácticos
atrevimiento
DEFENS
poe
levantada
rompe
agudo
harían
Orizaba
molt
Román
Honduras
Ildefonso
frial
espeso
Exposición
sufrieron
280
feria
ensangr
limosnas
cana
##táo
##temos
desmon
Armas
habitaban
balles
despedida
ajeno
Isidoro
bergantines
laterales
Eres
Sabe
novo
inclina
##EZUELA
Agri
Traba
pé
##PAR
indol
seguimos
siguien
##viles
prueban
herederos
embriaguez
cuja
sienta
existido
acordaron
Llega
fianza
uni
matando
##cosa
capitáo
Quis
avanzadas
infantil
embajada
combatientes
entendía
miri
poblados
abandonados
##adá
envuelta
Divina
sacaba
buscó
dirigían
escuchaba
liti
balbu
legislatura
refuerzo
lustre
AA
ji
trin
conducidos
##TICO
##conde
advo
tomamos
señoría
encontrando
embarcar
instintos
nava
distan
trabajaba
crip
aconteci
piadosa
lisonje
Tacuba
Pase
oidos
quedo
Contr
crep
contestaba
ergu
chimenea
hembra
dema
##gus
naval
##oroeste
liqu
consiguieron
persuas
Iri
bir
##daban
##yal
delle
leía
Feliz
Arau
anduvo
Alhambra
modificaciones
INSUR
prepon
privados
teorías
gotas
expediente
infernal
percibir
convierte
cómplices
lentitud
bl
diálogo
prevención
regidor
povoa
abertura
uñas
locos
tomé
Artill
leyendo
acreedores
exceptu
Irlanda
##gut
asum
Arte
Manif
surg
extendía
sospechos
ambiciones
Biblio
CRI
Den
ciruj
Teatro
pinta
orij
disimular
Atra
bá
esqu
dimos
##egada
sendas
##éndolas
podríamos
cuántas
lámpara
ET
Viena
crónicas
Obando
separar
concili
commun
Constantinopla
duerme
episcopal
Varios
dieran
intes
sufrimientos
Obispado
matanza
infamia
GAL
##iosidad
consejeros
##fato
freno
tragedia
##aes
parada
coad
Juntas
condescen
mental
demonios
##ellas
impide
monos
monárqu
##enetr
CAST
encamin
Jerusalén
incidentes
##épido
##losa
visitó
entereza
quisieran
parecida
persecuciones
Concejo
VENEZUELA
eclip
recio
##ters
anun
respondía
##abela
Nieves
Socorro
nales
tores
##rendo
##xido
reía
goces
calmar
quisiese
##hol
pozos
perver
##ibal
previ
venden
confines
Sarria
constaba
conciudadanos
premios
Acapulco
Matamoros
Gros
bispo
devas
veis
constar
Pasa
Florencia
blación
viz
Cub
cinta
reconoc
portuguez
bebida
perjudicial
##alto
mages
pac
bula
templado
limitar
despedir
##ológicas
##nis
diam
perfi
apor
encuen
225
espacios
avanzado
1872
combust
fabricar
sacrificar
insoport
puros
Suarez
contrarias
Extre
distinguida
avanzaba
agravio
Vascon
##iduque
##gadores
##úr
sonó
especu
contador
atendiendo
podré
Beren
Bob
exh
niñez
insignificantes
comandantes
encabez
panorama
Cundinamarca
##raga
##eld
comprado
permanecieron
desconcer
cariños
registro
esclamó
ua
##ámos
osadía
aseguraba
ejercía
lindo
HISTÓRICA
bombas
solda
dureza
torio
DOS
Nico
##uedo
revi
acal
Mejía
penoso
viveza
##jalá
pórtico
portentos
chocolate
ecos
ÍNDICE
ayu
Prote
comprendida
separada
1874
1878
Joaquim
Alcaldes
conmovido
multa
aquesta
06
Tienen
sienten
exhor
cami
garro
recorre
brillar
impedi
conseguirlo
Plasencia
Phil
inic
paraíso
tancias
cortina
mundos
padecer
desfalle
huracán
##hí
susto
espul
disse
dirigen
legales
cómodo
colocarse
##ENTAL
sostenerse
prohibido
ensayos
legumbres
##Ã©
sición
imped
sabrá
estrechar
preguntado
renombre
sid
##ITA
Alic
##cencias
señoritas
gozan
acertado
zozob
Atacama
CAMPA
Zuri
sermón
giro
preca
Barb
Cuevas
ños
##orras
abul
marcada
principió
falsas
##ctora
bonito
##ufre
revelan
reparación
xvi
degrad
##cóes
violencias
designio
remitió
niendo
exor
Mancha
Abu
procuradores
Fuen
campiña
Cacique
alia
resbal
ayunt
muertes
francamente
romance
pecto
reclama
italiana
pliegos
TEN
##ticamente
##ded
seriamente
cordón
dependiente
260
instruido
hábiles
experimentado
serpiente
AMÉRICA
Eh
Ira
##way
##tiesen
abomin
##inosas
450
Bonaparte
##urbios
baña
choc
capitane
cómoda
Presi
1876
lejanas
perseguidos
doncellas
inacces
epo
senta
entro
honorable
estrago
reconquista
temeroso
copias
lunes
Escocia
frialdad
##dien
sentencias
contesté
1882
Ribera
seja
reiter
fechas
obligaba
esclava
Emilio
occidentales
Primera
Fonseca
Prieto
opos
pante
##bros
##dices
restri
prisiones
sona
romanas
mandou
Montejo
arbitrios
##TIN
##dell
daquel
vendido
continuos
Rub
Allende
residentes
##lete
imprimir
terminación
predile
Tán
pó
tina
cupo
##garte
impresa
ofendido
tendrían
poblacion
seculares
ate
hembras
tis
##petas
Artí
195
arreglado
caudaloso
misionero
ric
reorgan
Estamos
tratándose
canción
Suces
resuelta
aprendido
acarre
lápida
Dal
##ára
Entró
medicin
##entaria
quintales
Tuy
erudición
bastimentos
Mom
true
mineros
molinos
amotin
acuerda
injurias
Retiro
##urg
Reyno
corrieron
diestro
Castellanos
Ses
##uber
latinos
##note
cabil
intercep
intervenir
pintada
gustos
##lloa
270
robusto
averigua
presumir
insufici
Dulce
##padas
aliado
menospre
baronesa
cráneo
Satur
solicitó
atropel
provocar
Continente
aludi
##elle
entor
palpit
contrabando
considerada
genios
marchado
sarra
restauración
aventurero
hipótesis
Im
nidad
##ientas
Estad
venezol
Baza
Barros
escribiendo
lícito
Raim
organizó
contorno
tacto
Zúñiga
Eche
tercios
SANT
REVOLUCIONES
Chillan
fabricación
procedencia
eos
##veira
palp
regencia
represen
llegará
##ICAS
usaba
alcanzan
eternidad
conflictos
cubrían
Viz
animación
repite
nombrada
sepultado
inago
intu
mediación
gritar
obligar
Souza
Cristina
evidentemente
cárceles
visitador
arraig
clo
##zia
##rael
mudo
verifica
sonrió
castigos
eternamente
principa
plenipotenci
ultimo
cerradas
recre
##úmulo
Baviera
determinada
resueltamente
pedirle
Dionisio
ró
Éste
##anse
condado
prover
Catam
cejas
ayudado
restablecimiento
empuje
TA
emped
##quieren
Ár
instituto
adornada
ATL
##íficos
##MOS
##abuco
caían
sintiendo
barcas
##cagua
saltó
paisano
agujero
haremos
organizado
mezquita
Provincial
1885
aguardaba
Pernambuco
wo
##gines
##UES
##cialmente
caval
aser
autori
Mejor
acusa
buscado
Diana
acompañados
regularmente
máxima
intermedio
fig
##pura
notó
mante
##gatorio
dorados
frescos
invasiones
disminuir
divinidad
##game
##urando
##vaban
##cuco
abiertamente
confor
mueren
Emba
sólido
impaciente
preceptos
marcado
terci
Caja
llegara
##heiros
trabajan
especialidad
ruta
circunferencia
usando
doctores
divididos
propaganda
Bé
Llanos
sider
estam
pren
Ali
chist
Nava
preparó
##IVERS
lino
vicis
##trados
Alg
presas
domi
##the
##entino
##tern
asol
Christo
principia
Dicho
enérgico
##rúpe
domicilio
Fac
área
Rever
venid
they
encargar
jueves
entramos
rechazado
vínculos
Fres
Fund
serios
mari
colosales
roc
explos
destruida
demarcación
Spanish
##terin
vocales
referidas
1875
pleitos
cigarro
antecesor
##xos
##GAS
espesa
Corral
acabaron
ranchos
1887
murmullo
##otnote
terrestre
##cc
more
tropic
temblar
sorprendente
extraordinarios
Milán
confundir
Seminario
rendirse
##ulipas
04
pino
manzana
opri
grita
centinelas
CAMP
firmes
críticos
chilena
espléndido
Golfo
parto
##sou
chill
botán
directo
primeramente
robar
Remedios
Nombre
manta
saga
vias
##RIAS
dominado
09
Mez
TE
ida
quina
aug
fea
histo
Lozano
articulo
escape
licor
##xe
siembra
Charcas
ordenar
díli
Eg
deseoso
reproducir
Alicante
Sha
Ton
##locu
creada
crá
Mercado
canónigos
dijese
húmedo
estallar
mandase
venera
##ILLO
mantenerse
Of
aran
##jol
rezar
compuso
juiz
confus
escapado
aprobada
fóra
centavos
Abre
##ary
barr
estrechos
aficionados
desmay
ip
##fices
##ARDO
Solís
aislamiento
Companhia
ritos
reb
Conquista
##yola
cerdo
llevados
continuado
##querque
mostraban
asesinos
Geor
sulfuro
Gálvez
bla
nobil
sali
Correspon
poderío
obscura
sufriendo
##ificaciones
singulares
sosteniendo
encendido
ceg
zón
vencida
##baro
cubanos
diversidad
cruzan
##onetas
hostilidad
argentinos
GUERRA
engros
concebido
Atenas
##pri
##GEN
##tono
denuedo
guardado
aff
lejana
anciana
fecundo
llamamiento
decli
corredores
expresiones
reflejo
Borbón
convoca
eficaces
Aranda
saqueo
mercaderías
bom
hec
nóm
##zor
##guilas
tuyo
vaig
nieves
trasladarse
vacante
ruegos
grabados
internacional
07
Fla
conchas
estender
perecieron
opuestos
ruda
imaj
observador
llenaba
celebraron
tranquilos
puras
cohe
##tricas
arrogante
comprendidos
confirmar
veteranos
vírgenes
Hero
zelo
203
constituido
variados
botella
Haro
##uce
##ft
##ánicas
desembarcó
inesperado
Ulloa
cimas
193
ferocidad
##gil
##estre
##aram
secos
dise
##peya
acan
herra
sanos
198
cédulas
podíamos
repetía
sometidos
Regimiento
comprometido
atropell
Chihua
someterse
normal
Pezuela
oca
dote
adquisición
santas
maldito
mereció
rubia
sultán
repugnante
desengaño
Eclesiást
cn
ox
##jase
##oll
cuencia
salia
camas
regente
Obras
intriga
relieves
ges
sente
215
##cripto
pretenden
Osorno
enlace
Seme
##inatos
205
turbación
Osorio
##plicable
varonil
suscri
exas
##iciano
March
208
generosos
rodeaba
Puig
aislado
##áronle
Geno
##plan
##itia
estacion
adven
favorecido
fonda
acompañan
arrastra
arribo
##camento
##idan
regio
tao
almacén
Tamb
mensaje
Sáb
freg
##utas
##riera
indo
arcilla
##caro
teología
diezmos
vidrio
gestos
nun
ditos
precedentes
fora
vitu
darán
colorado
pusiera
encender
académ
catedrático
##Ã³n
Orellana
llar
##iamos
##énico
negado
municipalidad
Olme
silenciosa
##jió
##ARIO
##celo
Ingles
Guia
desapro
dilatado
Ninguno
EXP
Len
ie
##ridades
##untes
cuñado
##usco
previo
repon
Carva
gritaba
Cande
Tampico
sacudir
Popayán
Júpiter
pendencia
desto
trasporte
204
201
pagaba
Gallar
satisfecha
Footnote
cristianas
desemboca
Ria
neros
##picios
##riz
excus
##minas
conocí
constan
cebada
honroso
iré
reconocía
intensidad
bolsa
desprende
Nieto
cuida
fortificación
vastos
Castellón
Oña
hidalgo
wal
##IR
##ÍAS
##quería
separó
desaparece
espléndida
pergam
abar
espuesto
disi
##cenos
elevan
importación
199
choza
Apéndice
sufrimiento
Adolfo
Bac
rían
inse
baluarte
aseguro
Veamos
apoyada
Sacra
Representantes
Acon
Pino
time
##engo
afan
aprobar
cesa
separadas
desinteres
Derecho
omnipo
CER
Xo
serias
generalidad
sentirse
Mans
196
Alférez
arranque
trueno
estrangeros
##eridad
contu
##tib
##ensis
darnos
##ganza
##utla
tenacidad
engendr
Condesa
dogma
estamp
##guan
destas
there
condena
revolucionaria
sonreía
Plano
gada
##poca
prus
virtuoso
comprenden
impertin
cañona
reconcent
advirtió
atorment
Nilo
Ora
tuer
##coma
##IOS
##ETA
consigna
huye
cede
amorosa
##g̃an
##cadero
despacio
proporcionar
contenía
pobladas
estímulo
##dy
##alan
algar
alzar
Che
##quivir
Ayud
Municipal
párroco
Hora
centinela
acercándose
desconocidas
Dra
etim
rán
##yéndose
Consta
infructu
##eau
mandante
1877
##UDAD
I03
Larra
eram
partiendo
halle
representaban
occu
5o
Varias
restante
confió
fijarse
Armada
Cole
invol
separan
robos
PAT
Joseph
infatigable
##CAL
##oneta
comunidades
##g̃on
próximas
fantasma
Tradu
Nas
dres
were
##VII
indicio
emperadores
cualidad
aztecas
curva
amargo
arrastrado
bruto
inspirar
##embargo
Cora
comesti
privaciones
soltar
apreciable
vegetales
fielmente
indiscre
hierba
Ved
dones
redes
mañ
lucir
tuya
atenta
cubrió
gordo
escondido
Vieja
sagradas
equipaje
feb
##vilidad
Sinaloa
portuguesa
grotes
##ccio
##ñaron
##ÑAS
recar
morte
llegados
torna
estraña
Ramirez
Sena
aderez
##tén
##zin
Alme
cantones
barbas
respetado
altern
guay
sangrientas
astronóm
cra
##ierre
sanción
Metrópoli
influir
verificarse
##plicas
ensay
redondo
solitaria
##toso
espos
Silves
psic
melancólico
MANUEL
inmigración
busto
trazar
##bot
largamente
fragatas
Primero
párrafos
décimo
##gico
##kin
notario
despi
canciones
##áráo
##ENTA
civilizado
vivienda
Recono
jardin
sembrado
hemis
BIB
clemencia
we
##pones
##erg
reis
##usse
reseña
prescrib
maria
valent
Coim
##ADOR
Berme
afirmó
SEV
its
197
concurrentes
practicado
Honda
camaradas
virei
##grafías
Salvatierra
Ino
paró
##ieu
prema
espinas
cerrando
maldad
REY
aislados
Santísimo
Artillería
Vues
istmo
rido
veja
calidades
gobernaba
Andrade
##ISP
infortunio
##GLES
deliciosa
modelos
##vedís
fria
##citas
##rov
granaderos
venda
cansa
subía
Velez
Serna
recompens
Quizá
MIL
##orería
##tie
acentu
##mito
defendían
senador
211
reconstru
rebaño
Quintan
Fam
tub
Casino
##udis
consejero
consideran
publicados
320
adversario
subdele
parentes
Santidad
brilla
1884
crueldades
DIA
Pico
##moles
fins
polí
##áctica
sencill
Melgar
acogida
AU
brado
mü
lobo
##gay
vean
declam
representando
aduanas
Obispos
CENT
oal
##sin
##uño
##ciadamente
versión
chich
duran
crecen
Repú
bordes
admite
popularidad
franciscanos
Arica
emble
##ortales
##caltecas
##ings
espaciosa
páj
Persia
cobardía
LX
sidente
##vimiento
hav
leí
autó
guis
Canadá
tural
detención
disfrutar
talleres
volcanes
Bohemia
nossos
recado
coronado
Cervera
pitán
CIUDAD
rando
indes
iniqu
posta
contratos
Caridad
Boya
predomin
nían
##ciable
sible
amn
impidió
tratos
armadas
limitada
nerviosa
Maranhao
Efectivamente
Gro
bí
##FRICA
cartera
##ísi
despachar
proporcionado
áspera
##ramiento
almi
##eraes
cortada
solidez
valiéndose
Apolo
Jean
manifiestan
flanque
##ñaban
desvi
parage
pagó
##trasen
viagem
resultando
juzgó
219
ignorantes
invitación
egército
musulmanes
Zan
##pedes
asa
regener
cedido
fecho
balance
imposibil
sueltos
Viaje
##IRA
##ombo
tram
indigno
evolu
dedicar
cónsules
sentimental
patios
ÁFRICA
comar
maquin
quad
precur
compró
valió
refiero
iría
sement
ocultaba
##GUN
sobrena
sacristán
peninsulares
listo
##beta
Corpus
pintadas
Guadiana
apoderaron
trascendencia
Correos
preponder
zado
pague
mascul
verlos
pudor
sufra
216
ciegos
violentas
##utat
Mexicanos
Becer
misas
##tarme
descubiertas
períodos
sembrar
incomparable
hilos
caseríos
2i
Pim
cidad
pinos
Repu
volviéndose
embarca
patriarca
##polis
##guin
previs
Hai
determinados
menciona
carruajes
clásico
##ols
lega
monja
buscaban
recogió
comunicado
sugetos
deplorable
Moctezuma
celestial
Sá
iras
##dona
##chin
consti
ofensa
clon
ventan
Recon
rompiendo
Llegada
redacción
Tamaulipas
Pedraza
##vé
##ÑOS
enj
##gudo
anuncio
populos
mator
minis
Monarquía
##ignidad
decretó
suponía
calabozo
Huelva
##VAS
##abon
muera
librarse
##tame
Vicario
Illmo
Mul
##NO
##ñen
##ANOS
207
212
pretendido
retirándose
injusta
anglo
renovar
FRANCIS
Guevara
Documentos
cés
nero
##iante
##ped
Montaña
guardó
leyendas
corrección
navegantes
dorada
labrador
intrans
gados
nidos
chino
Cath
Prefecto
debate
litar
viste
##lis
hua
rectitud
Prop
quieras
colorido
impresos
dilatada
labrada
inviol
paternal
BURGOS
Chihuahua
##pientes
##ábale
declararon
brío
Gobernadores
inmortalidad
robustos
Cochrane
NUMERO
Lit
ati
##fín
##allo
quist
casar
extendió
ilustrada
novedades
encantador
unánime
Oru
catálogo
##orth
llora
vuelvo
rengl
Rioja
abate
delicadas
escaram
barranco
evangel
desvel
aprision
pup
Cabeza
enterrado
cumplida
galas
recorriendo
dignamente
índice
ENS
arranca
directores
pintados
echan
recurrir
corregir
migos
confederación
opuestas
##vildo
##cedían
garras
estimado
primogén
neutral
Mitre
hara
##reu
aparecido
diferenci
recorrió
Montezuma
tendré
follaje
magníficas
repentina
vicisitudes
Pío
##bora
grana
admirablemente
artificial
jénero
BIBLIO
haria
ola
##UA
auton
intentos
patrona
clamor
Rayón
fica
acti
china
##mbro
libertador
Mej
Ceuta
oscuras
cronistas
afortunado
engrandecimiento
terremoto
Mana
##TRE
##rión
siga
##seos
faltando
Nació
direito
maravedís
sensaciones
unen
consideró
descansa
adoptó
frescas
Basilio
espesor
Avel
nim
##gab
##form
##itarse
sonas
vetas
provisto
alcanzaba
declaraba
agradables
Princesa
significado
chispa
antor
mangas
asent
cercanos
Suma
apartado
indef
abatimiento
Código
##aredo
Gracia
ráfa
desfa
meterse
apasionado
horizontes
Corregidor
Ost
verosímil
Alber
Estan
mercio
efectiva
ruin
dirigidas
fronter
DEFENSA
Cosa
##taca
acam
pasará
religiones
asistido
crucero
republicana
Torn
além
papas
Max
lejíti
NOTI
ere
##jida
##iscas
excom
Aldea
Interior
piés
Junin
##trana
enseñado
celebración
Zapata
##ufra
disimulo
Tacna
Ph
##orar
##óng
aspira
defendía
Queda
artilleros
inclus
pasear
interpretación
catalanes
repartimiento
##gineses
lagar
##egro
Petr
acompañamiento
360
trasladar
paciente
contenia
tín
##fio
remit
quil
Chich
talle
209
domingos
claus
Leonardo
inesperada
túnica
ecua
##ures
##king
delegado
apuros
ciuda
solí
saltando
marco
##tanas
constituyente
213
223
durm
adelanto
suena
notoria
incu
Yaye
marchaban
abrazo
Discur
lán
##gli
##juez
concu
prendió
esplor
adminis
Noya
trado
posse
produciendo
Quedó
acuden
Coquim
##enderos
referentes
Presidencia
diputación
mahome
Nan
##rom
##cleo
##win
Marcel
ideales
beneficencia
resolvieron
discurrir
capitulo
literarias
##RUZ
##éronle
##emo
muí
paces
dou
debieran
empleó
194
Comba
sevil
desierta
appro
Almo
Inst
trescientas
llevada
frutales
Piedras
RELACIÓN
Fru
##vá
##ceos
atmos
brav
atencion
reclamar
Tho
##lias
substitu
##TECA
astros
jurados
doméstico
Teodoro
PRIMERA
##varse
enc
dijera
repren
huma
descubren
aumentaba
admitido
permita
primitivas
Apostó
Idem
##sam
##tain
prefecto
forzado
coge
lución
raiz
pila
emancip
científicos
Buenaventura
##dano
##ámb
##IRO
##chitl
carreras
trate
Chal
autoriza
desean
opinion
tiró
sarjento
Rodriguez
aprovecharse
POB
fide
reves
dife
quista
abuela
creciendo
Lou
cuadrada
elegidos
1806
barranca
confirmación
molestia
1°
##ning
##ws
verbal
decisiva
encumb
Extra
diversión
encerrar
guardando
descob
Villalba
enig
##deo
maña
##tania
barras
expresada
representada
fazenda
escopeta
prolongación
trastornos
##itimidad
diamantes
involun
kno
museo
##ister
marfil
sonar
jurar
Cuántas
contemplaba
Sultán
infalible
crepúsculo
Hes
##ples
naci
despó
venció
Ann
Loyola
asegurando
sacra
interrumpida
prolongado
espirituales
COLONI
conspiradores
Bala
##ladores
##inten
prólogo
Caye
rodar
opi
bandas
obligada
preparada
recuerdan
revelación
Homero
SOL
bab
##pía
##ny
##tío
api
caballeres
atrever
curato
promon
Serra
bec
##vidades
pausa
##umento
desagua
206
escapó
Recor
comienzan
siniestro
DOMIN
inminente
Cip
desv
verdura
sou
descubrieron
extension
cultiva
folleto
deslumbr
autom
Aus
gim
##gías
##orable
Ensa
enemist
escucha
cuevas
vue
note
##imismo
foro
cercana
confusa
polo
brecha
cuadrúpe
nudo
mármoles
comprenderá
piensan
equivale
Acep
rió
demon
semin
unió
##gencias
Serena
trucción
denomina
dam
##abé
senti
##lement
Cañete
Maranháo
##úd
deque
##reinato
retó
racion
palmos
Tomó
incompa
marítimo
relijion
Fez
pizar
tarse
tór
diencia
##ism
viesen
##tale
##000
pasaporte
Cornelio
RU
invari
suavidad
dineros
mezclado
jesuítas
JORN
Well
##tubro
##áneos
pot
braz
publi
Sagun
entern
217
cruzando
Jesuitas
Dam
locomo
##trera
verda
replic
cesión
entusiastas
##tológ
depositar
vento
##uja
##cidades
##die
portero
dudoso
##tadero
horca
plana
1886
FERN
Vid
lam
##deu
privar
tirando
emir
202
Murillo
respeito
sostenían
CARTA
huerto
sumar
Algar
##jaca
Departam
merec
Despa
Alex
mostrarse
Ospina
vigoroso
púr
demuestran
laberinto
2°
pervers
camina
afil
pensé
temps
futu
Orient
Nego
logro
Ocaña
Som
##cif
##also
##cou
obrado
##caras
222
Toribio
Apol
extrema
ingratitud
Oran
lomb
##sima
##red
Juris
218
Rector
alteración
espresado
pidiéndole
Coimbra
##PCIÓN
conos
##chero
hacernos
recibimiento
ventajosa
ajena
crib
estampa
abuelos
##veda
decisivo
ofendi
mandan
mandaban
genero
##EDI
devotos
Alvarez
insistió
Preguntado
##OMBRES
loque
##uél
participación
Baja
##rupciones
holandeses
reúnen
Silvestre
##caz
##istencia
corpo
caricias
##jeza
maldita
antipa
apremi
aprovechó
púl
Pisa
##chera
##elli
Alpes
impi
rubio
214
azufre
intencion
Martinez
físicas
trabajaban
cansados
Aman
neo
estrel
226
encomienda
acreditado
atrinch
##pis
aspiración
##vear
quedé
gustan
Junto
XXI
logrando
Sargento
dispers
AMERICAN
igreja
cabras
##ival
reunida
variadas
núcleo
UNA
UNIVERS
mínimo
Guadalquivir
Bell
hir
##enan
canos
decla
civilizados
235
celda
imponía
jurisdic
tonio
inquieta
alemana
razonable
Plu
esquis
cerci
recojer
elevó
hallará
Cerda
Miss
Amparo
Bi
##jame
##üe
##inco
trada
acepta
Villav
tinte
enseñó
repitiendo
literato
Contribu
encierran
##zara
salu
mengu
Carval
lares
prontos
arrojaron
gobernó
##ADAS
proceden
podéis
Venegas
marcharon
intrépido
Acom
Polo
ríe
perpendi
corbeta
entregaron
proviene
Cuándo
hij
valerosos
animados
reservada
vehí
profeta
confieso
Evan
reten
comidas
cargadas
Estudi
##íticas
cursos
Impos
XXII
dividió
conjurados
anunciar
moribundo
Gene
ler
##VIII
alleg
cazar
vocación
##cisión
245
cometió
Goya
eclesiásticas
operarios
grandiosa
cocinero
tremendo
Coquimbo
Pich
end
rectific
afanes
CONS
proporciona
invasor
prolongar
dividen
participar
usurp
Leopol
inmensidad
Llor
atado
##cico
prero
techos
Arzobis
sujeción
celebraba
oreja
Maraca
aproxima
insoportable
##redi
levita
impenetr
nombrando
estáis
convencimiento
distinguió
residía
inspección
fertilidad
grillos
##rísimo
anivers
titud
tomarse
hacerlos
seguidos
ligeros
sencillas
apoyar
agregado
sublimes
Arenas
Catamarca
Lobo
Roc
yos
anillo
caos
mantienen
maridos
interrupción
considero
Orb
exigen
risueño
Olañeta
pistola
mañanas
deudos
concha
255
Cantab
músicos
tornó
pintoresca
estadíst
atrio
##trante
##canes
variación
riores
hablaremos
proclamar
utilizar
estranjero
trastorno
recomendación
lujos
acompan
rosario
efusión
simbol
lámina
encaden
Cuan
Juanito
profan
desaten
lanzando
sujetar
cenar
predicar
Romanos
federales
galope
febril
atar
lue
apéndice
##veza
tiva
dejará
Descu
lloraba
positiva
aquest
tardaron
parecieron
actor
seriedad
##érsele
##feta
colegas
guardaban
##dulidad
desterrado
saban
duques
Mois
lejisla
legítimos
inexac
Triun
alumbrado
Pine
Rue
##trina
asciende
pueble
producían
Barran
sorti
Vicuña
observaba
##iéndolos
fatalidad
DIE
bayonetas
blasf
Suecia
episodio
Monterey
Fom
##puesta
##cato
cortó
1800
haberme
apoya
232
artificio
escogido
apagar
apostólico
Lus
##letín
dición
##guos
siesta
corti
tendió
empre
##liam
extravi
234
odioso
cordial
Carvajal
Aviles
Ugarte
##pidos
##cord
depu
desús
regimientos
espediente
blancura
olvida
espacioso
individuales
conciliar
metaf
tremenda
Doro
Spa
##eado
proto
##dosas
orquesta
visiones
bande
tristemente
bendito
aproximación
imparcialidad
pedestal
SEVILLA
indicados
entré
trian
comuni
labrado
vastas
aguja
secretamente
amplio
cifras
conmem
Ko
##pom
##icianos
rescate
manía
##velo
vendría
encarga
alejarse
Menéndez
clásica
desmoral
cilind
alzamiento
HER
Rel
hen
##zona
envía
##abro
altan
requi
##ibust
Condu
indicaba
facer
osado
grandezas
Manuela
acudían
Canter
224
Tapia
##auh
VILLA
miriám
hemisfer
GAS
adquiere
faenas
subieron
Manrique
planicie
221
carcajadas
juguete
Ano
Bran
Moro
Están
montados
finos
llenado
administrativa
septiembre
perfidia
Brin
Vich
##cela
aroma
recibidas
solicitado
resueltos
perdonar
rivales
DOÑA
ultramar
Celanova
extremidad
Dias
xico
##lah
##istro
dotación
esperó
arrojando
Camilo
tornar
Aranjuez
impotencia
prescindir
Abajo
riego
ía
##yera
racio
padecido
Ocampo
famosas
timbre
germen
prodigiosa
congreg
Derro
PP
yuca
reinar
anchos
Alvear
injusto
ridícula
Der
congo
ingreso
perdidas
orde
supri
intenso
carretas
abogados
confeder
Cueva
##simo
praderas
obtu
vivia
Chib
agon
236
ilustrados
290
quiénes
Ferreira
sencillos
disponiendo
mentir
análogas
Copiapó
Llan
##allas
##idoso
##tración
cipal
frai
Repúblicas
227
genera
deberían
concurren
asesinar
iu
tle
##art
##dería
##idación
Alman
Estaban
offer
Francisca
228
clave
Belén
catalán
Alarcón
foco
brillaba
transformación
tentación
paradero
calaba
intervalos
firmas
Cabello
transporte
hubiéramos
admirado
desempeñó
Vasco
flancos
##ms
##icano
creido
##chea
275
rindió
##riego
magistra
Ech
##lie
pardo
anul
abas
abro
regen
mesmos
saberse
ceniza
arrastrando
encantadora
esforzado
Aqui
Rum
fiero
##gándole
##vig
##rou
recep
Alteza
salpic
dejara
Parque
suprov
237
aplicado
bendita
rodilla
lógico
Batalla
temporada
antecesores
ojeada
Añad
Linares
lación
##ieras
acera
desplom
Introdu
quedamos
suben
Baños
podremos
ambicioso
opone
VER
##YO
sugesti
descripciones
##ulario
consigue
agitado
surgir
imperiales
diverso
1o
CL
sidad
##xas
deud
ingresos
lobos
muriendo
##itaron
montado
barri
arrogancia
joya
atractivo
servirá
fraternidad
carcajada
Valentín
sofocar
rías
##lán
##GE
expos
marcos
luchando
Correo
##llada
prevenciones
aficionado
rencia
zó
alus
nociones
##ceses
campa
##cions
votación
229
acompañando
expresamente
violentos
envueltos
legislativo
Fri
MIN
dían
nec
rean
##emes
sobrado
repul
jugo
guardas
their
hablarle
excesiva
Vds
espectáculos
discreto
Procurador
Gabinete
Fen
Gram
hiz
##su
##jé
##abos
alcanzaron
consagrar
Llegaron
permitían
artificiales
Rita
corne
adoración
infras
despedirse
clavos
firmaron
oportunas
monasterios
incorporarse
Quiñones
Call
Orig
aju
ritu
##tch
##yra
laud
enderez
aspirar
montones
Chic
Curi
convino
consideraban
cruzados
dichosa
descendiente
bayoneta
##BRE
defiende
Américas
differ
dióc
plegar
arquitec
##puso
##vario
deslin
habíase
france
planeta
Sagr
labio
##ástico
avance
determinadas
impuls
estribos
discordias
rable
##onda
cediendo
substancia
boh
supiera
sufren
233
confirmó
informar
perfil
campesinos
Firme
TOL
cida
##ñes
reanim
##antepec
cantó
valido
Cartas
Sale
parejas
intimidad
trágico
Eva
blic
clor
rit
##loso
##RIT
acompa
251
viniesen
SANTO
farol
gorra
alegremente
eficazmente
laurel
lira
Ín
maqu
Chiqu
male
enterrar
Empero
comisarios
triunfal
sustentar
mensajeros
embarazo
üa
##tho
quema
porqué
movía
ponerle
domesti
colocaron
##tolicismo
incesantemente
Jueves
Moisés
sp
##feo
castas
teja
Artea
expensas
poderse
particularidad
remedios
acontece
colocan
veloz
Irala
dependencias
sario
##túa
##anidad
exim
##igra
apri
salientes
adya
231
Monteverde
rompimiento
Tristán
BOL
alab
##ití
encuentre
cuadrado
manifestaron
terminaba
cañada
yerno
africanos
Matanzas
aspectos
sáti
anom
compreh
Castil
escribi
Coahu
Expedición
Fras
timo
##adi
##adería
necesi
Ord
##ólico
intelectuales
MIS
Zor
bros
##teis
residen
entreab
dispo
Angos
Colima
reducidas
empezando
aceptación
imagina
complacer
corsarios
##ondr
alco
prados
predeces
insulto
dominan
urnas
mostraron
mencionar
suponen
ayudantes
aseo
Siguiendo
Huerta
##CRE
##hir
must
coyun
enviando
simpática
Angeles
promovido
rebaños
medalla
Pió
evi
guno
rarse
ém
##arda
desver
repas
##tade
llamo
conozca
Escobar
vasallo
láminas
Cantabria
detras
ciutat
prestaba
contrati
rogar
pensaban
encontrará
252
##ballos
olvidando
##iéndoles
astuto
dramática
BIBLIOTECA
aya
minha
desaven
Abel
obligan
emprendido
##ambú
Molino
Almería
presenciado
brevemente
limí
acrec
sensibles
##écdo
victorioso
pretex
culpables
empréstito
púrpura
We
sica
##erado
sustancias
diaria
##mith
##UNTA
apresuradamente
Cajamarca
##uedu
Alpu
vindi
239
receb
peregrinación
guardián
Fun
##jun
aprue
batido
ataca
Sotoma
determinaron
linha
réj
##koff
doméstica
apóstoles
oyen
Ñuño
##FICI
##ueba
veamos
debidas
Deh
editor
Virgin
Tiempo
robusta
problemas
exageración
jeo
##itadas
respira
sentían
258
Goy
dispersión
vísperas
colombianos
VA
##danos
elab
cipio
falto
Monro
##mont
sufría
difuntos
preparación
pilares
Concilio
Tánger
Boyacá
Non
aval
fól
ám
##linas
perecido
##urrección
conson
Recib
barrera
públi
##celi
precede
comprob
bombarde
superstición
prolongada
##colo
##gasta
##orada
noite
desle
castel
mole
medicamento
teve
pongan
Casti
traslu
Sagrada
Tehu
construc
brillan
castigado
sueltas
asistieron
dramas
inclinó
suntuoso
puntual
maniobras
Cualquiera
Ronda
degener
Cú
Dif
MM
##cheros
calcá
Señoría
pulso
##oriales
nulidad
##zose
familiares
considerados
intenta
agradecer
Bella
Murvie
enamorada
significar
Ulúa
ferrocarriles
abolición
entrambos
Arteaga
event
lito
utens
##adado
##alía
altiv
lastimos
matado
casados
apuro
bastó
Quando
triple
atacaron
##illy
Morelia
Dirig
avisar
Vaca
acreedor
CUAD
disparos
himno
Mandó
Amigo
Jen
Mena
Tula
if
##ísta
dels
##termin
Unidas
trián
ondu
rápidos
precipitación
rejion
literarios
temblando
reverendo
estraordinario
previene
Encarnación
inad
cintas
construidas
Tay
Cosme
infanta
Narciso
vistos
suspiros
Esmeralda
Naran
fasta
##pósito
entrist
partidario
##olula
estableciendo
respondí
pagaban
apaci
privile
murmura
Zarate
asedio
risas
copiar
colombiano
Gallardo
##Ã±
under
##reste
obrero
##ceso
marcial
Mario
complemento
escapa
prodigio
Tig
lem
##ient
##ortes
##bay
peores
oradores
Sitio
##ellones
acabada
lances
Moya
Prín
probabilidades
guarniciones
remotas
##riega
bajaron
##CHA
padrino
##by
bajado
##uste
libertar
crian
atacados
Public
fanegas
bende
devoto
Policía
farsa
disparar
Evora
##ond
enve
verán
desagüe
intentaba
ART
bahia
peregrinos
mercader
##gaduras
metálico
estrada
prend
atentamente
conduciendo
legiones
241
bertad
divul
consultado
pliegues
##cimento
##unales
exec
Mack
contingente
navegable
ESC
Municipio
oferta
carlistas
momentán
Águila
##ié
ingres
##treros
mudan
mire
traicion
collar
cerraba
mercurio
Lucio
distraer
analogía
esmeraldas
quebrado
Neza
VUEL
##iadas
designa
##daz
Ester
Quiso
aparecían
viajar
Exteriores
caravana
lanzado
244
intentaron
cautivo
remun
Euse
romances
guitarra
Olot
##ní
##ky
##tema
certo
##GUAS
consulado
rompieron
Observ
Malo
incal
##deña
tiernos
253
ocurrencia
##rerías
mencionadas
coronada
peligrosos
Católico
Raimundo
oso
pios
##misión
dirán
forte
tech
histor
advertido
aplau
horizontal
transeún
incertidumbre
##ald
##lega
embal
##ériles
horno
convencerse
256
243
prój
##ístola
adictos
cariñosa
caminho
insignes
melancólica
alfombra
Aleg
##iao
##irla
Confi
Luís
levantaban
juzgaba
Polonia
levante
mudanza
característico
Alejandría
Cayetano
Digo
Tob
TRI
jan
xx
##alde
##ienses
sopl
duplic
agrada
Suárez
cumplidos
atrevida
Delgado
derrotados
súplicas
arruinado
Sp
tent
##cinos
##cuta
cortinas
presteza
cruzado
durar
eminencia
Patagonia
UNIVERSAL
devia
porfía
aquelles
abismos
cantaba
combatido
colecciones
ostentación
efig
variaciones
##JAS
##adel
mantenido
aspi
##consul
viñas
##ERES
Barón
referimos
preocupado
aparatos
Avis
ks
simpl
viril
Anas
Magn
hondas
estuvieran
Germán
Gamboa
almorzar
Lem
##huela
entrase
##itro
##cona
puños
reper
debidamente
conquis
238
atribuyen
examinado
Llegado
cli
hinch
nión
##rumb
##vadores
leis
##ecí
Alco
tiemb
257
quinientas
rumbos
meridionales
bitantes
Stan
##leros
##oni
##adia
animos
variedades
little
marcharse
memorables
peregrino
impregn
Plen
fico
pist
##orga
##tul
hachas
moreno
##iram
ponerlo
volverá
Sabes
temeridad
mejicana
azotes
Gr
yeso
paje
soltó
Mapa
reapar
revuelta
convidados
imprudente
##gote
forn
calzado
Magno
hoya
subyu
##calo
oficialmente
diferen
247
convocó
quemado
fusilado
espontáneamente
forzosamente
Sotomayor
lencia
ty
bodas
ironía
take
Balboa
reconquist
singularmente
acostumbra
delicados
prolonga
deleite
fundamentales
alternativamente
múlti
Cicerón
Sagunto
réjimen
viles
dea
##coes
calm
##ney
saludó
Balles
velar
Valparaiso
E1
Lí
Ná
delicias
esses
##uns
reden
descri
##loque
quite
##izador
falla
tortu
Pepa
##LOGO
sufrag
referente
265
diversiones
homici
precisos
acuerdos
insolente
ocurrencias
nic
##enque
esce
cousa
decididos
Cantón
agradecido
Aquello
##IMO
yndios
Situación
Tlascala
igle
pola
##vola
tejido
capite
propicia
desti
Despues
Obra
Capito
pecuni
them
fatigado
encomiendas
disputas
bolsillos
perfumes
ronel
##itable
extienden
diser
culmin
labra
cortejo
1889
remitido
máximas
inclusive
bé
bido
ero
##foro
##esan
##amonte
cajones
corba
##venida
face
decencia
fracaso
comenzando
242
empeñó
equivocación
comprobar
derribar
Benedi
dulcemente
damente
##ramo
respiración
rapi
Capu
pondrá
suav
hablaron
alimentar
súplica
madrile
sucio
##idem
repor
orbe
vengarse
##tilde
Manus
pasajes
ilustrar
brillaban
tinham
Bello
Ach
ácima
##ífera
metr
perma
##urosa
califica
hoc
recelos
minero
secretarios
declarada
prohibición
Guarda
exclusivo
aclamaciones
cando
pampa
mache
naos
cargada
guiar
##OSA
254
veintis
##thing
baluar
electri
pedra
gradualmente
atraso
Coahuila
##ciese
revis
legado
##rudencia
Alon
chic
246
pagando
Huás
Tomé
incorporó
tardanza
risueña
OC
conque
altivo
##vaca
cién
##vant
Sup
##tíf
costum
Liberal
bona
cás
##charse
saliente
christ
interlocu
taza
arroy
trechos
respondieron
rodeados
adornan
manejar
Plá
Gamarra
telegrama
repetición
Ai
notarse
anon
fundición
ordenando
virrei
depre
264
Nevada
acaudi
angustias
enarbol
desacredi
previamente
Oruro
altivez
##dria
##dieran
##chil
Arz
##vesse
dispuestas
##REZ
efectuar
Brigada
vehemencia
amnistía
Ventura
##oo
major
passado
##iantes
conclus
##ragáo
escalones
incompr
heredi
complacencia
avenida
cunstancias
dramático
Excelencia
escrúpulos
matices
hama
táctica
##samente
quam
saltos
Cax
hallando
Ordo
atrevía
Solano
encarnado
Canterac
gando
##visto
##tegui
##iata
millon
poseían
concurrieron
prometía
asesinatos
espesura
ari
coque
particu
Gual
refren
llevamos
supresión
Robles
Torrela
disculpa
interminable
perpendicular
Funda
riendas
##BE
##ULA
##taz
##urri
Alameda
##tant
agol
naturalista
acercar
filan
impedido
Primer
arrabal
pendón
alabanzas
impasible
entretener
debes
milicianos
Siria
sép
palav
convertida
conservaban
Afortun
literatos
simultáneamente
Domín
##quisaca
sencillamente
Murviedro
idio
pbl
##mor
##FA
##ania
insa
##tuarios
##quir
previno
##ificado
ondul
cuánta
expulsión
##oli
entregados
##itaria
refun
traslado
corrida
escuadrilla
apellid
plenitud
imprudencia
controvers
Sh
lavar
artil
manzanas
##ezo
guaran
encargada
viviendas
moderado
divinos
confirmado
Sarra
ambul
Lal
pilla
Anales
Cata
perspica
causan
Bajá
danzas
desconsol
escoger
besar
flaco
carneros
extrañeza
Vig
##inidad
into
Medell
justifica
Sola
equivalente
inspector
desahogo
Emb
sér
##VE
##ast
tubo
seguia
afam
ilim
dedican
inef
desconocer
cristiandad
incansable
supiese
exca
docto
amones
1500
exclama
afirman
reflejos
Cecilia
Artículo
tul
##cables
##ífica
concien
##itra
Mari
autorizados
arrojan
248
llevarla
memorial
sagacidad
jinete
pg
terio
##ificar
escribieron
animada
aguer
organiza
demasiada
interrumpido
diversa
escepto
DESCRI
buey
desdichado
plenamente
Antigua
refugiarse
Parroquia
monopolio
evangé
Melgarejo
VUELTA
notaba
suscep
vería
pugn
primaria
caliza
fatales
ladrillos
alterar
apelación
preferido
arrebatado
Viernes
DOMINGO
Cuesta
##pió
##rus
##lum
##CL
prestan
volum
##manera
##ciller
menoscab
##tonía
ediciones
contestado
siervo
flaqueza
Contreras
Sib
##avent
##jel
suposición
##vega
tratase
sabore
Aré
torbell
aument
homem
tumbas
africano
TERC
Tlaxcala
JENERAL
over
estériles
very
moce
Maya
Debo
ahuy
trabajó
constituían
predicador
DIP
absurda
prescindiendo
Viana
tute
Guido
##igny
administrar
incontes
haciéndoles
LEY
vertiente
Déos
orgullosa
cochero
fijamente
imbé
parentesco
dentes
atten
268
272
luminoso
gallina
Biblia
Tarapa
mios
rim
##pú
alzaba
##istió
salta
certific
atrevo
##AYO
sofá
Pirú
Hispan
Candelaria
espías
pega
calcula
pescar
##quique
cruzada
invadido
By
kilo
crees
Gobernación
atentados
Pueblos
característica
abrazó
envuelve
irritado
calamidad
descontentos
omitir
Damas
##ijas
##ueras
##usiera
mat
##pete
compuestas
maldi
gramática
##beria
288
íntimos
temporales
GEOGRAFÍA
Yndias
Apóstol
2a
Sania
carecer
Canón
Balma
educado
metropol
##gales
contados
##iseo
exuber
calibre
errante
fundados
Japón
262
Chaves
Volun
críticas
injuri
pantalón
remordimiento
lamentar
##lec
cuasi
Judi
País
##ANTE
Covad
trep
Mujer
figurado
desaparición
llenan
Joao
FRANCES
Chacabuco
herrami
6o
Liv
fí
enunci
##diéndole
meditación
causando
amoroso
Julian
separaba
ausilio
mantenían
aproximarse
alboroto
Grijal
ofensiva
Lamas
##chon
matas
amabilidad
muertas
tropie
religion
constituía
timidez
significaba
CORD
Chuquisaca
comestibles
Maracaibo
Dado
MUR
VE
salvador
plática
invent
cumpliendo
filip
destruyó
Navarrete
ahogar
Hacía
desbord
Flo
spe
##stantes
##rela
cuente
cordo
##bléa
cousas
##rene
anticu
##ENO
recomendar
cabañas
Apa
Avan
##mela
destos
palid
convocar
equivocado
##ROSA
America
Aur
Bale
hál
pales
##ñi
algaz
caño
turbar
cultivan
practica
cariñoso
férrea
imitando
Recuer
aniversario
what
##ciera
##daje
navales
ameno
##maseda
##generación
clasificación
estarán
galán
pantan
auspicios
arrancó
sacaban
artesanos
##DIZ
Atlas
biografía
Tineo
perseverancia
matemáticas
itinerario
##plo
proezas
##eciera
cantan
mortific
Guinea
Lucre
inmortales
caute
avergon
##IDA
desdicha
torpeza
siniestra
condens
advocación
atri
rito
##cci
patro
colabor
opro
envile
atrac
cuestion
desenvuel
rigores
Prior
PRIMERO
pupilas
Zu
##bano
inco
cular
sont
dag
crean
afron
atón
frac
vivimos
286
preparaban
procesiones
monstruos
vehemente
futuros
FOR
filo
sales
zumb
##áñez
porem
habeis
manga
despar
##ALL
escriben
285
##ólito
Ruy
peleando
confiada
fallecimiento
opulencia
británico
medallas
espontánea
hectá
Siete
##eada
##IENTO
provi
##umba
plaus
embarque
situaciones
descubiertos
dominando
330
Principe
efectuó
molestias
STA
##vamos
exó
pericia
mediano
invitó
Existe
Bou
comenzaban
been
Habrá
navegando
gruta
encendida
investigación
consignado
descenso
##otas
enarde
anécdo
acuedu
tene
haberlos
##ficó
realizarse
##ábal
Perman
##ORIO
pretendió
Civil
bárbaras
espesos
insuper
drid
will
prende
asy
jugando
Unas
Saha
adoles
Rancho
fantástico
Argelia
conjeturas
cirujano
limítro
Pien
macho
asan
entón
compl
Nova
##jesen
than
ESTU
botellas
Magistral
Puesto
Resta
gasta
detuvieron
##abi
dilación
##ensor
##íticos
hubie
estraté
concibe
precisado
encerrados
1789
Cruces
refirió
Sis
##tha
confec
##todos
peren
perple
cascos
monjes
infes
ejem
##itat
##ANTES
##ARO
quintas
mezqu
##ambres
##ambleas
Castropol
Patricio
effe
inexplicable
vacilante
ascenso
FRANCISCO
Covadonga
Due
engan
poderosamente
acusaciones
259
276
dedicarse
oscuros
detenidamente
anunciado
algazara
aix
sard
##tun
##hán
socios
Pepita
Organ
fortunas
Dirección
oíros
deserción
modales
episodios
gundo
raba
salada
Bail
suprimir
comendador
filibust
intensa
pronunciados
judiciales
cs
fici
##émos
##cierto
##aber
losa
##pila
ocupadas
contribuyeron
340
rincones
jesuíta
##IZ
intre
descienden
defendió
##úsp
vestidas
narra
penetran
comparar
enfure
patronato
facciosos
serranía
Yan
home
porciones
cosmo
Cua
padecimientos
magnán
Soler
Antequera
vergonzosa
ILUSTRADO
##semos
envia
##titos
##viam
chus
Dejó
fing
guerrilla
volvería
Terri
desnudez
suplir
originalidad
ornamentos
Dorrego
resguardo
prorrump
##less
calientes
mayora
decoración
##posas
cincel
Perten
##mendar
belic
Pascua
Faust
preferible
severas
barrancos
NACION
análogo
Guayana
Smith
tidos
##ées
##indi
cath
máscara
apó
cuanta
gozaban
##guem
310
flujo
injuria
Extremadura
biera
##eja
##cimo
##temp
dique
Maule
Navia
acordaba
incienso
incremento
##utes
##bamba
endu
##stra
calla
##RIOS
Antonia
séquito
viniera
transmi
267
exactas
cambiando
provisorio
gentío
párpados
confiesa
NUEVO
excursión
gerogl
lid
##flores
##chia
##resti
cortando
impera
augu
contraído
decirte
pudiéramos
##quíes
temerario
companhia
##kan
sima
Moneda
fami
habitante
juzgados
sufragio
281
273
foto
nubl
apuntar
efím
idolatría
baluartes
Años
Babil
HO
Taba
##MIN
sug
##tazgo
paris
##urales
fijando
Prob
Mire
pretendían
protegido
ocultas
probidad
preparados
vidri
Cuántos
Noticias
reso
##tarias
escándalos
##cario
venidos
Leyes
tapa
Mex
##g̃ód
penetrante
doradas
Benavides
neutralidad
Olmedo
##etes
lamentos
noven
cujo
##cern
juan
pesaba
cometidos
274
dignidades
desaparecieron
excesivo
Robledo
otorgó
científicas
radicales
fisi
esclusivamente
relámpago
Huáscar
PRES
igno
##tativa
##catl
manteca
##vereiro
huido
valerse
ofren
##iguración
sirviese
hostiles
elevarse
prometer
besó
copiado
Oajaca
trinchera
Indust
soledades
Dur
Tron
##jantes
##inc
inqui
sobremanera
##ísica
Cavildo
denes
##cturas
cuidando
284
preparando
##élico
exclusiva
barrancas
Acuña
estraordinaria
escelente
bondadoso
Desgraciadamente
aza
moria
ub
##uncias
comía
tivos
sonidos
Marte
nombraron
reyno
Mote
249
266
emprendieron
consagrada
Jacob
##ANDER
diluvio
##uado
too
habiéndole
angel
motín
entregada
Deus
llegasen
dende
tañ
incru
respetos
269
263
cobro
solicitando
fascin
Ampurias
gótico
antojo
Chiapas
inagotable
HA
##tifi
rebo
##tense
Estás
principiar
##iéndonos
Bour
legiti
nup
Cristian
inclinaciones
advertencia
encomenderos
LECCIÓN
compatriota
Aurelio
metralla
ATA
##abria
mission
##tricos
realizó
261
erigido
##abuena
##áramos
##émonos
##terno
esposas
solia
martes
minera
renunció
aconteció
anunciando
aquéllas
amplitud
aguardando
muelles
cobardes
SEGUNDA
citas
##VS
rebos
##ital
aras
imprim
marro
viña
Marin
proprio
partieron
escritorio
305
##bert
271
procedía
Romano
cortesanos
Mello
peligrosas
alucin
Cumaná
cue
##nn
##tula
tendidos
necesa
Gobier
##gueza
escribo
permanentes
ejercido
tradicion
Berga
aposentos
prudentes
reforzar
excitar
administrativo
formidables
ABRIL
apelar
JO
aragones
##fore
##éra
##guero
levar
##ecería
habr
susur
escenario
ganando
first
vascon
##ILLAS
dejaría
dormitorio
desarrolla
370
Céspedes
afirmación
recogiendo
Yun
##ñales
##inga
desme
ornato
##ifique
profusión
##fite
Herido
Zapo
Comision
Fomento
Llano
tentar
##pora
##fue
##izándose
postura
estrepit
reunían
exagerado
angosta
incógn
primogénito
bravura
comme
##jole
vagos
grandemente
##endario
dirigidos
inmun
Pasaron
sorprende
Vati
##islao
queso
revelaba
insignias
circunspec
telégrafo
rocío
##amon
esquer
diante
tenente
tratamos
repel
funestas
negarse
existió
contestaron
279
molde
gorro
suponerse
sucumbir
sollozos
Camacho
cercior
Ledes
Venta
##fl
engal
pegar
palidez
causaron
convienen
publicidad
##uaciones
301
errón
278
fusilar
##ENTES
precipita
huecos
Xer
brar
##mí
envío
baix
##cencio
Arturo
secretaría
señaladas
ínterin
conjuración
celebraban
incómo
Almeida
nuel
let
##ánicos
sentimos
##éricos
traspar
Guaira
Aquellas
predicación
canalla
exquisito
NOTICIAS
Jan
ticos
degrada
##enco
quejarse
##uesa
yace
tarje
profana
Calcha
282
recoge
procedido
burl
promete
##issáo
##uezia
experimentar
escravos
##hechores
DESCRIPCIÓN
ópera
##días
##yesen
poquito
conducción
cubriendo
senhor
gale
Berlín
lingua
apoderándose
desarrollar
reglamentos
St
##jano
##tier
prole
reuniendo
simula
pisar
expedicionarios
Gin
##BAS
desval
##tuo
##toriamente
##lanza
say
crecía
Quieres
temas
Valverde
jeto
extendido
descons
##nikoff
ambiciosos
SANTANDER
enum
cuernos
activos
pasta
vila
Chica
frág
bofe
Lejos
destruye
perdone
envolver
##ring
##zum
indom
##sela
vergon
##vela
tamiento
##andú
##ficada
Coleg
Proclam
furiosa
pirámides
CÁDIZ
Eusebio
Últi
##eidad
##moso
##huel
##ÉR
##teando
anarqu
##cesión
ciado
fou
ocultarse
tintas
cruzó
then
paseaba
Federal
Siguió
abejas
Valenzuela
Frontera
trascendental
Hici
UR
plic
##gués
preve
concedida
298
consiguientes
rechazó
hueste
resplandores
Bonifa
##misible
fórmulas
viviente
NÁ
mías
##zamiento
alcab
cortés
nacida
veros
soñado
facto
ordenaba
sucedieron
##cidencia
publicadas
sujetas
extraordinariamente
estanque
Renacimiento
8o
other
##inia
tant
case
contentar
tigres
húmeda
éramos
Santuario
Parlamento
mostra
Pele
obstinación
engaña
prohibió
súbitamente
naranjos
ham
nesta
pou
##umentos
corno
apli
mona
querian
empleando
##illero
Ayun
atreve
adole
##TIA
embesti
licores
325
alejó
aguarda
destacamentos
desinter
déspo
Domínguez
pida
##tias
cuestas
##ceño
##acán
opor
##videz
afr
Valor
anteo
Salcedo
suceden
convertidos
despejado
consumado
traducir
radiante
Zedula
ticular
deshonra
forasteros
cados
opa
##parse
viudas
seguí
urgencia
señalaba
ejercen
CUAR
Brown
magnates
cautiverio
DU
oían
##Oes
podi
sazon
honras
joy
vine
resiste
##iesto
incorporación
comprometidos
rejiones
about
ambicion
Astorga
cem
##usiese
Seis
Chinch
minos
autorizar
silb
culpas
figuraban
legalmente
conversa
protestar
Enriqueta
depositado
conmoción
infundir
cómico
excursiones
Genova
##og
leen
profer
page
interno
Rojo
##ILA
295
312
mitra
desnudas
defendiendo
Aprove
##rimac
Protector
BRAS
Voc
imita
##tist
##try
##tosos
mandadas
##torre
persigue
Miram
277
Secretaría
Villena
peruana
escultor
Levante
utensilios
capiteles
Hí
##ñol
##icáo
guias
tropez
bram
caballer
Habían
Publ
orgánica
ayuntamientos
Agre
i8
nadas
##tieran
##dicas
arrab
Seo
palomas
pueril
justificación
Salud
conducían
ignoro
lindas
provision
tamaños
benéfica
protectora
QUIN
indemnización
alteraciones
benemérito
##gueros
##itla
Cuenta
voluntades
XXIII
LIBER
Turquía
hazaña
fastidi
Balmaceda
Bad
enor
mengua
Mau
cuadrilla
Capitanía
Berna
Record
devota
clásicos
pesadumbre
inundación
Hil
blico
##lima
##juela
##zir
##FICO
##tione
##isi
despos
certidumbre
mayormente
acudido
sucesivas
##fijo
1801
comunicaba
convenientemente
servigo
auditorio
esqueleto
Ledesma
aa
rusos
##tita
llevasen
cargó
##yotl
##ENOS
##ciosidad
legalidad
deberán
poseído
1803
temblaba
mercantiles
fondeadero
archiduque
valentía
lici
aptitudes
##cionar
Sucedió
llería
callejón
destaca
identidad
commandante
cúsp
nario
##ecimento
acude
##cribir
burlas
sorprendidos
debates
obedeciendo
defensiva
ingrato
populacho
EP
geno
láti
##sh
entienden
##enter
conex
##idora
##trada
##vieso
saliesen
Chalco
arrodill
Colo
correj
287
315
Sabo
when
sementeras
Gral
rentes
##RUE
##ecemos
daria
atendido
territo
transig
amarillas
instruir
ignoran
borracho
avaricia
trazas
culta
enterarse
prosigue
distinguía
REG
laderas
rechazados
Santana
Jueces
William
compensación
PUEB
gremio
Oce
She
sá
##adísimo
regar
anónimo
hicie
dirijido
arribar
falsedad
púlpito
##ót
Set
paloma
mingo
patricios
Profes
reconocieron
289
Virg
excepciones
Padrón
severamente
Medicina
Viajes
quarenta
palmeras
Dorotea
Gand
oon
estren
arom
indecible
##teriormente
cienda
permanecían
mostrador
##umbra
aisladas
obscure
defendida
Echa
Jord
use
##anca
corrup
##toriales
Marino
aud
apodera
Verin
Hecho
disposi
##AYA
análogos
derrama
claustros
intelijencia
Embaj
Noroeste
rados
vina
##hora
##DEN
altres
##dao
casita
carica
palco
Pav
Haz
visibles
limitó
marchan
ramal
norteameric
##arquías
titución
horroroso
limpiar
calumnias
Apurimac
humillación
Imposible
Reno
##andas
##tila
resum
veréis
##veras
fijas
bastará
mandíb
presentada
##culada
cuaderno
fazem
Sabio
asombrosa
campiñas
bodega
daron
##íno
##uad
##aros
preemin
botica
bastaría
283
cadalso
Urgel
inacción
precepto
exasper
FRANCESA
roma
dicción
##eracion
pereza
ciente
##tanes
finan
queridos
afrenta
inventado
concibió
ramales
celebran
inició
cofradía
GER
Vila
ventas
secta
alteza
##chuelos
anón
##acáo
rotos
fríos
Imprenta
Burdeos
jaula
##epres
desplegó
Villegas
nosotras
durmiendo
FI
##unos
cafe
catara
##quanto
##noz
vagab
reconocen
evitando
apoyaba
fiebres
halagüe
floreciente
Horacio
Agra
##pidez
coj
venimos
piquete
pregunto
consumos
Bret
incurrir
indiferentes
pantalones
naufragio
Lavalleja
uf
##DAD
##ñá
altiva
prado
faltaron
Tortosa
291
ordens
aconsejar
Vm
téc
delgado
rejas
##imecas
valeros
pesadas
vais
criadas
conductor
cartagineses
permanecen
procuraban
Borgo
queste
1890
disciplin
paralelas
majestuoso
majist
JORNADA
##áceas
##IMA
##iciado
Santi
saliera
##ustra
Arabia
futuras
309
misteriosas
mentiras
Argentino
Magestade
fulmin
residir
Quizás
ESPAÑOLES
gubernativa
feligresía
Gama
ig
##gala
##dale
altre
residente
compadre
posto
disturbios
rotas
cuarzo
contrari
constituciones
labran
animaba
genu
294
Linn
gigantesca
previsto
dehesa
Hungría
ruso
##xena
##vese
entregaba
traido
dejen
dejasen
autorizada
periodista
subsistir
Acuerdo
consagró
mestizos
cidos
##ÁTICA
recip
sito
motin
batió
capella
varía
justicias
olla
Sou
303
##hualco
esparcidos
núme
acusados
billete
resguard
Angostura
ESTUDIOS
NUES
albar
resorte
impel
disensiones
propuestas
Carbal
##chet
templada
##ONSO
307
agujeros
balde
pañol
laborioso
diablos
andaluz
preliminares
Aga
dolo
tadas
digamos
leva
soñar
seguridades
sentaba
Amad
convencidos
acabando
tinu
Soldado
respuestas
sospechoso
músicas
fragmento
análoga
escaparse
grandísima
ensueño
Wellington
limo
##iéronse
##CEL
##ermo
didas
##garo
Reda
indicadas
Cumpl
funestos
rup
Exam
inmediación
Habiéndose
Benjam
avec
veintidós
trenes
Escudero
Archipiélago
imaginarse
continúan
CLAS
Dn
inti
inédi
perte
serpientes
##ínea
ocurrieron
tirado
bromas
pusimos
uniformes
equidad
##amien
##cocha
Almonte
echarse
Florez
Gertr
manejos
almend
ultima
vérti
ope
cascada
debidos
debíamos
cober
resistió
empezaban
dirije
circum
parcialidad
caverna
Tezcuco
Lúeas
##udes
##hado
sobren
marcar
##tris
juntaron
coraje
señalan
alimenta
fallecido
eligió
declive
Tienes
##ít
conlra
incumb
##cusa
aráb
arcillos
povos
##lamo
llame
botín
Solamente
Neu
escogidos
competentes
Bruno
convicciones
Carrasco
atmosf
Gén
lente
##elga
salvas
Congre
librado
hou
contestaciones
alegando
armó
##gües
Largo
mezclados
fiscales
fibras
Gel
Ojalá
nente
##VAR
deán
lain
mutil
activ
cordel
bajada
Sepul
308
acompañaron
publicaron
299
precisas
fortificado
BATAL
Africa
pim
##gentos
##grosa
##inaron
tendida
codos
Feli
distinguidas
amenazado
Mercurio
1000
rápidas
vestía
clamores
erigió
Comisario
estrope
ensueños
Garcilas
Tito
##LAR
alzando
novios
##vianos
coal
sabias
dejándose
pescados
Totales
bola
estupor
304
abandonadas
##field
extrangeros
remoto
adornadas
aislada
cereales
graduado
contemporáneo
ignominia
endure
Iquique
Sier
pado
##nino
intel
costar
Cuy
##ESTA
Morella
organizada
esclav
despojo
lágrima
formalidades
Consulado
Forma
ramente
defici
dilij
sias
abando
##lang
sagaz
monar
##pugn
apartó
plantaciones
suple
cesaba
llevarlo
##huma
penetrando
333
Sabido
sangrientos
revestido
guirnal
emisarios
HAB
Nó
mados
pánico
##ámenes
##onadas
estío
exen
##dena
guientes
##ligencia
cór
contribuye
proclamó
exaltados
penalidades
FRA
oa
caáyo
pré
Inv
guerre
hortal
306
##cadia
380
Quería
caminaba
Henrique
Escribano
FR
MEN
mig
perto
moti
cerdos
circo
Algeci
##jamos
##Ao
##raje
##lacion
peripe
empla
##fectos
osci
destina
habitado
extensos
Vicepres
292
314
probabilidad
olvidó
exclamé
descubridor
484
escarmiento
Inspec
explí
bigote
dhos
entendió
lleven
amal
contraban
fracciones
caracteriza
fenicios
dócil
sinceramente
calavera
Marsella
sobrenatural
ava
equívo
óp
eli
serle
miss
prés
##viales
marinas
plaga
producida
alegro
cautiv
avisó
ingenu
restablecido
##entrional
Fortunata
juvenil
Iban
vamente
##IF
##tiga
##unión
##ciaes
##umilla
cortadas
mote
PorL
coh
aure
sentenci
arroba
publici
terminando
quisiesen
molestar
Huanca
cable
tario
vade
##riesen
crecimiento
Indio
Caste
roble
carnero
odiosa
esenciales
préstamo
Oñate
matorrales
Fol
lles
rudi
##gú
recos
##illar
Santia
##viente
candi
vagas
morena
Juanita
hallase
reunía
hallazgo
engaños
jurisconsul
suspendido
Llevaba
atraviesan
apostólica
plátanos
verdugos
Ez
HI
fusión
toled
nacieron
##endan
arrojados
Cela
grandísimo
Raskol
Jard
PAL
Um
grea
work
##une
did
##tudo
habernos
obtuvieron
##vat
forzar
##mann
##itará
falte
297
##tiendas
cabeceras
Aparte
gallego
arboledas
Raskolnikoff
Flora
##zuelo
deterior
##igamos
indicando
##ionarios
dirigí
Tepe
lanzarse
sistem
occi
proclamas
Ambas
coyuntura
Cue
lias
##fina
##uén
arg
Sancti
vernos
presunción
salinas
Navidad
prostitu
Maltrana
inquietudes
descargar
eslá
acceder
maniobra
fósiles
arquitectón
desinterés
##uia
culo
pereció
aclima
Albor
Marquesa
voluntario
aguan
##ponerse
335
doblar
XXIV
sugeto
##MIENTOS
SEÑOR
entónces
Fad
##mitas
entona
nicho
compuestos
emer
menuda
cheg
temido
cría
##tánea
jesuita
Niebla
Josefa
estorbar
inmóviles
Mahoma
esposicion
Afortunadamente
Diz
Til
ege
##AV
##TAR
##enz
##aren
portador
tendía
comport
##gosas
insub
darla
segundas
juntó
negaba
inventar
pagados
##amanga
acog
##URS
Debemos
cafés
intemper
would
DIPLOM
Higu
Viene
##raca
oblic
auctor
vai
extensas
terminan
gatos
313
dobles
aliment
satisfactorio
iniciado
artísticas
mesetas
Camargo
EM
gon
##stin
manjares
malde
1600
ponerme
aguda
Tarija
contenidas
exporta
##pidas
##tábase
obrando
##lanca
conoces
plate
servirse
acusar
visl
gobernado
vigilar
proveyó
respecta
avergonz
420
Tremp
orígenes
gaucho
Grosso
Clu
iris
vien
##jales
make
carecían
brava
agudos
músico
desempeñaba
ascendió
usurpación
bomba
calificar
presentase
conveniencias
extrañar
térm
293
ventajoso
colocando
incomple
lloch
hemisferio
Gertrudis
rural
##lay
mantu
bachiller
##íng
vendió
espediciones
##feos
Rocha
amenazando
pedreg
eternas
oratorio
contigua
Brus
publicaciones
exploración
convulsiones
azoteas
pirámide
exercicio
BLAN
##date
patíbulo
pundon
ganancia
reparos
296
tiradores
Departamentos
##zione
##volo
##uega
sexto
expuestos
patriar
presentados
Barbas
corresponda
302
##onet
despreciable
trastorn
pensativo
vocablo
lángu
echo
hes
vizca
##TER
profec
reple
offici
boticar
habitaba
bander
##querías
representó
##IDO
gobierna
James
retribu
OS
ile
tiz
##prudencia
##jí
##uen
##ólica
lamenta
contarse
##tian
pasillo
nifes
Martí
afable
derrumb
Aband
ocurridos
Gallo
ajenos
avisado
fábulas
##QUI
republicanas
quitarle
agitada
adecuado
rador
sci
zur
##áculos
reim
casual
salte
desplegar
##uella
##vania
decid
vocal
rudos
like
Goa
musical
provoca
operar
LUIS
inflexible
arsenal
panteón
Virginia
redención
jade
rri
##pp
##lero
ancla
##pefac
intervalo
Chiri
##vose
esperado
liberalidad
continuaban
sorda
construidos
lluv
Comendador
Tirso
##urdán
cica
gira
##uk
##POL
unieron
##letes
recepción
mias
docenas
trama
##erne
ciudadela
levantados
cultivado
colega
resuelve
pareciese
sustituir
húmedos
##graphia
Aristó
cartuchos
diplomacia
##fiteatro
Hy
##mentado
##anco
condicion
reha
comiendo
susceptible
capuch
dudosa
Math
anticipación
boy
Parra
moscas
Coloc
acertada
lanzaron
311
adelanta
rige
designar
##EZAS
sacrificado
luminosa
arenoso
cipales
exterminio
Planta
cabecillas
emboscada
Indud
AÑO
Ordenes
brib
beza
##areas
##inilla
##peare
mareas
codo
inspiraciones
refriega
Quinta
Pozo
espectador
leerse
atroces
Huay
naufra
##tología
jabón
stu
refe
leves
presbit
##ciou
agilidad
imm
repartió
desconfi
Beltrán
supremos
##jenes
desprecia
##CHO
Orotava
denominada
automóvil
Dun
Llu
ní
##zán
##PU
##citur
##alar
meia
teneb
petu
expuso
revól
echaban
remover
registrar
cantares
poéticas
arrabales
Oye
Piedad
samente
##útil
enalte
##trices
##gosos
Carab
ELEC
##huas
compacta
disputar
##itania
bajaban
campesino
hablemos
yanke
potestad
NI
efe
nunci
##yá
esquinas
pasara
Repar
##postería
encontrándose
llegaría
##RECCIÓN
difícilmente
bajeles
amplias
Monserra
Acompañ
Alegre
nella
##mm
##brar
perdición
tración
traian
calent
senten
rectas
moría
minar
Valmaseda
olra
sirvan
llevará
concurrido
fango
adornados
Nordeste
incapaces
impotente
Mona
queden
priesa
Redu
provistos
participa
##gnos
juzgando
pedí
agitaba
colegial
arrecifes
LIBERTAD
Azo
Fáb
Laredo
atin
ginetes
##oz
ars
termino
##cillería
ademanes
Cali
escribí
319
brind
encerraba
eruditos
descuidado
ennoble
Arriba
oaláy
PRE
Somb
parten
tratarse
meditar
bienavent
##brada
conval
gloriosas
hermandad
##ístico
confunde
censuras
sunt
Gomara
hipocres
##ófilo
congregación
secues
Obe
atiende
faro
##má
##raso
pasen
traz
ducta
Cholula
##jeran
##villo
##villas
aparta
Moque
balanza
protejer
desaparecen
Creemos
utilidades
Thomas
fusilería
rivalidad
grosero
jentes
maz
miércoles
Santam
tiernas
Améri
hallen
dirigiendo
servirle
321
juró
quitaron
paralelos
atrevidos
indulgencia
Leopoldo
##fuegos
MUN
Pru
##cifer
##reos
curación
##imar
acri
carencia
colgado
your
darían
316
Llegamos
Cuervo
Religiosos
DIPLOMÁTICA
##gera
##izase
sacos
vegas
indivi
libró
cerveza
densa
amargu
repartidos
castigados
desempeñado
enfri
Infantes
faroles
brotar
discreta
Figueras
penetraron
intrepidez
Deme
Veo
##ess
espina
collo
graciosas
escrituras
escuadras
matrimonios
revelar
informó
Orozco
##CUER
cómplice
Chorrillos
Semejante
Anastas
##pha
##xó
##flu
prova
cavall
presidentes
Marcha
guantes
recibi
regir
miraron
blanda
Calzada
padece
cautela
##timamente
365
asombrado
inneces
económicas
diplomáticos
inop
prodigioso
Samuel
parlamentario
Lucrecia
Ye
zada
##reta
Ello
asquer
esposos
embu
monf
Pay
hornos
aflo
Baselga
encendió
milagrosa
arrepentimiento
alabanza
Montiño
refiriéndose
Cál
nam
##esca
obraba
complica
discern
teo
ducir
##vismo
taes
##ICH
ocaso
Oriza
abatido
MILIT
Tehuantepec
CORDILL
Istmo
##tulo
Alia
pesados
piü
fallar
cierran
##lice
dependía
ejerció
asisten
Osuna
impetuoso
proporcionó
MARRUE
peticiones
##UDIO
Cy
##ss
##ling
##ader
candel
France
##RIS
mercen
absol
cuidaba
misteriosos
explicarse
Oliverio
Vespu
infames
Valdeorras
aspereza
guerrilleros
ENSAYO
Miramón
Jur
POS
comían
caciones
##quiz
fajas
visorey
ganancias
chocar
324
egoísta
náufra
reconciliación
##cter
##omp
desco
leo
obró
repuesto
infiel
cantaban
Paca
justi
asienta
1802
Embar
pronunciada
contagio
escandaloso
escandalosa
cabildos
subdelegación
Bendi
Ced
Dada
Opin
ricamente
##hué
##vantes
##üo
abrían
hirió
absuel
expresaba
##embran
tingu
imperiosa
ALBA
sembrados
trabajador
exquisita
octava
TENEB
MARRUECOS
glos
alias
estingu
inma
petri
Maio
Parti
testo
gustoso
declarante
amenazaban
mantenimiento
Conforme
absten
bullicio
anexión
gio
seño
inus
aclara
baste
templar
Natur
lanzaba
cesaron
concedía
Tagle
tasa
demostró
reinte
Ampurdán
esplicar
cráter
Fá
##ancio
ree
cah
preh
contraer
pescue
inserta
##pite
##mberg
encargarse
Massa
destruyendo
Montea
ajenas
protestantes
480
1891
audaces
húna
campanilla
Carolinas
Pilcoma
Castañ
Capitulo
roso
inher
##peda
propusieron
##ifas
##tambo
##CIAL
bebe
##ILI
despachado
amenazada
traducido
brota
bebidas
agotado
franciscano
Sigü
frio
##bones
hocico
##ESA
##geiros
arrojaban
Jaca
suegro
Meridi
insistir
inverosímil
locuras
pergamino
Chibchas
Pia
brisas
str
##mona
detri
sedición
alusión
essas
divor
##chtli
ant
podem
obtiene
necesitado
darte
aumentan
ocuparnos
inclinada
edificado
ORIENTAL
apr
##urable
amig
##érri
huyen
Depois
valia
esperamos
condujeron
negruz
Satan
alegrías
##RACIÓN
demor
amaneció
cumpla
Miraflores
descalzos
fecundidad
Plenipotenci
##fens
entu
Novo
gozando
admitida
hacendados
suspendió
supongo
##ímetro
etiqueta
Arévalo
Somos
rácter
rurales
reminis
##ely
perla
pai
manso
privadas
peu
empal
Angu
vagar
Descub
feita
Perdon
Naval
distinciones
fracción
empeñada
##tlil
toldos
obscuras
sólidos
ensanche
insistencia
Entrada
arzobispado
pundonor
TENEBROSA
IGLES
##irs
##imán
##taros
##tria
inscrip
muni
madura
satisf
dejarle
jurisdiccion
chegou
Rivero
agobi
sobresalto
absorb
ornam
SIGLOS
mensual
SEGUNDO
carnicería
promontorio
pía
##uzas
##utica
mación
Laure
impidi
Espi
after
##celes
estuvimos
estupefac
recorren
318
empeñar
Rubio
desperdi
métodos
confundirse
restaur
Hallábase
Triste
impunemente
chaleco
digas
tray
seguras
Guill
bastado
Pocas
senderos
immedia
firmamento
acordarse
desvanecer
equipajes
##uil
##inho
eslos
##late
resortes
sopa
agujas
llenaban
proclamación
Briceño
urbana
Aboo
magistratura
two
vom
##adada
recho
saña
auth
decidieron
ordenes
Salieron
inmem
dependen
célti
Platón
campamentos
derrotó
arrancado
Vive
confundido
confiando
carbonato
mezclada
plebeyos
hench
GO
óxido
##uu
##çia
debi
##tizar
muita
anos
Elías
corrig
trabas
intermit
Roger
Boletín
turco
Impor
323
331
recordó
íntimas
cúb
veterano
Americano
Vuelve
escrúpulo
umbral
Ihe
Lomb
VV
maron
##ñigo
##enle
animo
disco
guiado
morro
trote
Leandro
supuesta
Colum
descubriendo
pertene
hablé
retiraba
##aux
pedro
guapo
##ífero
cláusula
Saboya
tho
##poso
##órica
##ère
Altam
tienden
creció
sables
tomara
subterráneo
##tly
atribuirse
##émica
reconh
noveles
Eugenia
idéntico
Cuadro
Bonifacio
Gi
Landa
Oidor
vál
##cke
##tabilidad
##viere
diad
desden
andas
antí
quedara
##iciaes
Protes
Calvario
obligando
##ráz
albergue
instantáneamente
sepan
##icul
##trales
##ulio
app
##ensibles
sonrí
chin
Matto
##biéndose
infund
daremos
Paez
educa
fundaciones
ARCH
sellado
incendios
geográfico
sonriente
excitación
benéfico
desventura
dialecto
interminables
descubría
dust
ear
gación
##DAS
ini
Elias
Escla
Admi
Rosales
patrono
Olim
iluminado
reemplazado
paralel
GEN
MED
mentar
trig
##isar
prestaron
Contiene
sonaba
soi
ceb
barn
irán
suplicó
Nuevas
Roman
##camentos
ásperas
sólidas
hipócrita
sepulcral
Sección
intimación
Spain
eras
##allos
estabilidad
desqu
serás
miro
espuelas
##moslo
sonrisas
librería
Machado
Paraíso
escudero
labora
decretado
sometida
atravesaba
1793
exaltado
sensacion
limpias
autonomía
Capitolio
Mill
neci
rienda
##ciría
nous
bañado
sah
##cionado
malvados
trasform
##ANI
##riola
conciencias
proyectiles
redactor
nistro
lonjitud
Atocha
Grijalva
Ciertamente
GON
Prad
grada
##10
rección
sigo
batirse
##net
arreglos
pedre
rinde
físicos
vidrios
seducir
contradicciones
candidatos
desertores
Bayamo
cansada
Comenzó
tímido
deshacer
Gij
equino
##jona
##rac
siembras
Ansel
subteniente
temibles
##endí
legitimidad
sombre
317
##xochitl
MART
##ondeau
edificada
susodicho
idéntica
DIEGO
Nel
word
inalter
##uégo
empañ
creto
Detrás
Frank
gram
fechada
desair
extracto
inmol
atacada
declaro
permitiese
proveerse
ALB
336
haciéndolo
390
encerrada
capitulares
hostilizar
gorda
juramentos
explosión
ATACA
Biv
Pit
cm
ouro
sando
##ineo
##riedad
##dillo
abono
care
presidi
##zasen
##gni
ofrenda
bandido
empleaba
admitió
##TURA
curvas
aceptada
334
burlar
sostenimiento
salvando
Olivares
Arana
mensajero
Antoñ
Cochabamba
Bermejo
Arzua
fizo
##sá
lamp
compo
apur
presid
Aná
Incl
##gramos
subsi
encontrados
riel
respeta
respetuoso
alfil
estrangero
venganzas
experimentó
confunden
insolencia
imprimió
expansión
3i
FIN
bizarro
jene
##JE
##tándoles
##taire
nativo
llego
salon
adje
##soes
Anim
encono
Teófilo
profundidades
olvidaba
predilección
deriva
paralela
pajinas
Alas
LUS
Ox
##filo
insegu
comens
califa
frentes
Peque
transición
dade
plataforma
seguirá
dedicados
lograba
550
coplas
NOTA
club
##yrre
Acevedo
inquisidor
Ensayo
atrincher
ever
angosto
cat
##uses
corridas
aleja
govern
Bonilla
terrestres
móviles
pilastras
regeneración
TOLEDO
Palo
oigo
tara
##dina
##asse
ardía
socio
day
veneci
faci
##dorf
embeles
alejado
hierbas
transcurrido
islotes
##dora
##diga
desse
##edora
Escan
opusieron
distintivo
Israel
músculos
esponer
Governo
ennegre
Cienfuegos
medicinales
Bl
Fló
##DIT
sejo
alti
ancl
Conviene
colorada
##isteis
chaqueta
thro
envolvía
eléctrica
Ignor
preponderancia
Alpujar
Mier
auer
##iando
entienda
elabor
vendi
hacerlas
##ludo
##RIQUE
Uni
necesitamos
murci
Conserv
infinitamente
consume
muchísimos
regaló
asoci
vertical
electorales
convocatoria
Torrelavega
BEL
Hombres
esferas
progen
saldrá
##enote
cultivos
representativo
pierda
volvimos
contenían
ascender
helado
Pilcomayo
Bec
ecu
estensa
##guán
##medio
cabía
emana
fronte
##chard
imposibles
Seria
compararse
toldo
inspiró
competir
CHA
desigualdad
filosófica
termómetro
grasa
combustible
Sigüenza
Hola
sena
##ZCO
pondría
arroll
amorosas
atrajo
tributario
desapareciendo
Romana
PARTI
pañía
africana
accedió
predominio
cigarros
PATRIA
##rándole
##éres
sutiles
noci
##icies
granje
hordas
autorizó
arroj
apoyó
usá
voluntaria
Adán
Consid
desorgan
acometió
perpetuamente
mateix
desastrosa
Estéban
látigo
Gara
Rip
Zum
gl
máo
ste
##inarse
recer
##tori
tiembre
##baciones
traigo
##venido
monje
tomen
correspondió
vestiduras
resisten
Apuntes
VIA
ALGUN
sacrí
London
1790
perjudicar
cresta
química
persuasión
Cib
Oy
cero
rell
##isado
coma
##pay
preco
espesas
vete
##rosamente
monton
torne
Moros
demostrando
solicita
encantado
seductor
peregrina
instalado
bordados
adyacentes
FEL
sencia
##ctar
##zábal
sucum
##omer
estenso
promin
pret
verí
salian
ortografía
Cordero
sostuvieron
##seguida
Habla
Cerdeña
volvamos
estremidad
forastero
consintió
ax
mudos
patentes
aserto
Conquist
vijil
Deci
expec
mere
habitada
cliente
##úsares
paisajes
epita
Alfredo
despojar
comparado
Rodri
ocasionó
mulatos
majestuosa
escesos
aclarar
Juzgado
Peralta
asta
##pren
##nero
##jecto
incau
pagas
##izadora
Deum
pescador
reciba
cuerdo
momen
usó
ejerciendo
440
chegar
vaciló
epígra
Dir
belig
##gables
##ñamo
##alá
##intes
alabar
venciendo
poste
situarse
particularidades
Informe
sastre
germán
cuchilla
Escuadra
Ilustración
inofens
trabalhos
cabecilla
Comandancia
tripulantes
FON
Jara
Kan
ede
hera
ticas
enloque
ess
cortan
costaba
juntarse
pensaron
arrojaba
aceptaba
añadía
procurarse
disminuido
chispas
reflexionar
Indudablemente
gér
hob
##pala
sequedad
##ray
caj
hetero
Regla
vetu
decide
temerosos
perteneció
podamos
1805
Beni
sultana
mensuales
tropezar
cargamento
exemplo
Negocios
presbiterio
ATACAMA
Rs
TR
homo
águilas
tutela
interinamente
Universo
Perdón
Barrio
comprendidas
sombríos
acaecido
prohibe
regalado
circuito
tapias
fosos
##cm
prolij
muero
maquina
casca
bati
decír
##jería
##regado
##tiagu
ejercito
RECUER
monumental
Tarifa
procuran
irritación
siervos
trascurso
humede
Babilonia
LUSIT
Om
gular
loro
##cob
##bum
notan
arado
auian
Chun
temente
llevara
tosca
Alejo
Cartaxena
derrotas
375
cruelmente
despojado
despertado
místico
huérfanos
desenfren
cár
rer
##fit
inel
curan
espí
Concel
##ioni
Cardona
ruise
sucesivos
##táis
Pelo
declaran
aumen
pretendiendo
##bulos
Belmonte
##huatl
Tolomeo
domésticas
Declara
requería
VIAJES
Sidonia
Ixtlil
desistir
vértigo
Amo
Ame
temos
##CAR
##vistas
contiendas
Maz
Metro
asegurada
ínteres
íntimamente
Adelante
1804
titular
enseñan
acostumbraba
Senhor
disminución
fantástica
vínculo
antagon
Crespo
engalan
Dob
Dinamarca
tlas
##ME
##lema
poqu
Eliz
sonora
volta
agresión
Hotel
concepción
Irun
Clavi
Vieira
cornisa
White
disipar
Aristóteles
Satanás
oficia
situó
Europe
navegante
mezquino
décima
delincuentes
LL
PREC
even
##sores
resis
termo
august
crecida
malvado
tapia
criar
Tejada
Existen
adopt
332
ESTA
750
Oliveira
barraca
radio
Zurita
plenipotenciario
comportamiento
Dante
ER
Oidores
Saban
Vide
garon
xi
yr
yas
##doeste
##pela
##oracion
enviase
divinas
consecuen
sábanas
afluente
etimología
Voluntarios
Faustino
##urez
suger
portancia
intro
asigna
cascab
cote
Compos
##tamentos
circunstantes
##ROBA
atreverse
suministrar
Manzanares
consagración
manufacturas
Xavier
INSURRECCIÓN
emblema
sres
##ppa
##icana
simo
##ecos
espía
disidentes
##ficil
formalidad
good
construyeron
atracción
##TIVA
aprestos
345
Acord
Pinzón
repentino
trágica
Adriano
Terminada
Fadrique
egecu
Asegu
Emin
oo
##kas
reí
legen
serenos
Sete
destron
grama
Montt
apareciendo
##itasen
interiormente
asiste
observada
nieblas
sometió
graduación
entablar
opresores
Benedicto
herramientas
MURCIA
pescuezo
Flórez
Alo
Sed
##sina
##cem
##dus
##ubio
##hara
##elles
habitar
arce
embe
creando
intere
volviesen
realiza
Leguas
ejérci
brea
aguada
aguij
harta
328
327
ingenioso
inep
Thiers
otorgar
repartimientos
trémula
percibe
Ré
nerse
##ígenes
##ULO
nativa
pipa
##liqué
basílica
Barco
circunve
Venancio
Terán
326
337
##temor
Infan
otorgado
esmal
precipitada
mínima
corrobor
Mura
sobreco
forga
roce
morían
funerales
minería
causaban
tenerla
##ilea
##pulas
Isma
##theca
asistía
aprovecha
##uriz
vireyes
GUI
irregulares
Roldan
Pera
##esis
catolicismo
pagos
Ellas
soles
mortan
regim
edificación
considere
enerjía
farma
encendidas
peli
yeguas
##ócratas
desfavor
saba
delegados
sintieron
pasasen
valga
##vidor
denuncia
Calla
olro
before
Cree
1492
arresto
redobl
Manzanillo
##tización
Fundación
Bomb
Obl
Tus
tilla
ñores
##ullos
sermones
cortados
cordura
reprim
tejados
Corne
##hoy
aceptando
cruzadas
gruñ
conservarse
This
dirijir
dádi
excepcional
octavo
Aurora
cúspide
Bras
Cárcel
##sio
asoma
Esla
calado
criti
Miño
Buenas
dejarlo
352
inefica
arrebatar
fantasmas
Americana
alternativa
agricultores
Ty
Uribe
##íbal
seo
##digos
serem
lleguen
Estrab
presun
infec
Inquis
canje
botones
rastros
##ómetros
suspica
##issimo
oprimido
Sábado
peripecias
Monteagudo
Otero
Vír
sucia
##olia
##court
seru
serve
subían
amarillos
procuraron
afecta
clavo
conquistó
malestar
Azara
acordes
monotonía
rivalidades
avecin
instaló
desarrollado
mendigos
aspiraba
PASO
convite
efigie
GAR
Ly
cante
iremos
ns
nicip
##abí
##dic
##teau
arcas
peder
sonoro
##caria
aura
faena
consternación
pobló
escuchó
##ctivas
apreciaciones
tribuno
ENTRE
Ceballos
Merino
precipitado
tonos
enérgicamente
piadosos
subordinación
lóbre
aflicción
##fri
##cija
tocaban
##igh
duvida
##eciesen
volviera
infiere
Comien
juzgo
Peñal
instruidos
celeridad
##éceme
cuchillos
Oliva
Reflex
legoas
macizo
DIARIO
Thouar
Gim
Nerón
Sabana
ist
jando
n3o
##viz
parás
tots
prever
maris
##naval
pegado
medicamentos
decl
juzgue
civilizada
embust
arrastran
mueven
reproducción
Caballería
Mártir
gótica
subordinados
desenvolvimiento
Defensa
Vicepresidente
hipocresía
##tándola
lac
Algua
tulo
neóf
temían
##culado
celebre
Hablando
referirse
322
Panuco
preferente
esculturas
hábilmente
Ochoa
iv
vuela
##damos
##lat
obran
##dulo
##gramas
pudie
moviendo
Palm
soberbios
llenando
condenar
obedece
reinó
ingrata
Discurso
prójimo
pistolas
Anselmo
hendi
tima
##isti
presento
ceño
only
Hub
celebradas
consisten
edificó
gallardo
ojival
GEOGRÁ
cátedras
Encontr
Barbastro
upon
well
recia
many
manan
allende
ejecutada
Palos
asistentes
inteligencias
benigno
##uregui
acometido
chiquillos
pessoa
cúmulo
##glo
##esí
diarias
desiertas
##quillas
miti
carriles
Marcial
Pata
XXVI
explicó
almenas
Treinta
hechura
inundaciones
gestiones
inmemorial
Vea
##bá
##tención
optim
objetivo
convent
ponerla
Moral
ínf
Augusta
339
asaltos
Ilustre
Cárlos
monótono
bib
cern
##dat
tejado
postre
pesta
meras
permaneciendo
flotante
1792
defensas
huevo
terceras
intrép
Mamed
portuguezes
cohetes
advenimiento
vó
##ií
##LADO
##esos
secua
##tapa
##igal
esclu
##denales
cantor
Nuestras
nietos
regresaron
##ISO
##túan
Reforma
##hyba
festividad
Ateneo
##sedumbre
DIST
Pira
##iria
inque
cascadas
Sanz
viu
chicas
herradura
##rista
Arco
Nave
Sau
##igao
pelota
vestuario
restableció
Isidora
desconsuelo
Algeciras
Sosa
Ésta
##BI
entidad
alzado
##bat
cabida
monges
##ificada
Peñ
exclamaba
aprovechado
llenaron
zapatero
coincidencia
freguezia
MILITAR
CORDILLERAS
tém
vall
vanos
##zgos
##çion
lap
##urn
empar
Cañada
minoría
Papas
servida
Barca
extraer
reliquia
arauc
intruso
entier
gigantesco
situacion
mecanismo
necessario
bordado
dogmas
Vaticano
Gru
quedasen
ditas
##icó
meios
exista
potente
preb
callado
att
galantería
bríos
celosos
matriz
1794
CARLOS
labradas
ocasionado
Antofa
elefantes
Goyene
EDU
##ancas
Confes
coe
##tillana
##tine
finura
quedándose
Garrido
vigas
elevaba
adquiridos
quedarán
##ábanle
barato
escaparon
BEN
Tí
Ídem
##iques
##ieur
##lama
despier
oficialidad
Navas
profi
belicos
##udación
##huano
probó
asistente
asturi
Rosalía
tonta
literalmente
MAT
confirió
hileras
Chantada
desengaños
enajen
atractivos
Cuén
guel
##ION
tuvi
Mater
conocia
insecto
##udada
##udamente
apartados
encuad
Sacerdo
Pasado
Pueyrre
ignorar
parecerá
adquiriendo
conteniendo
variada
propagación
aperci
lápiz
filosófico
impugn
trasportes
ofertas
glacial
ROMA
GASPAR
torbellino
Orizava
Cement
Lunes
##xar
##hores
##GAR
##onar
altitud
##quet
espum
vivieron
contrajo
derech
Duarte
##tson
absolutismo
##TIMOS
Espero
trasladaron
jurisdicciones
aplicó
detenidos
subsiste
cálido
órde
reformar
perdona
Sucesos
Príncipes
Rhin
##amal
diar
##veu
presiden
puj
indistin
cali
##íng̃on
herma
##úmero
Paria
tesón
Diablo
balsas
##ásticos
Precis
Prelados
Solis
irref
contenida
preocupa
turbado
Triana
recogimiento
orígen
chicha
sonreír
cívica
íntegra
Táuo
##well
ciembre
sota
guió
hoteles
ruña
expresan
intendencia
ocultó
Urrea
tambores
Negrete
NAV
susodi
pórf
Itá
PÁ
Tabo
pleg
##oman
##gola
hablase
anac
tengamos
trofeos
defra
embarcado
Manol
estarían
electos
expresó
indus
linterna
bonitas
##tzalco
351
342
piadosas
desdichada
oprimidos
capellan
uniformidad
Ntra
equita
hie
##iéramos
##inaban
unanimidad
##tiéndole
porcel
paquete
##urosos
carcel
repleg
reptiles
##udado
escuch
ejecutados
urban
cobra
repartido
Bellas
superficial
geográficas
Mirad
negociar
femenino
romántico
Derechos
zozobra
maba
##úese
##omen
##taje
musa
prestando
Noche
munici
naturalidad
langu
creerlo
329
pareceres
tratara
precipicio
huertos
estorbo
transacción
seminario
Gala
añil
federa
list
né
##UC
##ÉN
loza
##goa
metam
cabra
viembre
repique
nostra
cerse
Bajos
convendría
edifi
envié
atrae
garita
asesor
protestando
ascendía
quitaba
molesta
distracción
caprichosa
Bibl
##EIRO
fúnebres
democrático
Abreu
cañonazos
cuadrúpedos
tár
##cuas
Laura
inspiran
Guaran
##hechor
Montano
tacitur
gritaban
tesorería
recorría
empeños
conocedor
desalojar
suicidio
Misión
avas
##erda
quia
circula
fraude
interesaba
suceda
355
##GUEL
indiscu
arrastraba
culebra
pampas
corbata
hectáreas
Fí
Menes
agust
##ean
##yamos
##ÁS
Alguna
Retir
##cense
##ions
irrad
Perez
##áls
prometo
##ethe
persuadidos
retrocedió
encaminó
indirectamente
desventa
imbécil
Virgilio
Hija
HUEL
atemor
##aa
##got
restr
Alde
repiten
##itur
invitado
térmi
cumplidamente
alimentación
malogrado
contiguo
Britán
rústica
Michoacán
Jerusalem
abominable
Estadística
revólver
Coc
lanas
##tándome
##llano
##fix
cao
sinembargo
prestados
Constru
jug
temia
sillería
##ridores
fotografía
##írculo
dictadas
VIDA
narrar
Betan
359
protestó
paseando
vestíbulo
desprenden
Várela
Inocencio
renglones
Sagrario
Clemencia
Menos
fensa
##rina
##ilu
##tífices
Mila
368
ansias
profesaba
contenidos
rendidos
invenciones
Occidental
Ayudante
Lig
##pias
##rísima
##íd
##geo
delgada
rebus
sobrevino
cabez
adorm
repiti
Loa
ruidoso
gobernante
escuchado
acercaron
extendiendo
repetimos
exigió
adquirida
coleccion
celebrados
acequias
picar
redonde
calculado
XXVII
ciclo
amotinados
dras
##lau
inol
##quetas
##lanada
mozas
configuración
agran
apartarse
banquero
semejan
idóla
ronda
dize
##ócrata
montañeses
FA
gunda
##iaba
##ladamente
elim
serva
##éne
##dere
forzada
debéis
##ege
tarda
##entasen
reducen
decretar
arreme
dirijida
1550
peseta
Gutier
aguardaban
estremeció
ruidosa
##melitas
pícaro
again
COMPROBA
beliger
Aba
Bres
Ofre
##tza
##ün
##ongo
delicia
retener
perador
sobrada
versa
##landia
Estero
espejos
##pié
preguntando
ganaba
vinte
346
divertir
supersticiones
abanico
Vierzo
epopeya
Rueda
Lalin
OL
otom
tades
##clar
encla
##dicción
noción
prendido
tienpo
Capac
tomasen
Juicio
recal
##ALO
declararse
aumentaron
Soldados
Misericordia
disparó
acreditar
cercanas
puntualmente
##kespeare
Felizmente
Saturnino
indomable
Ptol
##zig
deferencia
##asis
descif
##cetas
Alcan
Portillo
termi
venenos
##únez
guin
fijaba
Franc
recón
isle
Barr
usada
hablaré
recogidos
concluyendo
sarcas
suspenso
amistades
aprovechamiento
amedr
cogiendo
##EIRA
##ICIP
COSTA
occasiáo
ritmo
transeúntes
aureola
COMPROBACIONES
Rar
lisa
Ña
##darse
##hen
mutua
##vao
##ANAS
Cofrad
favorita
concluía
348
acostumbran
460
Político
dilatados
reemplazo
1580
gallarda
prendieron
Recuerdo
vejaciones
desvelos
i5
##óa
##ÍO
nocer
adorme
insuf
Paci
plantar
rial
Jauja
declare
llevarle
##EDAD
SECCIÓN
predicó
ostentan
ayudó
Piura
conciliación
Nariño
grosera
exercito
chiquillo
Bazaine
Familia
tiendo
##fino
pactos
coloso
##ponen
pláticas
##ctus
surge
genial
perseguía
provisor
interrumpir
NOTAS
vestirse
Sidenote
trópicos
bagajes
Kar
Pez
oce
##lro
##orados
delgadas
cuchar
leza
##ize
esplicación
venen
ducado
nombran
Loja
afueras
cinto
##ELLA
amargas
proyectado
observé
malague
410
liberalismo
disminuye
Tlaco
arenisca
restituir
cipios
Vidaurre
peculiares
Caciques
desfiladero
inefable
dú
norma
##ualmente
##guadero
##dulos
extraor
animoso
cruda
aceit
incomun
piraguas
erigir
aficiones
esclarecido
Dura
Há
Vener
aé
naba
vena
##VÉS
loe
maca
estaño
Almi
##ficit
##ándote
most
acertar
depra
alegrar
descendiendo
ARTI
adornaban
renovación
revelaciones
enérgicas
##ENDAS
Pales
##dial
mansedumbre
Ense
Algún
Port
Martes
decís
bet
Bolsa
ansioso
Senador
Escribió
puntualidad
conejos
arrend
Baleares
HAS
Histo
Ocur
cales
suo
dieci
##pont
rogó
decididamente
##andra
Pere
grietas
reconocidos
reparto
ALF
visten
Universal
arribó
commis
fiereza
fraternal
Tezco
vieran
##pur
##idia
metieron
maese
mang
##tasis
##rutia
Mariqu
emperatriz
cansar
##pilación
crianza
Barrios
surgió
escapara
338
jaz
##IDOS
descargas
responsables
furiosos
brusco
rústico
refresco
monótona
rojizo
plausible
lamb
reman
##ulares
mang̃a
##rua
abis
##orato
Concep
després
fundir
antip
##tament
##ásticas
olvidados
REAL
##UMEN
entendida
1778
Green
autent
Excelentísimo
ESPAÑOLA
almohada
Jordán
##íbar
verja
calló
##egó
turas
##parables
sentaron
cette
derri
garban
distinguían
Palmar
Preten
cáñamo
patrióticos
refugiado
terminantemente
geógrafos
Sas
Zipa
pita
deline
descor
##set
##igóes
##ied
asambleas
cipe
Esle
despide
sabian
pontífice
maleza
polvor
##g̃á
ministerial
liempo
semel
ventil
apagado
murmurando
aprovechándose
1791
ulteriores
Posteriormente
invern
##CETE
silenciosos
ofrendas
Acción
way
##zy
##quios
paté
camaro
deban
merecían
frun
créditos
cruzaban
Emperatriz
inclinar
iracun
Tucumán
lastimoso
cuentra
Shakespeare
Marcelino
##CON
lechu
terce
caldo
necio
reflu
continentes
errantes
abandonaba
Palab
354
364
Considerando
Benjamín
Club
PRECURS
Tiro
sc
##tiem
##chica
hagas
carmes
crecientes
##tadamente
fingiendo
##liza
frías
mosca
indele
acercaban
saludables
destinó
truenos
ascendiente
esperimentado
explorar
relámpagos
Cana
Lé
Puna
##táronse
##doto
ing
##vou
preju
##bach
creden
huida
Caraba
fijaron
Casim
Leiva
largu
cuartas
ganan
##portes
combatiendo
pasajero
expedido
God
zaguán
pareciendo
salvaron
desprendimiento
explotar
derramado
estipu
gemidos
entretenimiento
trueque
enemistad
MUNICIP
IGLESIA
gencia
tida
tador
##lovento
sita
##uscos
estaua
##cionarios
Asimismo
presentándose
##telol
ánimas
orien
alevos
simil
344
343
Gay
esceptu
indignado
concienz
4°
##oy
anfiteatro
sacados
refin
códice
independi
aprecia
470
flora
Girón
BUENOS
Sic
sto
vem
vario
##mentación
##vina
##eram
delles
saluda
comprim
pronun
centrales
determi
licenci
súbita
cambian
Regina
razonamiento
prevenidos
Tribunales
encajes
Escritura
examinando
mística
estirpe
Zorrilla
Bética
aull
##UTE
##wal
Portilla
calendario
Charles
gramos
Quinto
pequeñez
Veragua
1780
insignia
Colonias
##tzinco
Marañon
Noruega
riega
deixar
fugitivo
criollo
tlax
CUADRO
Cré
Gau
dora
nir
paula
Valles
centuria
##vinieron
frequ
brero
Espada
engañ
velada
1797
inneg
eminentemente
diplomática
extremidades
lámparas
Selva
desobede
Anáhuac
Misa
cid
gé
vando
##PI
enros
didos
caídas
resultaron
Venga
358
satisfactoria
condenó
Basílica
presidido
desasos
Pampas
ofrecerle
variable
regocijos
Vocab
Gase
Tz
jir
##fí
##riano
verbos
martillo
barre
hallábase
Miércoles
difi
representados
burro
riguroso
reasum
Carvalho
múltiples
Celaya
Pó
##MAS
##esp
##entros
poemas
asno
martin
creaciones
temen
##tella
reducto
rebeldía
sargentos
revelado
azotea
Troya
alguaciles
invisibles
reclutas
##eiras
##dillas
calde
play
memo
tristezas
preparan
encierro
369
propongo
presidir
parecidos
sirvientes
convierten
PRECURSORES
Acta
Custo
Simo
Testi
tés
##JOS
##sea
Elisa
Encu
compras
siguiese
Baeza
atendida
padeció
volveré
destruidos
poseedor
353
carretero
tranquilizar
Ribas
pilotos
resplandeciente
Purísima
antaño
Cron
Fuego
Liz
nica
##nell
esteros
##cejo
perdían
meditaciones
guida
agü
dolencias
nume
361
ostensible
laboriosidad
contag
suntuosa
Hornos
Visit
vierte
carlista
prisio
Fanegas
amarillento
Berenguer
##non
deo
tota
##iman
Alaman
Desembar
Gober
conducentes
Reyna
cubano
impresas
Tercera
comunican
reclamaba
430
Aguil
artísticos
Castell
succe
modificar
Noticia
hormigas
tropical
PorLugo
ALBACETE
ALGUNAS
Aj
Ferra
Zel
aV
camente
ficio
##sia
##ialmente
lata
tió
salve
Rej
veta
Juju
malé
obediente
ecle
Miser
proposito
apoyados
distribuir
##EMBRE
Visita
camarada
mecánica
reñido
TORRE
navaja
iniquidad
##hante
##VER
##enna
partía
##iliar
lep
exha
sing
Concordia
pedidos
cabido
volando
expuesta
Pays
rudeza
mosquitos
numer
duraba
olvidada
ascendido
##salles
##áyon
AIRES
GRANADA
rancherías
Observaciones
Goyaz
Acol
Tér
tuna
##tísimos
##ston
inun
misericor
apén
trafic
mendigo
Cher
vagamente
griegas
inmu
sense
pasaría
azteca
asistían
356
protestante
aliadas
quemaron
parecidas
quieto
censos
desprenderse
desesperados
perpetuar
ajustado
Blasco
exploradores
Clero
laudable
Pinos
##yl
##BLE
perior
##cipreste
nuez
graciosos
ordenada
mercantes
Delante
licen
anuncian
hierros
GOBERN
reveses
Goyeneche
SUM
##cár
##chal
##ceras
Alte
margens
cofre
Capi
placent
illa
desapa
Tenían
Huitz
auxiliado
empeña
incontras
ajun
crudo
atributos
##cinación
encerró
infortunios
menosprecio
mortandad
CLA
Cobre
bie
ése
##tándolo
##abó
##trón
pasarse
coto
##cosas
langos
Apesar
introduce
escollos
Igualmente
complicado
esceso
serpente
Tacubaya
FERNANDO
HUELVA
ato
hiere
opo
##máo
sebo
##tola
anillos
caiga
savia
Regeneración
Arjent
expro
favorecidos
ejecutor
Senadores
venerables
##INACIÓN
disfruta
##dismo
##CUB
creyera
academia
mágico
elefante
recuperar
Difí
Sahagun
same
yu
concel
##cheras
hagamos
##coco
paus
Regres
emulación
valerosa
##endidos
Tux
Veinte
366
diligente
1783
recaer
apuntado
periodistas
maravillosas
desdichas
Henares
livro
disparate
##ragonés
Land
pias
parles
estacas
Regu
captura
##ifico
antiga
merecida
antece
ataúd
deseada
membros
doliente
indó
duele
exigían
ausentes
347
escalina
incomprensible
aul
##EG
##elf
ardiendo
Latorre
caros
##taleza
##RITO
ejecuta
Goethe
##ómica
concurrió
fanático
procesos
imponerse
confirmada
rechaza
vacía
apoyándose
remitidos
horrorosa
tolerar
exagerada
desiguales
atestigu
gusanos
afianzar
enumerar
Ingleses
Avellan
know
prerogativas
amarguras
monfíes
Bivera
Deg
Frey
JA
axi
sara
##11
##lago
inca
caribes
amer
solio
adónde
Dei
horn
##gueda
cometieron
recoj
dejarla
Fecha
Vej
nomen
guapa
contrariar
símbolos
solitarios
vocablos
BRASIL
sam
##cisa
##carce
##tinamente
vaque
caballada
cómodamente
azule
avanzados
Alfaro
cristalinas
gigantescos
asustado
elocuentes
Agricultura
valerosamente
inquebran
EDUARDO
Siento
Ún
ñola
##ábi
##adísima
acen
tutor
principado
meramente
Ases
escuchando
expresados
manifestaban
extremada
reclamación
recayó
distraído
Brun
achaques
##self
habitants
ANDES
indolencia
incalcul
secuaces
descr
Elío
Ensen
##cará
desagrado
Abas
violación
##NDEZ
341
confesó
éxtasis
pacific
espanta
consumido
Volviendo
1795
humildemente
convinieron
textos
vergonzos
ias
questa
used
##gona
##DES
##abl
##resas
##cud
arón
veíamos
Macías
##ipes
Peñas
imperios
remisión
redondos
exequias
mulato
opulenta
Diócesis
refiriendo
prolijo
Grado
Noble
servar
tenue
cargando
rayas
cerra
cercada
##lique
visigo
escudri
legión
tirada
mexicanas
castellanas
estimar
acequia
1777
estatutos
syst
Véanse
penetraba
tímida
arbitrariedad
principaes
mayorazgo
Lástima
aña
vanas
##muros
##vistos
##real
##guí
##gativa
abord
##entosa
trapo
##carril
trario
señoríos
caballe
vasijas
juega
Urriola
357
confiados
naranjas
cavernas
bizarría
Philip
##TIAGO
Pica
Uri
■■
##jeles
##San
congra
propo
habien
##ullas
amables
lucra
captur
ofus
Mix
úni
pintó
usual
pertenecido
376
385
enseñaba
sellos
longe
patatas
Ovalle
##TORES
metidos
conselho
entreg
Porfi
coti
##poniendo
##andina
boti
onza
dominaban
fundándose
resistido
acontecido
Adam
brutos
adjunto
brotan
atrocidades
terrapl
ultraje
apasionada
Monsalvat
Atraves
Mí
beg
##secu
patos
Rex
coac
Perote
cubana
interesan
ministerios
agudas
hosti
rodeos
contribuyen
prometida
377
vacíos
púsose
tamaña
conferido
pintorescos
DESI
DESDE
perjudiciales
trámites
creyese
dudarlo
Jacinta
EDI
Eterno
Zua
##gy
##dáo
##cies
##adizos
##inio
nombraba
tag
produz
armadura
##táneo
##inebra
administradores
prepararse
Chapul
tablado
eternos
modificación
dialectos
vergonzoso
Legislatura
concerniente
Tarapacá
Sit
món
zación
##cándole
##hab
##daña
resguar
fortifica
##tanse
##manos
destinar
Sila
llueve
pintan
reconocimientos
respetuosa
Campaña
Luisiana
ferias
ocultan
divier
362
372
descendencia
condenada
abrigar
estorb
QUI
parapetos
Albornoz
7o
Bó
Gusta
gaba
vienes
##alias
eludi
contaron
porfi
##olar
##ilán
tocador
##duña
impuesta
repú
tejas
Cat
especul
formalmente
##izaciones
Coto
desagra
proyectada
alaridos
firmemente
CONTRA
Regidores
alfar
esparcidas
infortunado
subalterno
habiéndolo
##fuerte
[...]
