{
  "version": "1.0",
  "truncation": null,
  "padding": null,
  "added_tokens": [
    {
      "id": 0,
      "content": "[MASK]",
      "single_word": false,
      "lstrip": false,
      "rstrip": false,
      "normalized": false,
      "special": true
    },
    {
      "id": 1,
      "content": "[PAD]",
      "single_word": false,
      "lstrip": false,
      "rstrip": false,
      "normalized": false,
      "special": true
    },
    {
      "id": 2,
      "content": "[UNK]",
      "single_word": false,
      "lstrip": false,
      "rstrip": false,
      "normalized": false,
      "special": true
    },
    {
      "id": 3,
      "content": "[CLS]",
      "single_word": false,
      "lstrip": false,
      "rstrip": false,
      "normalized": false,
      "special": true
    },
    {
      "id": 4,
      "content": "[SEP]",
      "single_word": false,
      "lstrip": false,
      "rstrip": false,
      "normalized": false,
      "special": true
    }
  ],
  "normalizer": {
    "type": "BertNormalizer",
    "clean_text": true,
    "handle_chinese_chars": true,
    "strip_accents": false,
    "lowercase": false
  },
  "pre_tokenizer": {
    "type": "BertPreTokenizer"
  },
  "post_processor": {
    "type": "TemplateProcessing",
    "single": [
      {
        "SpecialToken": {
          "id": "[CLS]",
          "type_id": 0
        }
      },
      {
        "Sequence": {
          "id": "A",
          "type_id": 0
        }
      },
      {
        "SpecialToken": {
          "id": "[SEP]",
          "type_id": 0
        }
      }
    ],
    "pair": [
      {
        "SpecialToken": {
          "id": "[CLS]",
          "type_id": 0
        }
      },
      {
        "Sequence": {
          "id": "A",
          "type_id": 0
        }
      },
      {
        "SpecialToken": {
          "id": "[SEP]",
          "type_id": 0
        }
      },
      {
        "Sequence": {
          "id": "B",
          "type_id": 1
        }
      },
      {
        "SpecialToken": {
          "id": "[SEP]",
          "type_id": 1
        }
      }
    ],
    "special_tokens": {
      "[CLS]": {
        "id": "[CLS]",
        "ids": [
          3
        ],
        "tokens": [
          "[CLS]"
        ]
      },
      "[SEP]": {
        "id": "[SEP]",
        "ids": [
          4
        ],
        "tokens": [
          "[SEP]"
        ]
      }
    }
  },
  "decoder": {
    "type": "WordPiece",
    "prefix": "##",
    "cleanup": true
  },
  "model": {
    "type": "WordPiece",
    "unk_token": "[UNK]",
    "continuing_subword_prefix": "##",
    "max_input_chars_per_word": 100,
    "vocab": {
      "[MASK]": 0,
      "[PAD]": 1,
      "[UNK]": 2,
      "[CLS]": 3,
      "[SEP]": 4,
      "!": 5,
      "\"": 6,
      "#": 7,
      "$": 8,
      "%": 9,
      "&": 10,
      "'": 11,
      "(": 12,
      ")": 13,
      "*": 14,
      "+": 15,
      ",": 16,
      "-": 17,
      ".": 18,
      "/": 19,
      "0": 20,
      "1": 21,
      "2": 22,
      "3": 23,
      "4": 24,
      "5": 25,
      "6": 26,
      "7": 27,
      "8": 28,
      "9": 29,
      ":": 30,
      ";": 31,
      "<": 32,
      "=": 33,
      ">": 34,
      "?": 35,
      "@": 36,
      "A": 37,
      "B": 38,
      "C": 39,
      "D": 40,
      "E": 41,
      "F": 42,
      "G": 43,
      "H": 44,
      "I": 45,
      "J": 46,
      "K": 47,
      "L": 48,
      "M": 49,
      "N": 50,
      "O": 51,
      "P": 52,
      "Q": 53,
      "R": 54,
      "S": 55,
      "T": 56,
      "U": 57,
      "V": 58,
      "W": 59,
      "X": 60,
      "Y": 61,
      "Z": 62,
      "[": 63,
      "\\": 64,
      "]": 65,
      "^": 66,
      "_": 67,
      "`": 68,
      "a": 69,
      "b": 70,
      "c": 71,
      "d": 72,
      "e": 73,
      "f": 74,
      "g": 75,
      "h": 76,
      "i": 77,
      "j": 78,
      "k": 79,
      "l": 80,
      "m": 81,
      "n": 82,
      "o": 83,
      "p": 84,
      "q": 85,
      "r": 86,
      "s": 87,
      "t": 88,
      "u": 89,
      "v": 90,
      "w": 91,
      "x": 92,
      "y": 93,
      "z": 94,
      "{": 95,
      "|": 96,
      "}": 97,
      "~": 98,
      "¡": 99,
      "¢": 100,
      "£": 101,
      "¤": 102,
      "¥": 103,
      "¦": 104,
      "§": 105,
      "¨": 106,
      "©": 107,
      "ª": 108,
      "«": 109,
      "®": 110,
      "°": 111,
      "±": 112,
      "²": 113,
      "³": 114,
      "´": 115,
      "¶": 116,
      "·": 117,
      "¸": 118,
      "¹": 119,
      "º": 120,
      "»": 121,
      "¼": 122,
      "½": 123,
      "¾": 124,
      "¿": 125,
      "À": 126,
      "Á": 127,
      "Â": 128,
      "Ã": 129,
      "Ä": 130,
      "Å": 131,
      "Æ": 132,
      "Ç": 133,
      "È": 134,
      "É": 135,
      "Ê": 136,
      "Í": 137,
      "Î": 138,
      "Ï": 139,
      "Ñ": 140,
      "Ò": 141,
      "Ó": 142,
      "Ô": 143,
      "Ö": 144,
      "×": 145,
      "Ù": 146,
      "Ú": 147,
      "Ü": 148,
      "à": 149,
      "á": 150,
      "â": 151,
      "ã": 152,
      "ä": 153,
      "å": 154,
      "æ": 155,
      "ç": 156,
      "è": 157,
      "é": 158,
      "ê": 159,
      "ë": 160,
      "ì": 161,
      "í": 162,
      "î": 163,
      "ï": 164,
      "ñ": 165,
      "ò": 166,
      "ó": 167,
      "ô": 168,
      "õ": 169,
      "ö": 170,
      "ø": 171,
      "ù": 172,
      "ú": 173,
      "û": 174,
      "ü": 175,
      "ý": 176,
      "þ": 177,
      "ā": 178,
      "ą": 179,
      "ć": 180,
      "Č": 181,
      "ē": 182,
      "Ě": 183,
      "ğ": 184,
      "ī": 185,
      "İ": 186,
      "ı": 187,
      "Ł": 188,
      "ł": 189,
      "ń": 190,
      "Ň": 191,
      "ň": 192,
      "ō": 193,
      "Ő": 194,
      "ő": 195,
      "Œ": 196,
      "œ": 197,
      "ř": 198,
      "ś": 199,
      "Ş": 200,
      "ş": 201,
      "Š": 202,
      "š": 203,
      "ť": 204,
      "ū": 205,
      "ů": 206,
      "ű": 207,
      "ż": 208,
      "Ž": 209,
      "ʳ": 210,
      "̃": 211,
      "̄": 212,
      "̈": 213,
      "ͬ": 214,
      "Α": 215,
      "Γ": 216,
      "Δ": 217,
      "Θ": 218,
      "Ι": 219,
      "Κ": 220,
      "Λ": 221,
      "Μ": 222,
      "Π": 223,
      "Ρ": 224,
      "Σ": 225,
      "Τ": 226,
      "Υ": 227,
      "Φ": 228,
      "Χ": 229,
      "ά": 230,
      "έ": 231,
      "ή": 232,
      "ί": 233,
      "α": 234,
      "β": 235,
      "γ": 236,
      "δ": 237,
      "ε": 238,
      "ζ": 239,
      "η": 240,
      "θ": 241,
      "ι": 242,
      "κ": 243,
      "λ": 244,
      "μ": 245,
      "ν": 246,
      "ξ": 247,
      "ο": 248,
      "π": 249,
      "ρ": 250,
      "ς": 251,
      "σ": 252,
      "τ": 253,
      "υ": 254,
      "φ": 255,
      "χ": 256,
      "ψ": 257,
      "ω": 258,
      "ϊ": 259,
      "ό": 260,
      "ύ": 261,
      "ώ": 262,
      "А": 263,
      "В": 264,
      "Г": 265,
      "Е": 266,
      "З": 267,
      "И": 268,
      "К": 269,
      "Л": 270,
      "М": 271,
      "О": 272,
      "С": 273,
      "Т": 274,
      "Ь": 275,
      "Э": 276,
      "Я": 277,
      "а": 278,
      "б": 279,
      "в": 280,
      "г": 281,
      "д": 282,
      "е": 283,
      "з": 284,
      "и": 285,
      "й": 286,
      "к": 287,
      "л": 288,
      "н": 289,
      "о": 290,
      "п": 291,
      "р": 292,
      "с": 293,
      "т": 294,
      "у": 295,
      "ф": 296,
      "х": 297,
      "ш": 298,
      "я": 299,
      "і": 300,
      "א": 301,
      "ך": 302,
      "כ": 303,
      "ל": 304,
      "מ": 305,
      "ר": 306,
      "ת": 307,
      "ᵃ": 308,
      "ᵉ": 309,
      "ᵒ": 310,
      "ἀ": 311,
      "ἄ": 312,
      "Ἀ": 313,
      "ἐ": 314,
      "ἑ": 315,
      "ἔ": 316,
      "Ἐ": 317,
      "Ἑ": 318,
      "Ἕ": 319,
      "ἡ": 320,
      "ἢ": 321,
      "ἰ": 322,
      "ἱ": 323,
      "ἴ": 324,
      "ἵ": 325,
      "ἶ": 326,
      "Ἰ": 327,
      "ὀ": 328,
      "ὁ": 329,
      "ὅ": 330,
      "ὐ": 331,
      "ὔ": 332,
      "ὤ": 333,
      "ὥ": 334,
      "ὦ": 335,
      "Ὦ": 336,
      "Ὧ": 337,
      "ὰ": 338,
      "ά": 339,
      "ὲ": 340,
      "έ": 341,
      "ὴ": 342,
      "ή": 343,
      "ὶ": 344,
      "ί": 345,
      "ὸ": 346,
      "ό": 347,
      "ὺ": 348,
      "ύ": 349,
      "ᾶ": 350,
      "ᾷ": 351,
      "ῃ": 352,
      "ῆ": 353,
      "ῇ": 354,
      "ῖ": 355,
      "ῥ": 356,
      "ῦ": 357,
      "Ῥ": 358,
      "ῶ": 359,
      "ῷ": 360,
      "–": 361,
      "—": 362,
      "―": 363,
      "‘": 364,
      "’": 365,
      "‛": 366,
      "“": 367,
      "”": 368,
      "„": 369,
      "†": 370,
      "•": 371,
      "…": 372,
      "′": 373,
      "‹": 374,
      "›": 375,
      "※": 376,
      "⁄": 377,
      "⁴": 378,
      "₁": 379,
      "₂": 380,
      "₅": 381,
      "₆": 382,
      "€": 383,
      "₹": 384,
      "₺": 385,
      "₽": 386,
      "₿": 387,
      "℃": 388,
      "™": 389,
      "⅔": 390,
      "⅛": 391,
      "→": 392,
      "∪": 393,
      "≤": 394,
      "⊙": 395,
      "⑇": 396,
      "─": 397,
      "│": 398,
      "║": 399,
      "■": 400,
      "□": 401,
      "▲": 402,
      "►": 403,
      "▼": 404,
      "★": 405,
      "☨": 406,
      "♦": 407,
      "✓": 408,
      "✚": 409,
      "❖": 410,
      "第": 411,
      "##r": 412,
      "##i": 413,
      "##u": 414,
      "##n": 415,
      "##f": 416,
      "##a": 417,
      "##s": 418,
      "##c": 419,
      "##l": 420,
      "##t": 421,
      "##o": 422,
      "##v": 423,
      "##é": 424,
      "##x": 425,
      "##e": 426,
      "##p": 427,
      "##d": 428,
      "##q": 429,
      "##L": 430,
      "##ó": 431,
      "##T": 432,
      "##b": 433,
      "##k": 434,
      "##h": 435,
      "##m": 436,
      "##y": 437,
      "##ü": 438,
      "##S": 439,
      "##Ü": 440,
      "##I": 441,
      "##R": 442,
      "##A": 443,
      "##E": 444,
      "##Í": 445,
      "##U": 446,
      "##0": 447,
      "##g": 448,
      "##3": 449,
      "##á": 450,
      "##1": 451,
      "##j": 452,
      "##í": 453,
      "##ò": 454,
      "##C": 455,
      "##B": 456,
      "##Q": 457,
      "##z": 458,
      "##Y": 459,
      "##M": 460,
      "##V": 461,
      "##ñ": 462,
      "##Ã": 463,
      "##©": 464,
      "##W": 465,
      "##G": 466,
      "##5": 467,
      "##J": 468,
      "##O": 469,
      "##D": 470,
      "##9": 471,
      "##N": 472,
      "##8": 473,
      "##6": 474,
      "##P": 475,
      "##Á": 476,
      "##H": 477,
      "##°": 478,
      "##2": 479,
      "##K": 480,
      "##Ñ": 481,
      "##Ó": 482,
      "##w": 483,
      "##Z": 484,
      "##ú": 485,
      "##F": 486,
      "##4": 487,
      "##7": 488,
      "##±": 489,
      "##³": 490,
      "##É": 491,
      "##ã": 492,
      "##º": 493,
      "##®": 494,
      "##Ú": 495,
      "##ö": 496,
      "##è": 497,
      "##£": 498,
      "##ā": 499,
      "##X": 500,
      "##â": 501,
      "##™": 502,
      "##ρ": 503,
      "##γ": 504,
      "##ά": 505,
      "##ω": 506,
      "##ô": 507,
      "##̃": 508,
      "##ì": 509,
      "##ί": 510,
      "##τ": 511,
      "##υ": 512,
      "##ς": 513,
      "##ç": 514,
      "##■": 515,
      "##ν": 516,
      "##α": 517,
      "##ζ": 518,
      "##η": 519,
      "##σ": 520,
      "##μ": 521,
      "##ε": 522,
      "##ο": 523,
      "##ά": 524,
      "##î": 525,
      "##½": 526,
      "##à": 527,
      "##ª": 528,
      "##κ": 529,
      "##λ": 530,
      "##ń": 531,
      "##έ": 532,
      "##ï": 533,
      "##ê": 534,
      "##æ": 535,
      "##û": 536,
      "##ē": 537,
      "##₺": 538,
      "##Ç": 539,
      "##ù": 540,
      "##℃": 541,
      "##ι": 542,
      "##ō": 543,
      "##ὶ": 544,
      "##È": 545,
      "##ό": 546,
      "##ë": 547,
      "##¨": 548,
      "##ὐ": 549,
      "##ὔ": 550,
      "##ό": 551,
      "##´": 552,
      "##ä": 553,
      "##ύ": 554,
      "##õ": 555,
      "##œ": 556,
      "##€": 557,
      "##¥": 558,
      "##о": 559,
      "##ᾷ": 560,
      "##δ": 561,
      "##ῶ": 562,
      "##ø": 563,
      "##Æ": 564,
      "##ı": 565,
      "##¢": 566,
      "##Ö": 567,
      "##ň": 568,
      "##с": 569,
      "##т": 570,
      "##р": 571,
      "##а": 572,
      "##п": 573,
      "##ᵒ": 574,
      "##⅔": 575,
      "##ş": 576,
      "##β": 577,
      "##ή": 578,
      "##Î": 579,
      "##φ": 580,
      "##ϊ": 581,
      "##έ": 582,
      "##¼": 583,
      "##ὺ": 584,
      "##ğ": 585,
      "##Â": 586,
      "##×": 587,
      "##¤": 588,
      "##π": 589,
      "##ř": 590,
      "##ή": 591,
      "##¦": 592,
      "##ů": 593,
      "##ί": 594,
      "##ū": 595,
      "##å": 596,
      "##Ő": 597,
      "##♦": 598,
      "##►": 599,
      "##ő": 600,
      "##ć": 601,
      "##л": 602,
      "##¹": 603,
      "##Χ": 604,
      "##Θ": 605,
      "##Υ": 606,
      "##Σ": 607,
      "##χ": 608,
      "##θ": 609,
      "##¾": 610,
      "##ᵉ": 611,
      "##Ň": 612,
      "##ш": 613,
      "##в": 614,
      "##г": 615,
      "##н": 616,
      "##²": 617,
      "##ż": 618,
      "##ἰ": 619,
      "##ῆ": 620,
      "##ῖ": 621,
      "##ξ": 622,
      "##ἶ": 623,
      "##ł": 624,
      "##ῦ": 625,
      "##̈": 626,
      "##ű": 627,
      "##❖": 628,
      "##Ê": 629,
      "##Å": 630,
      "##и": 631,
      "##е": 632,
      "##ą": 633,
      "##ὰ": 634,
      "##ὸ": 635,
      "##ὴ": 636,
      "##ὲ": 637,
      "##║": 638,
      "##д": 639,
      "##і": 640,
      "##ר": 641,
      "##ת": 642,
      "##ψ": 643,
      "##Ï": 644,
      "##̄": 645,
      "##х": 646,
      "##й": 647,
      "##ώ": 648,
      "##⁄": 649,
      "##₁": 650,
      "##₆": 651,
      "##к": 652,
      "##Ò": 653,
      "##ל": 654,
      "##א": 655,
      "##ך": 656,
      "##ͬ": 657,
      "##₿": 658,
      "##À": 659,
      "##Ь": 660,
      "##š": 661,
      "##ἴ": 662,
      "##ῃ": 663,
      "##İ": 664,
      "##ὅ": 665,
      "##я": 666,
      "##Ł": 667,
      "##Л": 668,
      "##Ô": 669,
      "##ἱ": 670,
      "##б": 671,
      "##з": 672,
      "##Œ": 673,
      "##ᾶ": 674,
      "##И": 675,
      "##Т": 676,
      "##Е": 677,
      "##О": 678,
      "##Г": 679,
      "##₂": 680,
      "##ύ": 681,
      "##ī": 682,
      "##ś": 683,
      "##ῇ": 684,
      "##ῷ": 685,
      "##Ě": 686,
      "##│": 687,
      "##Ä": 688,
      "de": 689,
      "##os": 690,
      "##er": 691,
      "##en": 692,
      "##as": 693,
      "##es": 694,
      "##an": 695,
      "##ar": 696,
      "##on": 697,
      "##ue": 698,
      "##or": 699,
      "##ci": 700,
      "##ad": 701,
      "la": 702,
      "que": 703,
      "en": 704,
      "##al": 705,
      "el": 706,
      "##st": 707,
      "##ent": 708,
      "con": 709,
      "##in": 710,
      "##do": 711,
      "##ab": 712,
      "##re": 713,
      "se": 714,
      "su": 715,
      "los": 716,
      "##ra": 717,
      "##om": 718,
      "##ri": 719,
      "##ro": 720,
      "##ti": 721,
      "##ón": 722,
      "un": 723,
      "##la": 724,
      "al": 725,
      "##ta": 726,
      "del": 727,
      "##di": 728,
      "por": 729,
      "##un": 730,
      "est": 731,
      "##to": 732,
      "es": 733,
      "re": 734,
      "di": 735,
      "##ado": 736,
      "##le": 737,
      "las": 738,
      "##te": 739,
      "par": 740,
      "##am": 741,
      "in": 742,
      "##ch": 743,
      "##li": 744,
      "no": 745,
      "##is": 746,
      "##de": 747,
      "com": 748,
      "##ente": 749,
      "##ol": 750,
      "##ción": 751,
      "cu": 752,
      "##id": 753,
      "##ca": 754,
      "##ia": 755,
      "##ía": 756,
      "##ui": 757,
      "##em": 758,
      "##res": 759,
      "##cu": 760,
      "si": 761,
      "des": 762,
      "##lo": 763,
      "##ran": 764,
      "##tu": 765,
      "##cia": 766,
      "##que": 767,
      "##co": 768,
      "para": 769,
      "pro": 770,
      "##io": 771,
      "ha": 772,
      "##ada": 773,
      "##ce": 774,
      "to": 775,
      "##ero": 776,
      "##gu": 777,
      "le": 778,
      "##tr": 779,
      "##go": 780,
      "##ob": 781,
      "hab": 782,
      "##da": 783,
      "lo": 784,
      "##ier": 785,
      "una": 786,
      "##se": 787,
      "##ues": 788,
      "##uer": 789,
      "##ando": 790,
      "sus": 791,
      "##aba": 792,
      "##dad": 793,
      "##ones": 794,
      "##mi": 795,
      "##ec": 796,
      "##vi": 797,
      "me": 798,
      "##si": 799,
      "##pa": 800,
      "mu": 801,
      "##ter": 802,
      "##mp": 803,
      "##ien": 804,
      "##mo": 805,
      "##ir": 806,
      "##los": 807,
      "##ma": 808,
      "ca": 809,
      "como": 810,
      "##ados": 811,
      "##fi": 812,
      "##tes": 813,
      "an": 814,
      "##tos": 815,
      "##dos": 816,
      "##era": 817,
      "##za": 818,
      "##án": 819,
      "##ento": 820,
      "##il": 821,
      "ex": 822,
      "##ué": 823,
      "po": 824,
      "ar": 825,
      "##po": 826,
      "##ist": 827,
      "##tra": 828,
      "##el": 829,
      "per": 830,
      "##tar": 831,
      "##ales": 832,
      "ci": 833,
      "##gun": 834,
      "##ás": 835,
      "ma": 836,
      "##pi": 837,
      "sin": 838,
      "##cho": 839,
      "pa": 840,
      "##pe": 841,
      "##us": 842,
      "##ciones": 843,
      "##tro": 844,
      "ac": 845,
      "res": 846,
      "##omb": 847,
      "##ores": 848,
      "##les": 849,
      "ser": 850,
      "mis": 851,
      "##ras": 852,
      "El": 853,
      "mas": 854,
      "pr": 855,
      "##las": 856,
      "man": 857,
      "##encia": 858,
      "##bi": 859,
      "##jo": 860,
      "tan": 861,
      "mi": 862,
      "##tas": 863,
      "##ga": 864,
      "ob": 865,
      "cor": 866,
      "##idad": 867,
      "##ios": 868,
      "ent": 869,
      "##lar": 870,
      "##va": 871,
      "na": 872,
      "##vo": 873,
      "##me": 874,
      "##én": 875,
      "##lan": 876,
      "##quel": 877,
      "San": 878,
      "esta": 879,
      "do": 880,
      "##ener": 881,
      "##aban": 882,
      "En": 883,
      "##tor": 884,
      "pre": 885,
      "##ru": 886,
      "aquel": 887,
      "cas": 888,
      "##ib": 889,
      "##ic": 890,
      "##mente": 891,
      "este": 892,
      "##du": 893,
      "##ez": 894,
      "##der": 895,
      "##ara": 896,
      "##mos": 897,
      "as": 898,
      "pue": 899,
      "##ían": 900,
      "##das": 901,
      "##qui": 902,
      "##tan": 903,
      "sob": 904,
      "##cio": 905,
      "##mb": 906,
      "La": 907,
      "##cer": 908,
      "##ces": 909,
      "dos": 910,
      "pri": 911,
      "ti": 912,
      "##pañ": 913,
      "ap": 914,
      "##gar": 915,
      "ab": 916,
      "##tros": 917,
      "ten": 918,
      "ni": 919,
      "##ur": 920,
      "más": 921,
      "##ve": 922,
      "don": 923,
      "##endo": 924,
      "lle": 925,
      "##adas": 926,
      "gran": 927,
      "##ten": 928,
      "##ul": 929,
      "vi": 930,
      "ver": 931,
      "pres": 932,
      "##ina": 933,
      "##no": 934,
      "car": 935,
      "pas": 936,
      "##amente": 937,
      "pe": 938,
      "##car": 939,
      "Est": 940,
      "##ver": 941,
      "imp": 942,
      "sa": 943,
      "fuer": 944,
      "mo": 945,
      "ba": 946,
      "##cas": 947,
      "##um": 948,
      "##able": 949,
      "18": 950,
      "sobre": 951,
      "##ino": 952,
      "Al": 953,
      "##den": 954,
      "esp": 955,
      "##asta": 956,
      "hi": 957,
      "##entes": 958,
      "##cion": 959,
      "for": 960,
      "##tal": 961,
      "##entos": 962,
      "##cha": 963,
      "era": 964,
      "Es": 965,
      "##je": 966,
      "##ión": 967,
      "##ida": 968,
      "pero": 969,
      "entre": 970,
      "##ante": 971,
      "qui": 972,
      "sal": 973,
      "Re": 974,
      "##ba": 975,
      "Por": 976,
      "##ido": 977,
      "##ño": 978,
      "mar": 979,
      "##ano": 980,
      "##aron": 981,
      "##sti": 982,
      "##ed": 983,
      "so": 984,
      "algun": 985,
      "cam": 986,
      "##con": 987,
      "Con": 988,
      "hasta": 989,
      "##emp": 990,
      "##na": 991,
      "nos": 992,
      "tra": 993,
      "sol": 994,
      "ter": 995,
      "##gui": 996,
      "##enta": 997,
      "cos": 998,
      "##eros": 999,
      "comp": 1000,
      "##zo": 1001,
      "todo": 1002,
      "prov": 1003,
      "Se": 1004,
      "nues": 1005,
      "##ador": 1006,
      "he": 1007,
      "##cos": 1008,
      "##so": 1009,
      "pu": 1010,
      "##mas": 1011,
      "##eneral": 1012,
      "dis": 1013,
      "##cias": 1014,
      "pi": 1015,
      "esc": 1016,
      "cab": 1017,
      "##qu": 1018,
      "co": 1019,
      "todos": 1020,
      "ju": 1021,
      "##rib": 1022,
      "ya": 1023,
      "desp": 1024,
      "cons": 1025,
      "##bli": 1026,
      "##ora": 1027,
      "##ig": 1028,
      "da": 1029,
      "medi": 1030,
      "##ana": 1031,
      "##ren": 1032,
      "or": 1033,
      "fué": 1034,
      "##miento": 1035,
      "ve": 1036,
      "##tado": 1037,
      "##ros": 1038,
      "##ér": 1039,
      "muy": 1040,
      "son": 1041,
      "men": 1042,
      "lu": 1043,
      "ad": 1044,
      "pues": 1045,
      "##ués": 1046,
      "prim": 1047,
      "##uel": 1048,
      "parte": 1049,
      "##amos": 1050,
      "Mar": 1051,
      "indi": 1052,
      "##sa": 1053,
      "au": 1054,
      "##ena": 1055,
      "ra": 1056,
      "##lig": 1057,
      "mismo": 1058,
      "##eron": 1059,
      "##ven": 1060,
      "##par": 1061,
      "##chos": 1062,
      "señ": 1063,
      "##udad": 1064,
      "##ombre": 1065,
      "An": 1066,
      "##des": 1067,
      "##eces": 1068,
      "##ya": 1069,
      "##lam": 1070,
      "habia": 1071,
      "tam": 1072,
      "##lu": 1073,
      "##ños": 1074,
      "deb": 1075,
      "porque": 1076,
      "Ju": 1077,
      "ven": 1078,
      "##ña": 1079,
      "emp": 1080,
      "col": 1081,
      "DE": 1082,
      "qu": 1083,
      "tr": 1084,
      "donde": 1085,
      "##tras": 1086,
      "tu": 1087,
      "##tad": 1088,
      "te": 1089,
      "am": 1090,
      "##fer": 1091,
      "##gos": 1092,
      "##ja": 1093,
      "pueb": 1094,
      "cal": 1095,
      "##gua": 1096,
      "##ín": 1097,
      "bien": 1098,
      "aun": 1099,
      "fa": 1100,
      "No": 1101,
      "##cios": 1102,
      "du": 1103,
      "cual": 1104,
      "##jos": 1105,
      "ciudad": 1106,
      "mon": 1107,
      "lib": 1108,
      "cuando": 1109,
      "##arse": 1110,
      "##ario": 1111,
      "##empo": 1112,
      "##pon": 1113,
      "##yo": 1114,
      "##ierno": 1115,
      "##min": 1116,
      "Ma": 1117,
      "ch": 1118,
      "él": 1119,
      "Ca": 1120,
      "hu": 1121,
      "bu": 1122,
      "gob": 1123,
      "##can": 1124,
      "##ern": 1125,
      "desde": 1126,
      "##tó": 1127,
      "les": 1128,
      "tien": 1129,
      "##ie": 1130,
      "##00": 1131,
      "##inci": 1132,
      "habi": 1133,
      "rep": 1134,
      "fe": 1135,
      "##all": 1136,
      "pos": 1137,
      "dist": 1138,
      "##ún": 1139,
      "inter": 1140,
      "##ala": 1141,
      "##emos": 1142,
      "##tin": 1143,
      "cre": 1144,
      "tiempo": 1145,
      "##eg": 1146,
      "##iz": 1147,
      "##dia": 1148,
      "##cen": 1149,
      "han": 1150,
      "gu": 1151,
      "##im": 1152,
      "De": 1153,
      "toda": 1154,
      "##ias": 1155,
      "cer": 1156,
      "después": 1157,
      "##tri": 1158,
      "Ch": 1159,
      "tom": 1160,
      "In": 1161,
      "Los": 1162,
      "##cción": 1163,
      "##fec": 1164,
      "may": 1165,
      "##lti": 1166,
      "##ico": 1167,
      "##gn": 1168,
      "parti": 1169,
      "##dose": 1170,
      "fi": 1171,
      "nue": 1172,
      "ej": 1173,
      "otros": 1174,
      "##bre": 1175,
      "##iendo": 1176,
      "##bién": 1177,
      "##eci": 1178,
      "##per": 1179,
      "##anos": 1180,
      "general": 1181,
      "her": 1182,
      "##pos": 1183,
      "princi": 1184,
      "os": 1185,
      "##és": 1186,
      "##ese": 1187,
      "##van": 1188,
      "ella": 1189,
      "##ías": 1190,
      "##úbli": 1191,
      "inf": 1192,
      "hacer": 1193,
      "##cur": 1194,
      "##ona": 1195,
      "##sta": 1196,
      "##ieron": 1197,
      "capi": 1198,
      "vol": 1199,
      "sab": 1200,
      "##var": 1201,
      "##gi": 1202,
      "##idos": 1203,
      "contra": 1204,
      "todas": 1205,
      "Cu": 1206,
      "##til": 1207,
      "##ral": 1208,
      "fin": 1209,
      "Car": 1210,
      "##and": 1211,
      "también": 1212,
      "##zas": 1213,
      "##oria": 1214,
      "val": 1215,
      "##ens": 1216,
      "dia": 1217,
      "otro": 1218,
      "##ior": 1219,
      "Cor": 1220,
      "mayor": 1221,
      "Ar": 1222,
      "esto": 1223,
      "Fran": 1224,
      "pun": 1225,
      "pla": 1226,
      "cono": 1227,
      "##man": 1228,
      "había": 1229,
      "otra": 1230,
      "##ili": 1231,
      "can": 1232,
      "##rado": 1233,
      "quien": 1234,
      "dec": 1235,
      "uno": 1236,
      "llam": 1237,
      "tal": 1238,
      "li": 1239,
      "##paña": 1240,
      "ay": 1241,
      "ellos": 1242,
      "##ombres": 1243,
      "neces": 1244,
      "pob": 1245,
      "tres": 1246,
      "sino": 1247,
      "##ril": 1248,
      "dej": 1249,
      "segun": 1250,
      "tier": 1251,
      "##tura": 1252,
      "está": 1253,
      "pers": 1254,
      "prop": 1255,
      "guer": 1256,
      "##tán": 1257,
      "##dido": 1258,
      "##illa": 1259,
      "pes": 1260,
      "##áo": 1261,
      "##esti": 1262,
      "san": 1263,
      "##uego": 1264,
      "va": 1265,
      "ro": 1266,
      "##lí": 1267,
      "reci": 1268,
      "##gen": 1269,
      "emb": 1270,
      "Juan": 1271,
      "op": 1272,
      "##tre": 1273,
      "aquella": 1274,
      "fun": 1275,
      "##chas": 1276,
      "deci": 1277,
      "##che": 1278,
      "ho": 1279,
      "yo": 1280,
      "año": 1281,
      "ce": 1282,
      "solo": 1283,
      "años": 1284,
      "estos": 1285,
      "##arios": 1286,
      "##dr": 1287,
      "##fe": 1288,
      "haber": 1289,
      "Pa": 1290,
      "##ua": 1291,
      "menos": 1292,
      "hay": 1293,
      "así": 1294,
      "##vos": 1295,
      "##nos": 1296,
      "##pu": 1297,
      "##gan": 1298,
      "pon": 1299,
      "##eza": 1300,
      "dar": 1301,
      "min": 1302,
      "mil": 1303,
      "##RI": 1304,
      "pueblo": 1305,
      "Su": 1306,
      "ele": 1307,
      "15": 1308,
      "##guas": 1309,
      "anti": 1310,
      "vez": 1311,
      "##cul": 1312,
      "##oso": 1313,
      "orden": 1314,
      "##fici": 1315,
      "cri": 1316,
      "##gra": 1317,
      "##tud": 1318,
      "señor": 1319,
      "nombre": 1320,
      "##ís": 1321,
      "dicho": 1322,
      "princip": 1323,
      "mor": 1324,
      "##ase": 1325,
      "fal": 1326,
      "españ": 1327,
      "##fes": 1328,
      "Cas": 1329,
      "##oles": 1330,
      "sido": 1331,
      "##ene": 1332,
      "Com": 1333,
      "##lación": 1334,
      "##ica": 1335,
      "espe": 1336,
      "##for": 1337,
      "tiene": 1338,
      "tro": 1339,
      "##olu": 1340,
      "sent": 1341,
      "##dió": 1342,
      "vist": 1343,
      "rec": 1344,
      "##íti": 1345,
      "##rar": 1346,
      "hombres": 1347,
      "lleg": 1348,
      "pal": 1349,
      "cada": 1350,
      "##dar": 1351,
      "##osa": 1352,
      "##AS": 1353,
      "##II": 1354,
      "17": 1355,
      "últi": 1356,
      "algunos": 1357,
      "##ío": 1358,
      "poder": 1359,
      "##OS": 1360,
      "muer": 1361,
      "mes": 1362,
      "tanto": 1363,
      "##vas": 1364,
      "mal": 1365,
      "##ár": 1366,
      "dest": 1367,
      "##antes": 1368,
      "poco": 1369,
      "##úm": 1370,
      "lugar": 1371,
      "##cri": 1372,
      "antes": 1373,
      "##empre": 1374,
      "##más": 1375,
      "provin": 1376,
      "mer": 1377,
      "em": 1378,
      "##bo": 1379,
      "otras": 1380,
      "España": 1381,
      "##ton": 1382,
      "##adores": 1383,
      "##isi": 1384,
      "gobierno": 1385,
      "##cido": 1386,
      "##cis": 1387,
      "of": 1388,
      "caus": 1389,
      "puer": 1390,
      "##pen": 1391,
      "gra": 1392,
      "##almente": 1393,
      "hecho": 1394,
      "sigui": 1395,
      "##ece": 1396,
      "siempre": 1397,
      "##men": 1398,
      "##atro": 1399,
      "vo": 1400,
      "medio": 1401,
      "##bier": 1402,
      "tri": 1403,
      "cuan": 1404,
      "##gún": 1405,
      "##ancia": 1406,
      "##gr": 1407,
      "verdad": 1408,
      "estas": 1409,
      "##ER": 1410,
      "estaba": 1411,
      "##gres": 1412,
      "Mon": 1413,
      "##adre": 1414,
      "guerra": 1415,
      "##quí": 1416,
      "##cep": 1417,
      "##cal": 1418,
      "form": 1419,
      "tierra": 1420,
      "##ria": 1421,
      "##tir": 1422,
      "##gles": 1423,
      "##vid": 1424,
      "ins": 1425,
      "##ES": 1426,
      "Lu": 1427,
      "##cado": 1428,
      "ade": 1429,
      "##ición": 1430,
      "allí": 1431,
      "ne": 1432,
      "aunque": 1433,
      "16": 1434,
      "##tivo": 1435,
      "natu": 1436,
      "##ble": 1437,
      "hizo": 1438,
      "##cito": 1439,
      "##ge": 1440,
      "Las": 1441,
      "##jas": 1442,
      "##ió": 1443,
      "##sto": 1444,
      "##pec": 1445,
      "mej": 1446,
      "puede": 1447,
      "Jos": 1448,
      "cier": 1449,
      "##zar": 1450,
      "enem": 1451,
      "casa": 1452,
      "exp": 1453,
      "rey": 1454,
      "To": 1455,
      "mun": 1456,
      "hist": 1457,
      "Si": 1458,
      "Des": 1459,
      "##tamente": 1460,
      "encon": 1461,
      "##ifi": 1462,
      "núm": 1463,
      "den": 1464,
      "##ísi": 1465,
      "servi": 1466,
      "##ac": 1467,
      "##dó": 1468,
      "real": 1469,
      "entr": 1470,
      "pol": 1471,
      "##argo": 1472,
      "##stitu": 1473,
      "mucho": 1474,
      "tar": 1475,
      "segu": 1476,
      "autor": 1477,
      "##éri": 1478,
      "##ública": 1479,
      "##ves": 1480,
      "##udi": 1481,
      "vida": 1482,
      "Pero": 1483,
      "dere": 1484,
      "##he": 1485,
      "is": 1486,
      "Gob": 1487,
      "##cil": 1488,
      "##len": 1489,
      "##tados": 1490,
      "##ud": 1491,
      "ocu": 1492,
      "##onces": 1493,
      "##zón": 1494,
      "##eras": 1495,
      "efec": 1496,
      "##ura": 1497,
      "Santa": 1498,
      "nin": 1499,
      "##lor": 1500,
      "##có": 1501,
      "##ques": 1502,
      "const": 1503,
      "ah": 1504,
      "Di": 1505,
      "##omin": 1506,
      "rio": 1507,
      "buen": 1508,
      "##eo": 1509,
      "tor": 1510,
      "10": 1511,
      "guar": 1512,
      "hon": 1513,
      "hal": 1514,
      "def": 1515,
      "ri": 1516,
      "contin": 1517,
      "ta": 1518,
      "eran": 1519,
      "traba": 1520,
      "##pas": 1521,
      "##ste": 1522,
      "asi": 1523,
      "##ería": 1524,
      "##EN": 1525,
      "##sión": 1526,
      "fr": 1527,
      "go": 1528,
      "conse": 1529,
      "fueron": 1530,
      "##gas": 1531,
      "bas": 1532,
      "##AN": 1533,
      "##ea": 1534,
      "##rig": 1535,
      "##cía": 1536,
      "José": 1537,
      "var": 1538,
      "Un": 1539,
      "qué": 1540,
      "misma": 1541,
      "entonces": 1542,
      "ejér": 1543,
      "bar": 1544,
      "##vis": 1545,
      "bajo": 1546,
      "hombre": 1547,
      "muchos": 1548,
      "##bri": 1549,
      "inst": 1550,
      "##lio": 1551,
      "indios": 1552,
      "jun": 1553,
      "Gu": 1554,
      "##CI": 1555,
      "decir": 1556,
      "##tis": 1557,
      "##inas": 1558,
      "impor": 1559,
      "cir": 1560,
      "ide": 1561,
      "produ": 1562,
      "##anza": 1563,
      "##mientos": 1564,
      "##ándo": 1565,
      "##ables": 1566,
      "##zos": 1567,
      "bo": 1568,
      "Ped": 1569,
      "liber": 1570,
      "tras": 1571,
      "cin": 1572,
      "12": 1573,
      "Dios": 1574,
      "sen": 1575,
      "patri": 1576,
      "##ándose": 1577,
      "sig": 1578,
      "##ST": 1579,
      "ley": 1580,
      "Val": 1581,
      "##ome": 1582,
      "##ha": 1583,
      "situ": 1584,
      "especi": 1585,
      "nuestra": 1586,
      "##iente": 1587,
      "Par": 1588,
      "Lo": 1589,
      "##gre": 1590,
      "fu": 1591,
      "consid": 1592,
      "plan": 1593,
      "Le": 1594,
      "sos": 1595,
      "esper": 1596,
      "##AR": 1597,
      "et": 1598,
      "##edad": 1599,
      "Per": 1600,
      "fran": 1601,
      "##taba": 1602,
      "grande": 1603,
      "punto": 1604,
      "##zg": 1605,
      "hor": 1606,
      "grandes": 1607,
      "escri": 1608,
      "ese": 1609,
      "tem": 1610,
      "##AL": 1611,
      "demás": 1612,
      "ami": 1613,
      "sub": 1614,
      "Co": 1615,
      "temp": 1616,
      "##embre": 1617,
      "Na": 1618,
      "##idades": 1619,
      "##ll": 1620,
      "##lla": 1621,
      "Pedro": 1622,
      "##ctor": 1623,
      "nuestro": 1624,
      "##rante": 1625,
      "##ribu": 1626,
      "Francis": 1627,
      "aquí": 1628,
      "As": 1629,
      "reg": 1630,
      "hacia": 1631,
      "luego": 1632,
      "Sr": 1633,
      "##ñas": 1634,
      "##inos": 1635,
      "##ible": 1636,
      "##ami": 1637,
      "cuatro": 1638,
      "encontr": 1639,
      "##mento": 1640,
      "##dado": 1641,
      "cuer": 1642,
      "##ON": 1643,
      "aquellos": 1644,
      "consi": 1645,
      "ir": 1646,
      "quer": 1647,
      "##uso": 1648,
      "rev": 1649,
      "Man": 1650,
      "exist": 1651,
      "##ito": 1652,
      "dijo": 1653,
      "##idas": 1654,
      "dice": 1655,
      "haci": 1656,
      "##ser": 1657,
      "modo": 1658,
      "##br": 1659,
      "##vor": 1660,
      "dias": 1661,
      "cap": 1662,
      "número": 1663,
      "11": 1664,
      "##día": 1665,
      "##cular": 1666,
      "##tantes": 1667,
      "present": 1668,
      "Que": 1669,
      "14": 1670,
      "casi": 1671,
      "apar": 1672,
      "Francisco": 1673,
      "acu": 1674,
      "nada": 1675,
      "##sos": 1676,
      "estado": 1677,
      "##lidad": 1678,
      "ejército": 1679,
      "Ba": 1680,
      "pueblos": 1681,
      "llev": 1682,
      "##tia": 1683,
      "políti": 1684,
      "##jer": 1685,
      "habian": 1686,
      "hace": 1687,
      "##tí": 1688,
      "país": 1689,
      "Bar": 1690,
      "estable": 1691,
      "##via": 1692,
      "##iones": 1693,
      "condu": 1694,
      "Pro": 1695,
      "esa": 1696,
      "##ian": 1697,
      "natural": 1698,
      "##tación": 1699,
      "Mé": 1700,
      "##cación": 1701,
      "Am": 1702,
      "obje": 1703,
      "##ecer": 1704,
      "sí": 1705,
      "tran": 1706,
      "Este": 1707,
      "##ruz": 1708,
      "forma": 1709,
      "##cun": 1710,
      "noche": 1711,
      "só": 1712,
      "sup": 1713,
      "##cono": 1714,
      "ru": 1715,
      "pron": 1716,
      "Sal": 1717,
      "provincia": 1718,
      "##cimiento": 1719,
      "Bu": 1720,
      "mili": 1721,
      "Me": 1722,
      "##ció": 1723,
      "##tores": 1724,
      "cuanto": 1725,
      "cuya": 1726,
      "##tando": 1727,
      "algunas": 1728,
      "##orte": 1729,
      "person": 1730,
      "je": 1731,
      "fam": 1732,
      "conf": 1733,
      "conven": 1734,
      "alguna": 1735,
      "##cti": 1736,
      "ante": 1737,
      "13": 1738,
      "cuyo": 1739,
      "##ne": 1740,
      "hall": 1741,
      "at": 1742,
      "dé": 1743,
      "##cor": 1744,
      "##uir": 1745,
      "cr": 1746,
      "pudi": 1747,
      "veces": 1748,
      "##ación": 1749,
      "000": 1750,
      "##tada": 1751,
      "##mon": 1752,
      "##endi": 1753,
      "primera": 1754,
      "##tante": 1755,
      "Po": 1756,
      "##ion": 1757,
      "dio": 1758,
      "peque": 1759,
      "edi": 1760,
      "palab": 1761,
      "mejor": 1762,
      "armas": 1763,
      "##éndose": 1764,
      "##eli": 1765,
      "hoy": 1766,
      "##esen": 1767,
      "causa": 1768,
      "ellas": 1769,
      "##bar": 1770,
      "##dados": 1771,
      "conser": 1772,
      "ofici": 1773,
      "via": 1774,
      "camino": 1775,
      "##igo": 1776,
      "comun": 1777,
      "##fa": 1778,
      "ofre": 1779,
      "resul": 1780,
      "##uro": 1781,
      "descu": 1782,
      "##din": 1783,
      "der": 1784,
      "mom": 1785,
      "##tá": 1786,
      "Señ": 1787,
      "##tiva": 1788,
      "tre": 1789,
      "Rey": 1790,
      "##jar": 1791,
      "desa": 1792,
      "super": 1793,
      "dire": 1794,
      "##ración": 1795,
      "noti": 1796,
      "##cre": 1797,
      "##vió": 1798,
      "fuerza": 1799,
      "##cional": 1800,
      "Ro": 1801,
      "20": 1802,
      "##onel": 1803,
      "unos": 1804,
      "tes": 1805,
      "Mi": 1806,
      "##glesia": 1807,
      "cuar": 1808,
      "##g̃": 1809,
      "distin": 1810,
      "sea": 1811,
      "##ficio": 1812,
      "##encias": 1813,
      "agua": 1814,
      "cuales": 1815,
      "ción": 1816,
      "##rió": 1817,
      "Bo": 1818,
      "##yos": 1819,
      "Cal": 1820,
      "##oma": 1821,
      "nuestros": 1822,
      "af": 1823,
      "Gobierno": 1824,
      "Para": 1825,
      "ref": 1826,
      "levan": 1827,
      "juzg": 1828,
      "LA": 1829,
      "##leg": 1830,
      "##éndo": 1831,
      "manera": 1832,
      "Ha": 1833,
      "obra": 1834,
      "##cel": 1835,
      "publi": 1836,
      "nomb": 1837,
      "cont": 1838,
      "##idente": 1839,
      "obser": 1840,
      "repres": 1841,
      "##ced": 1842,
      "nuevo": 1843,
      "##aria": 1844,
      "mos": 1845,
      "##una": 1846,
      "igu": 1847,
      "##ile": 1848,
      "##greso": 1849,
      "##erio": 1850,
      "##vía": 1851,
      "##ernador": 1852,
      "##ág": 1853,
      "Don": 1854,
      "reun": 1855,
      "arro": 1856,
      "españoles": 1857,
      "##enas": 1858,
      "ori": 1859,
      "encu": 1860,
      "inde": 1861,
      "hici": 1862,
      "##ita": 1863,
      "##table": 1864,
      "##dio": 1865,
      "tener": 1866,
      "##culo": 1867,
      "##ho": 1868,
      "Estado": 1869,
      "##mar": 1870,
      "##jes": 1871,
      "muerte": 1872,
      "##mpli": 1873,
      "públi": 1874,
      "apro": 1875,
      "##torio": 1876,
      "##ust": 1877,
      "##dan": 1878,
      "##bió": 1879,
      "##cter": 1880,
      "Ab": 1881,
      "##val": 1882,
      "capital": 1883,
      "contr": 1884,
      "##gue": 1885,
      "##OR": 1886,
      "muchas": 1887,
      "pens": 1888,
      "mujer": 1889,
      "suces": 1890,
      "##cta": 1891,
      "##dir": 1892,
      "día": 1893,
      "están": 1894,
      "##IST": 1895,
      "comer": 1896,
      "Col": 1897,
      "efecto": 1898,
      "famili": 1899,
      "##uesto": 1900,
      "comple": 1901,
      "cent": 1902,
      "##lado": 1903,
      "##dencia": 1904,
      "primer": 1905,
      "propi": 1906,
      "hubier": 1907,
      "Sa": 1908,
      "relig": 1909,
      "padre": 1910,
      "mundo": 1911,
      "Anton": 1912,
      "mano": 1913,
      "declar": 1914,
      "##ici": 1915,
      "neg": 1916,
      "vista": 1917,
      "cosa": 1918,
      "clas": 1919,
      "vir": 1920,
      "embargo": 1921,
      "có": 1922,
      "rela": 1923,
      "##eración": 1924,
      "Gran": 1925,
      "##gado": 1926,
      "##tio": 1927,
      "Esta": 1928,
      "##fo": 1929,
      "##áb": 1930,
      "II": 1931,
      "lla": 1932,
      "tenia": 1933,
      "##ni": 1934,
      "##media": 1935,
      "ban": 1936,
      "rom": 1937,
      "##tiago": 1938,
      "tuvo": 1939,
      "ahora": 1940,
      "bre": 1941,
      "favor": 1942,
      "seis": 1943,
      "##ría": 1944,
      "llegar": 1945,
      "##olución": 1946,
      "apo": 1947,
      "último": 1948,
      "bra": 1949,
      "cabal": 1950,
      "##tel": 1951,
      "recib": 1952,
      "ningun": 1953,
      "caso": 1954,
      "##uelo": 1955,
      "General": 1956,
      "ou": 1957,
      "##ere": 1958,
      "das": 1959,
      "Mu": 1960,
      "continu": 1961,
      "tienen": 1962,
      "debe": 1963,
      "Vi": 1964,
      "admi": 1965,
      "circun": 1966,
      "##dida": 1967,
      "habían": 1968,
      "cosas": 1969,
      "defen": 1970,
      "estre": 1971,
      "##enos": 1972,
      "##cin": 1973,
      "historia": 1974,
      "épo": 1975,
      "##ima": 1976,
      "Antonio": 1977,
      "siguiente": 1978,
      "bus": 1979,
      "##it": 1980,
      "##AD": 1981,
      "##yó": 1982,
      "on": 1983,
      "Santiago": 1984,
      "hemos": 1985,
      "##IC": 1986,
      "consider": 1987,
      "25": 1988,
      "ún": 1989,
      "##por": 1990,
      "##ritu": 1991,
      "##LO": 1992,
      "##rden": 1993,
      "##sted": 1994,
      "acom": 1995,
      "antigu": 1996,
      "##cto": 1997,
      "##cl": 1998,
      "gente": 1999,
      "Rep": 2000,
      "Ex": 2001,
      "##terior": 2002,
      "diez": 2003,
      "##iso": 2004,
      "isla": 2005,
      "leguas": 2006,
      "fue": 2007,
      "ata": 2008,
      "CA": 2009,
      "##ete": 2010,
      "cerca": 2011,
      "##sion": 2012,
      "##guir": 2013,
      "objeto": 2014,
      "particular": 2015,
      "##entras": 2016,
      "So": 2017,
      "civi": 2018,
      "##g̃a": 2019,
      "fra": 2020,
      "libertad": 2021,
      "recono": 2022,
      "##ítu": 2023,
      "batal": 2024,
      "##respon": 2025,
      "##icos": 2026,
      "##fica": 2027,
      "estaban": 2028,
      "siendo": 2029,
      "escu": 2030,
      "justi": 2031,
      "##vers": 2032,
      "dado": 2033,
      "##dor": 2034,
      "##enda": 2035,
      "lado": 2036,
      "encuent": 2037,
      "partes": 2038,
      "##amiento": 2039,
      "##mentos": 2040,
      "caball": 2041,
      "ag": 2042,
      "adelan": 2043,
      "##taron": 2044,
      "blan": 2045,
      "compañ": 2046,
      "inmedia": 2047,
      "felig": 2048,
      "costa": 2049,
      "oro": 2050,
      "tos": 2051,
      "fuera": 2052,
      "usted": 2053,
      "##áti": 2054,
      "##ira": 2055,
      "encar": 2056,
      "Te": 2057,
      "conqui": 2058,
      "##uido": 2059,
      "sólo": 2060,
      "plaza": 2061,
      "##cial": 2062,
      "mir": 2063,
      "militar": 2064,
      "Fern": 2065,
      "mente": 2066,
      "Qui": 2067,
      "soldados": 2068,
      "respec": 2069,
      "##rando": 2070,
      "Cab": 2071,
      "##jecu": 2072,
      "cinco": 2073,
      "##llo": 2074,
      "##stan": 2075,
      "##pan": 2076,
      "fues": 2077,
      "gri": 2078,
      "##don": 2079,
      "aten": 2080,
      "##ju": 2081,
      "##tido": 2082,
      "parece": 2083,
      "##tumb": 2084,
      "emple": 2085,
      "##onte": 2086,
      "##uela": 2087,
      "estu": 2088,
      "##eno": 2089,
      "cuerpo": 2090,
      "extra": 2091,
      "minist": 2092,
      "visto": 2093,
      "##ama": 2094,
      "primero": 2095,
      "gan": 2096,
      "algo": 2097,
      "preci": 2098,
      "ase": 2099,
      "tarde": 2100,
      "##vin": 2101,
      "cora": 2102,
      "tér": 2103,
      "gr": 2104,
      "enemigo": 2105,
      "compren": 2106,
      "30": 2107,
      "paso": 2108,
      "lar": 2109,
      "correspon": 2110,
      "mando": 2111,
      "##tivos": 2112,
      "diri": 2113,
      "##cciones": 2114,
      "constitu": 2115,
      "puesto": 2116,
      "población": 2117,
      "Is": 2118,
      "sir": 2119,
      "fuerzas": 2120,
      "##dez": 2121,
      "capitán": 2122,
      "##unta": 2123,
      "##vieron": 2124,
      "##emb": 2125,
      "cabeza": 2126,
      "HIST": 2127,
      "hum": 2128,
      "##reg": 2129,
      "##ispo": 2130,
      "noso": 2131,
      "qued": 2132,
      "interes": 2133,
      "##lá": 2134,
      "Can": 2135,
      "acer": 2136,
      "difer": 2137,
      "##minist": 2138,
      "tropas": 2139,
      "dicha": 2140,
      "19": 2141,
      "terri": 2142,
      "##char": 2143,
      "Mo": 2144,
      "##lica": 2145,
      "##iza": 2146,
      "valor": 2147,
      "pen": 2148,
      "durante": 2149,
      "personas": 2150,
      "ocas": 2151,
      "##tera": 2152,
      "##ental": 2153,
      "casas": 2154,
      "sola": 2155,
      "frente": 2156,
      "##fun": 2157,
      "vein": 2158,
      "indu": 2159,
      "fir": 2160,
      "terren": 2161,
      "algún": 2162,
      "##yas": 2163,
      "domin": 2164,
      "suce": 2165,
      "##isión": 2166,
      "pin": 2167,
      "##vamente": 2168,
      "##ctu": 2169,
      "##ór": 2170,
      "ár": 2171,
      "Pe": 2172,
      "nosotros": 2173,
      "mui": 2174,
      "##rez": 2175,
      "respe": 2176,
      "cuad": 2177,
      "##iores": 2178,
      "lan": 2179,
      "##uestra": 2180,
      "villa": 2181,
      "pais": 2182,
      "nun": 2183,
      "colo": 2184,
      "éste": 2185,
      "campo": 2186,
      "##iera": 2187,
      "Mor": 2188,
      "fon": 2189,
      "razón": 2190,
      "##érica": 2191,
      "momento": 2192,
      "época": 2193,
      "persona": 2194,
      "##gó": 2195,
      "##com": 2196,
      "cul": 2197,
      "Francia": 2198,
      "fá": 2199,
      "hijo": 2200,
      "24": 2201,
      "suf": 2202,
      "aquellas": 2203,
      "Nue": 2204,
      "cumpli": 2205,
      "##íritu": 2206,
      "amor": 2207,
      "##be": 2208,
      "22": 2209,
      "Cam": 2210,
      "21": 2211,
      "Méx": 2212,
      "dese": 2213,
      "##ial": 2214,
      "##ORI": 2215,
      "##ban": 2216,
      "##tener": 2217,
      "##gular": 2218,
      "##ciendo": 2219,
      "envi": 2220,
      "Señor": 2221,
      "##cada": 2222,
      "##entar": 2223,
      "manos": 2224,
      "movi": 2225,
      "##eles": 2226,
      "##ista": 2227,
      "##ini": 2228,
      "amb": 2229,
      "mani": 2230,
      "podr": 2231,
      "##ger": 2232,
      "##olo": 2233,
      "##rir": 2234,
      "herm": 2235,
      "##alo": 2236,
      "hermos": 2237,
      "leg": 2238,
      "##ficios": 2239,
      "México": 2240,
      "##quier": 2241,
      "mí": 2242,
      "Mad": 2243,
      "acab": 2244,
      "derecho": 2245,
      "er": 2246,
      "Tor": 2247,
      "habitantes": 2248,
      "##cida": 2249,
      "cuenta": 2250,
      "respon": 2251,
      "puerto": 2252,
      "##ará": 2253,
      "Do": 2254,
      "##posición": 2255,
      "ocup": 2256,
      "##arca": 2257,
      "cele": 2258,
      "ejecu": 2259,
      "##clu": 2260,
      "us": 2261,
      "##lust": 2262,
      "poner": 2263,
      "Ja": 2264,
      "siglo": 2265,
      "sep": 2266,
      "comba": 2267,
      "ur": 2268,
      "aguas": 2269,
      "cierto": 2270,
      "mucha": 2271,
      "##cir": 2272,
      "##vent": 2273,
      "mater": 2274,
      "figu": 2275,
      "ojos": 2276,
      "conce": 2277,
      "##guar": 2278,
      "cien": 2279,
      "etc": 2280,
      "vuel": 2281,
      "##bido": 2282,
      "ces": 2283,
      "patria": 2284,
      "aband": 2285,
      "##ires": 2286,
      "23": 2287,
      "Pres": 2288,
      "confi": 2289,
      "ocho": 2290,
      "##ula": 2291,
      "redu": 2292,
      "bel": 2293,
      "nao": 2294,
      "jo": 2295,
      "##IL": 2296,
      "##anas": 2297,
      "pag": 2298,
      "nes": 2299,
      "##osos": 2300,
      "##ris": 2301,
      "contes": 2302,
      "veci": 2303,
      "atra": 2304,
      "refer": 2305,
      "##zado": 2306,
      "mientras": 2307,
      "paz": 2308,
      "181": 2309,
      "##iro": 2310,
      "##ares": 2311,
      "hubiera": 2312,
      "##igos": 2313,
      "carta": 2314,
      "##entas": 2315,
      "República": 2316,
      "##iciones": 2317,
      "##dades": 2318,
      "sor": 2319,
      "##ismo": 2320,
      "##osas": 2321,
      "seme": 2322,
      "ol": 2323,
      "presente": 2324,
      "pied": 2325,
      "##icas": 2326,
      "##RO": 2327,
      "iglesia": 2328,
      "dad": 2329,
      "indepen": 2330,
      "##nas": 2331,
      "##cados": 2332,
      "María": 2333,
      "##ber": 2334,
      "partido": 2335,
      "América": 2336,
      "nunca": 2337,
      "##rid": 2338,
      "##quiera": 2339,
      "inte": 2340,
      "desem": 2341,
      "opin": 2342,
      "colon": 2343,
      "##éis": 2344,
      "##eric": 2345,
      "##ítulo": 2346,
      "alcan": 2347,
      "ge": 2348,
      "comen": 2349,
      "##IN": 2350,
      "sur": 2351,
      "visi": 2352,
      "##titud": 2353,
      "eso": 2354,
      "##ácter": 2355,
      "##bas": 2356,
      "duda": 2357,
      "##EL": 2358,
      "mem": 2359,
      "buena": 2360,
      "##cultad": 2361,
      "##onso": 2362,
      "##lici": 2363,
      "fru": 2364,
      "estar": 2365,
      "##TA": 2366,
      "##rdenes": 2367,
      "satis": 2368,
      "pregun": 2369,
      "manifes": 2370,
      "varios": 2371,
      "cara": 2372,
      "vas": 2373,
      "perten": 2374,
      "abandon": 2375,
      "lín": 2376,
      "ello": 2377,
      "##cid": 2378,
      "##ÓN": 2379,
      "##toria": 2380,
      "##cidos": 2381,
      "coronel": 2382,
      "##gna": 2383,
      "##elo": 2384,
      "elec": 2385,
      "nego": 2386,
      "Perú": 2387,
      "Capi": 2388,
      "instru": 2389,
      "##vidu": 2390,
      "Or": 2391,
      "##xi": 2392,
      "bor": 2393,
      "saber": 2394,
      "llegó": 2395,
      "nueva": 2396,
      "falta": 2397,
      "##taban": 2398,
      "##zó": 2399,
      "abs": 2400,
      "##unci": 2401,
      "todavía": 2402,
      "halla": 2403,
      "artí": 2404,
      "espíritu": 2405,
      "tomar": 2406,
      "Chile": 2407,
      "Ya": 2408,
      "conci": 2409,
      "Ale": 2410,
      "escrib": 2411,
      "##inación": 2412,
      "principio": 2413,
      "clar": 2414,
      "182": 2415,
      "##vado": 2416,
      "28": 2417,
      "Gar": 2418,
      "llen": 2419,
      "recor": 2420,
      "semej": 2421,
      "##resa": 2422,
      "Yo": 2423,
      "26": 2424,
      "reco": 2425,
      "Luis": 2426,
      "##tió": 2427,
      "##tran": 2428,
      "arm": 2429,
      "##rera": 2430,
      "ejer": 2431,
      "##dición": 2432,
      "##eta": 2433,
      "primeros": 2434,
      "tenía": 2435,
      "alma": 2436,
      "##ósi": 2437,
      "hijos": 2438,
      "Sin": 2439,
      "Jo": 2440,
      "señal": 2441,
      "##eció": 2442,
      "idea": 2443,
      "##tario": 2444,
      "27": 2445,
      "tenido": 2446,
      "estudi": 2447,
      "esos": 2448,
      "sua": 2449,
      "mismos": 2450,
      "mad": 2451,
      "##diendo": 2452,
      "##chi": 2453,
      "##alidad": 2454,
      "suer": 2455,
      "calle": 2456,
      "carácter": 2457,
      "Real": 2458,
      "##izar": 2459,
      "sitio": 2460,
      "##stas": 2461,
      "volun": 2462,
      "##tales": 2463,
      "asegu": 2464,
      "hos": 2465,
      "##diente": 2466,
      "abun": 2467,
      "##ORIA": 2468,
      "Como": 2469,
      "Qué": 2470,
      "fo": 2471,
      "monta": 2472,
      "enemigos": 2473,
      "jeneral": 2474,
      "español": 2475,
      "pasar": 2476,
      "vin": 2477,
      "Manuel": 2478,
      "##ema": 2479,
      "gas": 2480,
      "exten": 2481,
      "ao": 2482,
      "##dí": 2483,
      "deter": 2484,
      "desgra": 2485,
      "##edo": 2486,
      "permi": 2487,
      "um": 2488,
      "##ñana": 2489,
      "##amento": 2490,
      "pelig": 2491,
      "##ró": 2492,
      "Buenos": 2493,
      "be": 2494,
      "##eran": 2495,
      "ses": 2496,
      "gobernador": 2497,
      "##rey": 2498,
      "##TU": 2499,
      "##erdo": 2500,
      "num": 2501,
      "##RA": 2502,
      "##ye": 2503,
      "profun": 2504,
      "##yec": 2505,
      "trabajo": 2506,
      "jefe": 2507,
      "pág": 2508,
      "triun": 2509,
      "cristi": 2510,
      "corri": 2511,
      "##dias": 2512,
      "administ": 2513,
      "##rados": 2514,
      "política": 2515,
      "anim": 2516,
      "id": 2517,
      "lí": 2518,
      "bastante": 2519,
      "unas": 2520,
      "segundo": 2521,
      "nación": 2522,
      "acompañ": 2523,
      "secre": 2524,
      "Cuando": 2525,
      "voz": 2526,
      "##cuencia": 2527,
      "marcha": 2528,
      "religios": 2529,
      "van": 2530,
      "principal": 2531,
      "##ísimo": 2532,
      "será": 2533,
      "##crip": 2534,
      "##rio": 2535,
      "corre": 2536,
      "igual": 2537,
      "pesos": 2538,
      "pesar": 2539,
      "Castil": 2540,
      "Du": 2541,
      "Madrid": 2542,
      "fer": 2543,
      "##uesta": 2544,
      "gar": 2545,
      "HISTORIA": 2546,
      "Rio": 2547,
      "espa": 2548,
      "disp": 2549,
      "hubi": 2550,
      "perman": 2551,
      "##rada": 2552,
      "pudo": 2553,
      "##ix": 2554,
      "infor": 2555,
      "185": 2556,
      "len": 2557,
      "ilust": 2558,
      "##oro": 2559,
      "constru": 2560,
      "divis": 2561,
      "familia": 2562,
      "llan": 2563,
      "obst": 2564,
      "ron": 2565,
      "##illo": 2566,
      "##iego": 2567,
      "DEL": 2568,
      "actu": 2569,
      "mand": 2570,
      "mañana": 2571,
      "órdenes": 2572,
      "nuestras": 2573,
      "media": 2574,
      "conv": 2575,
      "justicia": 2576,
      "##OL": 2577,
      "##omo": 2578,
      "##cientos": 2579,
      "pad": 2580,
      "Aires": 2581,
      "##esta": 2582,
      "aum": 2583,
      "clase": 2584,
      "Pas": 2585,
      "gal": 2586,
      "expe": 2587,
      "enfer": 2588,
      "##gáo": 2589,
      "palabras": 2590,
      "##andante": 2591,
      "sangre": 2592,
      "CAP": 2593,
      "fuego": 2594,
      "ejemp": 2595,
      "Vil": 2596,
      "soci": 2597,
      "##ecía": 2598,
      "pocos": 2599,
      "##th": 2600,
      "pronto": 2601,
      "##dían": 2602,
      "suerte": 2603,
      "186": 2604,
      "Norte": 2605,
      "##ts": 2606,
      "sé": 2607,
      "obras": 2608,
      "ninguna": 2609,
      "##ecido": 2610,
      "fuese": 2611,
      "llamado": 2612,
      "##ron": 2613,
      "##tín": 2614,
      "Gua": 2615,
      "pueden": 2616,
      "Ci": 2617,
      "posible": 2618,
      "cuid": 2619,
      "principi": 2620,
      "cia": 2621,
      "individu": 2622,
      "the": 2623,
      "iba": 2624,
      "Ori": 2625,
      "luz": 2626,
      "##arias": 2627,
      "proce": 2628,
      "##tun": 2629,
      "##mes": 2630,
      "##culos": 2631,
      "##gación": 2632,
      "##liz": 2633,
      "ren": 2634,
      "##ire": 2635,
      "bal": 2636,
      "nu": 2637,
      "##vel": 2638,
      "29": 2639,
      "##inta": 2640,
      "vic": 2641,
      "Min": 2642,
      "estra": 2643,
      "oficiales": 2644,
      "##pel": 2645,
      "noticia": 2646,
      "##ari": 2647,
      "##ola": 2648,
      "leyes": 2649,
      "##ctos": 2650,
      "dirig": 2651,
      "pasa": 2652,
      "cob": 2653,
      "provincias": 2654,
      "retir": 2655,
      "honor": 2656,
      "##tadas": 2657,
      "##empos": 2658,
      "resist": 2659,
      "descubri": 2660,
      "costumb": 2661,
      "int": 2662,
      "##cí": 2663,
      "cá": 2664,
      "fre": 2665,
      "habiendo": 2666,
      "cómo": 2667,
      "inv": 2668,
      "podia": 2669,
      "territorio": 2670,
      "##orn": 2671,
      "##ezas": 2672,
      "sacri": 2673,
      "terreno": 2674,
      "testi": 2675,
      "ali": 2676,
      "preten": 2677,
      "##cad": 2678,
      "pasado": 2679,
      "##TE": 2680,
      "##adie": 2681,
      "alto": 2682,
      "##imiento": 2683,
      "##fico": 2684,
      "##gal": 2685,
      "cé": 2686,
      "##dem": 2687,
      "decre": 2688,
      "fuerte": 2689,
      "come": 2690,
      "vino": 2691,
      "puerta": 2692,
      "veinte": 2693,
      "servicio": 2694,
      "##rag": 2695,
      "dentro": 2696,
      "##rá": 2697,
      "Monte": 2698,
      "hicieron": 2699,
      "pró": 2700,
      "Feli": 2701,
      "Estados": 2702,
      "nacional": 2703,
      "##gü": 2704,
      "gen": 2705,
      "Fernando": 2706,
      "palabra": 2707,
      "Hab": 2708,
      "III": 2709,
      "Euro": 2710,
      "##ecen": 2711,
      "Mig": 2712,
      "hora": 2713,
      "recu": 2714,
      "Carlos": 2715,
      "dor": 2716,
      "hacen": 2717,
      "Tu": 2718,
      "EL": 2719,
      "hubo": 2720,
      "Fe": 2721,
      "pública": 2722,
      "cur": 2723,
      "somb": 2724,
      "Ob": 2725,
      "enter": 2726,
      "##laciones": 2727,
      "reino": 2728,
      "días": 2729,
      "##enci": 2730,
      "##rales": 2731,
      "Mas": 2732,
      "##dios": 2733,
      "##ído": 2734,
      "##siones": 2735,
      "hechos": 2736,
      "prue": 2737,
      "##cían": 2738,
      "##eral": 2739,
      "Cruz": 2740,
      "anterior": 2741,
      "frances": 2742,
      "tiempos": 2743,
      "gener": 2744,
      "termin": 2745,
      "##stancias": 2746,
      "oblig": 2747,
      "Ten": 2748,
      "tales": 2749,
      "##turas": 2750,
      "ví": 2751,
      "##stos": 2752,
      "Villa": 2753,
      "sist": 2754,
      "##rido": 2755,
      "Entre": 2756,
      "cho": 2757,
      "Desp": 2758,
      "ima": 2759,
      "público": 2760,
      "varias": 2761,
      "vie": 2762,
      "184": 2763,
      "##quer": 2764,
      "##gosto": 2765,
      "apre": 2766,
      "cad": 2767,
      "nave": 2768,
      "183": 2769,
      "salir": 2770,
      "##inado": 2771,
      "ocur": 2772,
      "Miguel": 2773,
      "repar": 2774,
      "Una": 2775,
      "VI": 2776,
      "situación": 2777,
      "Así": 2778,
      "necesario": 2779,
      "pros": 2780,
      "Ri": 2781,
      "##rica": 2782,
      "autoridad": 2783,
      "##lem": 2784,
      "##dal": 2785,
      "##tarse": 2786,
      "tas": 2787,
      "##bio": 2788,
      "Santo": 2789,
      "##esa": 2790,
      "31": 2791,
      "dan": 2792,
      "proyec": 2793,
      "pan": 2794,
      "horas": 2795,
      "##vación": 2796,
      "puntos": 2797,
      "venta": 2798,
      "esf": 2799,
      "##iene": 2800,
      "ras": 2801,
      "interior": 2802,
      "Hu": 2803,
      "largo": 2804,
      "Sur": 2805,
      "##unto": 2806,
      "inm": 2807,
      "Pla": 2808,
      "pies": 2809,
      "##cando": 2810,
      "especie": 2811,
      "aux": 2812,
      "##íamos": 2813,
      "necesidad": 2814,
      "uni": 2815,
      "corazón": 2816,
      "aleg": 2817,
      "motivo": 2818,
      "Hist": 2819,
      "trib": 2820,
      "Ta": 2821,
      "##ine": 2822,
      "deber": 2823,
      "##ientes": 2824,
      "importan": 2825,
      "comercio": 2826,
      "llevar": 2827,
      "##ender": 2828,
      "propor": 2829,
      "dejar": 2830,
      "Europa": 2831,
      "dol": 2832,
      "trad": 2833,
      "##ono": 2834,
      "bos": 2835,
      "mais": 2836,
      "quienes": 2837,
      "im": 2838,
      "##tur": 2839,
      "mandó": 2840,
      "Vic": 2841,
      "az": 2842,
      "pala": 2843,
      "color": 2844,
      "Go": 2845,
      "Era": 2846,
      "repu": 2847,
      "represent": 2848,
      "##vir": 2849,
      "puso": 2850,
      "har": 2851,
      "##eraciones": 2852,
      "superior": 2853,
      "Ay": 2854,
      "prote": 2855,
      "cabo": 2856,
      "##ges": 2857,
      "Ra": 2858,
      "##istas": 2859,
      "##yendo": 2860,
      "##RE": 2861,
      "ros": 2862,
      "señores": 2863,
      "cubier": 2864,
      "Cá": 2865,
      "Pue": 2866,
      "##CIÓN": 2867,
      "amigo": 2868,
      "Her": 2869,
      "jam": 2870,
      "##lón": 2871,
      "plata": 2872,
      "##cip": 2873,
      "50": 2874,
      "##ildo": 2875,
      "ign": 2876,
      "##ing": 2877,
      "obli": 2878,
      "##uda": 2879,
      "##vil": 2880,
      "revolución": 2881,
      "principales": 2882,
      "Tam": 2883,
      "##rer": 2884,
      "docu": 2885,
      "esas": 2886,
      "presidente": 2887,
      "##dieron": 2888,
      "##tz": 2889,
      "auxili": 2890,
      "##tería": 2891,
      "il": 2892,
      "vesti": 2893,
      "##bu": 2894,
      "arri": 2895,
      "línea": 2896,
      "##ror": 2897,
      "gol": 2898,
      "lab": 2899,
      "ec": 2900,
      "haya": 2901,
      "Gal": 2902,
      "quin": 2903,
      "organ": 2904,
      "##ment": 2905,
      "apenas": 2906,
      "tur": 2907,
      "##ji": 2908,
      "influ": 2909,
      "##bles": 2910,
      "colum": 2911,
      "recur": 2912,
      "tin": 2913,
      "##gla": 2914,
      "expres": 2915,
      "Domin": 2916,
      "debia": 2917,
      "oc": 2918,
      "##poner": 2919,
      "##tía": 2920,
      "ga": 2921,
      "siete": 2922,
      "Jun": 2923,
      "corte": 2924,
      "Gon": 2925,
      "dif": 2926,
      "##cimientos": 2927,
      "ng̃a": 2928,
      "suelo": 2929,
      "ningún": 2930,
      "Cer": 2931,
      "aún": 2932,
      "##tidad": 2933,
      "187": 2934,
      "##rito": 2935,
      "árb": 2936,
      "tribu": 2937,
      "nadie": 2938,
      "cargo": 2939,
      "separ": 2940,
      "Pi": 2941,
      "conver": 2942,
      "##gnifi": 2943,
      "escla": 2944,
      "40": 2945,
      "hallar": 2946,
      "hablar": 2947,
      "Desde": 2948,
      "##lia": 2949,
      "americ": 2950,
      "vecinos": 2951,
      "##mino": 2952,
      "antiguo": 2953,
      "propio": 2954,
      "Diego": 2955,
      "impos": 2956,
      "##tivas": 2957,
      "confor": 2958,
      "Ve": 2959,
      "##LA": 2960,
      "perfec": 2961,
      "##pre": 2962,
      "Be": 2963,
      "dom": 2964,
      "##ridad": 2965,
      "##caba": 2966,
      "Cri": 2967,
      "##irse": 2968,
      "##TO": 2969,
      "vues": 2970,
      "##TULO": 2971,
      "meses": 2972,
      "tantos": 2973,
      "Después": 2974,
      "conti": 2975,
      "IV": 2976,
      "##pir": 2977,
      "##ándole": 2978,
      "adelante": 2979,
      "oril": 2980,
      "sabe": 2981,
      "Cuba": 2982,
      "din": 2983,
      "##tifi": 2984,
      "lig": 2985,
      "haciendo": 2986,
      "##tador": 2987,
      "distancia": 2988,
      "##lad": 2989,
      "##lores": 2990,
      "acep": 2991,
      "##ús": 2992,
      "alguno": 2993,
      "fund": 2994,
      "libre": 2995,
      "ideas": 2996,
      "segunda": 2997,
      "dign": 2998,
      "Puer": 2999,
      "##ctubre": 3000,
      "capa": 3001,
      "pl": 3002,
      "bene": 3003,
      "qual": 3004,
      "Pal": 3005,
      "naturaleza": 3006,
      "volver": 3007,
      "Nueva": 3008,
      "entrar": 3009,
      "fácil": 3010,
      "Carta": 3011,
      "Ber": 3012,
      "opinión": 3013,
      "obe": 3014,
      "and": 3015,
      "difi": 3016,
      "##lería": 3017,
      "##édi": 3018,
      "##aro": 3019,
      "Ser": 3020,
      "##hi": 3021,
      "##terra": 3022,
      "##UE": 3023,
      "circunstancias": 3024,
      "##parta": 3025,
      "prove": 3026,
      "respecto": 3027,
      "##grad": 3028,
      "Minist": 3029,
      "madre": 3030,
      "medios": 3031,
      "##tiembre": 3032,
      "reb": 3033,
      "Ver": 3034,
      "compon": 3035,
      "sociedad": 3036,
      "##pt": 3037,
      "perse": 3038,
      "##tón": 3039,
      "indust": 3040,
      "Pr": 3041,
      "Qu": 3042,
      "Congreso": 3043,
      "añ": 3044,
      "noble": 3045,
      "prob": 3046,
      "inten": 3047,
      "consigui": 3048,
      "empez": 3049,
      "##mil": 3050,
      "rios": 3051,
      "lon": 3052,
      "##ísima": 3053,
      "pra": 3054,
      "batalla": 3055,
      "Ingla": 3056,
      "Pre": 3057,
      "##vera": 3058,
      "Ven": 3059,
      "llegado": 3060,
      "abund": 3061,
      "común": 3062,
      "##tarios": 3063,
      "ocasión": 3064,
      "##TI": 3065,
      "##mó": 3066,
      "bril": 3067,
      "rode": 3068,
      "iz": 3069,
      "##gía": 3070,
      "quedó": 3071,
      "patrio": 3072,
      "derechos": 3073,
      "gui": 3074,
      "defensa": 3075,
      "##ósito": 3076,
      "##este": 3077,
      "##lon": 3078,
      "##guido": 3079,
      "##jeros": 3080,
      "centro": 3081,
      "viaje": 3082,
      "amigos": 3083,
      "##loria": 3084,
      "determin": 3085,
      "tanta": 3086,
      "procur": 3087,
      "cuesti": 3088,
      "##bal": 3089,
      "##iles": 3090,
      "movimiento": 3091,
      "ambos": 3092,
      "jui": 3093,
      "principios": 3094,
      "Cór": 3095,
      "conocer": 3096,
      "casti": 3097,
      "ense": 3098,
      "pobre": 3099,
      "vio": 3100,
      "##erador": 3101,
      "sistema": 3102,
      "acor": 3103,
      "vos": 3104,
      "podido": 3105,
      "avan": 3106,
      "##qué": 3107,
      "áni": 3108,
      "antigua": 3109,
      "dando": 3110,
      "##té": 3111,
      "##ciembre": 3112,
      "empe": 3113,
      "raz": 3114,
      "cuyos": 3115,
      "divi": 3116,
      "voluntad": 3117,
      "##tico": 3118,
      "Ce": 3119,
      "equi": 3120,
      "salió": 3121,
      "piedra": 3122,
      "diver": 3123,
      "cañ": 3124,
      "##onse": 3125,
      "Presidente": 3126,
      "concur": 3127,
      "Ter": 3128,
      "##tuna": 3129,
      "##OM": 3130,
      "EN": 3131,
      "entrada": 3132,
      "eu": 3133,
      "##icip": 3134,
      "##xo": 3135,
      "##jero": 3136,
      "importancia": 3137,
      "memoria": 3138,
      "esfuer": 3139,
      "Lib": 3140,
      "fondo": 3141,
      "Id": 3142,
      "##mbre": 3143,
      "rique": 3144,
      "##ordin": 3145,
      "##tl": 3146,
      "##didos": 3147,
      "según": 3148,
      "##jado": 3149,
      "Felipe": 3150,
      "ber": 3151,
      "RE": 3152,
      "tierras": 3153,
      "término": 3154,
      "libro": 3155,
      "evi": 3156,
      "##ND": 3157,
      "ll": 3158,
      "##zco": 3159,
      "dirección": 3160,
      "ingles": 3161,
      "##tismo": 3162,
      "##tero": 3163,
      "viol": 3164,
      "##tica": 3165,
      "mez": 3166,
      "prision": 3167,
      "río": 3168,
      "Inglaterra": 3169,
      "absolu": 3170,
      "sorp": 3171,
      "Ur": 3172,
      "urna": 3173,
      "trabajos": 3174,
      "##zá": 3175,
      "##diciones": 3176,
      "virtud": 3177,
      "valle": 3178,
      "cau": 3179,
      "joven": 3180,
      "##III": 3181,
      "nar": 3182,
      "menor": 3183,
      "##lez": 3184,
      "Martin": 3185,
      "mujeres": 3186,
      "aba": 3187,
      "rob": 3188,
      "Castilla": 3189,
      "Sus": 3190,
      "##xic": 3191,
      "ado": 3192,
      "tranqui": 3193,
      "ésta": 3194,
      "prepar": 3195,
      "verifi": 3196,
      "Je": 3197,
      "XV": 3198,
      "calles": 3199,
      "pelo": 3200,
      "trans": 3201,
      "dieron": 3202,
      "lengua": 3203,
      "Pu": 3204,
      "altura": 3205,
      "##íos": 3206,
      "caballos": 3207,
      "Julio": 3208,
      "##inar": 3209,
      "32": 3210,
      "última": 3211,
      "suje": 3212,
      "suel": 3213,
      "##monio": 3214,
      "##vio": 3215,
      "lejos": 3216,
      "llama": 3217,
      "tomó": 3218,
      "##rique": 3219,
      "desta": 3220,
      "independencia": 3221,
      "artil": 3222,
      "seria": 3223,
      "##isa": 3224,
      "##eas": 3225,
      "##teriores": 3226,
      "amar": 3227,
      "división": 3228,
      "sue": 3229,
      "multi": 3230,
      "##zan": 3231,
      "repe": 3232,
      "dichos": 3233,
      "maes": 3234,
      "Provin": 3235,
      "##CA": 3236,
      "##lares": 3237,
      "Ah": 3238,
      "##idor": 3239,
      "pié": 3240,
      "hallaba": 3241,
      "##vada": 3242,
      "ran": 3243,
      "##tés": 3244,
      "podía": 3245,
      "fecha": 3246,
      "cruz": 3247,
      "Dpt": 3248,
      "##fía": 3249,
      "##elas": 3250,
      "##óme": 3251,
      "Jes": 3252,
      "numeros": 3253,
      "eleg": 3254,
      "dic": 3255,
      "pose": 3256,
      "comunica": 3257,
      "cuyas": 3258,
      "##ilo": 3259,
      "noticias": 3260,
      "arreg": 3261,
      "incl": 3262,
      "##cipe": 3263,
      "además": 3264,
      "gloria": 3265,
      "##cadas": 3266,
      "ín": 3267,
      "pie": 3268,
      "pasó": 3269,
      "AL": 3270,
      "derro": 3271,
      "##villa": 3272,
      "##ización": 3273,
      "naturales": 3274,
      "35": 3275,
      "moder": 3276,
      "##cla": 3277,
      "habl": 3278,
      "##dientes": 3279,
      "##ign": 3280,
      "##cab": 3281,
      "incon": 3282,
      "contrario": 3283,
      "##onia": 3284,
      "##iere": 3285,
      "elem": 3286,
      "##ierro": 3287,
      "poses": 3288,
      "ocul": 3289,
      "za": 3290,
      "ech": 3291,
      "##onal": 3292,
      "##brero": 3293,
      "cielo": 3294,
      "##rible": 3295,
      "caballo": 3296,
      "##mir": 3297,
      "refor": 3298,
      "treinta": 3299,
      "atención": 3300,
      "atre": 3301,
      "Guad": 3302,
      "tir": 3303,
      "resultado": 3304,
      "acto": 3305,
      "##trodu": 3306,
      "gobern": 3307,
      "##jico": 3308,
      "##uña": 3309,
      "He": 3310,
      "vent": 3311,
      "##illas": 3312,
      "##ori": 3313,
      "extran": 3314,
      "norte": 3315,
      "añad": 3316,
      "33": 3317,
      "##au": 3318,
      "preciso": 3319,
      "embar": 3320,
      "ram": 3321,
      "##gada": 3322,
      "lin": 3323,
      "compr": 3324,
      "seguir": 3325,
      "##pez": 3326,
      "##ñar": 3327,
      "ciones": 3328,
      "título": 3329,
      "Unidos": 3330,
      "gén": 3331,
      "extre": 3332,
      "##íncipe": 3333,
      "lic": 3334,
      "pene": 3335,
      "##caron": 3336,
      "##viembre": 3337,
      "despa": 3338,
      "##mara": 3339,
      "tenían": 3340,
      "popu": 3341,
      "Alonso": 3342,
      "aconte": 3343,
      "##ende": 3344,
      "##idencia": 3345,
      "desar": 3346,
      "##adamente": 3347,
      "edad": 3348,
      "Domingo": 3349,
      "##gió": 3350,
      "##tables": 3351,
      "amena": 3352,
      "nota": 3353,
      "tengo": 3354,
      "dipu": 3355,
      "Vir": 3356,
      "mostr": 3357,
      "hubiese": 3358,
      "##ted": 3359,
      "vig": 3360,
      "sepul": 3361,
      "conte": 3362,
      "origen": 3363,
      "único": 3364,
      "jue": 3365,
      "188": 3366,
      "imper": 3367,
      "campaña": 3368,
      "##pecto": 3369,
      "sober": 3370,
      "Za": 3371,
      "conquist": 3372,
      "##ell": 3373,
      "##mu": 3374,
      "dul": 3375,
      "Fr": 3376,
      "conde": 3377,
      "solem": 3378,
      "##taciones": 3379,
      "Lor": 3380,
      "##carse": 3381,
      "queda": 3382,
      "Roma": 3383,
      "##ír": 3384,
      "boca": 3385,
      "Au": 3386,
      "arre": 3387,
      "avis": 3388,
      "hom": 3389,
      "Cos": 3390,
      "##pado": 3391,
      "##legio": 3392,
      "conducta": 3393,
      "##cultades": 3394,
      "##cidas": 3395,
      "##ensa": 3396,
      "empren": 3397,
      "##hu": 3398,
      "##dri": 3399,
      "Del": 3400,
      "Emp": 3401,
      "dur": 3402,
      "consecuencia": 3403,
      "insi": 3404,
      "##clam": 3405,
      "cen": 3406,
      "uso": 3407,
      "hermano": 3408,
      "Imp": 3409,
      "Ital": 3410,
      "dedi": 3411,
      "Lugo": 3412,
      "##zaba": 3413,
      "magn": 3414,
      "##tillo": 3415,
      "##cidad": 3416,
      "conquista": 3417,
      "lími": 3418,
      "##mado": 3419,
      "Dr": 3420,
      "curi": 3421,
      "acción": 3422,
      "##áp": 3423,
      "comisión": 3424,
      "doctor": 3425,
      "templo": 3426,
      "Cortés": 3427,
      "fron": 3428,
      "impres": 3429,
      "buques": 3430,
      "bi": 3431,
      "##pia": 3432,
      "Os": 3433,
      "demos": 3434,
      "glor": 3435,
      "##tiles": 3436,
      "Aust": 3437,
      "sier": 3438,
      "Bal": 3439,
      "encuentra": 3440,
      "Iglesia": 3441,
      "##éndole": 3442,
      "abier": 3443,
      "gru": 3444,
      "servir": 3445,
      "##rero": 3446,
      "##dill": 3447,
      "##gados": 3448,
      "##anto": 3449,
      "sar": 3450,
      "desapar": 3451,
      "antiguos": 3452,
      "exig": 3453,
      "##ablemente": 3454,
      "reales": 3455,
      "##uca": 3456,
      "fil": 3457,
      "##abili": 3458,
      "introdu": 3459,
      "Pues": 3460,
      "seguida": 3461,
      "ple": 3462,
      "León": 3463,
      "##lis": 3464,
      "daba": 3465,
      "limi": 3466,
      "ejemplo": 3467,
      "propia": 3468,
      "36": 3469,
      "histó": 3470,
      "doc": 3471,
      "##jó": 3472,
      "escuad": 3473,
      "##icia": 3474,
      "izquier": 3475,
      "conclu": 3476,
      "arti": 3477,
      "Mayo": 3478,
      "##pó": 3479,
      "notable": 3480,
      "adqui": 3481,
      "ocupa": 3482,
      "Tom": 3483,
      "allá": 3484,
      "div": 3485,
      "Ade": 3486,
      "escas": 3487,
      "tropa": 3488,
      "oficial": 3489,
      "##vido": 3490,
      "muerto": 3491,
      "culti": 3492,
      "aprove": 3493,
      "ignor": 3494,
      "cla": 3495,
      "junto": 3496,
      "##llas": 3497,
      "##cioso": 3498,
      "tenian": 3499,
      "naciones": 3500,
      "representa": 3501,
      "##tivamente": 3502,
      "##entado": 3503,
      "Gui": 3504,
      "despe": 3505,
      "pér": 3506,
      "afec": 3507,
      "dejó": 3508,
      "Vera": 3509,
      "##uras": 3510,
      "solici": 3511,
      "exac": 3512,
      "comandante": 3513,
      "cl": 3514,
      "##poco": 3515,
      "##zada": 3516,
      "##gust": 3517,
      "##ré": 3518,
      "Esto": 3519,
      "LOS": 3520,
      "faci": 3521,
      "Bra": 3522,
      "due": 3523,
      "ordin": 3524,
      "arte": 3525,
      "junta": 3526,
      "Gobernador": 3527,
      "recibir": 3528,
      "##érez": 3529,
      "Italia": 3530,
      "##GU": 3531,
      "##aso": 3532,
      "imperio": 3533,
      "impe": 3534,
      "pena": 3535,
      "##gno": 3536,
      "XX": 3537,
      "Fer": 3538,
      "Indias": 3539,
      "34": 3540,
      "Pon": 3541,
      "relación": 3542,
      "tantas": 3543,
      "celeb": 3544,
      "convento": 3545,
      "##para": 3546,
      "satisfa": 3547,
      "Méjico": 3548,
      "ciudades": 3549,
      "cantidad": 3550,
      "100": 3551,
      "diferentes": 3552,
      "doce": 3553,
      "pequeña": 3554,
      "Lima": 3555,
      "##lones": 3556,
      "mayores": 3557,
      "destru": 3558,
      "reme": 3559,
      "jefes": 3560,
      "Ne": 3561,
      "Pueb": 3562,
      "##hua": 3563,
      "Tal": 3564,
      "volvió": 3565,
      "##tenido": 3566,
      "metros": 3567,
      "sean": 3568,
      "Sta": 3569,
      "tratado": 3570,
      "Res": 3571,
      "##iencia": 3572,
      "regular": 3573,
      "conserv": 3574,
      "siguientes": 3575,
      "propiedad": 3576,
      "Cha": 3577,
      "Li": 3578,
      "fortuna": 3579,
      "180": 3580,
      "##tem": 3581,
      "gusto": 3582,
      "march": 3583,
      "##gio": 3584,
      "faz": 3585,
      "quiere": 3586,
      "##nes": 3587,
      "##tidos": 3588,
      "##crib": 3589,
      "hija": 3590,
      "##ardo": 3591,
      "deben": 3592,
      "difí": 3593,
      "seu": 3594,
      "ministro": 3595,
      "bienes": 3596,
      "##zob": 3597,
      "creer": 3598,
      "derecha": 3599,
      "islas": 3600,
      "##cá": 3601,
      "##vidad": 3602,
      "silen": 3603,
      "Ram": 3604,
      "mexic": 3605,
      "formar": 3606,
      "Historia": 3607,
      "##lico": 3608,
      "##éase": 3609,
      "Puerto": 3610,
      "interés": 3611,
      "mg̃a": 3612,
      "presencia": 3613,
      "##vol": 3614,
      "##ácti": 3615,
      "resol": 3616,
      "dep": 3617,
      "##eda": 3618,
      "cole": 3619,
      "doña": 3620,
      "nas": 3621,
      "Sol": 3622,
      "individuos": 3623,
      "entu": 3624,
      "##anzas": 3625,
      "apli": 3626,
      "##uri": 3627,
      "solamente": 3628,
      "Martín": 3629,
      "ben": 3630,
      "Mer": 3631,
      "infer": 3632,
      "república": 3633,
      "regi": 3634,
      "iban": 3635,
      "##entemente": 3636,
      "##dón": 3637,
      "##ENT": 3638,
      "dejando": 3639,
      "contemp": 3640,
      "juris": 3641,
      "##abana": 3642,
      "alta": 3643,
      "##isco": 3644,
      "##san": 3645,
      "##didas": 3646,
      "##yen": 3647,
      "acuerdo": 3648,
      "##loso": 3649,
      "oficio": 3650,
      "acerca": 3651,
      "exam": 3652,
      "trata": 3653,
      "Ciudad": 3654,
      "agrad": 3655,
      "##lom": 3656,
      "Guer": 3657,
      "reser": 3658,
      "insur": 3659,
      "Ni": 3660,
      "##sias": 3661,
      "semejante": 3662,
      "palacio": 3663,
      "##sas": 3664,
      "##ram": 3665,
      "pueda": 3666,
      "opor": 3667,
      "prueba": 3668,
      "##grá": 3669,
      "##ED": 3670,
      "##abri": 3671,
      "Capitán": 3672,
      "revolu": 3673,
      "recom": 3674,
      "##yeron": 3675,
      "Portu": 3676,
      "esca": 3677,
      "##ale": 3678,
      "contribu": 3679,
      "espacio": 3680,
      "intereses": 3681,
      "últimos": 3682,
      "37": 3683,
      "agre": 3684,
      "##yor": 3685,
      "Sob": 3686,
      "##ioso": 3687,
      "decreto": 3688,
      "cha": 3689,
      "señora": 3690,
      "##pes": 3691,
      "acos": 3692,
      "má": 3693,
      "tendr": 3694,
      "céle": 3695,
      "##jen": 3696,
      "apoder": 3697,
      "45": 3698,
      "##lada": 3699,
      "már": 3700,
      "tamb": 3701,
      "orig": 3702,
      "##diencia": 3703,
      "cualquiera": 3704,
      "pequeño": 3705,
      "mara": 3706,
      "bon": 3707,
      "reti": 3708,
      "capitan": 3709,
      "sentido": 3710,
      "titu": 3711,
      "española": 3712,
      "entra": 3713,
      "##cepción": 3714,
      "##ame": 3715,
      "buenos": 3716,
      "artillería": 3717,
      "##gin": 3718,
      "some": 3719,
      "##su": 3720,
      "teniente": 3721,
      "debi": 3722,
      "Oc": 3723,
      "sum": 3724,
      "nom": 3725,
      "Granada": 3726,
      "enci": 3727,
      "lugares": 3728,
      "recursos": 3729,
      "##guez": 3730,
      "edificio": 3731,
      "dolor": 3732,
      "##sp": 3733,
      "Alf": 3734,
      "##dra": 3735,
      "##iódi": 3736,
      "padres": 3737,
      "##ches": 3738,
      "##quía": 3739,
      "##tase": 3740,
      "aire": 3741,
      "##ablo": 3742,
      "actual": 3743,
      "jamás": 3744,
      "##abel": 3745,
      "##vier": 3746,
      "##ligencia": 3747,
      "##cés": 3748,
      "necesi": 3749,
      "##mbo": 3750,
      "mismas": 3751,
      "hacienda": 3752,
      "##terio": 3753,
      "montañas": 3754,
      "mol": 3755,
      "##ler": 3756,
      "supre": 3757,
      "##lante": 3758,
      "asist": 3759,
      "Nic": 3760,
      "miser": 3761,
      "SE": 3762,
      "presenta": 3763,
      "delante": 3764,
      "depen": 3765,
      "##ierra": 3766,
      "buscar": 3767,
      "Todo": 3768,
      "38": 3769,
      "há": 3770,
      "existencia": 3771,
      "##guay": 3772,
      "importante": 3773,
      "nueve": 3774,
      "cru": 3775,
      "desen": 3776,
      "##dicion": 3777,
      "Valencia": 3778,
      "Aun": 3779,
      "Agosto": 3780,
      "##tida": 3781,
      "poca": 3782,
      "Ovi": 3783,
      "parecer": 3784,
      "##tilidad": 3785,
      "##minos": 3786,
      "dió": 3787,
      "Cap": 3788,
      "combate": 3789,
      "costas": 3790,
      "total": 3791,
      "Bel": 3792,
      "##lados": 3793,
      "##stica": 3794,
      "##lin": 3795,
      "##grado": 3796,
      "olvid": 3797,
      "ale": 3798,
      "##gent": 3799,
      "fan": 3800,
      "sucesos": 3801,
      "Pan": 3802,
      "encontrar": 3803,
      "Sevilla": 3804,
      "oscu": 3805,
      "costumbres": 3806,
      "demas": 3807,
      "##abe": 3808,
      "recibió": 3809,
      "nombres": 3810,
      "inmen": 3811,
      "Abril": 3812,
      "mencion": 3813,
      "Mr": 3814,
      "especial": 3815,
      "Ho": 3816,
      "##ruir": 3817,
      "adop": 3818,
      "éstos": 3819,
      "Pri": 3820,
      "descon": 3821,
      "tuvieron": 3822,
      "famos": 3823,
      "empresa": 3824,
      "##udo": 3825,
      "nuevas": 3826,
      "##tudes": 3827,
      "pudiera": 3828,
      "moral": 3829,
      "##iá": 3830,
      "acaso": 3831,
      "civili": 3832,
      "br": 3833,
      "árboles": 3834,
      "dob": 3835,
      "##deo": 3836,
      "ador": 3837,
      "militares": 3838,
      "##orio": 3839,
      "reli": 3840,
      "euro": 3841,
      "signifi": 3842,
      "dinero": 3843,
      "dem": 3844,
      "Esp": 3845,
      "##cuenta": 3846,
      "simp": 3847,
      "Conse": 3848,
      "franceses": 3849,
      "aspecto": 3850,
      "##imo": 3851,
      "##iano": 3852,
      "términos": 3853,
      "aj": 3854,
      "pá": 3855,
      "miento": 3856,
      "apres": 3857,
      "guarn": 3858,
      "terc": 3859,
      "##posiciones": 3860,
      "##ledo": 3861,
      "debía": 3862,
      "##cepto": 3863,
      "civil": 3864,
      "siglos": 3865,
      "##IO": 3866,
      "##endas": 3867,
      "##stitución": 3868,
      "papel": 3869,
      "##quez": 3870,
      "impon": 3871,
      "arriba": 3872,
      "##rón": 3873,
      "municip": 3874,
      "XI": 3875,
      "profes": 3876,
      "sem": 3877,
      "dios": 3878,
      "##tion": 3879,
      "##idores": 3880,
      "cli": 3881,
      "Pag": 3882,
      "escrito": 3883,
      "relaciones": 3884,
      "peligro": 3885,
      "##IS": 3886,
      "Hay": 3887,
      "##raba": 3888,
      "##iosa": 3889,
      "acre": 3890,
      "##viese": 3891,
      "lucha": 3892,
      "##ál": 3893,
      "García": 3894,
      "39": 3895,
      "Coronel": 3896,
      "sería": 3897,
      "##itos": 3898,
      "has": 3899,
      "ciento": 3900,
      "recibido": 3901,
      "##óse": 3902,
      "evitar": 3903,
      "periódi": 3904,
      "##rán": 3905,
      "prácti": 3906,
      "##iado": 3907,
      "cuidado": 3908,
      "funda": 3909,
      "##rasil": 3910,
      "propósito": 3911,
      "##jan": 3912,
      "##tellan": 3913,
      "agu": 3914,
      "##isla": 3915,
      "##ade": 3916,
      "compañía": 3917,
      "Córdo": 3918,
      "posición": 3919,
      "##gon": 3920,
      "peligros": 3921,
      "sul": 3922,
      "Art": 3923,
      "izquierda": 3924,
      "ingen": 3925,
      "Junio": 3926,
      "##col": 3927,
      "grave": 3928,
      "confianza": 3929,
      "##stico": 3930,
      "caballería": 3931,
      "##mania": 3932,
      "quiso": 3933,
      "obispo": 3934,
      "jar": 3935,
      "##asen": 3936,
      "Maria": 3937,
      "42": 3938,
      "perder": 3939,
      "Ben": 3940,
      "##trar": 3941,
      "##sar": 3942,
      "##posi": 3943,
      "atraves": 3944,
      "60": 3945,
      "Oviedo": 3946,
      "prome": 3947,
      "administración": 3948,
      "llaman": 3949,
      "##igu": 3950,
      "larga": 3951,
      "nuevos": 3952,
      "hacía": 3953,
      "obstante": 3954,
      "déla": 3955,
      "ambi": 3956,
      "cierta": 3957,
      "triunfo": 3958,
      "juicio": 3959,
      "artículo": 3960,
      "deseo": 3961,
      "verdadero": 3962,
      "campos": 3963,
      "socor": 3964,
      "##rano": 3965,
      "murió": 3966,
      "##cripción": 3967,
      "breve": 3968,
      "##isiones": 3969,
      "quis": 3970,
      "asunto": 3971,
      "materia": 3972,
      "cincuenta": 3973,
      "lleva": 3974,
      "ine": 3975,
      "Austria": 3976,
      "ases": 3977,
      "siti": 3978,
      "##guna": 3979,
      "##garon": 3980,
      "##ciosa": 3981,
      "desarro": 3982,
      "##tuvo": 3983,
      "##cerdo": 3984,
      "##tiendo": 3985,
      "dicen": 3986,
      "sufici": 3987,
      "ala": 3988,
      "Andr": 3989,
      "europe": 3990,
      "ast": 3991,
      "juz": 3992,
      "Bol": 3993,
      "tampoco": 3994,
      "Ga": 3995,
      "Mun": 3996,
      "##lid": 3997,
      "consul": 3998,
      "##quia": 3999,
      "portu": 4000,
      "confes": 4001,
      "##camente": 4002,
      "##ocu": 4003,
      "##rieron": 4004,
      "##qués": 4005,
      "observa": 4006,
      "Enero": 4007,
      "##eses": 4008,
      "Octubre": 4009,
      "condiciones": 4010,
      "##icamente": 4011,
      "alim": 4012,
      "##ICA": 4013,
      "##uco": 4014,
      "Isla": 4015,
      "##guen": 4016,
      "500": 4017,
      "##ph": 4018,
      "familias": 4019,
      "Bur": 4020,
      "Bern": 4021,
      "CON": 4022,
      "alar": 4023,
      "triste": 4024,
      "##zación": 4025,
      "##rea": 4026,
      "48": 4027,
      "ES": 4028,
      "deba": 4029,
      "exper": 4030,
      "##ant": 4031,
      "caracter": 4032,
      "descono": 4033,
      "divers": 4034,
      "##erto": 4035,
      "nie": 4036,
      "corona": 4037,
      "cuestión": 4038,
      "gentes": 4039,
      "resp": 4040,
      "remi": 4041,
      "Mal": 4042,
      "ejerci": 4043,
      "servicios": 4044,
      "generales": 4045,
      "descan": 4046,
      "seguridad": 4047,
      "curso": 4048,
      "41": 4049,
      "suma": 4050,
      "político": 4051,
      "salva": 4052,
      "Estos": 4053,
      "teniendo": 4054,
      "##cionales": 4055,
      "convi": 4056,
      "##pital": 4057,
      "##idi": 4058,
      "##rad": 4059,
      "resto": 4060,
      "méri": 4061,
      "causas": 4062,
      "rece": 4063,
      "algu": 4064,
      "200": 4065,
      "tú": 4066,
      "refle": 4067,
      "género": 4068,
      "Ang": 4069,
      "descen": 4070,
      "##idade": 4071,
      "cambio": 4072,
      "conocimiento": 4073,
      "fusi": 4074,
      "cuerpos": 4075,
      "figura": 4076,
      "primi": 4077,
      "Mag": 4078,
      "##trás": 4079,
      "Alemania": 4080,
      "Hern": 4081,
      "##ferencia": 4082,
      "proces": 4083,
      "quedar": 4084,
      "##IA": 4085,
      "Joa": 4086,
      "##lesiá": 4087,
      "ora": 4088,
      "situado": 4089,
      "brazos": 4090,
      "##radas": 4091,
      "minas": 4092,
      "##bios": 4093,
      "##CION": 4094,
      "##tró": 4095,
      "##veres": 4096,
      "##cam": 4097,
      "departa": 4098,
      "cura": 4099,
      "haberse": 4100,
      "##uestos": 4101,
      "muertos": 4102,
      "Habana": 4103,
      "alcal": 4104,
      "manifi": 4105,
      "conj": 4106,
      "sorpren": 4107,
      "##tres": 4108,
      "Españ": 4109,
      "Provincia": 4110,
      "##jeron": 4111,
      "##stancia": 4112,
      "##ctores": 4113,
      "ninguno": 4114,
      "victoria": 4115,
      "predi": 4116,
      "grado": 4117,
      "##ision": 4118,
      "conden": 4119,
      "44": 4120,
      "habla": 4121,
      "##ló": 4122,
      "medida": 4123,
      "##iscal": 4124,
      "##uf": 4125,
      "quién": 4126,
      "monum": 4127,
      "##caban": 4128,
      "Diciembre": 4129,
      "Marzo": 4130,
      "43": 4131,
      "indí": 4132,
      "difícil": 4133,
      "santa": 4134,
      "imposible": 4135,
      "origin": 4136,
      "Doña": 4137,
      "mist": 4138,
      "pode": 4139,
      "che": 4140,
      "mitad": 4141,
      "conocido": 4142,
      "espec": 4143,
      "discu": 4144,
      "frecu": 4145,
      "aver": 4146,
      "ocupar": 4147,
      "mag": 4148,
      "resolución": 4149,
      "##tara": 4150,
      "Colomb": 4151,
      "enseñ": 4152,
      "feliz": 4153,
      "posesión": 4154,
      "afir": 4155,
      "privi": 4156,
      "SAN": 4157,
      "viene": 4158,
      "francés": 4159,
      "Plata": 4160,
      "resuel": 4161,
      "atribu": 4162,
      "entusias": 4163,
      "seguro": 4164,
      "triunf": 4165,
      "Junta": 4166,
      "esco": 4167,
      "##zon": 4168,
      "Dia": 4169,
      "estuvo": 4170,
      "##dillera": 4171,
      "Portugal": 4172,
      "Có": 4173,
      "blanco": 4174,
      "ánimo": 4175,
      "comunic": 4176,
      "operaciones": 4177,
      "##sula": 4178,
      "sacerdo": 4179,
      "multitud": 4180,
      "##eme": 4181,
      "tomado": 4182,
      "situada": 4183,
      "##áis": 4184,
      "Tra": 4185,
      "Ad": 4186,
      "##ecían": 4187,
      "industria": 4188,
      "##IB": 4189,
      "disposición": 4190,
      "Toledo": 4191,
      "pul": 4192,
      "##entales": 4193,
      "Ap": 4194,
      "##riendo": 4195,
      "##vador": 4196,
      "vuestra": 4197,
      "pec": 4198,
      "##ERO": 4199,
      "Fu": 4200,
      "momentos": 4201,
      "proyecto": 4202,
      "conveniente": 4203,
      "alter": 4204,
      "Fué": 4205,
      "##dores": 4206,
      "##juzg": 4207,
      "##venir": 4208,
      "infan": 4209,
      "parro": 4210,
      "Chi": 4211,
      "##ICO": 4212,
      "salud": 4213,
      "án": 4214,
      "##llos": 4215,
      "virey": 4216,
      "aus": 4217,
      "rig": 4218,
      "mala": 4219,
      "fortal": 4220,
      "consejo": 4221,
      "reyes": 4222,
      "monte": 4223,
      "perj": 4224,
      "forman": 4225,
      "Blan": 4226,
      "pier": 4227,
      "celebr": 4228,
      "senti": 4229,
      "manda": 4230,
      "montes": 4231,
      "inmediatamente": 4232,
      "enga": 4233,
      "camp": 4234,
      "##abilidad": 4235,
      "gun": 4236,
      "##izado": 4237,
      "proporcion": 4238,
      "##úa": 4239,
      "invas": 4240,
      "semb": 4241,
      "##sul": 4242,
      "constante": 4243,
      "tribun": 4244,
      "flor": 4245,
      "##jada": 4246,
      "eter": 4247,
      "##mer": 4248,
      "confir": 4249,
      "##emente": 4250,
      "religión": 4251,
      "suspen": 4252,
      "cualquier": 4253,
      "encuentran": 4254,
      "##vados": 4255,
      "##UM": 4256,
      "##CO": 4257,
      "tí": 4258,
      "efectos": 4259,
      "jurisdi": 4260,
      "puertas": 4261,
      "##lido": 4262,
      "tomo": 4263,
      "hallan": 4264,
      "ambas": 4265,
      "caci": 4266,
      "##yan": 4267,
      "cuarenta": 4268,
      "##iros": 4269,
      "primeras": 4270,
      "existe": 4271,
      "sigue": 4272,
      "AR": 4273,
      "recon": 4274,
      "ídem": 4275,
      "ble": 4276,
      "protes": 4277,
      "llu": 4278,
      "raza": 4279,
      "conforme": 4280,
      "##eres": 4281,
      "parecía": 4282,
      "CAPI": 4283,
      "elementos": 4284,
      "igualmente": 4285,
      "##uma": 4286,
      "discur": 4287,
      "##uti": 4288,
      "arran": 4289,
      "firme": 4290,
      "##aría": 4291,
      "pronunci": 4292,
      "viento": 4293,
      "##gel": 4294,
      "oportun": 4295,
      "suyo": 4296,
      "ido": 4297,
      "autoridades": 4298,
      "regres": 4299,
      "Todos": 4300,
      "flores": 4301,
      "##pli": 4302,
      "sim": 4303,
      "Ros": 4304,
      "edu": 4305,
      "##vios": 4306,
      "##canos": 4307,
      "Coruña": 4308,
      "silencio": 4309,
      "rebel": 4310,
      "traslad": 4311,
      "Sar": 4312,
      "desgraci": 4313,
      "##ramos": 4314,
      "venido": 4315,
      "apos": 4316,
      "##tina": 4317,
      "entró": 4318,
      "##cano": 4319,
      "##mina": 4320,
      "Son": 4321,
      "vul": 4322,
      "tab": 4323,
      "##tim": 4324,
      "##tedral": 4325,
      "Vicente": 4326,
      "##quisi": 4327,
      "miemb": 4328,
      "46": 4329,
      "Aquel": 4330,
      "venir": 4331,
      "completamente": 4332,
      "pagar": 4333,
      "rei": 4334,
      "##ático": 4335,
      "##ines": 4336,
      "llegaron": 4337,
      "Barcel": 4338,
      "negro": 4339,
      "edificios": 4340,
      "sacar": 4341,
      "completa": 4342,
      "adver": 4343,
      "despo": 4344,
      "sencil": 4345,
      "gastos": 4346,
      "castillo": 4347,
      "esfuerzos": 4348,
      "##rup": 4349,
      "##zaron": 4350,
      "sospe": 4351,
      "cartas": 4352,
      "humil": 4353,
      "Reyes": 4354,
      "documentos": 4355,
      "##poli": 4356,
      "desempe": 4357,
      "47": 4358,
      "hero": 4359,
      "##ure": 4360,
      "nombrado": 4361,
      "llega": 4362,
      "morir": 4363,
      "datos": 4364,
      "##ciosos": 4365,
      "Ara": 4366,
      "##usieron": 4367,
      "espi": 4368,
      "##OB": 4369,
      "singular": 4370,
      "Brasil": 4371,
      "decia": 4372,
      "Va": 4373,
      "##xim": 4374,
      "poblaciones": 4375,
      "##zando": 4376,
      "prisioneros": 4377,
      "negocios": 4378,
      "##arlo": 4379,
      "practi": 4380,
      "verdadera": 4381,
      "prom": 4382,
      "Véase": 4383,
      "bur": 4384,
      "##rase": 4385,
      "llamada": 4386,
      "##arquía": 4387,
      "##gri": 4388,
      "También": 4389,
      "##ecre": 4390,
      "arras": 4391,
      "querido": 4392,
      "##viendo": 4393,
      "jur": 4394,
      "##anca": 4395,
      "##zados": 4396,
      "aca": 4397,
      "anu": 4398,
      "##arle": 4399,
      "compañeros": 4400,
      "##rían": 4401,
      "príncipe": 4402,
      "AN": 4403,
      "respeto": 4404,
      "golpe": 4405,
      "gover": 4406,
      "baja": 4407,
      "jorn": 4408,
      "gracias": 4409,
      "célebre": 4410,
      "negros": 4411,
      "tratar": 4412,
      "piedras": 4413,
      "##vención": 4414,
      "hacerse": 4415,
      "destin": 4416,
      "precipi": 4417,
      "prud": 4418,
      "base": 4419,
      "casos": 4420,
      "contestó": 4421,
      "fuertes": 4422,
      "influencia": 4423,
      "foi": 4424,
      "decía": 4425,
      "actos": 4426,
      "mandar": 4427,
      "vuelta": 4428,
      "##uelas": 4429,
      "congreso": 4430,
      "apa": 4431,
      "ape": 4432,
      "entender": 4433,
      "expedición": 4434,
      "##dian": 4435,
      "##ctura": 4436,
      "riqueza": 4437,
      "cuantos": 4438,
      "bár": 4439,
      "##ínsula": 4440,
      "abo": 4441,
      "##tla": 4442,
      "sosten": 4443,
      "públicos": 4444,
      "pocas": 4445,
      "##adora": 4446,
      "toma": 4447,
      "cabildo": 4448,
      "citado": 4449,
      "esperanza": 4450,
      "dejado": 4451,
      "vis": 4452,
      "distrito": 4453,
      "estando": 4454,
      "deja": 4455,
      "soldado": 4456,
      "medidas": 4457,
      "salida": 4458,
      "reina": 4459,
      "##stit": 4460,
      "desembar": 4461,
      "pobres": 4462,
      "1a": 4463,
      "occid": 4464,
      "creo": 4465,
      "cuarto": 4466,
      "caballero": 4467,
      "particulares": 4468,
      "habría": 4469,
      "##vó": 4470,
      "defender": 4471,
      "terrible": 4472,
      "ria": 4473,
      "Da": 4474,
      "acti": 4475,
      "objetos": 4476,
      "emi": 4477,
      "##untamiento": 4478,
      "perdido": 4479,
      "##rico": 4480,
      "##cieron": 4481,
      "Ministro": 4482,
      "##arla": 4483,
      "encom": 4484,
      "##imos": 4485,
      "##ham": 4486,
      "ep": 4487,
      "costumbre": 4488,
      "jó": 4489,
      "##ñado": 4490,
      "##entan": 4491,
      "desgracia": 4492,
      "##ck": 4493,
      "Cre": 4494,
      "animales": 4495,
      "##sist": 4496,
      "mandado": 4497,
      "límites": 4498,
      "Pérez": 4499,
      "Cara": 4500,
      "##esto": 4501,
      "felici": 4502,
      "precis": 4503,
      "##cencia": 4504,
      "consiguiente": 4505,
      "pensamiento": 4506,
      "Lon": 4507,
      "##stó": 4508,
      "##cra": 4509,
      "55": 4510,
      "Barcelona": 4511,
      "##end": 4512,
      "histori": 4513,
      "doctr": 4514,
      "##ficar": 4515,
      "##grafía": 4516,
      "resistencia": 4517,
      "##edes": 4518,
      "eclesiá": 4519,
      "quiera": 4520,
      "##pone": 4521,
      "##ñez": 4522,
      "columna": 4523,
      "castellan": 4524,
      "ner": 4525,
      "tenemos": 4526,
      "diversas": 4527,
      "Noviembre": 4528,
      "Ana": 4529,
      "##entó": 4530,
      "Catal": 4531,
      "institu": 4532,
      "lá": 4533,
      "##cante": 4534,
      "sentimiento": 4535,
      "sú": 4536,
      "consa": 4537,
      "aguar": 4538,
      "abajo": 4539,
      "##gena": 4540,
      "ademas": 4541,
      "cruel": 4542,
      "##are": 4543,
      "pedir": 4544,
      "mesmo": 4545,
      "descubier": 4546,
      "clases": 4547,
      "##UR": 4548,
      "presentó": 4549,
      "corriente": 4550,
      "Colombia": 4551,
      "##viera": 4552,
      "Sil": 4553,
      "hierro": 4554,
      "oriental": 4555,
      "nove": 4556,
      "##ID": 4557,
      "sostener": 4558,
      "tado": 4559,
      "##aran": 4560,
      "##pira": 4561,
      "viejo": 4562,
      "ost": 4563,
      "hé": 4564,
      "piezas": 4565,
      "IN": 4566,
      "remo": 4567,
      "Sen": 4568,
      "##tidas": 4569,
      "mú": 4570,
      "anteriores": 4571,
      "magní": 4572,
      "espres": 4573,
      "niños": 4574,
      "##cón": 4575,
      "PAR": 4576,
      "##sen": 4577,
      "##ide": 4578,
      "##video": 4579,
      "##oló": 4580,
      "hermosa": 4581,
      "##mación": 4582,
      "##mada": 4583,
      "bosques": 4584,
      "##dente": 4585,
      "obede": 4586,
      "comb": 4587,
      "diciendo": 4588,
      "gobier": 4589,
      "lad": 4590,
      "alu": 4591,
      "paci": 4592,
      "puente": 4593,
      "Córdoba": 4594,
      "agi": 4595,
      "##cao": 4596,
      "cerro": 4597,
      "##cruz": 4598,
      "Febrero": 4599,
      "enferme": 4600,
      "estim": 4601,
      "hacían": 4602,
      "Jesús": 4603,
      "recha": 4604,
      "##usa": 4605,
      "lhe": 4606,
      "partida": 4607,
      "Padre": 4608,
      "emperador": 4609,
      "fábri": 4610,
      "Estas": 4611,
      "fuesen": 4612,
      "cristianos": 4613,
      "convo": 4614,
      "amist": 4615,
      "ciencia": 4616,
      "For": 4617,
      "vícti": 4618,
      "siquiera": 4619,
      "llevaba": 4620,
      "Pala": 4621,
      "afi": 4622,
      "##ys": 4623,
      "madera": 4624,
      "ja": 4625,
      "Enrique": 4626,
      "inú": 4627,
      "cubri": 4628,
      "Conde": 4629,
      "##gando": 4630,
      "llegada": 4631,
      "males": 4632,
      "capitu": 4633,
      "minu": 4634,
      "design": 4635,
      "esten": 4636,
      "agri": 4637,
      "razones": 4638,
      "##omas": 4639,
      "Enton": 4640,
      "49": 4641,
      "podría": 4642,
      "conten": 4643,
      "##eiro": 4644,
      "fines": 4645,
      "Andrés": 4646,
      "especialmente": 4647,
      "##sim": 4648,
      "##iales": 4649,
      "recuer": 4650,
      "Consejo": 4651,
      "podrá": 4652,
      "Señora": 4653,
      "##hor": 4654,
      "contar": 4655,
      "##mirante": 4656,
      "##ite": 4657,
      "CAPITULO": 4658,
      "##gro": 4659,
      "duque": 4660,
      "podían": 4661,
      "##ella": 4662,
      "extraordin": 4663,
      "abra": 4664,
      "##gadas": 4665,
      "dirij": 4666,
      "cuadro": 4667,
      "##teros": 4668,
      "Mayor": 4669,
      "Eu": 4670,
      "##zobispo": 4671,
      "grues": 4672,
      "##tieron": 4673,
      "repi": 4674,
      "pela": 4675,
      "supo": 4676,
      "bri": 4677,
      "posi": 4678,
      "##xto": 4679,
      "ino": 4680,
      "##garse": 4681,
      "perpe": 4682,
      "Bre": 4683,
      "despre": 4684,
      "00": 4685,
      "sr": 4686,
      "notables": 4687,
      "merced": 4688,
      "##tana": 4689,
      "destino": 4690,
      "expli": 4691,
      "##ses": 4692,
      "taba": 4693,
      "##tua": 4694,
      "misión": 4695,
      "##trio": 4696,
      "mejores": 4697,
      "##amble": 4698,
      "pele": 4699,
      "vivir": 4700,
      "elección": 4701,
      "compar": 4702,
      "cel": 4703,
      "peso": 4704,
      "##mor": 4705,
      "ing": 4706,
      "avent": 4707,
      "non": 4708,
      "jóven": 4709,
      "santo": 4710,
      "nombra": 4711,
      "80": 4712,
      "##teca": 4713,
      "próxi": 4714,
      "superfici": 4715,
      "Rom": 4716,
      "hermanos": 4717,
      "éx": 4718,
      "Entonces": 4719,
      "ciudadanos": 4720,
      "Audi": 4721,
      "orillas": 4722,
      "Ru": 4723,
      "estudio": 4724,
      "comunicación": 4725,
      "kil": 4726,
      "caer": 4727,
      "insurre": 4728,
      "##ÍTULO": 4729,
      "ataque": 4730,
      "desier": 4731,
      "Montevideo": 4732,
      "cuán": 4733,
      "diz": 4734,
      "##anda": 4735,
      "Agust": 4736,
      "soy": 4737,
      "hecha": 4738,
      "Pen": 4739,
      "logr": 4740,
      "social": 4741,
      "fle": 4742,
      "seus": 4743,
      "aco": 4744,
      "adu": 4745,
      "aqui": 4746,
      "##iga": 4747,
      "Ger": 4748,
      "##cr": 4749,
      "teatro": 4750,
      "Jefe": 4751,
      "##erías": 4752,
      "compa": 4753,
      "Flor": 4754,
      "orilla": 4755,
      "estran": 4756,
      "##iéndose": 4757,
      "formado": 4758,
      "esperar": 4759,
      "##ibles": 4760,
      "conciencia": 4761,
      "libros": 4762,
      "colonia": 4763,
      "digno": 4764,
      "##sticos": 4765,
      "poli": 4766,
      "supli": 4767,
      "enor": 4768,
      "Gonzá": 4769,
      "##arte": 4770,
      "altar": 4771,
      "##tándo": 4772,
      "51": 4773,
      "fati": 4774,
      "##ática": 4775,
      "repro": 4776,
      "##ábamos": 4777,
      "aqué": 4778,
      "puedo": 4779,
      "52": 4780,
      "suceso": 4781,
      "artes": 4782,
      "instante": 4783,
      "Bor": 4784,
      "##etas": 4785,
      "diversos": 4786,
      "Sí": 4787,
      "##estas": 4788,
      "aprovech": 4789,
      "legua": 4790,
      "buque": 4791,
      "establecer": 4792,
      "##uo": 4793,
      "##oración": 4794,
      "pérdida": 4795,
      "mesa": 4796,
      "apla": 4797,
      "Vall": 4798,
      "alde": 4799,
      "Bas": 4800,
      "##pal": 4801,
      "LAS": 4802,
      "##vían": 4803,
      "única": 4804,
      "human": 4805,
      "demasiado": 4806,
      "tol": 4807,
      "ingleses": 4808,
      "th": 4809,
      "##sado": 4810,
      "##orias": 4811,
      "compe": 4812,
      "Liber": 4813,
      "##gica": 4814,
      "persu": 4815,
      "CAPÍTULO": 4816,
      "incen": 4817,
      "batallón": 4818,
      "pasos": 4819,
      "##ezuela": 4820,
      "##PA": 4821,
      "irre": 4822,
      "indio": 4823,
      "trono": 4824,
      "cató": 4825,
      "temor": 4826,
      "ré": 4827,
      "179": 4828,
      "##torios": 4829,
      "cambi": 4830,
      "capilla": 4831,
      "##anes": 4832,
      "espan": 4833,
      "consideración": 4834,
      "ves": 4835,
      "vel": 4836,
      "vapor": 4837,
      "##CIA": 4838,
      "##ívar": 4839,
      "construcción": 4840,
      "ofrece": 4841,
      "archi": 4842,
      "gracia": 4843,
      "almas": 4844,
      "##osotros": 4845,
      "armada": 4846,
      "ham": 4847,
      "Constitución": 4848,
      "escal": 4849,
      "mérito": 4850,
      "##tlan": 4851,
      "##enen": 4852,
      "concl": 4853,
      "##ord": 4854,
      "restos": 4855,
      "González": 4856,
      "establecimiento": 4857,
      "acostumb": 4858,
      "arbi": 4859,
      "##eos": 4860,
      "copi": 4861,
      "sombra": 4862,
      "sil": 4863,
      "54": 4864,
      "lago": 4865,
      "consta": 4866,
      "inju": 4867,
      "##vedra": 4868,
      "##bra": 4869,
      "##ficos": 4870,
      "56": 4871,
      "Gra": 4872,
      "Castro": 4873,
      "ascen": 4874,
      "##dula": 4875,
      "##ariamente": 4876,
      "debió": 4877,
      "Allí": 4878,
      "##ónde": 4879,
      "vecin": 4880,
      "##frica": 4881,
      "##idal": 4882,
      "Sab": 4883,
      "evid": 4884,
      "calidad": 4885,
      "Grande": 4886,
      "completo": 4887,
      "Fé": 4888,
      "##et": 4889,
      "éxito": 4890,
      "mayo": 4891,
      "##quina": 4892,
      "aos": 4893,
      "econ": 4894,
      "cadá": 4895,
      "caminos": 4896,
      "llamar": 4897,
      "53": 4898,
      "##ecieron": 4899,
      "##ison": 4900,
      "importantes": 4901,
      "fres": 4902,
      "torre": 4903,
      "quería": 4904,
      "idem": 4905,
      "esclavos": 4906,
      "perío": 4907,
      "##dre": 4908,
      "reconocer": 4909,
      "vieron": 4910,
      "guarnición": 4911,
      "asal": 4912,
      "viendo": 4913,
      "suyos": 4914,
      "##ego": 4915,
      "Alcal": 4916,
      "local": 4917,
      "clima": 4918,
      "prolon": 4919,
      "Veracruz": 4920,
      "aque": 4921,
      "##eren": 4922,
      "invi": 4923,
      "##tándose": 4924,
      "quando": 4925,
      "ancho": 4926,
      "##amientos": 4927,
      "dispu": 4928,
      "buenas": 4929,
      "Mel": 4930,
      "caudi": 4931,
      "##cultura": 4932,
      "quo": 4933,
      "##tecas": 4934,
      "Isabel": 4935,
      "admir": 4936,
      "rendi": 4937,
      "punta": 4938,
      "popular": 4939,
      "##vuel": 4940,
      "Dos": 4941,
      "millas": 4942,
      "Puebla": 4943,
      "bah": 4944,
      "encontró": 4945,
      "##diz": 4946,
      "Igna": 4947,
      "incor": 4948,
      "Lopez": 4949,
      "envió": 4950,
      "países": 4951,
      "culto": 4952,
      "Paris": 4953,
      "ganado": 4954,
      "ral": 4955,
      "escribir": 4956,
      "daban": 4957,
      "imi": 4958,
      "rin": 4959,
      "abril": 4960,
      "ilustre": 4961,
      "Reg": 4962,
      "band": 4963,
      "semejantes": 4964,
      "tru": 4965,
      "Nicol": 4966,
      "##abal": 4967,
      "ques": 4968,
      "unión": 4969,
      "principalmente": 4970,
      "Hi": 4971,
      "Asia": 4972,
      "columnas": 4973,
      "limp": 4974,
      "calor": 4975,
      "##lando": 4976,
      "trist": 4977,
      "artículos": 4978,
      "Bolívar": 4979,
      "Az": 4980,
      "##uncia": 4981,
      "muger": 4982,
      "continua": 4983,
      "300": 4984,
      "mé": 4985,
      "Bogo": 4986,
      "ciertos": 4987,
      "entusiasmo": 4988,
      "Nuevo": 4989,
      "##citos": 4990,
      "civilización": 4991,
      "religiosos": 4992,
      "ruinas": 4993,
      "##eso": 4994,
      "recuerdo": 4995,
      "##stru": 4996,
      "baj": 4997,
      "rib": 4998,
      "encer": 4999,
      "Aunque": 5000,
      "##BA": 5001,
      "##GO": 5002,
      "##tencia": 5003,
      "##eira": 5004,
      "Mur": 5005,
      "Arag": 5006,
      "Segun": 5007,
      "portugu": 5008,
      "conservar": 5009,
      "Casa": 5010,
      "cuartel": 5011,
      "incom": 5012,
      "Valle": 5013,
      "##licos": 5014,
      "70": 5015,
      "pecho": 5016,
      "Alvar": 5017,
      "##xa": 5018,
      "ace": 5019,
      "Fa": 5020,
      "llamó": 5021,
      "##pul": 5022,
      "ama": 5023,
      "plu": 5024,
      "hallaban": 5025,
      "espal": 5026,
      "##rios": 5027,
      "##amo": 5028,
      "##ccion": 5029,
      "dá": 5030,
      "flo": 5031,
      "Loren": 5032,
      "imag": 5033,
      "abrir": 5034,
      "##damente": 5035,
      "heridos": 5036,
      "##rias": 5037,
      "##genes": 5038,
      "Oriente": 5039,
      "tenga": 5040,
      "brazo": 5041,
      "##cán": 5042,
      "univers": 5043,
      "consecu": 5044,
      "##iden": 5045,
      "procu": 5046,
      "Setiembre": 5047,
      "geo": 5048,
      "progres": 5049,
      "conseguir": 5050,
      "hubieran": 5051,
      "##erna": 5052,
      "##cro": 5053,
      "Ge": 5054,
      "##ciales": 5055,
      "##sica": 5056,
      "seno": 5057,
      "fen": 5058,
      "presi": 5059,
      "Ti": 5060,
      "dila": 5061,
      "debían": 5062,
      "carne": 5063,
      "lej": 5064,
      "dirigió": 5065,
      "##adic": 5066,
      "##vista": 5067,
      "Sebas": 5068,
      "quedaron": 5069,
      "##udal": 5070,
      "vuestro": 5071,
      "##lés": 5072,
      "Rec": 5073,
      "##sible": 5074,
      "cumplir": 5075,
      "abri": 5076,
      "piso": 5077,
      "##amas": 5078,
      "miembros": 5079,
      "claro": 5080,
      "espada": 5081,
      "##amblea": 5082,
      "ul": 5083,
      "enteramente": 5084,
      "rej": 5085,
      "sala": 5086,
      "##ómi": 5087,
      "terrenos": 5088,
      "##fé": 5089,
      "esposa": 5090,
      "sucesi": 5091,
      "##eramente": 5092,
      "##grada": 5093,
      "##DO": 5094,
      "Fra": 5095,
      "corta": 5096,
      "58": 5097,
      "enti": 5098,
      "Tar": 5099,
      "prin": 5100,
      "bueno": 5101,
      "Alfonso": 5102,
      "sierra": 5103,
      "restable": 5104,
      "Obispo": 5105,
      "sentir": 5106,
      "pare": 5107,
      "Ignacio": 5108,
      "Tan": 5109,
      "diputados": 5110,
      "Sierra": 5111,
      "##logo": 5112,
      "##gao": 5113,
      "##mán": 5114,
      "sentimientos": 5115,
      "inqui": 5116,
      "honra": 5117,
      "pura": 5118,
      "propios": 5119,
      "57": 5120,
      "condición": 5121,
      "escar": 5122,
      "suya": 5123,
      "##osidad": 5124,
      "dichas": 5125,
      "África": 5126,
      "##ém": 5127,
      "amo": 5128,
      "devo": 5129,
      "gefe": 5130,
      "##bro": 5131,
      "Boli": 5132,
      "cortes": 5133,
      "consu": 5134,
      "jurisdicción": 5135,
      "pequeños": 5136,
      "orgu": 5137,
      "##fu": 5138,
      "Jer": 5139,
      "sas": 5140,
      "Sobre": 5141,
      "elo": 5142,
      "quince": 5143,
      "quiero": 5144,
      "##ército": 5145,
      "apoy": 5146,
      "detal": 5147,
      "##ADO": 5148,
      "diferencia": 5149,
      "encan": 5150,
      "habrá": 5151,
      "Cabildo": 5152,
      "Oh": 5153,
      "##bres": 5154,
      "revolucion": 5155,
      "hospital": 5156,
      "rico": 5157,
      "Nicolás": 5158,
      "fabri": 5159,
      "partidos": 5160,
      "##rense": 5161,
      "amistad": 5162,
      "##arcas": 5163,
      "ener": 5164,
      "bandera": 5165,
      "Lin": 5166,
      "comprender": 5167,
      "ministros": 5168,
      "carrera": 5169,
      "VII": 5170,
      "##xima": 5171,
      "ráp": 5172,
      "##iedad": 5173,
      "##son": 5174,
      "escuadra": 5175,
      "EST": 5176,
      "haga": 5177,
      "##bia": 5178,
      "inteligencia": 5179,
      "cordillera": 5180,
      "##ancias": 5181,
      "bárbar": 5182,
      "concepto": 5183,
      "coron": 5184,
      "##usos": 5185,
      "##gido": 5186,
      "republi": 5187,
      "precio": 5188,
      "quedado": 5189,
      "vari": 5190,
      "chil": 5191,
      "deses": 5192,
      "ciertas": 5193,
      "##her": 5194,
      "Audiencia": 5195,
      "especies": 5196,
      "##úcar": 5197,
      "178": 5198,
      "estilo": 5199,
      "##sación": 5200,
      "comprome": 5201,
      "letras": 5202,
      "Comandante": 5203,
      "placer": 5204,
      "sel": 5205,
      "Indios": 5206,
      "Mendo": 5207,
      "##ii": 5208,
      "servido": 5209,
      "dulce": 5210,
      "delic": 5211,
      "exa": 5212,
      "jura": 5213,
      "pañ": 5214,
      "salvar": 5215,
      "Navar": 5216,
      "prime": 5217,
      "cumplimiento": 5218,
      "amp": 5219,
      "adorn": 5220,
      "busca": 5221,
      "Nos": 5222,
      "prodi": 5223,
      "##enciado": 5224,
      "inspir": 5225,
      "anunci": 5226,
      "##ísimos": 5227,
      "##gaba": 5228,
      "##iblio": 5229,
      "##chado": 5230,
      "##IV": 5231,
      "##ey": 5232,
      "deten": 5233,
      "##CIONES": 5234,
      "##hos": 5235,
      "CU": 5236,
      "excel": 5237,
      "Costa": 5238,
      "##tent": 5239,
      "cámara": 5240,
      "cion": 5241,
      "##cau": 5242,
      "obis": 5243,
      "##didad": 5244,
      "meridi": 5245,
      "comenzó": 5246,
      "guardia": 5247,
      "##guardia": 5248,
      "carre": 5249,
      "##ienen": 5250,
      "av": 5251,
      "menes": 5252,
      "Bogotá": 5253,
      "autores": 5254,
      "Cortes": 5255,
      "Torre": 5256,
      "##up": 5257,
      "pudieron": 5258,
      "capítulo": 5259,
      "labor": 5260,
      "impul": 5261,
      "respondió": 5262,
      "basta": 5263,
      "Algun": 5264,
      "suble": 5265,
      "##pie": 5266,
      "##quite": 5267,
      "simple": 5268,
      "Pablo": 5269,
      "Zara": 5270,
      "humana": 5271,
      "brig": 5272,
      "conta": 5273,
      "cua": 5274,
      "Guerra": 5275,
      "retra": 5276,
      "infantería": 5277,
      "llevó": 5278,
      "auxilio": 5279,
      "##ulo": 5280,
      "formas": 5281,
      "##unda": 5282,
      "Joaqu": 5283,
      "digo": 5284,
      "enten": 5285,
      "##reros": 5286,
      "región": 5287,
      "personal": 5288,
      "caballeros": 5289,
      "##cina": 5290,
      "##ime": 5291,
      "##tino": 5292,
      "##usia": 5293,
      "pequeñas": 5294,
      "escol": 5295,
      "separa": 5296,
      "CH": 5297,
      "vigor": 5298,
      "rar": 5299,
      "llor": 5300,
      "##ieran": 5301,
      "sión": 5302,
      "mira": 5303,
      "lleno": 5304,
      "rica": 5305,
      "siguió": 5306,
      "Concepción": 5307,
      "##nal": 5308,
      "##cedentes": 5309,
      "mejic": 5310,
      "actividad": 5311,
      "extremo": 5312,
      "gua": 5313,
      "Nues": 5314,
      "dificultades": 5315,
      "tercera": 5316,
      "59": 5317,
      "onde": 5318,
      "agosto": 5319,
      "##uestas": 5320,
      "##taría": 5321,
      "##idamente": 5322,
      "##EZ": 5323,
      "correr": 5324,
      "agra": 5325,
      "##ega": 5326,
      "pone": 5327,
      "puestos": 5328,
      "ñas": 5329,
      "##ff": 5330,
      "Nuestra": 5331,
      "apreci": 5332,
      "##enca": 5333,
      "Quin": 5334,
      "exclam": 5335,
      "colores": 5336,
      "deli": 5337,
      "referido": 5338,
      "formando": 5339,
      "##tano": 5340,
      "##mba": 5341,
      "remedio": 5342,
      "##ensas": 5343,
      "canal": 5344,
      "##bilidad": 5345,
      "##EM": 5346,
      "moros": 5347,
      "PA": 5348,
      "Uni": 5349,
      "quedando": 5350,
      "desor": 5351,
      "Sala": 5352,
      "Haci": 5353,
      "Aragón": 5354,
      "superficie": 5355,
      "##ruido": 5356,
      "##pro": 5357,
      "##tuoso": 5358,
      "fortaleza": 5359,
      "carga": 5360,
      "ayud": 5361,
      "yer": 5362,
      "constitución": 5363,
      "tus": 5364,
      "considerable": 5365,
      "sesenta": 5366,
      "hai": 5367,
      "frutos": 5368,
      "Cristó": 5369,
      "salido": 5370,
      "refiere": 5371,
      "bres": 5372,
      "##abo": 5373,
      "montaña": 5374,
      "##ónimo": 5375,
      "vasal": 5376,
      "arreglo": 5377,
      "leer": 5378,
      "adi": 5379,
      "salieron": 5380,
      "Cómo": 5381,
      "##nia": 5382,
      "##bil": 5383,
      "serán": 5384,
      "ferro": 5385,
      "Sebasti": 5386,
      "NO": 5387,
      "##tará": 5388,
      "##ERA": 5389,
      "conserva": 5390,
      "Vallado": 5391,
      "##tente": 5392,
      "comision": 5393,
      "##eto": 5394,
      "tradu": 5395,
      "vege": 5396,
      "blanca": 5397,
      "##rin": 5398,
      "monas": 5399,
      "##entro": 5400,
      "##gestad": 5401,
      "ee": 5402,
      "efica": 5403,
      "Rodri": 5404,
      "millones": 5405,
      "testigo": 5406,
      "disf": 5407,
      "bosque": 5408,
      "##vam": 5409,
      "Secre": 5410,
      "vengan": 5411,
      "pli": 5412,
      "Paz": 5413,
      "contiene": 5414,
      "Pin": 5415,
      "##gusto": 5416,
      "150": 5417,
      "ug": 5418,
      "##ila": 5419,
      "médi": 5420,
      "##iva": 5421,
      "hacerlo": 5422,
      "fundación": 5423,
      "HISTÓ": 5424,
      "rumbo": 5425,
      "copia": 5426,
      "sucedió": 5427,
      "##cent": 5428,
      "dra": 5429,
      "quini": 5430,
      "##ágri": 5431,
      "##amp": 5432,
      "Luego": 5433,
      "poeta": 5434,
      "sust": 5435,
      "oir": 5436,
      "prisión": 5437,
      "##QU": 5438,
      "únicamente": 5439,
      "apel": 5440,
      "177": 5441,
      "Cádiz": 5442,
      "lei": 5443,
      "##hes": 5444,
      "dixo": 5445,
      "pendi": 5446,
      "vamos": 5447,
      "nobles": 5448,
      "##untos": 5449,
      "Ponte": 5450,
      "realidad": 5451,
      "descar": 5452,
      "soli": 5453,
      "disposiciones": 5454,
      "##ejo": 5455,
      "##édito": 5456,
      "período": 5457,
      "pod": 5458,
      "tribus": 5459,
      "resultados": 5460,
      "viva": 5461,
      "##rump": 5462,
      "Patri": 5463,
      "Dist": 5464,
      "escuela": 5465,
      "hayan": 5466,
      "ventajas": 5467,
      "##daba": 5468,
      "tomando": 5469,
      "matri": 5470,
      "niño": 5471,
      "temer": 5472,
      "##ela": 5473,
      "deseos": 5474,
      "asegurar": 5475,
      "##ítulos": 5476,
      "rein": 5477,
      "##ficas": 5478,
      "blo": 5479,
      "##cara": 5480,
      "##dedor": 5481,
      "Aquí": 5482,
      "Virgen": 5483,
      "cano": 5484,
      "Mendoza": 5485,
      "##rosa": 5486,
      "idi": 5487,
      "##inda": 5488,
      "sirve": 5489,
      "HISTÓRI": 5490,
      "75": 5491,
      "##gios": 5492,
      "exi": 5493,
      "até": 5494,
      "hues": 5495,
      "##leta": 5496,
      "secretario": 5497,
      "##dres": 5498,
      "his": 5499,
      "existen": 5500,
      "Herrera": 5501,
      "##ciosas": 5502,
      "libres": 5503,
      "críti": 5504,
      "Valladolid": 5505,
      "Ramón": 5506,
      "##glesias": 5507,
      "##mol": 5508,
      "desn": 5509,
      "fiesta": 5510,
      "##cidente": 5511,
      "##cales": 5512,
      "lágri": 5513,
      "##imen": 5514,
      "muito": 5515,
      "##ueva": 5516,
      "chi": 5517,
      "##ali": 5518,
      "Tiene": 5519,
      "##tían": 5520,
      "##uez": 5521,
      "fundad": 5522,
      "##donos": 5523,
      "Vol": 5524,
      "##ill": 5525,
      "Paraguay": 5526,
      "ciu": 5527,
      "podemos": 5528,
      "julio": 5529,
      "puertos": 5530,
      "daño": 5531,
      "Orense": 5532,
      "##jera": 5533,
      "antiguas": 5534,
      "##ómez": 5535,
      "LIB": 5536,
      "escribió": 5537,
      "##trado": 5538,
      "##güedad": 5539,
      "capaz": 5540,
      "inglés": 5541,
      "Nada": 5542,
      "mur": 5543,
      "##pación": 5544,
      "##uno": 5545,
      "retirada": 5546,
      "log": 5547,
      "trabaj": 5548,
      "##vadas": 5549,
      "##teras": 5550,
      "Lleg": 5551,
      "Dire": 5552,
      "Dis": 5553,
      "continuar": 5554,
      "abundancia": 5555,
      "##omía": 5556,
      "MA": 5557,
      "##bes": 5558,
      "apren": 5559,
      "Mientras": 5560,
      "cobre": 5561,
      "##zadas": 5562,
      "##crito": 5563,
      "Mol": 5564,
      "enero": 5565,
      "##áz": 5566,
      "mural": 5567,
      "Lorenzo": 5568,
      "Ej": 5569,
      "##taña": 5570,
      "##emia": 5571,
      "respons": 5572,
      "Tri": 5573,
      "liberal": 5574,
      "##íz": 5575,
      "anci": 5576,
      "levantar": 5577,
      "compos": 5578,
      "cár": 5579,
      "##adero": 5580,
      "ejecución": 5581,
      "pap": 5582,
      "halló": 5583,
      "sujuzg": 5584,
      "400": 5585,
      "##fos": 5586,
      "Lle": 5587,
      "obstá": 5588,
      "facili": 5589,
      "extensión": 5590,
      "pensar": 5591,
      "##viesen": 5592,
      "infeli": 5593,
      "CAS": 5594,
      "cón": 5595,
      "prece": 5596,
      "cree": 5597,
      "Ál": 5598,
      "##has": 5599,
      "conoce": 5600,
      "##ÍA": 5601,
      "elle": 5602,
      "inmor": 5603,
      "##ándola": 5604,
      "vener": 5605,
      "##egos": 5606,
      "som": 5607,
      "Porque": 5608,
      "##gip": 5609,
      "##incial": 5610,
      "plantas": 5611,
      "longi": 5612,
      "tiran": 5613,
      "Th": 5614,
      "Gómez": 5615,
      "celo": 5616,
      "tron": 5617,
      "cias": 5618,
      "##ciente": 5619,
      "capitanes": 5620,
      "rostro": 5621,
      "##IT": 5622,
      "políticos": 5623,
      "hermoso": 5624,
      "leal": 5625,
      "bol": 5626,
      "##US": 5627,
      "modi": 5628,
      "##roso": 5629,
      "indisp": 5630,
      "##genas": 5631,
      "##tones": 5632,
      "aman": 5633,
      "ministerio": 5634,
      "61": 5635,
      "promo": 5636,
      "CAR": 5637,
      "refu": 5638,
      "##ándoles": 5639,
      "Ama": 5640,
      "fama": 5641,
      "proclam": 5642,
      "##jestad": 5643,
      "qua": 5644,
      "##caciones": 5645,
      "##cua": 5646,
      "estoy": 5647,
      "##amba": 5648,
      "fruto": 5649,
      "traer": 5650,
      "héro": 5651,
      "jóvenes": 5652,
      "##abes": 5653,
      "entendi": 5654,
      "confun": 5655,
      "##zaban": 5656,
      "##gaciones": 5657,
      "Cristóbal": 5658,
      "segura": 5659,
      "supremo": 5660,
      "líneas": 5661,
      "cari": 5662,
      "víveres": 5663,
      "central": 5664,
      "debido": 5665,
      "exces": 5666,
      "##RAN": 5667,
      "inferior": 5668,
      "Venezuela": 5669,
      "bro": 5670,
      "ton": 5671,
      "fiel": 5672,
      "apoyo": 5673,
      "##osamente": 5674,
      "Quién": 5675,
      "liter": 5676,
      "MAR": 5677,
      "encontrado": 5678,
      "##vando": 5679,
      "venced": 5680,
      "asiento": 5681,
      "Hernán": 5682,
      "cate": 5683,
      "65": 5684,
      "##cáo": 5685,
      "##ello": 5686,
      "Guar": 5687,
      "circunstancia": 5688,
      "manten": 5689,
      "Mem": 5690,
      "##ándolo": 5691,
      "facultades": 5692,
      "Orden": 5693,
      "direc": 5694,
      "##tt": 5695,
      "##pois": 5696,
      "esté": 5697,
      "pareci": 5698,
      "Hacienda": 5699,
      "aprob": 5700,
      "62": 5701,
      "fec": 5702,
      "justo": 5703,
      "persuad": 5704,
      "dignidad": 5705,
      "##gem": 5706,
      "ahí": 5707,
      "##VA": 5708,
      "documento": 5709,
      "marzo": 5710,
      "dispon": 5711,
      "ment": 5712,
      "satisfacción": 5713,
      "visita": 5714,
      "lector": 5715,
      "bru": 5716,
      "monarca": 5717,
      "##IG": 5718,
      "mantener": 5719,
      "##vila": 5720,
      "profundo": 5721,
      "disper": 5722,
      "mento": 5723,
      "##inete": 5724,
      "marqués": 5725,
      "Anna": 5726,
      "mister": 5727,
      "Burgos": 5728,
      "mirada": 5729,
      "##raban": 5730,
      "hojas": 5731,
      "cubierto": 5732,
      "##uiz": 5733,
      "llevando": 5734,
      "empleados": 5735,
      "sabido": 5736,
      "##rores": 5737,
      "administra": 5738,
      "nor": 5739,
      "levanta": 5740,
      "genio": 5741,
      "quedaba": 5742,
      "americanos": 5743,
      "Guz": 5744,
      "##anti": 5745,
      "alre": 5746,
      "##ALES": 5747,
      "Reino": 5748,
      "declara": 5749,
      "alegría": 5750,
      "cens": 5751,
      "##jara": 5752,
      "alf": 5753,
      "verse": 5754,
      "##iana": 5755,
      "##gor": 5756,
      "esperanzas": 5757,
      "##dando": 5758,
      "hol": 5759,
      "nivel": 5760,
      "Emperador": 5761,
      "##drí": 5762,
      "Fuer": 5763,
      "indispens": 5764,
      "siguiendo": 5765,
      "Salvador": 5766,
      "rocas": 5767,
      "dificultad": 5768,
      "prosper": 5769,
      "Jan": 5770,
      "aparece": 5771,
      "altos": 5772,
      "reunión": 5773,
      "octubre": 5774,
      "espedicion": 5775,
      "grandeza": 5776,
      "defini": 5777,
      "##ficación": 5778,
      "##RES": 5779,
      "Cartagena": 5780,
      "bis": 5781,
      "Vd": 5782,
      "##ze": 5783,
      "cañones": 5784,
      "desper": 5785,
      "colonias": 5786,
      "produce": 5787,
      "##INA": 5788,
      "##cula": 5789,
      "corto": 5790,
      "##teo": 5791,
      "espon": 5792,
      "Yuca": 5793,
      "Quer": 5794,
      "supon": 5795,
      "##lama": 5796,
      "##lano": 5797,
      "##tilla": 5798,
      "menester": 5799,
      "progreso": 5800,
      "rea": 5801,
      "pidió": 5802,
      "ais": 5803,
      "París": 5804,
      "instrucción": 5805,
      "##quen": 5806,
      "Gonz": 5807,
      "árbol": 5808,
      "160": 5809,
      "carb": 5810,
      "desas": 5811,
      "poderoso": 5812,
      "impedir": 5813,
      "jes": 5814,
      "litera": 5815,
      "acome": 5816,
      "##mbres": 5817,
      "ruido": 5818,
      "camin": 5819,
      "dismin": 5820,
      "varas": 5821,
      "Rodrí": 5822,
      "guerras": 5823,
      "Rob": 5824,
      "motivos": 5825,
      "##íase": 5826,
      "Pad": 5827,
      "obtener": 5828,
      "horiz": 5829,
      "patriotismo": 5830,
      "exclu": 5831,
      "##mien": 5832,
      "Agustín": 5833,
      "##sis": 5834,
      "virtudes": 5835,
      "##ribuir": 5836,
      "felicidad": 5837,
      "alas": 5838,
      "graves": 5839,
      "inconven": 5840,
      "humanidad": 5841,
      "vinieron": 5842,
      "ejercicio": 5843,
      "##reza": 5844,
      "inn": 5845,
      "dispuesto": 5846,
      "mandaba": 5847,
      "altas": 5848,
      "resulta": 5849,
      "resta": 5850,
      "reca": 5851,
      "##vida": 5852,
      "Men": 5853,
      "Inf": 5854,
      "Neg": 5855,
      "Oli": 5856,
      "##tiene": 5857,
      "##elos": 5858,
      "63": 5859,
      "##tzin": 5860,
      "pú": 5861,
      "pár": 5862,
      "##sal": 5863,
      "##ke": 5864,
      "##pole": 5865,
      "##iosos": 5866,
      "pasaba": 5867,
      "Colon": 5868,
      "distribu": 5869,
      "llena": 5870,
      "rentas": 5871,
      "Cés": 5872,
      "aviso": 5873,
      "##ederación": 5874,
      "negocio": 5875,
      "Mis": 5876,
      "bordo": 5877,
      "testimonio": 5878,
      "##CH": 5879,
      "pregunta": 5880,
      "Med": 5881,
      "matar": 5882,
      "##lal": 5883,
      "voto": 5884,
      "gent": 5885,
      "dónde": 5886,
      "ór": 5887,
      "crimin": 5888,
      "procedi": 5889,
      "atro": 5890,
      "Rodrigo": 5891,
      "Antes": 5892,
      "terra": 5893,
      "suas": 5894,
      "pués": 5895,
      "##taria": 5896,
      "consist": 5897,
      "grupo": 5898,
      "##ADA": 5899,
      "##tea": 5900,
      "qne": 5901,
      "Santan": 5902,
      "suficiente": 5903,
      "##MA": 5904,
      "azo": 5905,
      "##tli": 5906,
      "debajo": 5907,
      "planta": 5908,
      "peda": 5909,
      "oficios": 5910,
      "vivo": 5911,
      "##hib": 5912,
      "puedan": 5913,
      "##pido": 5914,
      "veinti": 5915,
      "##tum": 5916,
      "regiones": 5917,
      "maestro": 5918,
      "dura": 5919,
      "productos": 5920,
      "##inch": 5921,
      "##ieren": 5922,
      "##boa": 5923,
      "asomb": 5924,
      "emba": 5925,
      "Guadal": 5926,
      "derrota": 5927,
      "inútil": 5928,
      "##LE": 5929,
      "##lao": 5930,
      "##umen": 5931,
      "dí": 5932,
      "176": 5933,
      "##arme": 5934,
      "preven": 5935,
      "Sant": 5936,
      "Magdal": 5937,
      "alem": 5938,
      "pobl": 5939,
      "arquite": 5940,
      "##uelos": 5941,
      "##ies": 5942,
      "##piración": 5943,
      "glo": 5944,
      "enf": 5945,
      "##ades": 5946,
      "chos": 5947,
      "legíti": 5948,
      "##itas": 5949,
      "PRO": 5950,
      "tempor": 5951,
      "obligado": 5952,
      "alcalde": 5953,
      "despren": 5954,
      "Fernan": 5955,
      "empeño": 5956,
      "ester": 5957,
      "##onde": 5958,
      "belle": 5959,
      "##UN": 5960,
      "Corte": 5961,
      "protección": 5962,
      "plen": 5963,
      "argent": 5964,
      "asuntos": 5965,
      "##lina": 5966,
      "labr": 5967,
      "##éano": 5968,
      "##tanos": 5969,
      "solemne": 5970,
      "presa": 5971,
      "junio": 5972,
      "encontraba": 5973,
      "dueño": 5974,
      "sale": 5975,
      "ries": 5976,
      "alli": 5977,
      "##bación": 5978,
      "absoluta": 5979,
      "Ló": 5980,
      "defens": 5981,
      "lágrimas": 5982,
      "##migo": 5983,
      "Má": 5984,
      "continuó": 5985,
      "empezó": 5986,
      "formación": 5987,
      "marido": 5988,
      "ano": 5989,
      "proceder": 5990,
      "Cali": 5991,
      "sufrir": 5992,
      "Rodríguez": 5993,
      "##rillo": 5994,
      "encima": 5995,
      "GU": 5996,
      "Er": 5997,
      "aquello": 5998,
      "##ología": 5999,
      "##quias": 6000,
      "preso": 6001,
      "once": 6002,
      "Var": 6003,
      "jornada": 6004,
      "crist": 6005,
      "68": 6006,
      "alo": 6007,
      "Dipu": 6008,
      "atrás": 6009,
      "##vés": 6010,
      "ensa": 6011,
      "solemn": 6012,
      "##ticos": 6013,
      "##siva": 6014,
      "perteneci": 6015,
      "necesita": 6016,
      "campamento": 6017,
      "##ard": 6018,
      "Em": 6019,
      "64": 6020,
      "utilidad": 6021,
      "sangri": 6022,
      "##gran": 6023,
      "ald": 6024,
      "Hasta": 6025,
      "##lida": 6026,
      "necesidades": 6027,
      "vulgar": 6028,
      "ruina": 6029,
      "##dase": 6030,
      "##lara": 6031,
      "vive": 6032,
      "andar": 6033,
      "distingu": 6034,
      "castigo": 6035,
      "##ísimas": 6036,
      "llamaba": 6037,
      "sazón": 6038,
      "serie": 6039,
      "fui": 6040,
      "comien": 6041,
      "##arlos": 6042,
      "departamento": 6043,
      "magist": 6044,
      "Álvar": 6045,
      "##undo": 6046,
      "venia": 6047,
      "humano": 6048,
      "prensa": 6049,
      "Reina": 6050,
      "hambre": 6051,
      "MÉ": 6052,
      "ii": 6053,
      "##egas": 6054,
      "##érida": 6055,
      "error": 6056,
      "##toral": 6057,
      "darle": 6058,
      "soberano": 6059,
      "Tla": 6060,
      "pusieron": 6061,
      "residencia": 6062,
      "longitud": 6063,
      "##hat": 6064,
      "vano": 6065,
      "propon": 6066,
      "ocasiones": 6067,
      "##izarro": 6068,
      "impro": 6069,
      "Departa": 6070,
      "quinientos": 6071,
      "porvenir": 6072,
      "ricos": 6073,
      "francesa": 6074,
      "setiembre": 6075,
      "navios": 6076,
      "perfectamente": 6077,
      "mues": 6078,
      "##PAÑ": 6079,
      "##vero": 6080,
      "##visión": 6081,
      "ini": 6082,
      "consigo": 6083,
      "observar": 6084,
      "##midad": 6085,
      "latitud": 6086,
      "bierno": 6087,
      "far": 6088,
      "llevan": 6089,
      "mina": 6090,
      "muros": 6091,
      "##mita": 6092,
      "dispuso": 6093,
      "##bor": 6094,
      "dominio": 6095,
      "##fecto": 6096,
      "##chada": 6097,
      "Compañ": 6098,
      "antigüedad": 6099,
      "marina": 6100,
      "##ósitos": 6101,
      "satisfe": 6102,
      "secreto": 6103,
      "inmensa": 6104,
      "ciudadano": 6105,
      "echar": 6106,
      "famoso": 6107,
      "##drá": 6108,
      "califi": 6109,
      "generalmente": 6110,
      "comarca": 6111,
      "arroj": 6112,
      "Uru": 6113,
      "continente": 6114,
      "Are": 6115,
      "##amá": 6116,
      "rigor": 6117,
      "práctica": 6118,
      "Magdalena": 6119,
      "##iras": 6120,
      "##ólo": 6121,
      "cerem": 6122,
      "imagen": 6123,
      "fábrica": 6124,
      "maravil": 6125,
      "##teles": 6126,
      "pago": 6127,
      "desorden": 6128,
      "Santander": 6129,
      "ponerse": 6130,
      "oposición": 6131,
      "152": 6132,
      "encuentro": 6133,
      "audiencia": 6134,
      "revel": 6135,
      "bahía": 6136,
      "beneficio": 6137,
      "interrump": 6138,
      "Mos": 6139,
      "fér": 6140,
      "mero": 6141,
      "##quis": 6142,
      "##ement": 6143,
      "Bien": 6144,
      "##izada": 6145,
      "sucede": 6146,
      "##lantes": 6147,
      "indígenas": 6148,
      "cria": 6149,
      "próximo": 6150,
      "útil": 6151,
      "##ví": 6152,
      "doscientos": 6153,
      "pasiones": 6154,
      "Hon": 6155,
      "##edor": 6156,
      "Nacional": 6157,
      "lados": 6158,
      "fide": 6159,
      "espectá": 6160,
      "Hol": 6161,
      "ayu": 6162,
      "Gonzalo": 6163,
      "compuesta": 6164,
      "##gara": 6165,
      "grito": 6166,
      "persecu": 6167,
      "##mamente": 6168,
      "dicta": 6169,
      "comprende": 6170,
      "rebeldes": 6171,
      "pareció": 6172,
      "69": 6173,
      "mercan": 6174,
      "original": 6175,
      "brillante": 6176,
      "emin": 6177,
      "propie": 6178,
      "Pos": 6179,
      "##AY": 6180,
      "funcion": 6181,
      "##cana": 6182,
      "laguna": 6183,
      "Teniente": 6184,
      "Asi": 6185,
      "##empla": 6186,
      "ás": 6187,
      "##fac": 6188,
      "##legios": 6189,
      "demo": 6190,
      "encontra": 6191,
      "##gué": 6192,
      "Ir": 6193,
      "levantó": 6194,
      "##UEL": 6195,
      "pluma": 6196,
      "vé": 6197,
      "llevado": 6198,
      "insign": 6199,
      "##erra": 6200,
      "vecino": 6201,
      "poes": 6202,
      "Gre": 6203,
      "##raron": 6204,
      "diciembre": 6205,
      "ría": 6206,
      "quizá": 6207,
      "Rosas": 6208,
      "Vel": 6209,
      "fuente": 6210,
      "pien": 6211,
      "cump": 6212,
      "ani": 6213,
      "patr": 6214,
      "pasando": 6215,
      "tama": 6216,
      "físi": 6217,
      "masa": 6218,
      "preocu": 6219,
      "Rafa": 6220,
      "aci": 6221,
      "66": 6222,
      "horror": 6223,
      "arru": 6224,
      "sao": 6225,
      "organización": 6226,
      "##vora": 6227,
      "##umer": 6228,
      "fraga": 6229,
      "periódico": 6230,
      "despues": 6231,
      "patriotas": 6232,
      "##ábase": 6233,
      "acredi": 6234,
      "Castillo": 6235,
      "doble": 6236,
      "##tacion": 6237,
      "##renta": 6238,
      "##dario": 6239,
      "##mis": 6240,
      "entera": 6241,
      "Rivera": 6242,
      "quem": 6243,
      "hogar": 6244,
      "##laba": 6245,
      "##bara": 6246,
      "razon": 6247,
      "prefer": 6248,
      "Ban": 6249,
      "##chs": 6250,
      "##abas": 6251,
      "Campo": 6252,
      "##rí": 6253,
      "##gura": 6254,
      "##vimos": 6255,
      "##amentos": 6256,
      "prepara": 6257,
      "romanos": 6258,
      "oí": 6259,
      "##ka": 6260,
      "##sticia": 6261,
      "invad": 6262,
      "preguntó": 6263,
      "aves": 6264,
      "##áronse": 6265,
      "investi": 6266,
      "acontecimientos": 6267,
      "Ahora": 6268,
      "cacique": 6269,
      "##gia": 6270,
      "pací": 6271,
      "aument": 6272,
      "##tarle": 6273,
      "67": 6274,
      "##asi": 6275,
      "##laron": 6276,
      "facilidad": 6277,
      "llo": 6278,
      "políticas": 6279,
      "##vez": 6280,
      "muestra": 6281,
      "##ól": 6282,
      "kilóme": 6283,
      "deu": 6284,
      "##aná": 6285,
      "##yes": 6286,
      "fero": 6287,
      "discip": 6288,
      "Valdi": 6289,
      "##menes": 6290,
      "López": 6291,
      "bó": 6292,
      "##sticas": 6293,
      "##chez": 6294,
      "otor": 6295,
      "quebr": 6296,
      "procla": 6297,
      "frecuencia": 6298,
      "##rarse": 6299,
      "##rim": 6300,
      "marchar": 6301,
      "Jor": 6302,
      "##inato": 6303,
      "ofrecer": 6304,
      "guarda": 6305,
      "podian": 6306,
      "##andro": 6307,
      "tesor": 6308,
      "##orado": 6309,
      "quedan": 6310,
      "juez": 6311,
      "grados": 6312,
      "aná": 6313,
      "azul": 6314,
      "##trando": 6315,
      "##áticas": 6316,
      "estudios": 6317,
      "torn": 6318,
      "digna": 6319,
      "voces": 6320,
      "depois": 6321,
      "##fera": 6322,
      "##ázquez": 6323,
      "necesaria": 6324,
      "##titu": 6325,
      "sabia": 6326,
      "occidental": 6327,
      "72": 6328,
      "inmenso": 6329,
      "Barto": 6330,
      "enviado": 6331,
      "##lana": 6332,
      "##ERN": 6333,
      "DO": 6334,
      "consign": 6335,
      "Pontevedra": 6336,
      "153": 6337,
      "dedu": 6338,
      "seguido": 6339,
      "religioso": 6340,
      "##ual": 6341,
      "##bos": 6342,
      "judi": 6343,
      "observaciones": 6344,
      "fortifi": 6345,
      "colegio": 6346,
      "acaba": 6347,
      "Cabo": 6348,
      "##ieza": 6349,
      "febrero": 6350,
      "caba": 6351,
      "Durante": 6352,
      "reempla": 6353,
      "neral": 6354,
      "reflex": 6355,
      "##rones": 6356,
      "producir": 6357,
      "##zca": 6358,
      "pasaron": 6359,
      "públicas": 6360,
      "Martínez": 6361,
      "reprodu": 6362,
      "presentar": 6363,
      "##amanca": 6364,
      "IX": 6365,
      "##rente": 6366,
      "Diaz": 6367,
      "Tur": 6368,
      "letra": 6369,
      "armon": 6370,
      "##izas": 6371,
      "superiores": 6372,
      "Pol": 6373,
      "##gamos": 6374,
      "arco": 6375,
      "mila": 6376,
      "desarrollo": 6377,
      "mayoría": 6378,
      "Fili": 6379,
      "##DI": 6380,
      "perjui": 6381,
      "acababa": 6382,
      "encargado": 6383,
      "já": 6384,
      "creyó": 6385,
      "##illos": 6386,
      "abor": 6387,
      "presentes": 6388,
      "##adier": 6389,
      "estados": 6390,
      "pruebas": 6391,
      "describ": 6392,
      "##cente": 6393,
      "crédito": 6394,
      "verde": 6395,
      "Oeste": 6396,
      "escon": 6397,
      "Ejército": 6398,
      "dije": 6399,
      "obediencia": 6400,
      "Nor": 6401,
      "obse": 6402,
      "VIL": 6403,
      "della": 6404,
      "##árse": 6405,
      "iguales": 6406,
      "Flores": 6407,
      "cír": 6408,
      "escena": 6409,
      "pudieran": 6410,
      "ger": 6411,
      "Muer": 6412,
      "tros": 6413,
      "cabezas": 6414,
      "##ut": 6415,
      "Dista": 6416,
      "vía": 6417,
      "saben": 6418,
      "155": 6419,
      "Joaquín": 6420,
      "pase": 6421,
      "Cuzco": 6422,
      "hue": 6423,
      "pis": 6424,
      "marin": 6425,
      "Quito": 6426,
      "bem": 6427,
      "herido": 6428,
      "fom": 6429,
      "vienen": 6430,
      "71": 6431,
      "llano": 6432,
      "peti": 6433,
      "Ala": 6434,
      "##tillas": 6435,
      "##ilar": 6436,
      "cubierta": 6437,
      "Galicia": 6438,
      "Guadala": 6439,
      "tambien": 6440,
      "Supre": 6441,
      "ari": 6442,
      "##cum": 6443,
      "voy": 6444,
      "experim": 6445,
      "##jal": 6446,
      "publicó": 6447,
      "agricultura": 6448,
      "##mido": 6449,
      "##lera": 6450,
      "##goza": 6451,
      "valiente": 6452,
      "valles": 6453,
      "miedo": 6454,
      "gab": 6455,
      "deposi": 6456,
      "reda": 6457,
      "175": 6458,
      "avi": 6459,
      "odio": 6460,
      "fácilmente": 6461,
      "perpetu": 6462,
      "funciones": 6463,
      "##dero": 6464,
      "riquezas": 6465,
      "Trib": 6466,
      "cayó": 6467,
      "material": 6468,
      "##chó": 6469,
      "rever": 6470,
      "ejércitos": 6471,
      "música": 6472,
      "##pin": 6473,
      "éstas": 6474,
      "set": 6475,
      "mision": 6476,
      "encen": 6477,
      "dibu": 6478,
      "dispar": 6479,
      "habiéndose": 6480,
      "nú": 6481,
      "envuel": 6482,
      "animal": 6483,
      "corresponde": 6484,
      "cose": 6485,
      "81": 6486,
      "disi": 6487,
      "##hen": 6488,
      "licencia": 6489,
      "feder": 6490,
      "noviembre": 6491,
      "##han": 6492,
      "alturas": 6493,
      "tribunal": 6494,
      "ampli": 6495,
      "##ampa": 6496,
      "fes": 6497,
      "obs": 6498,
      "capri": 6499,
      "Alej": 6500,
      "vencer": 6501,
      "82": 6502,
      "esperaba": 6503,
      "resistir": 6504,
      "acompañado": 6505,
      "propias": 6506,
      "representación": 6507,
      "##AB": 6508,
      "##erales": 6509,
      "##éndolo": 6510,
      "157": 6511,
      "##cien": 6512,
      "caudal": 6513,
      "doctrina": 6514,
      "sentencia": 6515,
      "Zam": 6516,
      "##adi": 6517,
      "Gas": 6518,
      "arroyo": 6519,
      "instrucciones": 6520,
      "componen": 6521,
      "esfuerzo": 6522,
      "##rilla": 6523,
      "Ast": 6524,
      "vela": 6525,
      "descubrir": 6526,
      "mineral": 6527,
      "##ándolos": 6528,
      "##lamento": 6529,
      "tomaron": 6530,
      "estación": 6531,
      "cio": 6532,
      "parecen": 6533,
      "154": 6534,
      "dip": 6535,
      "reunir": 6536,
      "apun": 6537,
      "Oriental": 6538,
      "ang": 6539,
      "##ditos": 6540,
      "##tadores": 6541,
      "nacionales": 6542,
      "##quil": 6543,
      "españolas": 6544,
      "##EO": 6545,
      "perdon": 6546,
      "Rafael": 6547,
      "poderes": 6548,
      "destruir": 6549,
      "tradición": 6550,
      "decirse": 6551,
      "dada": 6552,
      "plano": 6553,
      "socorro": 6554,
      "verdaderamente": 6555,
      "escritores": 6556,
      "##tus": 6557,
      "significa": 6558,
      "hábi": 6559,
      "hoi": 6560,
      "contener": 6561,
      "infin": 6562,
      "tranquilidad": 6563,
      "##bur": 6564,
      "Rica": 6565,
      "provi": 6566,
      "pudiese": 6567,
      "##pú": 6568,
      "156": 6569,
      "Lis": 6570,
      "##ída": 6571,
      "gor": 6572,
      "fla": 6573,
      "##eis": 6574,
      "##tanto": 6575,
      "sueño": 6576,
      "COM": 6577,
      "tiro": 6578,
      "##nador": 6579,
      "esti": 6580,
      "Juli": 6581,
      "##éndoles": 6582,
      "constitucional": 6583,
      "VIII": 6584,
      "##entí": 6585,
      "ocasion": 6586,
      "mue": 6587,
      "escritor": 6588,
      "##pera": 6589,
      "misa": 6590,
      "bia": 6591,
      "equivo": 6592,
      "78": 6593,
      "mío": 6594,
      "vasallos": 6595,
      "##losa": 6596,
      "denomin": 6597,
      "atacar": 6598,
      "##góes": 6599,
      "navegación": 6600,
      "retro": 6601,
      "provo": 6602,
      "presos": 6603,
      "Palacio": 6604,
      "dez": 6605,
      "falle": 6606,
      "debemos": 6607,
      "Pob": 6608,
      "terror": 6609,
      "perio": 6610,
      "Londres": 6611,
      "través": 6612,
      "plazas": 6613,
      "instituciones": 6614,
      "Janeiro": 6615,
      "##rino": 6616,
      "necesarios": 6617,
      "guardar": 6618,
      "mexicanos": 6619,
      "JU": 6620,
      "Mariano": 6621,
      "pira": 6622,
      "sacrificios": 6623,
      "ina": 6624,
      "##tasen": 6625,
      "##DE": 6626,
      "jamas": 6627,
      "##reo": 6628,
      "hará": 6629,
      "modes": 6630,
      "hacian": 6631,
      "fatal": 6632,
      "Pizarro": 6633,
      "Conf": 6634,
      "ara": 6635,
      "aren": 6636,
      "##eciendo": 6637,
      "##timos": 6638,
      "##ay": 6639,
      "##simo": 6640,
      "visitar": 6641,
      "##uros": 6642,
      "abundante": 6643,
      "respuesta": 6644,
      "piedad": 6645,
      "och": 6646,
      "arma": 6647,
      "grad": 6648,
      "gobiernos": 6649,
      "Argent": 6650,
      "POR": 6651,
      "individuo": 6652,
      "LE": 6653,
      "subli": 6654,
      "XVI": 6655,
      "90": 6656,
      "distante": 6657,
      "Andes": 6658,
      "subir": 6659,
      "Sim": 6660,
      "exclamó": 6661,
      "##ribles": 6662,
      "Bri": 6663,
      "templos": 6664,
      "Zaragoza": 6665,
      "##gico": 6666,
      "regal": 6667,
      "citada": 6668,
      "empres": 6669,
      "merece": 6670,
      "Cristo": 6671,
      "aumento": 6672,
      "Rusia": 6673,
      "trato": 6674,
      "malo": 6675,
      "huer": 6676,
      "confer": 6677,
      "hablando": 6678,
      "liberales": 6679,
      "cib": 6680,
      "educación": 6681,
      "reno": 6682,
      "reclam": 6683,
      "abandonar": 6684,
      "74": 6685,
      "votos": 6686,
      "##erse": 6687,
      "Está": 6688,
      "##mio": 6689,
      "exci": 6690,
      "##dalu": 6691,
      "##sima": 6692,
      "vil": 6693,
      "##gh": 6694,
      "profunda": 6695,
      "##dencias": 6696,
      "Yucatán": 6697,
      "Fo": 6698,
      "##tab": 6699,
      "##izó": 6700,
      "##cedente": 6701,
      "conjunto": 6702,
      "talento": 6703,
      "77": 6704,
      "aconse": 6705,
      "verti": 6706,
      "clero": 6707,
      "##ós": 6708,
      "##ller": 6709,
      "entregar": 6710,
      "189": 6711,
      "espar": 6712,
      "Doctor": 6713,
      "irri": 6714,
      "Sebastian": 6715,
      "velo": 6716,
      "juzgar": 6717,
      "délos": 6718,
      "derra": 6719,
      "Oro": 6720,
      "fij": 6721,
      "conviene": 6722,
      "83": 6723,
      "ocupado": 6724,
      "cuel": 6725,
      "Ali": 6726,
      "##íso": 6727,
      "##aderos": 6728,
      "caudillo": 6729,
      "Mil": 6730,
      "158": 6731,
      "árabes": 6732,
      "ainda": 6733,
      "arreba": 6734,
      "fondos": 6735,
      "necesarias": 6736,
      "dejaba": 6737,
      "##zones": 6738,
      "arena": 6739,
      "recordar": 6740,
      "consecuencias": 6741,
      "Amb": 6742,
      "guarde": 6743,
      "##iamente": 6744,
      "Caball": 6745,
      "Nar": 6746,
      "##pio": 6747,
      "cron": 6748,
      "##cemos": 6749,
      "##ficaciones": 6750,
      "históri": 6751,
      "labios": 6752,
      "notar": 6753,
      "esla": 6754,
      "##vias": 6755,
      "151": 6756,
      "##esas": 6757,
      "difun": 6758,
      "inh": 6759,
      "iglesias": 6760,
      "##rue": 6761,
      "##cura": 6762,
      "quie": 6763,
      "hiciese": 6764,
      "Príncipe": 6765,
      "supuesto": 6766,
      "aper": 6767,
      "frontera": 6768,
      "coro": 6769,
      "inmediaciones": 6770,
      "enér": 6771,
      "ansi": 6772,
      "600": 6773,
      "76": 6774,
      "americano": 6775,
      "##ticas": 6776,
      "fiestas": 6777,
      "inmediata": 6778,
      "ia": 6779,
      "Il": 6780,
      "maríti": 6781,
      "Napole": 6782,
      "extranjeros": 6783,
      "homb": 6784,
      "reinado": 6785,
      "##entación": 6786,
      "opiniones": 6787,
      "73": 6788,
      "llevaban": 6789,
      "nombramiento": 6790,
      "Caracas": 6791,
      "##cero": 6792,
      "##cib": 6793,
      "##dice": 6794,
      "mul": 6795,
      "luna": 6796,
      "vestido": 6797,
      "intento": 6798,
      "Compañía": 6799,
      "##yon": 6800,
      "paral": 6801,
      "monasterio": 6802,
      "Hos": 6803,
      "ropa": 6804,
      "blancos": 6805,
      "bién": 6806,
      "Dic": 6807,
      "habt": 6808,
      "nó": 6809,
      "MS": 6810,
      "159": 6811,
      "civiles": 6812,
      "toca": 6813,
      "arcos": 6814,
      "##hia": 6815,
      "Io": 6816,
      "moneda": 6817,
      "ordinario": 6818,
      "figuras": 6819,
      "Vega": 6820,
      "conocida": 6821,
      "papeles": 6822,
      "playa": 6823,
      "despacho": 6824,
      "útiles": 6825,
      "##darios": 6826,
      "tempes": 6827,
      "fuga": 6828,
      "correspondiente": 6829,
      "Cámara": 6830,
      "bul": 6831,
      "##tamos": 6832,
      "##CCIÓN": 6833,
      "vaci": 6834,
      "debian": 6835,
      "##torias": 6836,
      "aso": 6837,
      "Exc": 6838,
      "negra": 6839,
      "##idencias": 6840,
      "penas": 6841,
      "mode": 6842,
      "MON": 6843,
      "sacrificio": 6844,
      "aust": 6845,
      "invierno": 6846,
      "abierto": 6847,
      "incorpor": 6848,
      "recin": 6849,
      "161": 6850,
      "cidade": 6851,
      "##cable": 6852,
      "pudiendo": 6853,
      "##enti": 6854,
      "84": 6855,
      "enfermedad": 6856,
      "memor": 6857,
      "cub": 6858,
      "Guti": 6859,
      "inmediato": 6860,
      "hubiesen": 6861,
      "Península": 6862,
      "cristiana": 6863,
      "resuelto": 6864,
      "85": 6865,
      "##uto": 6866,
      "Torres": 6867,
      "DES": 6868,
      "realistas": 6869,
      "industri": 6870,
      "Santos": 6871,
      "##tez": 6872,
      "Tol": 6873,
      "Lan": 6874,
      "declaró": 6875,
      "##rador": 6876,
      "fuere": 6877,
      "interesante": 6878,
      "CO": 6879,
      "juntos": 6880,
      "##daron": 6881,
      "##esar": 6882,
      "Sán": 6883,
      "##tuosa": 6884,
      "catedral": 6885,
      "##ándome": 6886,
      "##terrán": 6887,
      "ramo": 6888,
      "idioma": 6889,
      "elevado": 6890,
      "declaración": 6891,
      "contaba": 6892,
      "empleo": 6893,
      "AM": 6894,
      "vuestros": 6895,
      "ochenta": 6896,
      "hechas": 6897,
      "##diese": 6898,
      "Valdivia": 6899,
      "gre": 6900,
      "gig": 6901,
      "zo": 6902,
      "##lomé": 6903,
      "om": 6904,
      "ital": 6905,
      "descubierto": 6906,
      "conmo": 6907,
      "Catedral": 6908,
      "universal": 6909,
      "COR": 6910,
      "##uta": 6911,
      "ganados": 6912,
      "mención": 6913,
      "fur": 6914,
      "##deras": 6915,
      "orgullo": 6916,
      "##grados": 6917,
      "cun": 6918,
      "provincial": 6919,
      "épocas": 6920,
      "desembo": 6921,
      "movimientos": 6922,
      "gos": 6923,
      "kilómetros": 6924,
      "##ani": 6925,
      "##dadas": 6926,
      "aventur": 6927,
      "rá": 6928,
      "paredes": 6929,
      "Nación": 6930,
      "mares": 6931,
      "cultivo": 6932,
      "##ZA": 6933,
      "##ventud": 6934,
      "abrió": 6935,
      "Puente": 6936,
      "propa": 6937,
      "##edi": 6938,
      "vuelto": 6939,
      "Estre": 6940,
      "suele": 6941,
      "Salamanca": 6942,
      "##alla": 6943,
      "embarca": 6944,
      "regist": 6945,
      "juramento": 6946,
      "inclin": 6947,
      "querer": 6948,
      "discurso": 6949,
      "ríos": 6950,
      "##amen": 6951,
      "fol": 6952,
      "##dada": 6953,
      "desierto": 6954,
      "nem": 6955,
      "##ciles": 6956,
      "salvo": 6957,
      "descubrimiento": 6958,
      "##erío": 6959,
      "prima": 6960,
      "operación": 6961,
      "##sem": 6962,
      "reba": 6963,
      "Cada": 6964,
      "Medina": 6965,
      "##cible": 6966,
      "Guadalajara": 6967,
      "Cuer": 6968,
      "establecido": 6969,
      "Bernardo": 6970,
      "Lie": 6971,
      "fic": 6972,
      "sorpresa": 6973,
      "##ficado": 6974,
      "nombró": 6975,
      "hermana": 6976,
      "víctimas": 6977,
      "filas": 6978,
      "ayer": 6979,
      "##RIO": 6980,
      "sun": 6981,
      "Calle": 6982,
      "exterior": 6983,
      "Aran": 6984,
      "##áticos": 6985,
      "energía": 6986,
      "obsequi": 6987,
      "Itur": 6988,
      "##cientas": 6989,
      "bendi": 6990,
      "conducir": 6991,
      "vivi": 6992,
      "##TAL": 6993,
      "Vo": 6994,
      "Contin": 6995,
      "##cn": 6996,
      "Soci": 6997,
      "invasión": 6998,
      "##taro": 6999,
      "europeos": 7000,
      "cédula": 7001,
      "##quera": 7002,
      "Bolivia": 7003,
      "##sito": 7004,
      "Comp": 7005,
      "estrecho": 7006,
      "ramos": 7007,
      "ris": 7008,
      "produjo": 7009,
      "Bartolomé": 7010,
      "##seo": 7011,
      "pieza": 7012,
      "alcanzar": 7013,
      "Fray": 7014,
      "naves": 7015,
      "162": 7016,
      "##deros": 7017,
      "debo": 7018,
      "##triz": 7019,
      "caracteres": 7020,
      "negocia": 7021,
      "juventud": 7022,
      "emprender": 7023,
      "Blanco": 7024,
      "bello": 7025,
      "obligación": 7026,
      "##gulo": 7027,
      "trató": 7028,
      "##ENTOS": 7029,
      "##mismo": 7030,
      "Lar": 7031,
      "Toda": 7032,
      "Poder": 7033,
      "municiones": 7034,
      "ordenó": 7035,
      "##ins": 7036,
      "diese": 7037,
      "paga": 7038,
      "Algunos": 7039,
      "Mara": 7040,
      "Tres": 7041,
      "bóve": 7042,
      "Sac": 7043,
      "dose": 7044,
      "municipal": 7045,
      "Greg": 7046,
      "fueran": 7047,
      "Bretaña": 7048,
      "viven": 7049,
      "consum": 7050,
      "deman": 7051,
      "exe": 7052,
      "coo": 7053,
      "fas": 7054,
      "flu": 7055,
      "Poco": 7056,
      "Bon": 7057,
      "##ÁN": 7058,
      "##alco": 7059,
      "##ómen": 7060,
      "trá": 7061,
      "Nu": 7062,
      "vid": 7063,
      "silla": 7064,
      "Arti": 7065,
      "disfru": 7066,
      "precisamente": 7067,
      "César": 7068,
      "Rosa": 7069,
      "numerosos": 7070,
      "Hoy": 7071,
      "obrar": 7072,
      "bella": 7073,
      "comi": 7074,
      "navio": 7075,
      "unifor": 7076,
      "Napoleón": 7077,
      "79": 7078,
      "SU": 7079,
      "##ex": 7080,
      "##bol": 7081,
      "ayuntamiento": 7082,
      "Sud": 7083,
      "mensa": 7084,
      "detener": 7085,
      "##gues": 7086,
      "veía": 7087,
      "exal": 7088,
      "dó": 7089,
      "cí": 7090,
      "Victoria": 7091,
      "##jón": 7092,
      "hablado": 7093,
      "efectu": 7094,
      "aproxim": 7095,
      "sirven": 7096,
      "policía": 7097,
      "canón": 7098,
      "crimen": 7099,
      "chas": 7100,
      "monarquía": 7101,
      "importa": 7102,
      "Hua": 7103,
      "caza": 7104,
      "últimas": 7105,
      "bergan": 7106,
      "estamos": 7107,
      "chac": 7108,
      "aho": 7109,
      "prisionero": 7110,
      "grupos": 7111,
      "acciones": 7112,
      "gefes": 7113,
      "##RU": 7114,
      "tercer": 7115,
      "sacerdotes": 7116,
      "##tosa": 7117,
      "queb": 7118,
      "excep": 7119,
      "actitud": 7120,
      "logró": 7121,
      "##cala": 7122,
      "tá": 7123,
      "##guió": 7124,
      "ausencia": 7125,
      "##uitas": 7126,
      "##ladas": 7127,
      "peru": 7128,
      "##cus": 7129,
      "tel": 7130,
      "##hon": 7131,
      "cárcel": 7132,
      "##gentes": 7133,
      "##umas": 7134,
      "nobleza": 7135,
      "rie": 7136,
      "anno": 7137,
      "Már": 7138,
      "##ridos": 7139,
      "llegando": 7140,
      "Cató": 7141,
      "##ly": 7142,
      "segui": 7143,
      "Cons": 7144,
      "testigos": 7145,
      "##cázar": 7146,
      "saque": 7147,
      "venganza": 7148,
      "enfermos": 7149,
      "romano": 7150,
      "##unció": 7151,
      "##ezca": 7152,
      "##bamos": 7153,
      "particularmente": 7154,
      "gene": 7155,
      "habit": 7156,
      "DI": 7157,
      "religiosas": 7158,
      "subsist": 7159,
      "Navarra": 7160,
      "##jue": 7161,
      "Guana": 7162,
      "retirarse": 7163,
      "pel": 7164,
      "reconocimiento": 7165,
      "##ux": 7166,
      "alcance": 7167,
      "fundó": 7168,
      "##ecida": 7169,
      "cima": 7170,
      "sabio": 7171,
      "pobla": 7172,
      "monumentos": 7173,
      "nacido": 7174,
      "miseria": 7175,
      "##cs": 7176,
      "tocar": 7177,
      "descripción": 7178,
      "minutos": 7179,
      "estension": 7180,
      "cubrir": 7181,
      "##enza": 7182,
      "##inosa": 7183,
      "indud": 7184,
      "##tili": 7185,
      "gritos": 7186,
      "prudencia": 7187,
      "marques": 7188,
      "auto": 7189,
      "##idalgo": 7190,
      "##tte": 7191,
      "vientos": 7192,
      "Total": 7193,
      "legisla": 7194,
      "sesión": 7195,
      "fuentes": 7196,
      "esm": 7197,
      "probar": 7198,
      "distinguido": 7199,
      "jardin": 7200,
      "Univers": 7201,
      "##case": 7202,
      "considera": 7203,
      "vestidos": 7204,
      "174": 7205,
      "bondad": 7206,
      "##remos": 7207,
      "constit": 7208,
      "horrible": 7209,
      "Libertador": 7210,
      "espectáculo": 7211,
      "##amar": 7212,
      "pelos": 7213,
      "acá": 7214,
      "rato": 7215,
      "ciencias": 7216,
      "cargos": 7217,
      "concluir": 7218,
      "##leo": 7219,
      "##tirse": 7220,
      "temb": 7221,
      "presentan": 7222,
      "cuch": 7223,
      "cuantas": 7224,
      "intelig": 7225,
      "##rimir": 7226,
      "oriente": 7227,
      "Imperio": 7228,
      "Viz": 7229,
      "fieles": 7230,
      "Vie": 7231,
      "publicado": 7232,
      "##abia": 7233,
      "manus": 7234,
      "puesta": 7235,
      "gros": 7236,
      "vemos": 7237,
      "prohi": 7238,
      "peor": 7239,
      "##iblioteca": 7240,
      "pera": 7241,
      "Además": 7242,
      "recuerdos": 7243,
      "Tomás": 7244,
      "Fernandez": 7245,
      "tempo": 7246,
      "##AJ": 7247,
      "##íes": 7248,
      "arrib": 7249,
      "tratados": 7250,
      "Muy": 7251,
      "recinto": 7252,
      "##irá": 7253,
      "consent": 7254,
      "inex": 7255,
      "##izados": 7256,
      "Acad": 7257,
      "largas": 7258,
      "confu": 7259,
      "nov": 7260,
      "conocimientos": 7261,
      "refi": 7262,
      "redon": 7263,
      "asimismo": 7264,
      "Patria": 7265,
      "Cuenca": 7266,
      "sitios": 7267,
      "crea": 7268,
      "##ñó": 7269,
      "débil": 7270,
      "ultra": 7271,
      "Ayuntamiento": 7272,
      "##arán": 7273,
      "dioses": 7274,
      "##ERAL": 7275,
      "##larse": 7276,
      "observ": 7277,
      "averi": 7278,
      "Rosario": 7279,
      "##centes": 7280,
      "ago": 7281,
      "Secretario": 7282,
      "semi": 7283,
      "formó": 7284,
      "firm": 7285,
      "posterior": 7286,
      "inse": 7287,
      "construir": 7288,
      "ló": 7289,
      "deser": 7290,
      "espera": 7291,
      "periódicos": 7292,
      "Sánchez": 7293,
      "sabemos": 7294,
      "Cla": 7295,
      "ído": 7296,
      "##END": 7297,
      "espiritu": 7298,
      "##ty": 7299,
      "dados": 7300,
      "lectores": 7301,
      "hice": 7302,
      "alb": 7303,
      "discre": 7304,
      "##ANA": 7305,
      "##gráfica": 7306,
      "##dumbre": 7307,
      "insul": 7308,
      "setenta": 7309,
      "nombrar": 7310,
      "##dría": 7311,
      "rum": 7312,
      "humilde": 7313,
      "une": 7314,
      "empu": 7315,
      "pertenece": 7316,
      "rebeli": 7317,
      "arzobispo": 7318,
      "adj": 7319,
      "pintores": 7320,
      "háb": 7321,
      "dueños": 7322,
      "vosotros": 7323,
      "ensan": 7324,
      "nome": 7325,
      "rue": 7326,
      "##ko": 7327,
      "dejan": 7328,
      "caz": 7329,
      "ans": 7330,
      "compla": 7331,
      "belleza": 7332,
      "Nuestro": 7333,
      "súb": 7334,
      "franque": 7335,
      "condes": 7336,
      "##unt": 7337,
      "##chor": 7338,
      "usur": 7339,
      "Adelan": 7340,
      "novedad": 7341,
      "habido": 7342,
      "##ides": 7343,
      "fenómen": 7344,
      "Tre": 7345,
      "compuesto": 7346,
      "Agui": 7347,
      "indis": 7348,
      "##int": 7349,
      "inci": 7350,
      "cuestiones": 7351,
      "Nin": 7352,
      "##RIM": 7353,
      "inver": 7354,
      "cerros": 7355,
      "Director": 7356,
      "inici": 7357,
      "mane": 7358,
      "entero": 7359,
      "##eranía": 7360,
      "vigil": 7361,
      "##unal": 7362,
      "bando": 7363,
      "compañías": 7364,
      "cercan": 7365,
      "admirable": 7366,
      "##lij": 7367,
      "hallarse": 7368,
      "UN": 7369,
      "##sivo": 7370,
      "comerci": 7371,
      "reducido": 7372,
      "Núm": 7373,
      "darse": 7374,
      "comunes": 7375,
      "armados": 7376,
      "barran": 7377,
      "reta": 7378,
      "intención": 7379,
      "##tepec": 7380,
      "circular": 7381,
      "Solo": 7382,
      "tempera": 7383,
      "quiz": 7384,
      "Duque": 7385,
      "##tlán": 7386,
      "conmigo": 7387,
      "##iese": 7388,
      "viajero": 7389,
      "Villar": 7390,
      "versos": 7391,
      "vale": 7392,
      "pic": 7393,
      "##quin": 7394,
      "rival": 7395,
      "eri": 7396,
      "hun": 7397,
      "perm": 7398,
      "volvieron": 7399,
      "##pidez": 7400,
      "vuelve": 7401,
      "vincia": 7402,
      "ilum": 7403,
      "##éramos": 7404,
      "llanura": 7405,
      "trigo": 7406,
      "feli": 7407,
      "##tías": 7408,
      "nacimiento": 7409,
      "escala": 7410,
      "escritos": 7411,
      "demostra": 7412,
      "cama": 7413,
      "Uno": 7414,
      "enviar": 7415,
      "salu": 7416,
      "##jio": 7417,
      "86": 7418,
      "barrio": 7419,
      "consiste": 7420,
      "suelen": 7421,
      "secun": 7422,
      "custo": 7423,
      "##emin": 7424,
      "argu": 7425,
      "quieren": 7426,
      "moles": 7427,
      "tercero": 7428,
      "traje": 7429,
      "alegre": 7430,
      "almirante": 7431,
      "##gol": 7432,
      "esfor": 7433,
      "imperial": 7434,
      "Ata": 7435,
      "##enes": 7436,
      "enla": 7437,
      "expor": 7438,
      "distri": 7439,
      "Todas": 7440,
      "Municip": 7441,
      "Fal": 7442,
      "compro": 7443,
      "trán": 7444,
      "##CU": 7445,
      "conces": 7446,
      "sobres": 7447,
      "sever": 7448,
      "ambición": 7449,
      "##ellos": 7450,
      "##ans": 7451,
      "cientí": 7452,
      "valeros": 7453,
      "sirvió": 7454,
      "ventaja": 7455,
      "límite": 7456,
      "manifiesta": 7457,
      "habria": 7458,
      "explo": 7459,
      "prosperidad": 7460,
      "Án": 7461,
      "indispensable": 7462,
      "Marina": 7463,
      "ánimos": 7464,
      "Gregorio": 7465,
      "cuál": 7466,
      "admiración": 7467,
      "Potos": 7468,
      "cadáver": 7469,
      "patrió": 7470,
      "tendrá": 7471,
      "reve": 7472,
      "cabe": 7473,
      "##teza": 7474,
      "##tiz": 7475,
      "quanto": 7476,
      "establecimientos": 7477,
      "hallaron": 7478,
      "88": 7479,
      "informe": 7480,
      "dista": 7481,
      "dominación": 7482,
      "##temala": 7483,
      "Álvarez": 7484,
      "nace": 7485,
      "Hé": 7486,
      "auda": 7487,
      "terminar": 7488,
      "reserva": 7489,
      "inquie": 7490,
      "##yn": 7491,
      "Arro": 7492,
      "sufrido": 7493,
      "##cedes": 7494,
      "164": 7495,
      "trataba": 7496,
      "presen": 7497,
      "Escu": 7498,
      "##ife": 7499,
      "pusi": 7500,
      "resolvió": 7501,
      "Sub": 7502,
      "económi": 7503,
      "cán": 7504,
      "café": 7505,
      "172": 7506,
      "##éndola": 7507,
      "##dera": 7508,
      "163": 7509,
      "satisfacer": 7510,
      "perjudi": 7511,
      "##ei": 7512,
      "partici": 7513,
      "recibe": 7514,
      "tó": 7515,
      "##trópoli": 7516,
      "Hor": 7517,
      "semp": 7518,
      "governo": 7519,
      "Departamento": 7520,
      "##del": 7521,
      "eman": 7522,
      "ocupaba": 7523,
      "Ejecu": 7524,
      "##gida": 7525,
      "Ol": 7526,
      "##peración": 7527,
      "porción": 7528,
      "##gente": 7529,
      "corp": 7530,
      "Tes": 7531,
      "estan": 7532,
      "Más": 7533,
      "nació": 7534,
      "aumentar": 7535,
      "reforma": 7536,
      "agradable": 7537,
      "pren": 7538,
      "Plaza": 7539,
      "reinos": 7540,
      "vender": 7541,
      "aceptar": 7542,
      "simpa": 7543,
      "favorable": 7544,
      "##jados": 7545,
      "MU": 7546,
      "##camos": 7547,
      "Medi": 7548,
      "Cent": 7549,
      "campan": 7550,
      "codi": 7551,
      "Casas": 7552,
      "destinado": 7553,
      "lluvia": 7554,
      "Nie": 7555,
      "fos": 7556,
      "haciendas": 7557,
      "materiales": 7558,
      "uma": 7559,
      "numerosas": 7560,
      "intent": 7561,
      "epi": 7562,
      "indica": 7563,
      "finalmente": 7564,
      "conquistadores": 7565,
      "povo": 7566,
      "##pol": 7567,
      "estima": 7568,
      "##chu": 7569,
      "##jía": 7570,
      "deberes": 7571,
      "##alia": 7572,
      "##torce": 7573,
      "tiem": 7574,
      "##timo": 7575,
      "facultad": 7576,
      "renta": 7577,
      "historiador": 7578,
      "dejaron": 7579,
      "suponer": 7580,
      "##érrez": 7581,
      "llamados": 7582,
      "ocupación": 7583,
      "Panamá": 7584,
      "moradores": 7585,
      "REV": 7586,
      "##zuela": 7587,
      "##adí": 7588,
      "patio": 7589,
      "compara": 7590,
      "ayuda": 7591,
      "diá": 7592,
      "referir": 7593,
      "Españoles": 7594,
      "Esco": 7595,
      "Ofici": 7596,
      "##rillos": 7597,
      "fragata": 7598,
      "##cantes": 7599,
      "##tima": 7600,
      "dirigi": 7601,
      "##ugo": 7602,
      "inclu": 7603,
      "87": 7604,
      "rema": 7605,
      "continuación": 7606,
      "Sociedad": 7607,
      "zona": 7608,
      "##uar": 7609,
      "nuevamente": 7610,
      "llamaban": 7611,
      "aldea": 7612,
      "800": 7613,
      "Rib": 7614,
      "Valpara": 7615,
      "situa": 7616,
      "##ork": 7617,
      "fundado": 7618,
      "Señores": 7619,
      "compañero": 7620,
      "##OLU": 7621,
      "luces": 7622,
      "165": 7623,
      "sole": 7624,
      "tipo": 7625,
      "##gros": 7626,
      "Arzobispo": 7627,
      "combatir": 7628,
      "salvajes": 7629,
      "riesgo": 7630,
      "proposición": 7631,
      "algodón": 7632,
      "diputado": 7633,
      "bras": 7634,
      "##jaba": 7635,
      "##urias": 7636,
      "nal": 7637,
      "nado": 7638,
      "##AM": 7639,
      "independiente": 7640,
      "ESPAÑ": 7641,
      "aven": 7642,
      "##lios": 7643,
      "Califor": 7644,
      "pereg": 7645,
      "presentado": 7646,
      "zar": 7647,
      "canto": 7648,
      "sucedido": 7649,
      "Bé": 7650,
      "monumento": 7651,
      "roca": 7652,
      "Virey": 7653,
      "murm": 7654,
      "fundar": 7655,
      "cuidados": 7656,
      "bárbaros": 7657,
      "Distrito": 7658,
      "carn": 7659,
      "outros": 7660,
      "Marqués": 7661,
      "tenta": 7662,
      "habéis": 7663,
      "manifestar": 7664,
      "parroquia": 7665,
      "Silva": 7666,
      "poesía": 7667,
      "171": 7668,
      "Potosí": 7669,
      "##tuario": 7670,
      "bases": 7671,
      "Egip": 7672,
      "puro": 7673,
      "conservación": 7674,
      "tren": 7675,
      "##ple": 7676,
      "vieja": 7677,
      "##RAS": 7678,
      "Guatemala": 7679,
      "culpa": 7680,
      "director": 7681,
      "respectivos": 7682,
      "ardiente": 7683,
      "tante": 7684,
      "escuelas": 7685,
      "##cordia": 7686,
      "ines": 7687,
      "Almirante": 7688,
      "final": 7689,
      "dores": 7690,
      "presti": 7691,
      "histórico": 7692,
      "ai": 7693,
      "gi": 7694,
      "##indo": 7695,
      "part": 7696,
      "fuegos": 7697,
      "enseñanza": 7698,
      "Tru": 7699,
      "encargo": 7700,
      "170": 7701,
      "apresur": 7702,
      "Fi": 7703,
      "##ución": 7704,
      "violencia": 7705,
      "barra": 7706,
      "fundada": 7707,
      "jueces": 7708,
      "duró": 7709,
      "XXX": 7710,
      "precau": 7711,
      "largos": 7712,
      "Cala": 7713,
      "##jido": 7714,
      "agora": 7715,
      "Alba": 7716,
      "cristiano": 7717,
      "historiadores": 7718,
      "lecho": 7719,
      "exce": 7720,
      "pasión": 7721,
      "errores": 7722,
      "probable": 7723,
      "oído": 7724,
      "89": 7725,
      "espli": 7726,
      "##bí": 7727,
      "noches": 7728,
      "acomo": 7729,
      "enorme": 7730,
      "quatro": 7731,
      "plomo": 7732,
      "##dis": 7733,
      "inmortal": 7734,
      "bala": 7735,
      "dominios": 7736,
      "azúcar": 7737,
      "mercad": 7738,
      "desesper": 7739,
      "cuello": 7740,
      "##dura": 7741,
      "delito": 7742,
      "proporción": 7743,
      "moderna": 7744,
      "Jorge": 7745,
      "poniendo": 7746,
      "imaginación": 7747,
      "sepulcro": 7748,
      "defensores": 7749,
      "##turo": 7750,
      "elecciones": 7751,
      "Ministerio": 7752,
      "detalles": 7753,
      "Fre": 7754,
      "##vad": 7755,
      "Asamblea": 7756,
      "satisfac": 7757,
      "oper": 7758,
      "dijeron": 7759,
      "lluvias": 7760,
      "llos": 7761,
      "##gidos": 7762,
      "Aben": 7763,
      "##tible": 7764,
      "metal": 7765,
      "ahor": 7766,
      "publica": 7767,
      "Excmo": 7768,
      "lun": 7769,
      "materias": 7770,
      "insurrección": 7771,
      "caña": 7772,
      "planes": 7773,
      "##ciado": 7774,
      "##identes": 7775,
      "romper": 7776,
      "##chan": 7777,
      "piados": 7778,
      "cléri": 7779,
      "fie": 7780,
      "Pací": 7781,
      "##igna": 7782,
      "discusión": 7783,
      "infi": 7784,
      "inser": 7785,
      "##gaban": 7786,
      "hered": 7787,
      "venían": 7788,
      "colocado": 7789,
      "##minación": 7790,
      "derrib": 7791,
      "Fernán": 7792,
      "173": 7793,
      "##terías": 7794,
      "Otro": 7795,
      "##tencias": 7796,
      "entrado": 7797,
      "rem": 7798,
      "abre": 7799,
      "##manas": 7800,
      "obliga": 7801,
      "rara": 7802,
      "mentos": 7803,
      "comm": 7804,
      "accid": 7805,
      "candida": 7806,
      "pom": 7807,
      "esclavi": 7808,
      "hermosura": 7809,
      "Exmo": 7810,
      "Cho": 7811,
      "impresión": 7812,
      "Sor": 7813,
      "cál": 7814,
      "##sb": 7815,
      "gust": 7816,
      "fri": 7817,
      "ios": 7818,
      "concer": 7819,
      "contestación": 7820,
      "médico": 7821,
      "##entamente": 7822,
      "veo": 7823,
      "Gutiérrez": 7824,
      "##LAS": 7825,
      "histórica": 7826,
      "ilu": 7827,
      "fazer": 7828,
      "##usi": 7829,
      "##dito": 7830,
      "Gor": 7831,
      "##tag": 7832,
      "##XX": 7833,
      "Inde": 7834,
      "mexicano": 7835,
      "entraron": 7836,
      "lenguaje": 7837,
      "huel": 7838,
      "justa": 7839,
      "producto": 7840,
      "lectura": 7841,
      "contradic": 7842,
      "##ában": 7843,
      "Maes": 7844,
      "tempestad": 7845,
      "sacu": 7846,
      "##só": 7847,
      "dici": 7848,
      "páginas": 7849,
      "rebelión": 7850,
      "##éndome": 7851,
      "península": 7852,
      "##vento": 7853,
      "pasados": 7854,
      "dirigir": 7855,
      "partidarios": 7856,
      "títulos": 7857,
      "detrás": 7858,
      "fijar": 7859,
      "ore": 7860,
      "oyó": 7861,
      "##iosas": 7862,
      "##dé": 7863,
      "##lidos": 7864,
      "##har": 7865,
      "##erro": 7866,
      "168": 7867,
      "corrientes": 7868,
      "desconfi": 7869,
      "pasan": 7870,
      "retiró": 7871,
      "Uruguay": 7872,
      "Rico": 7873,
      "haz": 7874,
      "malos": 7875,
      "ejercer": 7876,
      "unidad": 7877,
      "defendi": 7878,
      "##rú": 7879,
      "destro": 7880,
      "religiosa": 7881,
      "federal": 7882,
      "##eri": 7883,
      "##gración": 7884,
      "120": 7885,
      "menores": 7886,
      "Alejandro": 7887,
      "calma": 7888,
      "grab": 7889,
      "confli": 7890,
      "abierta": 7891,
      "Cár": 7892,
      "acta": 7893,
      "Papa": 7894,
      "gratitud": 7895,
      "hostilidad": 7896,
      "ignorancia": 7897,
      "bisan": 7898,
      "trescientos": 7899,
      "portugueses": 7900,
      "elevación": 7901,
      "clara": 7902,
      "representantes": 7903,
      "sabía": 7904,
      "denom": 7905,
      "resplan": 7906,
      "encontramos": 7907,
      "proyectos": 7908,
      "##rom": 7909,
      "comida": 7910,
      "Capital": 7911,
      "habíamos": 7912,
      "indicado": 7913,
      "escrita": 7914,
      "Provincias": 7915,
      "##lora": 7916,
      "trabajar": 7917,
      "tuviese": 7918,
      "XIV": 7919,
      "persi": 7920,
      "rayos": 7921,
      "Mira": 7922,
      "propuso": 7923,
      "##ñada": 7924,
      "ejecutar": 7925,
      "sign": 7926,
      "soberanía": 7927,
      "escul": 7928,
      "##amor": 7929,
      "romana": 7930,
      "quel": 7931,
      "correg": 7932,
      "Chu": 7933,
      "fé": 7934,
      "cañón": 7935,
      "celebrar": 7936,
      "americana": 7937,
      "sumamente": 7938,
      "##rupción": 7939,
      "REVOLU": 7940,
      "prete": 7941,
      "contento": 7942,
      "ene": 7943,
      "##laga": 7944,
      "caridad": 7945,
      "aques": 7946,
      "minerales": 7947,
      "96": 7948,
      "continuo": 7949,
      "Océano": 7950,
      "clá": 7951,
      "##mili": 7952,
      "XII": 7953,
      "catorce": 7954,
      "Peña": 7955,
      "manifestó": 7956,
      "escribano": 7957,
      "perdió": 7958,
      "eme": 7959,
      "sufri": 7960,
      "Pom": 7961,
      "jente": 7962,
      "##cé": 7963,
      "enfermo": 7964,
      "##cándose": 7965,
      "interpre": 7966,
      "matrimonio": 7967,
      "señales": 7968,
      "mía": 7969,
      "##MP": 7970,
      "Oa": 7971,
      "Cura": 7972,
      "Cataluña": 7973,
      "##diar": 7974,
      "publicar": 7975,
      "sucesor": 7976,
      "Majestad": 7977,
      "extranjero": 7978,
      "##aje": 7979,
      "estatu": 7980,
      "cum": 7981,
      "contras": 7982,
      "legal": 7983,
      "correspondencia": 7984,
      "Vas": 7985,
      "dientes": 7986,
      "regreso": 7987,
      "levantado": 7988,
      "podrían": 7989,
      "##ley": 7990,
      "tena": 7991,
      "##anismo": 7992,
      "Alvarado": 7993,
      "círculo": 7994,
      "##upe": 7995,
      "##sáo": 7996,
      "sacerdote": 7997,
      "mirar": 7998,
      "sed": 7999,
      "Evan": 8000,
      "valientes": 8001,
      "escep": 8002,
      "seda": 8003,
      "prohib": 8004,
      "invent": 8005,
      "mus": 8006,
      "obtuvo": 8007,
      "suceder": 8008,
      "rompi": 8009,
      "elel": 8010,
      "##unción": 8011,
      "descanso": 8012,
      "persecución": 8013,
      "instrumentos": 8014,
      "##úne": 8015,
      "conocidos": 8016,
      "fidelidad": 8017,
      "sedu": 8018,
      "niña": 8019,
      "gabinete": 8020,
      "92": 8021,
      "nen": 8022,
      "##jon": 8023,
      "zas": 8024,
      "##into": 8025,
      "esle": 8026,
      "Anti": 8027,
      "Jesu": 8028,
      "bue": 8029,
      "Parece": 8030,
      "constantemente": 8031,
      "Apen": 8032,
      "art": 8033,
      "ocurrido": 8034,
      "ea": 8035,
      "##digo": 8036,
      "lujo": 8037,
      "partidas": 8038,
      "Catalina": 8039,
      "edifi": 8040,
      "NÚ": 8041,
      "encarn": 8042,
      "Benito": 8043,
      "dal": 8044,
      "##inaciones": 8045,
      "regla": 8046,
      "encontraron": 8047,
      "assim": 8048,
      "adquirir": 8049,
      "The": 8050,
      "fiscal": 8051,
      "querían": 8052,
      "conoci": 8053,
      "respetable": 8054,
      "##lase": 8055,
      "cou": 8056,
      "disciplina": 8057,
      "llegaba": 8058,
      "dictamen": 8059,
      "##cillo": 8060,
      "Pueblo": 8061,
      "eficaz": 8062,
      "cita": 8063,
      "ofreció": 8064,
      "elles": 8065,
      "gado": 8066,
      "dades": 8067,
      "##vino": 8068,
      "comis": 8069,
      "lanza": 8070,
      "polvo": 8071,
      "embara": 8072,
      "producido": 8073,
      "incre": 8074,
      "partir": 8075,
      "transi": 8076,
      "verá": 8077,
      "##amarca": 8078,
      "gres": 8079,
      "##vaciones": 8080,
      "resolver": 8081,
      "Pir": 8082,
      "intr": 8083,
      "Río": 8084,
      "proceso": 8085,
      "Bea": 8086,
      "absoluto": 8087,
      "orí": 8088,
      "##fectos": 8089,
      "Magestad": 8090,
      "insu": 8091,
      "probablemente": 8092,
      "IND": 8093,
      "Figu": 8094,
      "poderosa": 8095,
      "##cripciones": 8096,
      "##metro": 8097,
      "expresión": 8098,
      "eru": 8099,
      "pastor": 8100,
      "banda": 8101,
      "ocupó": 8102,
      "víctima": 8103,
      "aquél": 8104,
      "Guzman": 8105,
      "Amp": 8106,
      "##BL": 8107,
      "cristal": 8108,
      "##tines": 8109,
      "turb": 8110,
      "Pacífico": 8111,
      "verano": 8112,
      "149": 8113,
      "intervención": 8114,
      "##zgo": 8115,
      "##ille": 8116,
      "distintas": 8117,
      "mejicanos": 8118,
      "ricas": 8119,
      "Esc": 8120,
      "adonde": 8121,
      "marchó": 8122,
      "##alter": 8123,
      "Guerrero": 8124,
      "sacrifi": 8125,
      "eva": 8126,
      "##uh": 8127,
      "crí": 8128,
      "Ari": 8129,
      "prof": 8130,
      "antecedentes": 8131,
      "Conce": 8132,
      "Fin": 8133,
      "Adelantado": 8134,
      "temperatura": 8135,
      "##cador": 8136,
      "santos": 8137,
      "166": 8138,
      "infeliz": 8139,
      "vió": 8140,
      "Trin": 8141,
      "##sivamente": 8142,
      "##ices": 8143,
      "##amante": 8144,
      "Guiller": 8145,
      "formaban": 8146,
      "##cipes": 8147,
      "vd": 8148,
      "Lisboa": 8149,
      "deste": 8150,
      "garan": 8151,
      "filoso": 8152,
      "ración": 8153,
      "desfi": 8154,
      "Ese": 8155,
      "fab": 8156,
      "atender": 8157,
      "quedaban": 8158,
      "castellano": 8159,
      "grueso": 8160,
      "##GA": 8161,
      "habitación": 8162,
      "tamaño": 8163,
      "juntas": 8164,
      "espalda": 8165,
      "hú": 8166,
      "tabaco": 8167,
      "sop": 8168,
      "Ul": 8169,
      "negar": 8170,
      "curiosidad": 8171,
      "TO": 8172,
      "apara": 8173,
      "ciertamente": 8174,
      "##tú": 8175,
      "vice": 8176,
      "realizar": 8177,
      "desnu": 8178,
      "contenido": 8179,
      "vencido": 8180,
      "Dec": 8181,
      "##hui": 8182,
      "##ienda": 8183,
      "vire": 8184,
      "bes": 8185,
      "villas": 8186,
      "bomb": 8187,
      "mientos": 8188,
      "ps": 8189,
      "eno": 8190,
      "calum": 8191,
      "flan": 8192,
      "tengan": 8193,
      "Leg": 8194,
      "tono": 8195,
      "##ipo": 8196,
      "##ICE": 8197,
      "domé": 8198,
      "Mora": 8199,
      "experiencia": 8200,
      "##éronse": 8201,
      "formada": 8202,
      "indul": 8203,
      "hallado": 8204,
      "incur": 8205,
      "Cel": 8206,
      "LIBRO": 8207,
      "##ivo": 8208,
      "prestar": 8209,
      "elevada": 8210,
      "##bide": 8211,
      "Lsb": 8212,
      "reducir": 8213,
      "##tural": 8214,
      "Zamora": 8215,
      "95": 8216,
      "exti": 8217,
      "assi": 8218,
      "vimos": 8219,
      "infini": 8220,
      "mugeres": 8221,
      "91": 8222,
      "93": 8223,
      "Artigas": 8224,
      "##idí": 8225,
      "vencedor": 8226,
      "##sados": 8227,
      "Aca": 8228,
      "provecho": 8229,
      "##pados": 8230,
      "papa": 8231,
      "circuns": 8232,
      "##cadura": 8233,
      "ei": 8234,
      "Jal": 8235,
      "##geros": 8236,
      "sacó": 8237,
      "Sancho": 8238,
      "ef": 8239,
      "disponer": 8240,
      "tuve": 8241,
      "Cuán": 8242,
      "Jose": 8243,
      "tesoro": 8244,
      "inglesa": 8245,
      "tránsito": 8246,
      "##ider": 8247,
      "bajar": 8248,
      "##tentri": 8249,
      "suprema": 8250,
      "##quete": 8251,
      "entrega": 8252,
      "##güe": 8253,
      "##lanes": 8254,
      "sagrado": 8255,
      "##edores": 8256,
      "torno": 8257,
      "##gle": 8258,
      "##gento": 8259,
      "##lix": 8260,
      "posiciones": 8261,
      "oido": 8262,
      "##gimen": 8263,
      "Hig": 8264,
      "parle": 8265,
      "golfo": 8266,
      "persegu": 8267,
      "Academia": 8268,
      "##todo": 8269,
      "##IM": 8270,
      "imprenta": 8271,
      "##toso": 8272,
      "lison": 8273,
      "tum": 8274,
      "retroce": 8275,
      "##urado": 8276,
      "Leon": 8277,
      "reparti": 8278,
      "##yu": 8279,
      "embo": 8280,
      "providencias": 8281,
      "repli": 8282,
      "trastor": 8283,
      "nubes": 8284,
      "Apenas": 8285,
      "ilustres": 8286,
      "Córtes": 8287,
      "##ernación": 8288,
      "desc": 8289,
      "extraño": 8290,
      "beneficios": 8291,
      "##idro": 8292,
      "dona": 8293,
      "habitan": 8294,
      "Málaga": 8295,
      "NÚM": 8296,
      "obten": 8297,
      "constancia": 8298,
      "ajust": 8299,
      "##olas": 8300,
      "exer": 8301,
      "ofi": 8302,
      "barro": 8303,
      "responsabilidad": 8304,
      "beb": 8305,
      "tall": 8306,
      "##entados": 8307,
      "lien": 8308,
      "traición": 8309,
      "##pulos": 8310,
      "##ñoz": 8311,
      "repugn": 8312,
      "##DA": 8313,
      "Cm": 8314,
      "lum": 8315,
      "propiedades": 8316,
      "reunido": 8317,
      "trae": 8318,
      "cultura": 8319,
      "acha": 8320,
      "cuadros": 8321,
      "Callao": 8322,
      "juego": 8323,
      "##varse": 8324,
      "frecuentes": 8325,
      "acordó": 8326,
      "espes": 8327,
      "##piraciones": 8328,
      "venida": 8329,
      "Pied": 8330,
      "tío": 8331,
      "hablaba": 8332,
      "mono": 8333,
      "##fort": 8334,
      "lista": 8335,
      "impo": 8336,
      "##ensos": 8337,
      "destinos": 8338,
      "fundamento": 8339,
      "##lén": 8340,
      "##ceres": 8341,
      "##aré": 8342,
      "grandi": 8343,
      "bajas": 8344,
      "salón": 8345,
      "##quinas": 8346,
      "conservan": 8347,
      "dies": 8348,
      "clam": 8349,
      "##inte": 8350,
      "Morales": 8351,
      "actualmente": 8352,
      "AP": 8353,
      "estableció": 8354,
      "colocar": 8355,
      "Teo": 8356,
      "DOC": 8357,
      "costado": 8358,
      "##cías": 8359,
      "ramas": 8360,
      "ofrecen": 8361,
      "dignos": 8362,
      "##fas": 8363,
      "cadena": 8364,
      "hala": 8365,
      "ponen": 8366,
      "absolutamente": 8367,
      "sendo": 8368,
      "##chando": 8369,
      "##guer": 8370,
      "variedad": 8371,
      "canoas": 8372,
      "perjuicio": 8373,
      "Sep": 8374,
      "explica": 8375,
      "confusión": 8376,
      "colonos": 8377,
      "dente": 8378,
      "XIII": 8379,
      "razas": 8380,
      "esse": 8381,
      "intri": 8382,
      "##daban": 8383,
      "omi": 8384,
      "ña": 8385,
      "libras": 8386,
      "##ERI": 8387,
      "Colonia": 8388,
      "rs": 8389,
      "añadió": 8390,
      "régimen": 8391,
      "##arnos": 8392,
      "##cilla": 8393,
      "##gase": 8394,
      "formal": 8395,
      "paseo": 8396,
      "pil": 8397,
      "tributo": 8398,
      "llegan": 8399,
      "sempre": 8400,
      "peñas": 8401,
      "creación": 8402,
      "ustedes": 8403,
      "##use": 8404,
      "##eamente": 8405,
      "siguen": 8406,
      "dro": 8407,
      "hda": 8408,
      "Ud": 8409,
      "oeste": 8410,
      "Senado": 8411,
      "Zaca": 8412,
      "maíz": 8413,
      "##uato": 8414,
      "hiciera": 8415,
      "elemento": 8416,
      "caja": 8417,
      "Moreno": 8418,
      "##CAS": 8419,
      "encam": 8420,
      "##dico": 8421,
      "##andal": 8422,
      "vn": 8423,
      "preguntas": 8424,
      "ventura": 8425,
      "##rab": 8426,
      "Archi": 8427,
      "##ianos": 8428,
      "pide": 8429,
      "1810": 8430,
      "horizonte": 8431,
      "gó": 8432,
      "rú": 8433,
      "sín": 8434,
      "##liar": 8435,
      "miras": 8436,
      "mediante": 8437,
      "exactitud": 8438,
      "99": 8439,
      "tad": 8440,
      "lograr": 8441,
      "##quita": 8442,
      "pur": 8443,
      "##ampar": 8444,
      "prín": 8445,
      "Supremo": 8446,
      "Tras": 8447,
      "##fre": 8448,
      "##ILE": 8449,
      "##bla": 8450,
      "sección": 8451,
      "##rida": 8452,
      "Universidad": 8453,
      "##iers": 8454,
      "NA": 8455,
      "##bó": 8456,
      "próxima": 8457,
      "Jeneral": 8458,
      "##erona": 8459,
      "##CE": 8460,
      "producen": 8461,
      "despob": 8462,
      "empresas": 8463,
      "obstáculos": 8464,
      "consideraciones": 8465,
      "Rojas": 8466,
      "Juana": 8467,
      "licenciado": 8468,
      "Ac": 8469,
      "penetrar": 8470,
      "bené": 8471,
      "Punta": 8472,
      "Batal": 8473,
      "deseaba": 8474,
      "97": 8475,
      "rego": 8476,
      "##gá": 8477,
      "##arde": 8478,
      "hijas": 8479,
      "alguns": 8480,
      "Virrey": 8481,
      "SO": 8482,
      "yor": 8483,
      "Mes": 8484,
      "ferrocar": 8485,
      "bron": 8486,
      "here": 8487,
      "progresos": 8488,
      "Indepen": 8489,
      "##porte": 8490,
      "oy": 8491,
      "meridional": 8492,
      "Salazar": 8493,
      "##cones": 8494,
      "héroe": 8495,
      "Clara": 8496,
      "concep": 8497,
      "char": 8498,
      "conocía": 8499,
      "Miran": 8500,
      "sesiones": 8501,
      "apoderarse": 8502,
      "Española": 8503,
      "Mata": 8504,
      "opon": 8505,
      "tranquila": 8506,
      "Guillermo": 8507,
      "servid": 8508,
      "Alto": 8509,
      "Lope": 8510,
      "Jaime": 8511,
      "169": 8512,
      "##ñe": 8513,
      "lat": 8514,
      "##ñal": 8515,
      "##stió": 8516,
      "limos": 8517,
      "ass": 8518,
      "venía": 8519,
      "Ejecutivo": 8520,
      "previ": 8521,
      "compatrio": 8522,
      "estatua": 8523,
      "Cerro": 8524,
      "Gib": 8525,
      "Pá": 8526,
      "esperim": 8527,
      "verdaderos": 8528,
      "##ernos": 8529,
      "Muñoz": 8530,
      "estremo": 8531,
      "##ribe": 8532,
      "##VI": 8533,
      "esplen": 8534,
      "consiguió": 8535,
      "PARA": 8536,
      "##lé": 8537,
      "privilegio": 8538,
      "poé": 8539,
      "Murcia": 8540,
      "rodi": 8541,
      "##valle": 8542,
      "numero": 8543,
      "Sig": 8544,
      "##ROS": 8545,
      "elegante": 8546,
      "##mal": 8547,
      "cortar": 8548,
      "167": 8549,
      "prudente": 8550,
      "##ry": 8551,
      "Princi": 8552,
      "Tun": 8553,
      "quitar": 8554,
      "informes": 8555,
      "examen": 8556,
      "sete": 8557,
      "##ieros": 8558,
      "Habia": 8559,
      "advertir": 8560,
      "##ranza": 8561,
      "ocupan": 8562,
      "torres": 8563,
      "dito": 8564,
      "diré": 8565,
      "Justicia": 8566,
      "alianza": 8567,
      "Ruiz": 8568,
      "##TES": 8569,
      "pedido": 8570,
      "##pores": 8571,
      "ave": 8572,
      "##vantes": 8573,
      "mortal": 8574,
      "Constan": 8575,
      "diplom": 8576,
      "cabec": 8577,
      "cjue": 8578,
      "##tern": 8579,
      "pesca": 8580,
      "##menta": 8581,
      "ganar": 8582,
      "Soto": 8583,
      "Filip": 8584,
      "súbditos": 8585,
      "quizás": 8586,
      "98": 8587,
      "Colegio": 8588,
      "harto": 8589,
      "desgraciado": 8590,
      "auxilios": 8591,
      "evidente": 8592,
      "##eu": 8593,
      "dilig": 8594,
      "##tísimo": 8595,
      "##ENTE": 8596,
      "##üa": 8597,
      "muestras": 8598,
      "##grama": 8599,
      "recoger": 8600,
      "regimiento": 8601,
      "diga": 8602,
      "diligencia": 8603,
      "naturalmente": 8604,
      "abandonado": 8605,
      "mármol": 8606,
      "Tierra": 8607,
      "Cuar": 8608,
      "##ónica": 8609,
      "vicios": 8610,
      "comenzaron": 8611,
      "imagin": 8612,
      "cualidades": 8613,
      "##TICA": 8614,
      "##tienen": 8615,
      "pensaba": 8616,
      "##uli": 8617,
      "llegamos": 8618,
      "reunidos": 8619,
      "##ense": 8620,
      "crey": 8621,
      "XVII": 8622,
      "monstru": 8623,
      "Tribunal": 8624,
      "Simón": 8625,
      "##gante": 8626,
      "reformas": 8627,
      "impulso": 8628,
      "On": 8629,
      "extin": 8630,
      "Bravo": 8631,
      "anciano": 8632,
      "Chil": 8633,
      "ofen": 8634,
      "criado": 8635,
      "##vieran": 8636,
      "toler": 8637,
      "olvido": 8638,
      "acces": 8639,
      "reconocido": 8640,
      "Tener": 8641,
      "ame": 8642,
      "agr": 8643,
      "##adoras": 8644,
      "obligados": 8645,
      "##QUE": 8646,
      "##adura": 8647,
      "solicitud": 8648,
      "##elle": 8649,
      "Comisión": 8650,
      "presentaba": 8651,
      "empleado": 8652,
      "señalado": 8653,
      "miserable": 8654,
      "cumplido": 8655,
      "página": 8656,
      "enfermedades": 8657,
      "parecido": 8658,
      "Hemos": 8659,
      "aflu": 8660,
      "armonía": 8661,
      "Hun": 8662,
      "ingenio": 8663,
      "##ñan": 8664,
      "termina": 8665,
      "cola": 8666,
      "##rencia": 8667,
      "catá": 8668,
      "tambem": 8669,
      "coste": 8670,
      "pintura": 8671,
      "permiso": 8672,
      "##vaba": 8673,
      "eleva": 8674,
      "impa": 8675,
      "York": 8676,
      "considerar": 8677,
      "alumb": 8678,
      "Sul": 8679,
      "tripu": 8680,
      "archivo": 8681,
      "Sres": 8682,
      "cuentas": 8683,
      "Hidalgo": 8684,
      "##ecidos": 8685,
      "necesitaba": 8686,
      "Pra": 8687,
      "notas": 8688,
      "equival": 8689,
      "##torial": 8690,
      "tados": 8691,
      "contor": 8692,
      "legi": 8693,
      "vuestras": 8694,
      "estraordin": 8695,
      "Palma": 8696,
      "embarcaciones": 8697,
      "##cola": 8698,
      "Andalu": 8699,
      "Habiendo": 8700,
      "cólera": 8701,
      "pilo": 8702,
      "manifiesto": 8703,
      "Buena": 8704,
      "##ELA": 8705,
      "Marcos": 8706,
      "comunicaciones": 8707,
      "conversación": 8708,
      "##tto": 8709,
      "poetas": 8710,
      "últimamente": 8711,
      "asamblea": 8712,
      "impuesto": 8713,
      "esperando": 8714,
      "##ong": 8715,
      "Caste": 8716,
      "Igu": 8717,
      "##quisición": 8718,
      "94": 8719,
      "examinar": 8720,
      "PER": 8721,
      "##quista": 8722,
      "acuer": 8723,
      "Acu": 8724,
      "deix": 8725,
      "reo": 8726,
      "creemos": 8727,
      "duas": 8728,
      "##maras": 8729,
      "premio": 8730,
      "ventajos": 8731,
      "somos": 8732,
      "Velázquez": 8733,
      "Grecia": 8734,
      "Egipto": 8735,
      "##one": 8736,
      "renunci": 8737,
      "creyendo": 8738,
      "criados": 8739,
      "##cuador": 8740,
      "frutas": 8741,
      "impar": 8742,
      "castigar": 8743,
      "mula": 8744,
      "lealtad": 8745,
      "cae": 8746,
      "##inada": 8747,
      "Otra": 8748,
      "Prim": 8749,
      "improvis": 8750,
      "Gil": 8751,
      "cú": 8752,
      "relacion": 8753,
      "##ps": 8754,
      "Dar": 8755,
      "baile": 8756,
      "##dedores": 8757,
      "Dé": 8758,
      "Lá": 8759,
      "abundantes": 8760,
      "sincer": 8761,
      "queria": 8762,
      "claridad": 8763,
      "compone": 8764,
      "pájar": 8765,
      "fantas": 8766,
      "comarcas": 8767,
      "Carmen": 8768,
      "gozar": 8769,
      "seiscientos": 8770,
      "creía": 8771,
      "apareció": 8772,
      "literatura": 8773,
      "##mós": 8774,
      "delib": 8775,
      "China": 8776,
      "nist": 8777,
      "##mió": 8778,
      "distra": 8779,
      "observación": 8780,
      "estru": 8781,
      "fren": 8782,
      "quar": 8783,
      "##ington": 8784,
      "##dela": 8785,
      "##cumb": 8786,
      "Bust": 8787,
      "asalto": 8788,
      "pendiente": 8789,
      "##monios": 8790,
      "parroqui": 8791,
      "carbón": 8792,
      "##ele": 8793,
      "honores": 8794,
      "pidiendo": 8795,
      "magnífico": 8796,
      "Gerónimo": 8797,
      "vidas": 8798,
      "Argentina": 8799,
      "apó": 8800,
      "árabe": 8801,
      "Guaya": 8802,
      "obligó": 8803,
      "Alma": 8804,
      "rojo": 8805,
      "cibdad": 8806,
      "California": 8807,
      "1820": 8808,
      "tercio": 8809,
      "sensible": 8810,
      "cesar": 8811,
      "aliados": 8812,
      "##táo": 8813,
      "erig": 8814,
      "consejos": 8815,
      "decirlo": 8816,
      "dencia": 8817,
      "batallones": 8818,
      "Guadalupe": 8819,
      "caciques": 8820,
      "llanuras": 8821,
      "Trinidad": 8822,
      "##ou": 8823,
      "paña": 8824,
      "Paraná": 8825,
      "entendido": 8826,
      "colomb": 8827,
      "trece": 8828,
      "Duran": 8829,
      "##cadores": 8830,
      "ceder": 8831,
      "inscripción": 8832,
      "varia": 8833,
      "verificó": 8834,
      "directamente": 8835,
      "ridí": 8836,
      "abst": 8837,
      "vapores": 8838,
      "tarea": 8839,
      "cubiertas": 8840,
      "Avila": 8841,
      "viejos": 8842,
      "desdi": 8843,
      "contrarios": 8844,
      "sublime": 8845,
      "##vemente": 8846,
      "reglas": 8847,
      "##ance": 8848,
      "táo": 8849,
      "vencidos": 8850,
      "##ENERAL": 8851,
      "acierto": 8852,
      "té": 8853,
      "absur": 8854,
      "Gabri": 8855,
      "imposi": 8856,
      "##cesa": 8857,
      "Esa": 8858,
      "##ang": 8859,
      "cadáveres": 8860,
      "suminist": 8861,
      "CHILE": 8862,
      "honrado": 8863,
      "acabar": 8864,
      "alcaldes": 8865,
      "Br": 8866,
      "Otros": 8867,
      "estuvieron": 8868,
      "podrán": 8869,
      "tiros": 8870,
      "paraje": 8871,
      "veia": 8872,
      "llenos": 8873,
      "cariño": 8874,
      "vivos": 8875,
      "Arequi": 8876,
      "legis": 8877,
      "Iturbide": 8878,
      "##tat": 8879,
      "acabó": 8880,
      "##gam": 8881,
      "##duras": 8882,
      "nieve": 8883,
      "Félix": 8884,
      "##hy": 8885,
      "##iencias": 8886,
      "atmós": 8887,
      "viajes": 8888,
      "profundidad": 8889,
      "granos": 8890,
      "hel": 8891,
      "##zi": 8892,
      "cumbre": 8893,
      "Obis": 8894,
      "##lle": 8895,
      "innumer": 8896,
      "##inal": 8897,
      "##saciones": 8898,
      "PRIM": 8899,
      "oli": 8900,
      "Relig": 8901,
      "India": 8902,
      "Alar": 8903,
      "convir": 8904,
      "##dea": 8905,
      "quisi": 8906,
      "atravi": 8907,
      "instal": 8908,
      "transfor": 8909,
      "Mundo": 8910,
      "##dirse": 8911,
      "griegos": 8912,
      "divina": 8913,
      "destrucción": 8914,
      "regoci": 8915,
      "##leros": 8916,
      "terribles": 8917,
      "##blas": 8918,
      "asegura": 8919,
      "seres": 8920,
      "llevaron": 8921,
      "vasto": 8922,
      "vecindario": 8923,
      "canti": 8924,
      "##NDICE": 8925,
      "seguía": 8926,
      "##reras": 8927,
      "##UST": 8928,
      "debilidad": 8929,
      "hagan": 8930,
      "##obo": 8931,
      "publicación": 8932,
      "usar": 8933,
      "revuel": 8934,
      "afirma": 8935,
      "##roga": 8936,
      "##jadas": 8937,
      "decían": 8938,
      "Día": 8939,
      "presu": 8940,
      "relie": 8941,
      "##xos": 8942,
      "pude": 8943,
      "advers": 8944,
      "suave": 8945,
      "Tú": 8946,
      "Miranda": 8947,
      "Dol": 8948,
      "##TRO": 8949,
      "viajeros": 8950,
      "combates": 8951,
      "escribe": 8952,
      "sencilla": 8953,
      "Les": 8954,
      "##zcoa": 8955,
      "afecto": 8956,
      "Hue": 8957,
      "requer": 8958,
      "piel": 8959,
      "mó": 8960,
      "Gover": 8961,
      "incendio": 8962,
      "reh": 8963,
      "siguieron": 8964,
      "lodo": 8965,
      "mesma": 8966,
      "##fortun": 8967,
      "contempor": 8968,
      "quan": 8969,
      "lament": 8970,
      "brigadier": 8971,
      "oscuro": 8972,
      "odi": 8973,
      "entregó": 8974,
      "distintos": 8975,
      "Gaspar": 8976,
      "demanda": 8977,
      "Calder": 8978,
      "ventanas": 8979,
      "salen": 8980,
      "conocen": 8981,
      "vier": 8982,
      "##chura": 8983,
      "numerosa": 8984,
      "filosofía": 8985,
      "vís": 8986,
      "sociales": 8987,
      "sobresal": 8988,
      "essa": 8989,
      "annos": 8990,
      "resolu": 8991,
      "Via": 8992,
      "##ENCIA": 8993,
      "relij": 8994,
      "privilegios": 8995,
      "esclavitud": 8996,
      "##lago": 8997,
      "lee": 8998,
      "##jando": 8999,
      "sabios": 9000,
      "paises": 9001,
      "gigantes": 9002,
      "Blas": 9003,
      "##ciar": 9004,
      "trajo": 9005,
      "##ericor": 9006,
      "pormen": 9007,
      "murallas": 9008,
      "usos": 9009,
      "reunió": 9010,
      "azu": 9011,
      "oír": 9012,
      "recurso": 9013,
      "bles": 9014,
      "formid": 9015,
      "CI": 9016,
      "concedió": 9017,
      "##XICO": 9018,
      "famosa": 9019,
      "yendo": 9020,
      "filó": 9021,
      "bajos": 9022,
      "orientales": 9023,
      "prender": 9024,
      "Casi": 9025,
      "catal": 9026,
      "primo": 9027,
      "Rev": 9028,
      "##ILLA": 9029,
      "##jeras": 9030,
      "escán": 9031,
      "Ante": 9032,
      "recorrer": 9033,
      "Eran": 9034,
      "##ídos": 9035,
      "muro": 9036,
      "solos": 9037,
      "multipli": 9038,
      "gloriosa": 9039,
      "mencionado": 9040,
      "Nun": 9041,
      "vá": 9042,
      "infun": 9043,
      "anima": 9044,
      "Vizca": 9045,
      "##mados": 9046,
      "misiones": 9047,
      "conduce": 9048,
      "Feder": 9049,
      "eterna": 9050,
      "Brig": 9051,
      "Mérida": 9052,
      "dama": 9053,
      "llas": 9054,
      "cargas": 9055,
      "##rillas": 9056,
      "radic": 9057,
      "debida": 9058,
      "aprobación": 9059,
      "testa": 9060,
      "estor": 9061,
      "Bajo": 9062,
      "ofreci": 9063,
      "##éndez": 9064,
      "banderas": 9065,
      "abrigo": 9066,
      "procesión": 9067,
      "invo": 9068,
      "neu": 9069,
      "huir": 9070,
      "pico": 9071,
      "cuarta": 9072,
      "Sego": 9073,
      "primitiva": 9074,
      "melan": 9075,
      "##ls": 9076,
      "##tuvieron": 9077,
      "##guera": 9078,
      "citar": 9079,
      "discí": 9080,
      "Carrera": 9081,
      "MÉXICO": 9082,
      "##tillos": 9083,
      "Gerona": 9084,
      "indigna": 9085,
      "repente": 9086,
      "sentado": 9087,
      "Plan": 9088,
      "##entaba": 9089,
      "frag": 9090,
      "ira": 9091,
      "declarado": 9092,
      "tristes": 9093,
      "Provid": 9094,
      "furor": 9095,
      "##vidos": 9096,
      "Maxi": 9097,
      "humo": 9098,
      "##ustos": 9099,
      "admitir": 9100,
      "comisionados": 9101,
      "##diera": 9102,
      "##ers": 9103,
      "casu": 9104,
      "retaguardia": 9105,
      "##rse": 9106,
      "Ze": 9107,
      "##at": 9108,
      "délas": 9109,
      "Jim": 9110,
      "habrían": 9111,
      "repetidas": 9112,
      "colección": 9113,
      "Sacra": 9114,
      "##varon": 9115,
      "posee": 9116,
      "ulti": 9117,
      "partió": 9118,
      "quisiera": 9119,
      "##enerales": 9120,
      "sombras": 9121,
      "nece": 9122,
      "##ENS": 9123,
      "desgracias": 9124,
      "permitir": 9125,
      "veremos": 9126,
      "comunidad": 9127,
      "sombrero": 9128,
      "bellas": 9129,
      "serian": 9130,
      "provisión": 9131,
      "afri": 9132,
      "llenar": 9133,
      "cometido": 9134,
      "curioso": 9135,
      "111": 9136,
      "lia": 9137,
      "##lona": 9138,
      "##dimiento": 9139,
      "##igas": 9140,
      "##onas": 9141,
      "just": 9142,
      "comprom": 9143,
      "Cun": 9144,
      "##capa": 9145,
      "hablan": 9146,
      "Laguna": 9147,
      "##cracia": 9148,
      "devoción": 9149,
      "diario": 9150,
      "devol": 9151,
      "rapidez": 9152,
      "onsa": 9153,
      "Joáo": 9154,
      "capitales": 9155,
      "cere": 9156,
      "##díos": 9157,
      "Cle": 9158,
      "##denal": 9159,
      "triunfos": 9160,
      "podria": 9161,
      "gobernadores": 9162,
      "blancas": 9163,
      "hospi": 9164,
      "##dole": 9165,
      "comprar": 9166,
      "##uz": 9167,
      "especiales": 9168,
      "insignifi": 9169,
      "realmente": 9170,
      "misioneros": 9171,
      "ribera": 9172,
      "fundador": 9173,
      "Aren": 9174,
      "much": 9175,
      "margen": 9176,
      "párra": 9177,
      "Aya": 9178,
      "conquistas": 9179,
      "sujeto": 9180,
      "vanguardia": 9181,
      "##GRA": 9182,
      "cif": 9183,
      "##verse": 9184,
      "domina": 9185,
      "voluntarios": 9186,
      "##resión": 9187,
      "ardor": 9188,
      "hacerle": 9189,
      "palo": 9190,
      "acudir": 9191,
      "Geo": 9192,
      "##ore": 9193,
      "mulas": 9194,
      "escapar": 9195,
      "sy": 9196,
      "oportuno": 9197,
      "hábil": 9198,
      "logrado": 9199,
      "concurso": 9200,
      "pól": 9201,
      "arroyos": 9202,
      "órg": 9203,
      "criminal": 9204,
      "oportunidad": 9205,
      "##grafo": 9206,
      "enemiga": 9207,
      "##camento": 9208,
      "masas": 9209,
      "##ísmo": 9210,
      "crítica": 9211,
      "##clo": 9212,
      "##tentes": 9213,
      "##jidos": 9214,
      "##land": 9215,
      "Villal": 9216,
      "##dremos": 9217,
      "Negro": 9218,
      "##lima": 9219,
      "pertenecen": 9220,
      "prescin": 9221,
      "enton": 9222,
      "alimento": 9223,
      "##goso": 9224,
      "##zarse": 9225,
      "celebrado": 9226,
      "Tro": 9227,
      "propuesto": 9228,
      "depósito": 9229,
      "Alcalde": 9230,
      "Har": 9231,
      "tie": 9232,
      "caprichos": 9233,
      "##uan": 9234,
      "dellos": 9235,
      "texto": 9236,
      "delitos": 9237,
      "Hernando": 9238,
      "comand": 9239,
      "Tem": 9240,
      "besti": 9241,
      "##licas": 9242,
      "saliendo": 9243,
      "culp": 9244,
      "someter": 9245,
      "##icion": 9246,
      "##gins": 9247,
      "Corona": 9248,
      "##pensa": 9249,
      "sois": 9250,
      "##udales": 9251,
      "##ith": 9252,
      "abundan": 9253,
      "suso": 9254,
      "##urar": 9255,
      "proclama": 9256,
      "envol": 9257,
      "congre": 9258,
      "secular": 9259,
      "##úblicas": 9260,
      "adornos": 9261,
      "atmósfera": 9262,
      "##mano": 9263,
      "##ise": 9264,
      "##ANO": 9265,
      "interna": 9266,
      "eclesiástico": 9267,
      "suc": 9268,
      "Corre": 9269,
      "cpie": 9270,
      "##éc": 9271,
      "provisiones": 9272,
      "Dice": 9273,
      "##usas": 9274,
      "##aragua": 9275,
      "civiliz": 9276,
      "Bi": 9277,
      "vini": 9278,
      "descom": 9279,
      "sueldo": 9280,
      "fronteras": 9281,
      "bio": 9282,
      "##TOS": 9283,
      "provis": 9284,
      "habló": 9285,
      "##cita": 9286,
      "estrecha": 9287,
      "echó": 9288,
      "permaneció": 9289,
      "protector": 9290,
      "##rentes": 9291,
      "diera": 9292,
      "havia": 9293,
      "Capítulo": 9294,
      "##cros": 9295,
      "##tela": 9296,
      "Alcalá": 9297,
      "##cerse": 9298,
      "Popa": 9299,
      "imá": 9300,
      "Arequipa": 9301,
      "##DU": 9302,
      "hermosas": 9303,
      "cuesta": 9304,
      "influjo": 9305,
      "sujetos": 9306,
      "espaldas": 9307,
      "dester": 9308,
      "##éndolos": 9309,
      "dirige": 9310,
      "tumba": 9311,
      "pudiesen": 9312,
      "Nosotros": 9313,
      "aparecer": 9314,
      "tiranía": 9315,
      "##alapa": 9316,
      "##lectu": 9317,
      "claust": 9318,
      "tendría": 9319,
      "disminu": 9320,
      "Guipú": 9321,
      "fija": 9322,
      "plumas": 9323,
      "Vuestra": 9324,
      "##inados": 9325,
      "infante": 9326,
      "géneros": 9327,
      "DON": 9328,
      "##cionario": 9329,
      "glorias": 9330,
      "NÚMERO": 9331,
      "##wn": 9332,
      "queriendo": 9333,
      "sierras": 9334,
      "consuelo": 9335,
      "modernos": 9336,
      "dará": 9337,
      "##bus": 9338,
      "desvan": 9339,
      "particip": 9340,
      "permanecer": 9341,
      "pretensiones": 9342,
      "rancho": 9343,
      "governador": 9344,
      "rodeado": 9345,
      "##mulo": 9346,
      "jardines": 9347,
      "esplén": 9348,
[...]
