[MASK]
[PAD]
[UNK]
[CLS]
[SEP]
!
"
#
$
%
&
'
(
)
*
+
,
-
.
/
0
1
2
3
4
5
6
7
8
9
:
;
<
=
>
?
@
A
B
C
D
E
F
G
H
I
J
K
L
M
N
O
P
Q
R
S
T
U
V
W
X
Y
Z
[
\
]
^
_
`
a
b
c
d
e
f
g
h
i
j
k
l
m
n
o
p
q
r
s
t
u
v
w
x
y
z
{
|
}
~
¡
¢
£
¤
¥
¦
§
¨
©
ª
«
®
°
±
²
³
´
µ
¶
·
¸
¹
º
»
¼
½
¾
¿
À
Á
Â
Ã
Ä
Å
Æ
Ç
È
É
Ê
Ë
Ì
Í
Î
Ï
Ñ
Ò
Ó
Ô
Ö
×
Ù
Ú
Û
Ü
ß
à
á
â
ã
ä
å
æ
ç
è
é
ê
ë
ì
í
î
ï
ñ
ò
ó
ô
õ
ö
ø
ù
ú
û
ü
ý
þ
ā
ą
ć
Č
ē
ĕ
Ě
ğ
ī
ĭ
İ
ı
Ł
ł
ń
Ň
ň
ō
ŏ
Ő
ő
Œ
œ
ř
ś
Ş
ş
Š
š
ť
ū
ŭ
ů
ű
ż
Ž
ſ
ɔ
ʳ
ʺ
˙
ˡ
̃
̄
̈
ͬ
Α
Β
Γ
Δ
Ε
Ζ
Η
Θ
Ι
Κ
Λ
Μ
Ν
Ξ
Ο
Π
Ρ
Σ
Τ
Υ
Φ
Χ
Ψ
ά
έ
ή
ί
α
β
γ
δ
ε
ζ
η
θ
ι
κ
λ
μ
ν
ξ
ο
π
ρ
ς
σ
τ
υ
φ
χ
ψ
ω
ϊ
ό
ύ
ώ
ϰ
А
В
Г
Е
З
И
К
Л
М
О
С
Т
Ь
Э
Я
а
б
в
г
д
е
з
и
й
к
л
н
о
п
р
с
т
у
ф
х
ш
я
і
א
ך
כ
ל
מ
ר
ת
ا
ج
س
ع
ل
م
ن
ه
ي
ᘔ
ᴬ
ᵃ
ᵉ
ᵐ
ᵒ
ᶜ
ἀ
ἁ
ἂ
ἄ
ἅ
ἆ
Ἀ
ἐ
ἑ
ἔ
Ἐ
Ἑ
Ἕ
ἠ
ἡ
ἢ
ἤ
ἰ
ἱ
ἴ
ἵ
ἶ
Ἰ
Ἴ
ὀ
ὁ
ὃ
ὄ
ὅ
Ὄ
ὐ
ὑ
ὔ
ὖ
ὗ
ὡ
ὤ
ὥ
ὦ
Ὠ
Ὦ
Ὧ
ὰ
ά
ὲ
έ
ὴ
ή
ὶ
ί
ὸ
ό
ὺ
ύ
ὼ
ώ
ᾅ
ᾖ
ᾗ
ᾳ
ᾶ
ᾷ
᾽
ῃ
ῆ
ῇ
ῑ
ῖ
Ὶ
ῥ
ῦ
Ῥ
ῳ
ῶ
ῷ
–
—
―
‘
’
‛
“
”
„
‟
†
•
…
′
″
‹
›
※
⁄
⁴
⁷
⁹
₁
₂
₃
₅
₆
€
₹
₺
₽
₿
℃
™
⅔
⅛
→
↓
−
√
∪
∴
≤
⊙
⑇
─
│
┼
║
╱
╲
▔
■
□
▲
►
▼
★
☨
♦
✓
✚
❖
第
##f
##e
##c
##t
##i
##s
##m
##a
##g
##r
##d
##z
##n
##h
##u
##l
##o
##v
##T
##R
##E
##O
##U
##C
##I
##L
##S
##b
##1
##ó
##é
##y
##í
##x
##p
##q
##D
##A
##Y
##N
##Z
##ñ
##á
##j
##P
##B
##3
##8
##4
##Ü
##G
##V
##æ
##J
##M
##ü
##ç
##Û
##ú
##X
##Í
##Q
##6
##0
##k
##5
##2
##F
##H
##É
##w
##Ñ
##9
##7
##ù
##K
##ò
##â
##ì
##°
##Á
##Ã
##è
##Ó
##ô
##W
##©
##™
##̃
##ë
##ā
##º
##ã
##λ
##ε
##ό
##π
##α
##τ
##ρ
##ο
##ς
##⁄
##œ
##à
##È
##£
##ª
##ō
##±
##│
##ᵉ
##Ú
##î
##ï
##®
##³
##Ì
##■
##ν
##η
##ö
##ê
##€
##ὶ
##Â
##ἰ
##κ
##υ
##μ
##έ
##ά
##σ
##Ç
##ῦ
##θ
##έ
##×
##ὔ
##ι
##û
##ä
##²
##ı
##ὰ
##À
##¼
##γ
##ύ
##˙
##¾
##р
##½
##õ
##ß
##ί
##Ä
##ē
##ῖ
##ῶ
##►
##ό
##ū
##▔
##╲
##ω
##ύ
##Î
##ξ
##χ
##ή
##♦
##ῇ
##δ
##Æ
##ل
##ع
##ج
##م
##ي
##ه
##ώ
##Ò
##ĭ
##ń
##ű
##ί
##φ
##ī
##¥
##о
##л
##а
##ζ
##Ê
##ő
##↓
##ά
##ᾳ
##ᾶ
##с
##и
##н
##д
##ὴ
##ὺ
##ʺ
##β
##´
##т
##п
##İ
##ĕ
##¹
##å
##г
##ῑ
##ś
##ῆ
##ώ
##Ö
##ή
##ϰ
##ø
##℃
##ἀ
##ὐ
##ῷ
##Χ
##Θ
##Υ
##Σ
##ą
##ϊ
##Ο
##ᾗ
##ἱ
##ᵒ
##₁
##₆
##ů
##ὲ
##ὸ
##ш
##в
##¤
##ᾷ
##̄
##ᵐ
##ͬ
##х
##й
##ὗ
##᾽
##ל
##א
##ך
##¸
##¢
##║
##₺
##ὅ
##Ï
##⅔
##ć
##Å
##Ł
##ἶ
##ῃ
##š
##¨
##ſ
##ἠ
##─
##┼
##س
##ا
##ن
##Ő
##⁷
##⁹
##₅
##₃
##ὼ
##Ι
##ר
##ת
##Ë
##Л
##Ô
##к
##б
##е
##з
##ý
##ῳ
##̈
##И
##Т
##Е
##О
##Г
##і
##¦
##ψ
##я
##ἁ
##ᶜ
##ş
##ż
##Ň
##₂
##ἴ
##ˡ
##ł
##ŏ
##Ь
##ŭ
##ň
##❖
##Œ
##ř
##Ě
##₿
##ğ
##ὖ
##ὀ
##ɔ
de
##os
##er
##en
##as
##es
##ar
##an
##on
##ue
##or
##ci
##ad
la
que
en
##al
el
##st
##ent
con
##do
##in
##ab
##re
se
su
##ra
##om
los
##ri
##ro
un
##ti
##ón
al
##am
##di
del
por
es
##to
##un
est
##ta
##le
re
##la
##ado
##te
di
las
##ch
no
par
in
##ol
##id
##is
##ía
##ic
com
##ente
cu
##de
##ción
##ia
##il
##em
##res
##gu
des
##lo
##cu
si
##ran
##que
##tu
##ier
##cia
##io
para
ha
##ada
le
to
##ero
una
##ir
##el
lo
##ec
##go
pro
##ien
##tr
##aba
hab
mu
##ob
##da
##ca
##ando
##se
##ues
##it
me
sus
##ones
##ist
##co
##uer
##im
##ce
##pa
como
##ados
##mp
##ter
an
ca
##án
##qu
##za
##dos
##ás
##dad
ex
##ig
##tes
##ento
##los
##mo
##ué
ar
##era
po
##tra
##tos
##us
per
##ici
##po
##ma
##ales
sin
##ios
##idad
##gun
##cho
ma
##ie
##pe
pa
##omb
ac
##tro
##ul
##jo
##ras
El
ser
##ido
mis
qu
res
##ores
man
pr
##ib
tan
##encia
##amente
as
##um
##tar
##las
cor
##én
ent
##les
##ciones
##aban
ob
##vo
##quel
##ión
cas
más
##tas
##va
ten
##ica
En
##ante
##ara
mas
##ru
pre
aquel
##ga
##ían
##me
na
esta
##ez
##iz
##tor
La
mi
##der
San
##mi
sob
##cer
do
este
##das
##lar
##ten
pue
ap
ab
ver
##ur
##lan
##ces
ci
pri
##pañ
dos
##du
pas
##ve
lle
##tros
don
##gar
car
##ina
esp
gran
##adas
##bi
ni
##vi
##ver
era
##ida
Al
##ed
am
ti
imp
mo
Est
pres
sobre
##cha
##ens
pero
sol
sal
##no
##ba
##ino
##able
ba
sa
##aron
Es
fuer
cons
##asta
##endo
##je
##ico
esc
entre
##entes
for
##ano
##entos
##ora
mar
##den
##ño
##ener
##lam
##mente
cam
##oso
Por
##emp
todo
18
algun
##cion
cos
he
tra
comp
##ana
##con
##ust
##na
Con
dis
hasta
pe
cab
Se
##mos
##enta
Re
desp
ter
vi
ya
nues
##cas
pu
##eros
##bl
co
todos
em
##rib
son
muy
ad
señ
so
##car
##ís
No
##amos
##uel
medi
ve
##ador
##ena
prov
##ias
rep
##cio
##ren
##cias
##ven
homb
##eneral
or
prim
##arse
Mar
fué
pues
##so
lu
##ros
ra
mismo
##jos
te
nos
##tal
deb
##ués
##eces
##ér
men
indi
da
##ja
cap
##des
##mas
##fici
##ña
prop
él
cal
parte
##ños
##cos
cuando
##ín
ven
tam
porque
##chos
##iendo
##ian
emp
##ya
col
bien
tr
An
##eron
ch
au
donde
##fer
##ún
bu
##eg
##antes
tu
##udad
##tras
##bre
##ario
##tado
##gua
había
cual
##iento
du
##empo
##cip
lib
fa
tien
##if
##all
cre
aun
mon
##és
##tó
pueb
mil
##ió
nomb
inter
##yo
##par
##til
tiempo
desde
##emos
DE
Ma
ju
les
##dose
pos
##ern
##tad
hu
##ala
##ías
habia
ciudad
her
##tin
##pon
Los
toda
De
ella
sab
después
cer
##ierno
dist
##min
Ca
##eci
llam
##ito
han
gob
tom
##bién
##dia
gu
##cen
vol
inf
##per
##illa
yo
##fec
##ese
##lti
##00
In
##zo
##ac
nue
may
hacer
##tan
##ona
##ieron
prin
otros
##tri
##van
Ch
##idos
conf
fin
##cur
Ju
parti
##zas
##can
##iera
##lu
Cu
ej
##gos
##itu
esto
##iente
##lig
##var
##ita
##man
todas
otro
también
##dr
general
##bar
can
os
contra
##oria
cono
hi
const
pers
##osa
##ista
##sa
##rist
##úbl
otra
dec
dej
##gn
##ion
val
pla
tal
Car
all
princip
ro
deci
##cción
##rig
##ior
está
##pos
quien
##tur
uno
##uego
pun
mayor
segu
pob
##ril
vez
##che
##esti
##and
##dido
sino
aquella
##cil
fi
hay
##tura
ellos
sent
señor
##rado
pes
ag
tier
neces
Ar
san
tres
##ío
Cor
##ase
dest
##eza
pal
Fran
##iones
##paña
va
Su
así
ho
pon
##tre
##bo
rec
años
op
ins
##chas
mor
menos
mal
Gu
reci
##dar
Juan
dar
of
pi
ay
dia
##vid
guer
##gan
##itar
##adre
poco
segun
haber
##empre
estos
var
##vos
fal
casa
15
vo
##nos
Pero
capit
qué
fun
tiene
##dió
anti
##miento
##eo
solo
reg
##ima
pueblo
##anos
lleg
año
estaba
##gún
siempre
hombres
Com
aqu
##izo
min
muer
exp
españ
##oles
sido
parec
##fic
Pa
gra
antes
tanto
nombre
dicho
vida
##ár
ocu
ce
##ición
cada
##guas
puer
##olu
mes
últi
##sted
##rar
##áo
##más
verdad
inst
##RI
##íti
Cas
##almente
orden
##ton
sigu
espe
##cido
algunos
##vas
tro
##he
ele
##ándo
hombre
pol
##adores
##lación
##gen
poder
hecho
otras
##ándose
provin
##II
##ria
dijo
medio
##fe
##cis
ah
cuan
España
usted
cier
##ancia
##atro
mej
mer
##ud
mun
##qui
##jas
##gra
##li
Des
tar
allí
##jer
mucho
caus
##OS
##eno
lugar
##AS
Las
estas
##ién
##zón
##lic
17
tierra
entr
##tud
##tir
serv
puede
encon
##ene
##úm
ést
ade
##imo
To
##ura
aunque
form
##lor
##ible
##tivo
##cep
Lu
hizo
pie
fr
bar
tor
##udi
decir
Mon
gobierno
qued
##gles
##pi
ne
Si
##ER
real
guerra
##tamente
Un
##pu
##mb
fe
##cía
##endi
Dios
##imiento
den
##ves
sub
##pec
##onces
hist
##cri
bo
##ort
natur
ref
##zos
traba
##éri
##zar
ide
nin
##vil
##cal
eran
##cito
##ES
is
##día
enem
Jos
##vis
rey
16
guar
hon
##áb
hor
def
autor
##ques
dere
##ea
aquí
ofici
contin
##enas
##eras
entonces
##omin
##ación
Lo
##idades
nada
misma
jun
bas
quer
##ería
ir
##tis
efec
Le
##ribu
As
bajo
##elig
fran
núm
ese
go
Qu
fam
##imos
tras
tem
esper
públ
Par
##inas
hal
muchos
##erv
sig
##ome
embar
af
ta
##tam
fueron
pens
##icos
##pas
encontr
conse
##ge
##gas
Gob
rev
##ables
##ord
cin
hacia
produ
lar
##AN
##enos
##EN
##uso
hum
mujer
noche
sí
grandes
consid
nuestra
##ha
Santa
sos
##ólo
José
10
##rante
ley
liber
apar
##oc
cuer
##ñas
grande
tran
##taba
palab
llev
##end
##icio
##br
especi
cir
ejér
escri
##idas
##ble
Ped
Man
luego
punto
##igo
pron
##vers
modo
indios
rio
Per
nuestro
##inos
et
##CI
mand
Val
veces
temp
hace
##arios
patri
esa
Me
exist
Que
ru
##tados
dice
##icia
Am
##orm
situ
día
##AR
demás
##iv
plan
casi
acu
cuatro
il
fu
aquellos
12
##ciendo
obs
##gr
##rió
ll
recib
just
mejor
mom
##igos
##ST
ante
Pedro
present
inc
##cul
##ON
##ne
Na
##cel
##ctor
país
##AL
##ensa
##cios
Francis
Sal
##vor
Ba
estado
alguna
##gres
sup
tri
##embre
##jar
cri
cr
cuanto
##mon
person
juz
##iza
descu
##tí
políti
prof
Este
Sr
mir
unos
##orte
peque
Co
##cimiento
algunas
14
at
##ruz
##ág
##ración
obje
##tiva
##cono
condu
mano
##igu
mundo
##cular
conven
Francisco
Bar
número
forma
desa
pueblos
##vió
primera
##tores
via
##leg
cuar
ejército
camino
##vía
estable
Ha
pudi
##ció
continu
hall
có
##icas
11
##reg
Pro
levan
Mi
natural
##tel
##isto
hoy
padre
##tia
##jes
ellas
##una
cuya
ojos
hub
##ác
##ientos
sea
Don
ahora
super
cuyo
cosa
##uelo
##tando
dé
Bu
agua
resul
dias
Señ
quier
ofre
fuerza
##rir
mos
##encias
mí
Mé
je
neg
##uro
habían
##oma
Para
edi
causa
bra
distin
arro
famil
habian
vis
cosas
##cre
##mpl
der
provincia
Rey
##cun
nuevo
tre
comun
obra
conv
dire
Ro
13
##esen
noti
Po
##yos
tener
##osotros
sólo
habit
algo
muerte
##cado
##inar
armas
igu
##ile
##ría
manera
bus
sold
000
dirig
dio
##ire
nuestros
##ece
##cial
##dio
ri
##culo
repres
encu
##fica
##ós
gri
##erio
##ific
##glesia
Qué
cabeza
##tación
cuales
##dor
##gado
##ilo
Col
##cional
##dir
##entras
llegar
rom
##áti
blan
comer
##pit
##men
##sos
muchas
##ritu
contr
##anza
##amiento
LA
tes
tenía
españoles
publ
estre
apro
##via
hici
ún
Cal
##có
Yo
reun
20
##onel
##rando
##ecer
Ab
comple
inde
amor
relig
##ua
gente
##tio
están
##ho
extra
caso
##bió
cent
##yó
primer
cora
##uesto
cabal
embargo
inm
vista
vir
lado
pl
##iso
##cin
##pul
##bas
Mu
##ública
##lado
##ral
##gre
##idente
Gobierno
fue
cont
ningun
rela
apo
acom
ban
oblig
gobern
Esta
efecto
clas
##itos
parece
##segu
fuera
tuvo
tarde
manif
tienen
##dida
##OR
suces
##eración
favor
##media
último
escu
##gue
debe
##g̃
caball
##torio
Estado
##lica
compañ
consider
estu
##char
##und
##anas
cl
##dades
##tá
##ete
ción
##unca
capital
Gran
##rad
jo
buen
fra
Anton
sil
the
manos
eso
##ell
cub
on
##ientes
visto
##tener
cerca
estaban
sen
antigu
cuerpo
historia
acer
siguiente
##olución
##illo
Sa
bre
pregun
momento
##ilidad
hemos
##fo
##ira
épo
descub
fues
##erva
seis
inv
encuent
paso
##ced
constitu
##ll
circun
encar
II
##ama
dado
Te
mucha
##quier
##terior
##alo
##uela
oro
diez
##migo
hijo
##ip
##table
algún
aten
##tada
##fa
Ex
persona
##rden
##ender
##tido
ata
##greso
##ismo
Mad
pin
libertad
##eles
Antonio
conqu
ol
compren
alma
ocup
Ya
frente
##ará
##IST
recono
herm
inmedia
Fern
##ign
##AD
##rid
objeto
juzg
##tivos
particular
partes
##pecto
gan
##dra
##don
##ál
primero
Is
siendo
vuel
##respon
Rep
fon
##íritu
##sión
##tiago
##ítu
##cien
##mar
##ing
isla
ou
Pe
##cta
##istas
batal
voz
emple
General
crist
nosotros
##cor
puesto
##iene
##osos
interes
##IC
tenia
25
##izar
civil
##mientos
nunca
##ial
plaza
cinco
acab
##tante
sir
##LO
dese
leguas
durante
##ill
éste
cara
impor
cul
##ju
Santiago
suf
militar
ocas
das
respe
personas
lab
mientras
##vieron
domin
costa
##ger
figu
respon
##entar
Cuando
calle
contes
##yas
lan
sor
fir
##éndo
##iciones
soldados
##onte
##olo
razón
Bo
podr
19
leg
cierto
ár
Cab
CA
##por
vie
cuad
##itas
##eta
and
##ús
enemigo
##cto
minist
##ares
##gust
correspon
##osas
enter
##ental
##tiv
capitán
aquellas
fuerzas
##jecu
Can
tér
difer
So
##érica
valor
buena
días
María
campo
bel
tos
vein
fel
envi
##rio
Cam
hubiera
##rados
mente
poner
##ris
casas
##ban
suce
cuenta
##oro
constru
##taron
##iro
iba
##g̃a
dicha
aband
##edad
##cciones
mov
##ñana
##cida
##alidad
##tió
##ór
##mento
estar
palabras
Señor
sé
época
##minist
##éis
##gular
cumpl
##val
##orn
vues
##ispo
saber
espíritu
30
atra
Francia
mando
##aria
##ído
er
##stan
comen
felig
án
##iores
seme
terren
mem
##rica
cómo
pronto
cien
puerta
población
abs
##zó
orig
duda
tropas
escrib
##ísimo
##eció
##iego
mater
##irse
##bos
estudi
##quiera
gust
##ula
##be
Madrid
terri
Mor
viv
mad
us
##ierto
Nue
pais
##esta
inte
derecho
quin
Jun
##clam
##ficio
somb
carta
anim
be
abandon
##cti
lim
siglo
Di
##cir
vas
##eric
Como
pasar
mañana
idea
##adie
##nas
##ctu
##ard
ello
##unci
##mit
##entas
fund
todavía
etc
##ber
luz
##rez
satis
disp
desem
##gó
esos
semej
##lante
cele
familia
villa
##ácter
##titud
Mo
HIST
fil
##tran
preci
unas
América
Era
falta
dep
24
enfer
##orme
conc
##resa
aleg
##inación
##vent
opin
##vin
vin
##cid
21
22
esf
volun
agu
Sin
comba
paz
llegó
alcan
##isión
ces
veci
tomar
##ires
##pan
sur
##omo
dol
conce
ocho
puerto
arm
corazón
##xico
aguas
acompañ
ejecu
##diendo
indu
dif
##rada
trabajo
pag
Hab
gal
desgra
##erdo
amigo
habitantes
bor
##fes
##llo
##ide
len
iglesia
##éndose
##th
Luis
##EL
fru
presente
varios
pesar
refer
hijos
carácter
##ORI
secre
redu
##cidos
##zado
nueva
patria
trist
van
ur
nego
será
español
Pres
suer
México
exten
pelig
señal
lín
colon
##enci
##IL
##IN
##tán
tenido
li
Ja
hora
##tica
divis
vic
trans
##tín
##ización
sitio
Manuel
##icios
pág
ima
costu
artí
##onso
##ítulo
principio
##ye
corri
declar
##RO
##dición
##ioso
bal
Una
perten
bastante
primeros
cie
hermos
pad
ros
cuid
23
soci
perman
partido
indep
clar
##TA
pudo
##iles
asegu
Desp
##ándole
palabra
##rdenes
gas
República
sangre
Or
madre
fuese
sua
aún
##iado
##iano
##rera
triun
Du
import
pobre
lí
hos
dentro
##taban
181
ejer
##ÓN
igual
##ix
##ecido
Pas
hablar
recu
corre
##ema
##ró
obst
public
cit
mismos
##ola
joven
monta
##yec
num
##íamos
Gar
frances
gar
posible
##sion
elec
Ale
media
deter
expres
##uesta
##rim
pasado
pan
enemigos
##dias
coronel
habl
##vidu
pasa
suerte
ninguna
ge
##ron
nao
Tor
segundo
pap
##ám
nadie
horas
ocur
hubi
Jul
##gna
##amento
Jo
fuego
manifes
marcha
alto
salir
vino
Perú
política
##cuencia
fuerte
ejemp
podía
Ten
az
dad
##emb
pocos
##RA
##unto
Ah
obras
##illas
espa
ilust
profun
##empos
##rag
jefe
Pues
##ine
Así
##posición
##culos
clase
Real
pueden
##mentos
nuestras
28
Buenos
26
##arca
##esión
principal
come
individu
##cían
ori
nes
id
Chile
Vic
aum
182
##iar
cob
administ
##tilla
##toria
apre
gen
##esa
llan
reco
27
ren
##crip
vesti
Mig
##ts
##rido
har
nación
actu
preten
im
##vel
Fel
gol
justicia
##imientos
##iga
gobernador
pen
##dez
##iéndose
sabe
lit
dejar
Después
##dan
##rá
expe
largo
honor
retir
fo
tiempos
sem
divers
##ísima
EL
Mas
admi
##gal
órdenes
##ír
color
resist
int
##fico
fre
Miguel
tales
din
ron
proce
##inado
termin
##gü
llamado
hacen
Estados
##cad
##eran
llevar
puso
noticia
##bio
##iosa
nu
##ono
pies
Fernando
suelo
según
Do
hubo
##TU
gener
cé
##endencia
##uda
Aires
##íos
##lem
esas
##ORIA
pesos
##stitu
ras
Carlos
##tario
##pir
Norte
Ra
##OL
##yendo
halla
público
volver
cad
##ror
cur
Ay
##fi
DEL
um
leyes
##cientos
jeneral
Her
##quil
##ridad
influ
##ñad
Entre
ao
##tico
varias
tur
##ong
mujeres
fá
prue
trad
##rer
##ieran
##tillo
Euro
Rio
Fe
recor
pros
##bu
hicieron
veinte
pod
oficiales
##turas
##para
185
cabo
dan
amar
jam
terreno
##hu
Min
apenas
árb
##ást
ga
##tón
sist
ech
servicio
interior
destru
##quer
##iva
tú
repar
señora
##laciones
anterior
amigos
situación
##ficios
hechos
ign
##cación
##tus
186
nacional
empez
HISTORIA
testi
pala
habiendo
provincias
prote
bril
##ianza
fer
29
ideas
especie
##iedo
Tam
estra
##tien
necesario
##bel
##TE
##édi
sorp
nave
pró
Gua
CAP
conci
##gía
proyec
necesidad
entrar
III
capa
Ob
perfec
territorio
represent
##sta
abund
##chi
##iedad
propio
tengo
señores
sue
Cruz
superior
##dios
importan
Ori
##isa
conver
deber
aux
##stancias
reino
##pt
lig
motivo
haciendo
repu
##elos
instru
##andante
pública
bos
decre
ningún
Desde
dul
Hu
##inta
##com
cho
Europa
conclu
Ap
##áp
trib
gr
venta
##icación
autoridad
##ale
Monte
cia
##ame
propor
Tu
##anes
haya
fondo
Santo
##tería
libre
quienes
##adamente
impos
Pla
dic
ví
plata
ev
##diente
##eral
sola
Capit
separ
Ta
podia
VI
corte
##cipe
lejos
##gosto
arri
##RE
##tera
puntos
cielo
vent
organ
inten
distingu
##tía
##ies
vig
Ver
##rios
quedó
meses
##dieron
permi
viaje
##cl
##tarse
##ipe
antiguo
Sur
sacri
comercio
allá
adelante
##onz
nar
acep
Hist
noble
hacía
fácil
##eraciones
alguno
añad
americ
##rible
elev
mostr
##gel
boca
##lores
##ila
##tivas
voluntad
Go
Pue
##loria
Villa
hija
183
184
rode
colum
lengua
##cimientos
viol
mandó
libro
##iere
conte
siete
##jado
31
dom
Pr
##gla
##tidad
salió
dign
##rey
tantos
ense
maes
línea
llegado
Ve
conocer
naturaleza
auxil
##mir
50
ocul
ses
hallar
eleg
##lin
avan
Ven
##ges
##tero
tin
aba
Gal
##aro
##jero
##té
esfuer
asi
##tadas
##ortun
río
recur
ocasión
##ierta
escla
Sus
ind
Domin
##óm
oril
tas
principales
rob
magn
tanta
##elas
##mino
##cienda
revolución
obe
distancia
prob
dando
Diego
segunda
opinión
##ite
ésta
absolu
oc
##zco
##rito
cargo
tribu
##zan
##gáo
docu
##bal
##ósito
##zaba
Be
movimiento
presidente
##imas
##jeros
Bol
##erra
ec
##lara
He
memoria
##CIÓN
Crist
##TO
vecinos
empe
atre
iz
cruz
quiere
Puer
casti
##aso
Pre
Pal
##ildo
bene
##dal
##tades
ingles
##ctos
piedra
##till
ambos
sign
podido
##iosos
##monio
##terra
raz
además
centro
mais
consigu
compr
medios
arreg
tenían
IV
hermano
##ines
##dem
cuesti
##LA
tir
##bles
br
llama
Ber
prepar
mez
187
quis
antigua
común
arti
daba
##cados
Ci
extre
pose
indust
ín
##tismo
circunstancias
última
##didos
Esto
fort
determin
suel
gru
##one
##gación
march
vio
Nueva
##lla
calles
40
##icip
parecía
arre
Ingla
##iamente
Cuba
##ñar
pasó
arte
dolor
##ficul
aire
doña
respecto
dur
##fía
coloc
Sol
contribu
impres
##ram
caballo
moder
##entado
Ter
prove
procur
importancia
atención
##rique
batalla
repe
##UE
##jó
único
entrada
##poner
##gl
preciso
rique
tierras
junto
decía
##cando
menor
##arias
##onse
##pre
has
##pol
debia
conserv
virtud
imper
Jes
##tales
cuyos
seguir
##ctubre
dinero
##quis
suje
##tl
##diciones
za
##ecía
volvió
gloria
caballos
##cada
##villa
tomó
##encio
Ram
Congreso
hubiese
despe
XV
pelo
##iana
ado
##onia
incon
olvid
##mbres
##óme
ng̃a
cau
cañ
##íncipe
pene
##tiembre
##ere
pra
Carta
vos
##este
Ade
defensa
dificul
contrario
Felipe
extran
Minist
##ivers
Pu
##ecen
despa
sociedad
Sí
Lib
##si
principios
conde
##ime
Inglaterra
dirección
concur
##erador
##ablemente
EN
Del
##arro
sistema
hallaba
amena
derechos
##TULO
##III
muerto
patrio
multi
asist
jue
edad
##cí
##ianos
##eas
término
admir
##pia
trabajos
##lez
desapar
##ice
gusto
##fac
imag
camp
ram
Ser
afec
##poco
Provin
lin
##cab
##uras
delante
Ur
propia
Cap
##ierro
##ré
##rero
noticias
##TI
prision
##caba
##lón
doctor
##ches
próx
ep
dió
bon
cuyas
Castilla
##quí
elem
due
Presidente
qual
dedi
Cór
dieron
##pl
servir
##ervar
##ardo
##vol
Je
valle
Ce
dejó
Unidos
Vir
##OM
exclam
altura
##idor
lla
ber
esca
Todo
seguida
aj
##teriores
##uña
adelan
Emp
acto
##udo
sober
gén
queda
ord
##iese
##anto
cla
sería
treinta
##ND
##umb
##xo
mui
iban
##trodu
ignor
##tivamente
##gada
agrad
##ól
Au
observa
emb
creer
conquist
avis
celeb
doc
demos
##enso
##orma
equi
##tion
Julio
RE
Gonz
fortuna
acos
ran
##icamente
miser
independencia
solem
derro
origen
##tés
##usión
##mbre
##trás
naturales
##óg
resultado
observ
brazos
##CA
##riendo
acción
izquier
Nues
fan
##tiles
exig
división
lic
Martin
eu
debía
consegu
##tamiento
salva
título
mit
fecha
##cidas
##nes
Vil
reme
ejemplo
ens
Id
quién
Roma
seria
Imp
entus
Tom
sentido
AL
norte
demas
franceses
pena
rum
##partam
##legio
existencia
32
empren
##aría
Gobern
Ru
sepul
aconte
conducta
tendr
rios
Hay
##arle
glor
antiguos
buscar
tantas
presencia
León
Martín
fron
mol
papel
mist
rebel
##xic
recibir
interés
jamás
##tz
##pez
35
aprove
viejo
semejante
##arlo
##ablo
##brero
##au
triste
dipu
Alonso
urna
dichos
facul
##arla
ple
Domingo
##jico
cierta
##idencia
ale
enci
simp
encuentra
pié
uso
##sul
##tim
##iencia
alta
respec
Guad
##vio
culti
exac
##cés
grave
All
Tal
derecha
entra
Ital
difí
##orio
##gio
reales
pul
##lad
188
##iéndo
pequeña
introdu
##iste
##crib
moral
carac
representa
mara
silencio
campaña
oficial
bur
##viembre
##ant
conquista
33
##ocu
Cos
##izado
Os
nota
pequeño
artill
Ni
ingen
cru
ped
Iglesia
##tarios
soy
intelig
hom
herman
nie
##ment
Fer
Za
regres
Ad
##cidad
templo
histó
##uri
atribu
consecuencia
solici
Dpt
##obre
exam
deseo
Ne
Cer
##lio
Fr
Res
acerca
##él
##tenido
aus
convento
##zada
buenos
mayores
##tiene
dejando
aspecto
ocupa
impe
##dencia
##raba
##inario
##umbre
doce
##itado
##idi
##tiendo
palacio
##óse
cuarto
##itud
colo
naciones
##entemente
##tador
##pado
ben
##gados
##gno
exper
sum
haci
descon
salud
española
desen
Mer
pér
##iódi
##qués
buques
quiso
pueda
##ezas
Bel
infer
padres
##jan
notable
acaso
comisión
Dr
##dill
Cá
ciudades
not
solamente
espacio
##ich
##onal
islas
sim
Aun
LOS
últimos
bienes
pus
##inal
##ónde
##uca
Bal
vivir
##viese
##tellan
sar
##rón
recom
afir
relación
sean
Cortés
dob
cualquiera
##tem
cha
Italia
ciones
oscu
Aquel
##érez
dor
perder
deben
parecer
pudiera
##yen
compon
some
##sas
Historia
numeros
##rieron
tropa
cantidad
Indias
escuad
regular
refle
Alf
acuerdo
resol
##abri
guarn
arriba
adqui
prueba
comis
##yeron
##tidos
árboles
Aust
ast
##GU
tratado
sorpren
Có
facil
diferentes
entusias
asunto
pier
junta
ministro
cura
céle
div
tampoco
lucha
már
Pon
alar
XX
figura
##ori
viene
reti
comandante
peligro
Mayo
cuidado
##tida
Ho
larga
##áis
36
prác
resp
##zob
apoder
mala
revolu
Sevilla
##ático
Mal
Lor
siglos
imperio
cambio
##ini
Puerto
##asen
##didas
##lones
apres
periódi
Vera
##xim
Lugo
Nic
##emente
diri
##ifica
Méjico
##ibles
Esp
Bra
dicen
verdadero
oficio
##vido
algu
jefes
dorm
pec
cate
ine
##ED
cel
propósito
##tuvo
##sp
tamb
##ámara
individuos
flor
enga
confianza
nuevas
Cha
concep
gentes
Gobernador
tab
##col
costumbres
divi
180
llen
siguientes
##erto
verific
##éase
##ñado
##dras
34
th
##anzas
##gi
Cre
encontrar
supre
descan
compañía
prome
##undo
éstos
poca
100
##íst
relaciones
metros
Oc
faz
creo
mesa
##abe
tenian
mismas
izquierda
juris
francés
lleva
seguro
##ledo
titu
quiz
##arqu
morir
Lima
##rán
Valencia
eter
blanco
intereses
cualquier
escrito
Portu
importante
mues
##eda
nombres
precis
instante
montañas
##cerdo
má
feliz
##gent
Todos
negro
ador
formar
##tific
##ices
descono
flores
##tase
##isco
Pueb
popul
##ém
quedar
terc
dem
##eme
quiero
##guar
##adora
##cuenta
puedo
##grá
institu
arran
edificio
deba
caracter
especial
nueve
pensamiento
##ilar
caballero
Granada
Sta
cen
Va
##rum
##yor
querido
Doña
##hib
espec
lugares
actual
empresa
log
contestó
dios
##rano
llaman
firm
recibió
##dón
contemp
nuevos
euro
golpe
##tol
cole
Pan
SE
Guer
##trar
presenta
##siones
##éndole
desarro
##vado
imposible
rostro
##ferencia
campos
fus
##iosas
evitar
quería
##jada
##quez
atraves
##ierra
##ENT
Ben
Ciudad
tuvieron
##minos
insur
consul
teniente
recursos
##ph
Mr
momentos
Ros
##ulo
breve
alim
##IO
acord
Andr
##zando
sospe
costas
república
estuvo
##icidad
combate
entró
##tina
arras
ases
suyo
Constitu
artillería
Capitán
recon
total
mexic
sacar
necesit
##abana
vul
##ure
##venir
##rase
obstante
Rec
##rigo
habita
sucesos
militares
45
37
susp
##cepción
triunfo
Enton
XI
juicio
##cón
discur
posición
sencil
sac
terrible
nas
##diencia
##ivo
Ov
municip
términos
venir
recibido
caer
ráp
decreto
conocido
edu
seu
discu
mitad
ido
acre
materia
mencion
##guna
satisfac
aver
mg̃a
##jeron
difícil
hacienda
venido
incl
viento
##guay
gracias
murió
mag
sacerdo
##tró
cincuenta
condiciones
Tra
fáb
Entonces
socor
diciendo
##ormes
tí
resuel
lad
europe
##IS
Son
cuestión
protes
triunf
García
##entales
esco
siti
adop
##radas
llor
frecu
puertas
Estos
##rea
proclam
declara
##dicion
habría
También
Ga
38
llevaba
género
obispo
inmediatamente
predi
humil
proces
##lada
mús
##unda
ninguno
##ramos
méri
escal
mur
Bur
##are
caballería
Oh
##jen
apa
vuelta
ora
Bern
sufici
Agosto
##rico
teniendo
firme
pagar
ánimo
##ífico
niños
respeto
##idores
Mag
baja
nom
alter
perdido
##gues
seguridad
conocimiento
conj
##terio
familias
resto
enseñ
suma
libros
raza
##demos
ejerci
despre
portu
ass
Abril
##rasil
cartas
Pag
##uno
muertos
conserva
religión
esperanza
ciento
##idade
descubri
##mania
hermosa
desgraci
castellan
##dado
Córdo
##sar
##rí
##ade
##guez
##llas
minu
santa
habla
infan
jó
corona
pobres
##tudes
##lesi
artículo
generales
##enda
pecho
curso
negros
##entó
conciencia
impon
ali
Fué
##cripción
abajo
confes
comunic
bol
social
39
grado
Vi
político
extraord
vuestra
##uestos
verdadera
funda
amist
sentimiento
primeras
llu
CON
príncipe
##stancia
##abilidad
##dientes
##ábamos
ape
niño
sens
tomado
compañeros
medida
administración
cuerpos
avent
desgracia
##ática
llega
estoy
dici
indí
proporcion
resolución
##aman
costumbre
primi
Dici
castillo
tratar
caci
adver
hacían
dejado
##rían
##lico
cuantos
digo
##uelas
##tumb
brazo
pasos
descen
Joa
Toledo
60
existe
ciencia
42
constante
hero
Conse
##lares
sul
sombra
Oviedo
fres
##usa
completamente
tomo
azul
ja
podría
##aran
teatro
rig
haberse
##uco
Em
##iscal
pronunci
ES
##quie
cruel
##ctores
tenemos
Coronel
##mites
mel
##abel
monum
Junio
contar
multitud
entender
##ke
##quia
miento
pedir
ans
##erías
monte
igualmente
causas
##pó
abra
##lon
consejo
##veres
nove
conden
Españ
Isla
##zaron
deja
Cómo
siquiera
ambas
demasiado
singular
servicios
Sil
##úa
##zon
mirada
Hern
##cá
##viera
##rup
##ctura
bueno
apos
Alemania
profes
##tantes
negocios
reyes
sigue
llegaron
##cionales
##edes
##ienen
##tres
cuarenta
##dó
alcal
##omas
Art
sosten
victoria
Portugal
prud
preguntó
celebr
##IA
manda
cuán
pocas
##lesiást
av
enferme
precip
recuer
gracia
jóven
##ICA
posesión
Austria
minas
esfuerzos
fortal
sú
tus
privi
Maria
Enero
proyecto
41
##uma
Octubre
##ij
48
parro
prom
encan
tranqu
industria
500
conveniente
conforme
reina
quiera
escas
piedras
##yan
##ñez
##sula
disposición
##amientos
recuerdo
##amb
hé
Jesús
despo
##ual
animales
influencia
hacerse
200
orgu
traslad
Luego
fuertes
oportun
##arme
##dral
déla
infin
inú
Cons
cambi
Blan
marido
excel
confir
reclam
podían
##iros
pase
##gon
montes
##idamente
Sar
toma
salida
trata
casos
defender
ves
dulce
##lados
bár
util
encuentran
Fu
elementos
##pes
tribun
situado
##CO
##entan
##ERO
Padre
célebre
invas
44
Colomb
##jaba
remo
forman
Barcel
##dores
##aciones
estudio
##CION
riqueza
ost
##endido
médi
doctr
Reg
##illos
##ys
##idez
éx
objetos
43
jurisdi
rin
paci
Habana
duque
##ella
operaciones
espal
supon
santo
jur
exclamó
jorn
efectos
Junta
Enrique
Plata
propie
obede
##juz
Diciembre
actos
compar
Gra
miemb
##vera
curi
hierro
##grafía
##iales
##usto
##icias
soldado
Marzo
llamada
aca
jard
##rosa
##arquía
mandar
##et
corriente
Provincia
desempe
Allí
situada
Catal
Reyes
mío
##IB
París
##vención
##xto
Vicente
hallan
fati
SAN
ama
poeta
##pira
##dillera
pensar
Dia
presentó
##partamento
Agu
Sab
viendo
grues
completa
##tidas
esposa
##isla
expedición
vícti
Da
tum
Andrés
deses
hospit
##cura
##sto
escribir
##ágri
lej
madera
practi
entusiasmo
volv
Mis
##cieron
apla
human
bes
Flor
##zados
acostumb
única
carne
Pala
gastos
aplic
comb
alegría
autoridades
amo
edificios
partida
puente
##icion
base
Estas
datos
##ándola
sentir
Ara
enf
Bas
destin
che
##ICO
dónde
##cina
tol
rem
##vuel
##ábase
##ut
buenas
AR
Rom
lágri
##iertos
##dían
##gando
mejores
claro
##tara
consa
Barcelona
##stru
Porque
espan
hermanos
Aquí
##ciales
Véase
##eramente
esperar
propiedad
destino
fuesen
##UM
alde
##eres
supo
##ecre
estim
desta
##garse
llegada
Pérez
arb
diversas
dispos
miedo
clases
adi
prisioneros
##gido
pá
poblaciones
Ana
##ende
sala
##uf
##quina
Ang
nombrado
razones
llamar
##gri
estando
Brasil
documentos
sostener
resistencia
sel
##teros
ingleses
##carse
encom
vel
flo
calor
espi
voy
placer
Quién
citado
delic
recha
podrá
##chado
logr
##arte
consiguiente
##orias
abrir
AN
Ahora
##garon
Nada
##mirante
límites
##ane
##amas
##taciones
qui
vac
retra
Tar
propos
##endiente
cuadro
46
comenzó
murm
irre
Señora
ton
realidad
virey
##ínsula
##teca
pele
Mel
peso
desembar
conten
##ivamente
##ambre
cortes
desper
repro
##OB
##tieron
univers
##inaria
Bor
##iero
47
##ísimos
##ck
##jando
piezas
occid
espl
emperador
públicos
particulares
##íase
hecha
##ins
mandado
encontró
##bil
anteriores
Riv
temor
ídem
encer
respondió
fle
Coruña
habrá
CAPI
##eca
completo
inquie
##untos
popular
cristianos
##eratura
##anda
Algun
ahí
há
blanca
suya
eclesiást
cari
orilla
ayud
males
comprender
##cadas
consum
ble
columna
Dos
ocupar
Rod
impul
##tividad
tru
Aunque
asomb
medidas
jul
mister
superfici
vamos
aco
distrito
##fé
##bro
almas
##tua
##vación
##genes
humana
##oración
design
##cam
##ID
##up
##untamiento
especialmente
buque
busca
##uo
Conde
digno
Ministro
Th
##gena
perpe
daban
amistad
##juzg
cadá
Cara
lleno
Pi
oriental
persegu
ciertos
##ló
##sado
##vador
econ
altar
Isabel
deten
desn
decia
##ison
éxito
Ger
##ulas
##idal
##ecieron
apoy
bri
##vios
histori
perse
long
##camente
remi
bosques
merced
provis
fines
Joaqu
convo
cabildo
siguió
Agust
bru
suyos
caminos
correr
rico
torre
Sen
##dente
devo
cerro
ace
reconocer
Córdoba
##itó
55
ala
pura
punta
labios
##diz
##glés
##gaba
inspir
IN
sentimientos
gover
tenga
suceso
##ull
##mán
gobier
##ficos
dirij
##ím
congreso
##rump
matri
diversos
dispon
##erna
##ticos
llamó
Tan
leer
Il
Consejo
##hat
##nal
##UR
cató
Fa
Mayor
Alvar
ria
##emia
explic
Bre
artes
Inf
##gro
carrera
espada
ment
niña
compa
Noviembre
##sación
##bia
mira
##citos
Sobre
orillas
Vall
persu
países
evid
piso
ataque
##ándolo
Vol
##rias
conoce
Nos
taba
vecin
foi
misión
formado
incor
ciertas
detal
rendi
mérito
semejantes
lágrimas
##ficación
pañ
inteligencia
Colombia
##dian
##ses
##edor
##minu
##tino
Febrero
##plic
vieron
##ccion
PAR
asal
##zobispo
pasaba
1a
##estas
ilustre
##gadas
rece
pare
non
##uncia
##iqu
pien
vapor
civilización
capitu
fen
dirigió
ré
debió
oir
##ecían
kil
estilo
##ález
perío
elo
##oral
simple
ofrece
plu
##ore
mesmo
aprovech
indio
##reros
mé
dije
infel
culto
establecer
viva
comunicación
pone
Audi
capilla
Fil
ruido
Alcal
temer
ademas
00
##remos
conseguir
49
pérdida
ener
Pol
##video
notables
pequeños
##cruz
extremo
##hua
ganado
cumplir
maestro
jóvenes
##ciente
dispu
elección
Eu
lago
##pie
Mientras
Pablo
Lon
##etas
##grado
rib
tradu
prodi
colonia
amp
precios
trono
instrum
llevó
Alfonso
##adic
##dula
establecimiento
##iertas
##caron
insurre
##ancias
espres
hubieran
##mina
Az
##amble
ciudadanos
Castro
formas
inglés
alf
##amo
carre
Jer
consideración
##blic
tado
haga
##ándoles
##tencia
##caciones
##ieren
condición
LAS
restos
colores
his
ancho
80
seno
##ticas
remedio
##leta
##san
anunci
gua
capaz
agri
veía
encima
prohib
band
importantes
debían
corta
##gusto
labor
vuestro
belle
ambi
quedaron
far
##entro
anci
Nuevo
Bien
##frica
legua
calidad
##ni
##oros
quedado
progres
dra
##cla
enteramente
##lid
##od
salido
##cao
revolucion
quince
apren
##iblio
##ragón
letras
mayo
disf
preocu
Igna
179
Constitución
lhe
nombra
defens
Lle
marqués
adorn
##tuoso
aquello
fiesta
##CIA
##izada
dila
construcción
principalmente
##rin
González
críti
esclavos
##bes
51
ul
grupo
##iden
bah
local
exa
compe
pela
Grande
##vés
propios
##PA
Sebas
##cultura
hues
romp
salvar
columnas
Liber
envió
52
##udal
incen
##adero
##into
##roso
##bra
CAPITULO
caballeros
basta
Pen
Nicol
bárbar
diz
##licos
sabía
adj
##ándome
##amor
hermana
much
Montevideo
llena
batallón
conservar
armada
diferencia
esté
##GO
artículos
tío
estran
ruinas
##uti
propon
consecu
##alu
Casa
matar
segura
##ÍTULO
hallaban
unión
##dedor
concepto
##DO
cree
##iss
##usos
abril
##ezuela
clima
sr
guardia
peda
quem
personal
inj
Jefe
##tones
##mer
deseos
bro
escuela
Fé
##inete
##her
consta
Segun
hermoso
Mil
VII
echar
##abal
autores
maravil
héro
rato
apreci
honra
Hasta
caudi
##lia
##uc
comprome
guarnición
##uez
aquél
religiosos
54
só
rica
##amá
##ff
Asia
Oriente
##igna
canal
som
hostil
bosque
descar
felicidad
vivo
Zara
hacerlo
56
inoc
subs
levantar
únicamente
Fra
##ísimas
ques
sueño
##abo
seus
escol
##stas
geo
millas
vengan
miembros
##vedra
Virgen
millones
53
##omía
ais
yer
cuartel
indisp
menes
##ívar
sierra
aman
traer
andar
coron
##úcar
secreto
CAPÍTULO
fol
verse
##árcel
quedaba
##bres
##didad
##zaban
distribu
##endientes
##tecas
Ge
vulgar
heridos
háb
curios
alre
rar
Mur
vive
##llos
Ignacio
sobr
Navar
##arcas
##cán
Lleg
presi
escar
dichas
Tiene
idi
peligros
profundo
restable
gor
atrás
Mendo
##jera
##int
Cortes
salieron
Loren
rej
##caban
##titu
genio
##ique
mue
300
##hor
escribió
precio
##ham
archi
pareció
exces
##qué
##ello
Paris
##enciado
formando
Rob
llamaba
##itan
##ída
mane
dilig
visita
encuentro
##QU
##ii
Valle
##ug
música
pequeñas
##áz
encontraba
tercera
bandera
##bara
empezó
daño
desor
tomando
vigor
Rafa
##udar
levantó
##uestas
conta
tron
terrenos
##ly
sust
Veracruz
muger
auxilio
diputados
cop
gent
puestos
##ramento
sirve
dá
Nicolás
moros
mía
##fos
Cristó
jes
región
70
conser
horiz
reflex
reli
Antes
Cádiz
cá
Puebla
servido
liter
##omé
MAR
##ricas
Dis
##dres
continuó
montaña
##igas
##ka
encen
idem
##son
debajo
separa
quando
##ular
Lopez
ase
rein
##quite
hol
##uelos
rumbo
brig
vege
ministros
fama
podemos
actividad
poes
hojas
aos
##trado
ano
experim
##tándose
meridi
humano
hambre
##vada
##BA
alm
Sebasti
abo
##amblea
Sierra
pár
carga
Patri
150
voces
aque
encontrado
satisfacción
##pación
Además
##piración
Aragón
pudieron
##esto
nobles
##donos
serán
##ADO
cámara
##ñe
##ológ
manten
sas
Bogo
Bolívar
##canos
superficie
efica
178
suble
atro
ral
dificultades
##xa
Obispo
semb
asiento
Paz
##onde
África
fiel
capítulo
agra
PA
Audiencia
revel
##EZ
interrump
##iesen
##enes
compos
##teo
Nuestra
##guardia
##íz
##ología
darle
58
##anti
especies
##cib
dueño
##ónimo
quedando
árbol
arreglo
##torios
obstá
CU
Quer
asuntos
57
##cidente
##tlan
mural
partidos
imagen
cua
EST
##adolid
antiguas
cumplimiento
Mol
confun
##unta
oído
##jestad
través
MA
escuadra
cuel
##rie
Setiembre
pareci
humanidad
##licación
sale
dignidad
alem
período
vió
##ÍA
modi
entendi
##cro
depos
fortaleza
porvenir
ferro
##ídos
excep
##ventud
cria
lon
Fuer
##vados
##eos
satisfe
Torre
##tente
ustedes
llevando
##cedentes
agosto
NO
inútil
##usia
##vir
acome
refiere
##pel
##pole
##ERA
##grada
Guerra
reca
Costa
líneas
##inda
quie
libres
pregunta
cama
##rense
Cabildo
liberal
##vier
sufrir
Salvador
secretario
consist
##ést
##ército
expresión
##entaba
##ombre
##abil
##IV
verde
direc
sesenta
asegurar
jurisdicción
inform
Mendoza
sabido
vieja
alas
satisfa
pel
frutos
##gip
hue
animal
##arlos
##ang
##édito
confi
cordillera
respons
Cristóbal
grito
##imen
Ramón
##raban
vener
políticos
escena
plantas
obis
CH
##hos
horror
##ítulos
hayan
juventud
lector
Conf
##dría
##enca
guard
##pal
impro
##mes
existen
##viesen
fec
##iti
sucedió
gefe
Sant
tribus
infantería
##CIONES
##izados
extensión
Mun
Vd
justo
dispuesto
considerable
Rafael
##trando
##eco
halló
##drá
central
##teras
tiran
##iller
##EM
deman
dura
siguiendo
prisión
mantener
facultades
camin
diver
continuar
##ela
esfuerzo
comision
capri
fruto
negocio
##inch
##taña
inn
##tillas
Esc
##rillo
mejic
Comandante
abundancia
altos
##taría
##cano
##ibilidad
chil
##gor
##glesias
disposiciones
##yes
cál
##gió
##ficas
inferior
##reza
Indios
fís
cubierto
##rores
monas
record
graves
perdon
Sala
##dí
##mada
Doc
##amentos
blo
malo
59
##pio
modes
esperanzas
ventajas
Valladolid
##zadas
conmigo
vasal
grandeza
altas
desas
leal
corto
Secre
##erse
##crito
retirada
julio
##ueva
referido
comien
Avi
famos
republic
Orden
##nidad
contiene
onde
Concepción
gab
vano
indispens
perf
prece
cárcel
##pro
constitución
##cula
Está
refor
alegre
fundad
testigo
conti
espectá
menester
agre
Bogotá
##ay
##abas
resulta
prima
cerem
##bor
cón
ricos
quizá
prime
resultados
##ement
poderoso
perfectamente
##pulos
hablando
acababa
amb
##ómez
insign
reserv
apoyo
francesa
##ándolos
ponerse
copia
emba
177
##izó
incom
aqui
dí
famoso
aparece
fusil
##uta
progreso
vestido
##bación
Paraguay
pic
patr
inmensa
##RAN
supremo
azo
fero
puertos
cens
comunica
americanos
envuel
ris
apun
sonri
Herrera
ensa
debido
enero
##genas
sorpresa
dejaba
crimin
Dist
pú
presa
##rarse
carb
mila
negra
pidió
brillante
ascen
querer
cion
persuad
fabri
cobre
CAR
defini
##idel
produce
##gué
ocasiones
Ponte
orgullo
reunión
prem
Corte
odio
ejecución
Gómez
procedi
##dase
empleados
152
##iu
hogar
médico
##abes
Med
Guar
noches
salv
##áronse
gun
pluma
sión
##ensas
##óst
celo
Ál
##chez
consigo
75
dificultad
##enza
esperaba
prefer
##éano
Ej
servid
conmo
virtudes
cano
Lorenzo
fundación
Rodrigo
##pera
cayó
llevan
error
hablaba
##mol
##icía
vil
fla
creyó
155
Cés
Agustín
pis
ór
huer
luna
ñas
motivos
marzo
Burgos
original
##cau
escon
baj
##osamente
marchar
terror
##eso
##gao
labr
armon
llevado
Reina
despren
impedir
Dire
##álo
obtener
absoluta
Ol
rel
razon
torn
empeño
capitanes
Vel
ministerio
ital
##IT
ropa
CAS
belleza
masa
inconven
cañones
espon
##chada
##US
##áticas
prosper
##boa
frecuencia
solemne
Mem
Pad
##CH
bres
disper
mus
próximo
LIB
pasando
Emperador
once
##tamos
153
circunstancia
Just
Neg
colonias
##gios
defec
resta
fuente
aprob
doble
##uró
400
##cra
parecen
talento
154
glo
tono
espar
empu
Sim
desf
serie
nov
limit
rocas
detrás
ef
tranquil
monarca
##sen
guerras
##andro
saben
disminu
subir
Había
##jados
acaba
##INA
Guz
##lando
obligado
##tt
ee
##ulto
legíti
Má
protección
importa
Comp
observar
##izarro
Durante
ejercicio
octubre
víveres
##tla
nivel
suficiente
investi
inmenso
Ama
argent
##lamos
pasiones
documento
mandaba
##rente
inclin
sazón
Hernán
##ázquez
##VA
añadió
hospital
##amba
##eira
veinti
ug
Compañ
práctica
planta
##tiende
Sac
rei
varas
promo
##izas
HISTÓ
muros
##rones
dixo
castigo
injust
concil
desorden
Orense
riv
traje
antigü
61
##raron
vinieron
jesu
juntos
descubrir
tembl
cubierta
entera
equivo
dibu
aguar
visitar
estudios
##fera
alo
65
##gestad
aviso
##chó
emig
arru
lados
vienen
misa
instrucción
pusieron
##amen
quit
vid
Venezuela
##IG
regiones
periódico
Hacienda
veo
marin
prepara
Pam
##tían
cabezas
gritos
160
visit
Tú
##cr
nerv
bordo
Más
juez
##mita
##udos
até
profunda
sacrific
HISTÓRI
puedan
permit
Gonzalo
arquite
##drí
qua
procu
##RES
189
velo
set
##umer
recordar
##tea
muito
versos
necesidades
tama
enorme
terra
##ribles
62
manifies
rever
ries
junio
indígenas
##dados
preso
describ
bis
##umen
vecino
fatal
sucede
moles
religioso
##tienen
enfermedad
abor
cacique
gig
alcalde
exci
##has
agreg
##iri
##igue
muestra
##jara
necesita
ruina
mayoría
destac
irri
Gas
##mó
regal
café
patriotismo
Ló
letra
##LE
pasión
inici
##inarios
dispar
peor
##mado
sangri
##ában
Er
##eciendo
##ificación
guarda
material
imaginación
elle
testimonio
##ósitos
Rodrí
##ienda
##entamente
##jal
horrible
fas
Vill
emin
herido
Mos
##ze
Var
funcion
proceder
continente
##entación
eres
JU
voto
estamos
##iras
ás
##MA
ofrecer
Toda
magist
##ivas
vigil
colegio
Ast
seguido
cír
##ijo
##tuosa
alb
hai
discip
papeles
provo
conversación
educación
actitud
magní
Pos
pasaron
sujuzg
pobl
generalmente
dominio
mirar
miseria
ester
abrió
obscu
jornada
##cara
Cristo
here
cuello
ínti
tim
##ALES
cias
aci
curiosidad
ger
##han
subl
soberano
rentas
##ume
condes
obse
##endas
invad
pago
iguales
guardar
Ir
##ille
dispuso
reprodu
posi
significa
##ADA
tranquilidad
vuelto
Gre
paredes
valiente
##uestra
Reino
##ilas
Cate
productos
arreba
útil
silla
##viendo
preven
DO
quo
invierno
blancos
cib
##ÑA
##goza
estación
bendi
derrota
formación
##aré
##cible
inmor
publicó
rap
Cartagena
Lin
verdaderamente
##reo
retro
ang
ampl
energía
Eso
63
##lano
digna
##renta
prolon
pensaba
laguna
discre
aves
pál
fácilmente
Cada
pací
quedan
minutos
asim
administra
prensa
##amanca
##pois
persecu
##menes
fábrica
##cales
redon
Nar
Yuca
Anna
Hoy
figuras
lei
trato
éstas
##dario
fur
acor
176
vía
doctrina
mode
sier
GU
escritor
aho
fér
longitud
bahía
propias
Tol
mento
comarca
##lina
##gem
Rodríguez
##ude
##lera
vist
despues
##DE
Ella
##óvil
encontra
Álvar
##rilla
Cla
vencer
campamento
marina
despacho
oposición
hará
rue
producir
beneficio
superiores
adu
##vida
Colon
contener
ilum
residencia
lá
perm
beb
escritores
excl
##ledad
Ban
López
##cua
##cioso
latitud
Amb
Santan
Napole
Magdal
notar
##sal
##quias
observaciones
Joaquín
##bian
espiritu
exal
desarrollo
venía
respuesta
##visión
##vamente
Poco
pruebas
llo
cump
enfermo
Martínez
espedicion
pudiese
arma
tiro
debo
Palacio
Ac
vari
PRO
departamento
individuo
diciembre
68
Rosa
Vamos
encargado
##ederación
##ellos
Algunos
##vista
enér
vela
reda
consol
ayer
organización
##pin
compuesta
tren
##ades
humilde
refu
Campo
resistir
doscientos
Muer
##erales
presentes
aproxim
admiración
ara
nacido
riquezas
comprende
##gamos
perju
abierto
desl
##ERN
perteneci
Zaragoza
otor
Fernan
Londres
perio
acompañado
quinientos
##gura
vale
emo
##uros
cose
decirse
##lao
políticas
##ELA
reba
romanos
torno
interesante
##vora
débil
cient
##zones
enviado
ciudadano
##trio
##laron
acontecimientos
pudieran
conviene
mina
64
##legios
piedad
Nacional
rigor
unif
##inato
Hol
##arán
aconse
##lantes
disim
pieza
llevaban
##umas
##áticos
##empla
necesaria
##jarse
arco
sentía
##ux
tempes
arroyo
grados
Magdalena
##ith
151
impresión
Men
Hon
patio
Prim
arena
debemos
oficios
matrimonio
abandonar
##laba
suas
##tarle
##érida
Univers
pués
##tará
Dipu
##mite
compla
bella
españolas
##éc
eng
compañero
157
##cero
qne
fiestas
fuga
suele
tambien
mero
crédito
hablado
Tur
ald
peti
##icioso
chos
##ditos
156
grupos
hun
dama
bó
descubierto
poesía
funciones
representación
tribunal
empres
##gara
Mariano
inex
habitación
ejércitos
desesper
consent
rebeldes
perpetu
largas
vuelve
quebr
Jor
tocar
recuerdos
obser
Lis
Vo
Muy
movimientos
discurso
febrero
##bios
sabio
LE
dedu
venia
toca
cuch
##licó
##aderos
kilóme
Pizarro
tradición
reno
edific
dipl
acá
##triz
##alla
MÉ
coro
culpa
extranjeros
Are
sacu
Príncipe
flu
##egas
##tanto
playa
##arra
##tamen
##bito
##eis
Oeste
espectáculo
jud
Santander
quieren
Pac
oír
acredi
IX
##esas
##dencias
Napoleón
liberales
##anía
##irá
corresponde
Caball
XVI
69
exterior
cere
Castillo
##tirse
##ciles
##inosa
Cabo
ría
conjunto
final
súb
contaba
Dic
caudal
wh
creía
alturas
om
fom
espera
salón
marques
juzgar
fab
##poli
judi
##gida
supuesto
noviembre
Tla
##bran
resuelto
exclus
penas
últimas
socorro
occidental
##tum
crimen
llano
Flores
The
##dito
policía
periódicos
Uru
Sán
##teles
audiencia
Prin
##aje
Mira
66
caba
Compañía
Supre
tipo
aust
reempla
##íso
##entando
trabaj
patriotas
universal
estados
precisamente
ocasion
incorpor
##unció
navios
Fo
tuv
grad
reac
tomaron
Rivera
sabia
simpa
entregar
##tást
regist
##gia
##tzin
obediencia
lenguaje
Galicia
divid
##gata
sacrificio
confer
67
##gui
##deros
vé
setiembre
cuantas
lecho
##terrán
empie
sentencia
##turb
##ork
Valdi
calma
catedral
enamor
desierto
Cuán
admirable
##quen
##ulos
distra
públicas
descubrimiento
agricultura
aventur
bierno
extraño
Án
##adier
caracteres
aso
##ife
licencia
idioma
lum
consign
sombrero
espantos
anu
##UN
gros
##acan
##zuela
mision
##darios
viven
fenóm
##arde
Contin
##ilio
##AY
mirando
feder
cristian
comida
pintores
##hi
Trib
auda
llegaba
infeliz
cariño
nacionales
Rosas
dada
valles
alli
frío
hice
pudiendo
bello
conocía
lluvia
##cáo
##AB
VIII
##rador
atacar
Teniente
158
cristiana
72
verti
ajust
abundante
##inados
dientes
##ñó
aren
victor
grav
##ple
##cita
Quin
declaró
Salamanca
oyó
vestidos
americano
intención
##edades
entero
darse
turb
##ridos
hubiesen
paseo
##ensión
##abia
sonrisa
frontera
falle
puro
particip
alcanzar
ocupado
##cillo
tel
pira
ausencia
sól
##DI
##hon
opiniones
propa
Argent
navegación
hiciese
presentar
Tomás
Uno
consecuencias
##gueses
ii
Br
Todas
Oro
char
Cuzco
##ivia
sustitu
175
##ezca
reunir
nú
##idí
caza
trabajar
habiéndose
plazas
produjo
resplan
##eroso
quitar
vaci
plano
cron
della
filas
arist
iglesias
ore
facilidad
impa
podian
##cemos
intento
instrucciones
##peración
zo
##damente
estrecho
trataba
instituciones
venganza
mares
juego
signific
##sis
##árse
presos
indud
conocida
argu
sao
inmediato
Ejército
##mamente
necesarios
##obo
ayuda
##dadas
71
##deras
aumento
Pontevedra
##rimir
clam
fueran
##ernos
##nto
##ariamente
sobres
##dice
salvo
templos
Quito
destruir
159
moneda
ríos
nobleza
espalda
Oli
distante
fantas
sabemos
estens
sacrificios
##gulo
acciones
artíst
melan
esm
merece
Diaz
ordinario
vosotros
##egr
vuestros
seguía
citada
Duque
Nin
VIL
##udas
hermosura
probar
cuál
Guadala
##ey
canón
##iblioteca
och
poderes
constitucional
denomin
COM
##lana
cristal
Rusia
sever
canto
parecían
##leo
gobiernos
já
hacien
rodi
81
##ecida
Gil
##bur
##ense
memor
##vias
Tres
##inarias
cadáver
##rial
fic
ago
##itación
##aná
Torres
##lamento
luces
cán
pájar
Doctor
hechas
cuidados
##tural
Sánchez
Colón
castellano
Aran
trató
supl
grie
subsist
depois
##ñada
##ides
barrio
franque
##cedente
pastor
Estre
mercan
82
gre
ps
Marqués
DI
##use
llamaban
Gabri
##grad
##endió
vasallos
##teza
##pic
Sólo
declaración
##unt
aper
Parece
Acad
seda
empleo
fes
##éramos
sun
neral
Soci
llegando
ciu
pese
polvo
disfru
Jane
puesta
dioses
##bol
POR
Fray
Rica
##diese
Greg
##oba
componen
##judi
averigu
votos
tienes
tercer
árabes
inmediata
##cs
correg
##uto
ardiente
épocas
retirarse
largos
mineral
emprender
obligación
Cámara
angust
##ciosos
reve
Medina
##tible
reinado
fondos
##iel
##ish
##at
útiles
maríti
tendrá
comerci
operación
##larse
##tanos
clara
acar
ramo
bem
necesarias
enfermos
elegante
logró
Andes
elevado
suelen
ina
Dista
religiosas
##inada
conceb
vemos
tros
that
Ese
sitios
arcos
78
sirven
Bernardo
caudillo
Vie
90
clero
##ans
civiles
viejos
quisiera
conducir
director
correspondiente
dejan
inh
##zca
##egos
carn
Hos
transf
numerosos
fie
##ián
romper
opon
César
criado
detener
poniendo
##ler
##pula
##indo
##chs
utilidad
##dero
Oriental
cabe
UN
161
inmediaciones
##iesta
##ht
Almirante
##jón
realistas
fras
cultivo
Santos
sacerdotes
alcance
insul
Península
víctimas
##tifica
circu
Vega
estan
conocimientos
ordenó
##amp
##risto
monasterio
##ons
cubrir
prudencia
diese
it
afirma
extranjero
eno
asom
Nuestro
Sor
##ricos
ideal
Bartol
chas
detalles
gabinete
##ex
venían
malos
justific
tía
##orado
ahor
ultra
##rue
##gidos
explo
agradable
lujo
##vam
vence
sintió
desembo
páginas
esfor
Alej
Fal
##chor
##rillos
ocurrido
74
##adoras
viajero
escalera
Medi
jamas
sacerdote
contempl
apell
violencia
entrado
ridí
Cató
77
rara
efectu
##cientas
hacian
##ÁN
contento
nombramiento
abierta
##RIO
huel
repi
señorita
sedu
prete
ochenta
##ipo
corr
83
##elo
##íes
caz
sacó
AM
##lus
rema
saque
##entri
Janeiro
hered
ensan
tena
Imperio
novedad
paral
cio
aceptar
Cuer
##ko
sop
gui
establecido
##dura
presti
600
##EO
escep
73
Tes
Calif
##del
bondad
##tez
##turo
volvieron
COR
verano
mexicanos
Bon
dez
lectura
prisionero
##tlán
##tano
##ari
juramento
aldea
ganados
Pri
erig
##idencias
fuere
habló
hoi
dijeron
mensa
vientos
tuve
guarde
consiste
europeos
bóve
Guti
inmortal
##nador
##RU
ocupaba
Papa
##inaciones
considera
kilómetros
##erío
paga
levanta
##imación
cléri
Már
conform
bia
Bah
##asi
ventana
nubes
abre
76
##dis
cristiano
económ
Eran
eru
162
recinto
mul
terminar
DES
fieles
##ónica
##clu
demo
##entados
##xi
echó
Yucatán
Isid
obrar
filoso
##idalgo
repugn
invasión
##ciosa
SU
religiosa
indispensable
##ZA
Sebastian
##jadas
Mara
suponer
Bartolomé
##terías
monstru
ciencias
cólera
Cel
ines
85
##arnos
nacimiento
Bri
publica
testigos
mención
##quera
enérg
##adura
insist
ído
hallarse
cuestiones
pertenece
particularmente
maravillos
##gante
señoras
fuentes
##esar
miraba
municipal
MON
vender
Sob
Blanco
Calle
dormir
fidel
manifestó
dedos
rojo
somos
Estaba
dueños
CO
##tiz
hel
provincial
distinguido
barra
caridad
agit
partir
Castel
Nie
##cázar
Valdivia
sufrido
recob
habido
84
naves
##cedes
nació
chac
tercero
Bretaña
piados
tall
Caracas
##ance
##rida
DON
inver
manus
reconocimiento
tristeza
##tías
nombró
claridad
##chando
víctima
asimismo
diré
deseaba
muchacho
inci
codi
publicado
Catedral
Rosario
pasan
reserva
llanura
##ili
##tasen
Otro
Pie
Sub
nombrar
facultad
sed
habéis
alum
romano
##cones
##ética
##urado
Nación
aven
Exc
##gaban
cima
cultura
debian
Navarra
Alejandro
interpre
poses
satisfacer
149
coche
une
artista
horizonte
dejaron
literatura
moderna
Puente
nuevamente
##iver
##CCIÓN
enla
ramos
##vez
continuo
compro
ambición
escritos
auto
rayos
entraron
pelos
ainda
délos
encargo
diga
##guen
monarquía
Gabriel
##sem
##ANA
peregr
compuesto
hombros
##ste
dij
compara
ventaja
tuviese
Él
monumentos
enseñanza
esla
descripción
##quete
bajar
santos
##vit
arbit
For
##verse
trigo
negocia
absoluto
##zgo
comunes
##erro
intr
grab
Escu
suave
Nor
primo
##edores
pobla
baile
Poder
hú
##ampa
despreci
escala
destro
##cola
Io
repuso
##gente
MS
Ti
##íe
copi
descanso
loco
crea
absur
deberes
lectores
presentan
bando
pom
##idió
arrib
##izan
poetas
tratados
coo
municiones
experiencia
Sud
cédula
quizás
bién
dirigir
miserable
Tre
Amp
Vire
##tana
rego
perjudi
##taria
##taro
##entada
incre
Fernán
secun
precau
cercan
habt
Cent
tenta
Guadalajara
##gráfica
seres
##ugo
usur
##CU
cun
antigüedad
##cencia
contras
porción
##alia
explica
pensamientos
##TAL
##tte
##gentes
##lase
encarn
salvajes
ia
Rico
with
##inó
posterior
preguntas
##iéndole
Cerv
sesión
Ayuntamiento
ignorancia
querían
patrió
Victoria
##gol
peru
derram
Lan
hijas
cuadros
79
Casas
piel
sirvió
##cesa
indica
imperial
desc
ánimos
Bolivia
hala
##izca
##torce
barran
materiales
##áns
cidade
##quila
recibe
demostra
##góes
héroe
pit
legisla
##ub
bomb
roca
174
barro
Océano
trá
gos
arzobispo
formó
fundó
aguard
##tab
##IM
armados
concer
cargos
##gle
realizar
Arti
ira
estatu
negar
##ejo
anciano
metal
Tri
custo
Lie
nace
decían
Patria
mozo
##güenza
concluir
próxima
Ul
inglesa
robust
##ENTOS
##DA
dó
##yn
##ísmo
duró
esperando
sucedido
##iciosa
planes
Pin
sof
lun
Apenas
verá
doncel
Sep
quedaban
reducido
trae
diputado
favorable
círculo
probable
ramas
setenta
apareció
indis
##bamos
delito
manifiesta
Dol
besti
Leon
nem
##chan
ayuntamiento
frase
##ánd
referir
##rantes
ocupación
prosperidad
##cé
numerosas
bala
##unal
##ington
domést
##gaciones
riesgo
zona
escul
##osidad
##eranía
señales
circular
zar
bron
reta
retroce
##urias
part
tesoro
Fre
##seo
continuación
apara
suceder
Catalina
haz
americana
ilus
Zam
Secretario
jardín
Guana
formaban
bergan
##ladas
destinado
resolvió
límite
odi
##pados
escuelas
##wn
necesitaba
exe
eman
abri
compañías
##úne
histórico
dies
Panamá
Solo
conquistadores
contradic
caña
gratitud
Gregorio
##ise
llamados
informe
ventanas
colocado
##RIM
Total
##ps
aut
conces
Andal
adquirir
proposición
##cilla
presentado
parecido
Adelan
gene
finalmente
anno
pensó
establecimientos
rie
##uar
derrib
errores
##temala
Carmen
##éronse
trastor
blancas
combatir
perdió
repent
Egip
Cuenca
azúcar
##rú
adonde
oriente
obliga
fos
Arro
monumento
dados
manifestar
aumentar
##alco
dose
##jaron
Jose
Mir
Aquella
sentado
confusión
oy
cerros
Majestad
acus
Municip
##ija
navio
MU
Maes
##AM
##erta
conflic
##quita
##andal
recoger
lanza
Ata
Usted
##minación
dominación
Dé
caja
historiador
##lectu
reh
enviar
hallaron
constantemente
##jía
ingenio
##tables
escrita
bras
acabó
proyectos
##óso
Nu
##vidad
cantar
Señores
suprema
Director
renta
encontramos
##endía
retiró
bárbaros
oí
##tadores
oper
163
reforma
Plaza
Vas
gefes
Clara
##jue
miró
Bea
cita
marchó
##quio
pude
producto
levantado
probablemente
Cala
Chi
164
Villar
pasados
##cipes
envol
Esa
mono
fijar
damas
Fernandez
encontraron
jueces
Marina
harto
##ñal
##unción
##ley
habíamos
Rib
contestación
##trópoli
##AJ
vaya
Jac
tá
sincer
improvis
estancia
zapa
##olas
##cus
ani
mercad
distintas
criados
pared
discusión
parroquia
encam
estad
ciertamente
respetable
##rupción
precipit
algodón
Jorge
reinos
##ers
piernas
##eamente
##todo
humo
corrientes
retrato
convers
almirante
nieve
dele
impulso
by
##ritos
##jido
estension
regoci
casu
sabes
##timos
propuso
pur
indigna
absolutamente
bue
estru
##digo
##ERAL
172
unidad
accid
crey
limos
podrían
86
juntas
defendi
mortal
Hua
intri
##bri
poderosa
Guatemala
portugueses
catorce
conoci
ofreció
instrumentos
desgraciado
tempo
producido
nor
tristes
rápidamente
afecto
celebrar
ponen
construir
Sociedad
cuentas
repente
recomp
princi
tienda
banda
títulos
##mós
perro
Álvarez
fundar
histórica
frag
partidarios
mármol
Cataluña
##dirse
tamaño
sín
sepulcro
##éndoles
enti
##jaban
Otra
comm
esposo
ganar
proble
creyendo
toler
##ot
##RAS
plomo
fuegos
gana
##ind
fundado
Hé
conservación
corp
Les
resid
Guiller
calum
desdi
disciplina
cae
conocidos
##resión
materias
seren
formal
Río
regla
sembl
historiadores
lien
enormes
Libertador
decirlo
88
pide
consejos
Peña
##cordia
regreso
cónsul
Academia
Juana
grueso
esl
replicó
alrededor
Núm
haciendas
##cana
dominios
##uz
abst
vencido
notas
respectivos
Moreno
Inde
fren
Ejecu
moradores
proceso
165
XIV
ESPA
##chaba
atmós
advertir
hacerle
candida
tráns
atender
rea
tabaco
##izos
llegan
embara
divina
##tuario
171
embo
viuda
justa
miradas
amante
tea
correspondencia
##caso
##diós
provecho
agora
Dec
dim
ner
ventura
Trin
vice
sagrado
was
##ted
ejercer
XXX
##ábanse
87
##érrez
dista
##capa
##ifa
elemento
abandonado
cañón
habria
lluvias
Pir
##lix
##onado
Universidad
##ensos
vivos
razas
nome
##quinas
prudente
espaldas
rú
insurrección
Tru
olor
elecciones
##amante
viajes
fé
Arzobispo
170
##ji
eterna
restitu
incur
##ider
vimos
Feder
rég
presen
menores
Hor
ego
##icis
acento
llenos
empleado
Jaime
##laga
pintura
plen
huir
tap
##iación
Alba
solos
suplic
acuer
hiciera
recog
##ística
Bust
Anti
partidas
##tepec
cualidades
##cent
drama
comprar
Tras
traición
##vangel
bases
ricas
semp
##dul
XII
##cumb
##cripciones
eficaz
acha
##har
Ministerio
veh
Potos
fragata
cola
800
##diar
ponía
pera
advers
Velázquez
Mora
tó
173
fundada
Españoles
quanto
lograr
olvido
##dera
sociales
terribles
Asi
deser
revuel
##igne
costado
valientes
proporción
filosofía
inclu
defensores
##izadas
amores
##ólogo
persecución
sobresal
semblante
tranquilo
##umo
romana
vincia
representantes
##tines
colocar
desvan
Departamento
##ellón
Pacífico
Californ
Teo
gritó
intelectu
sumamente
cadena
##ty
##tag
excelente
rival
##gam
escribe
168
ejecutar
independiente
duros
Silva
York
##bla
armonía
##XX
extin
Otros
##pido
frecuentes
gigantes
lista
acabar
sufri
contenido
##blas
tengan
Mes
imprenta
contor
tern
revol
##edi
empresas
discí
naturalmente
rebelión
nal
##monios
tante
sombras
observación
lament
soberanía
89
filóso
##dimiento
indicado
verdaderos
Ofici
##entaron
##denal
cortar
uma
estatua
##piraciones
comenzaron
cientí
Buena
Li
##tacion
prestar
Aben
península
Pom
Lisboa
##iendas
Rev
fidelidad
##LAS
trescientos
Valpara
palo
bené
permiso
##dico
denom
Figu
renunci
venga
Lope
##dol
amiga
REV
##urar
siguen
escribano
##jio
intervención
##alter
##quito
tiem
peñas
presentaba
cabellos
##menta
obstáculos
federal
ave
llos
ferrocar
espiritual
elevación
meter
##áy
papa
sublime
Af
tercio
desprecio
misterio
governo
alboro
comi
realmente
sabios
legal
régimen
obtuvo
crí
##OLU
disponer
##úl
creación
##MP
equival
asombro
hil
gozar
bols
##tillos
ilustres
brillantes
penetrar
eva
nado
buscando
personajes
povo
atmósfera
Acu
estor
Gutiérrez
soledad
##case
##bí
hallado
golfo
##onas
formada
página
fier
cesar
mediante
##río
##vitud
Cura
formid
Potosí
##ibus
consuelo
Distrito
honrado
flan
pico
ardor
tarea
##ule
##hes
espes
solu
acces
##tú
grandi
##guer
responsabilidad
quieres
##gento
quel
olas
Asamblea
Alm
##ñan
##quisición
entrega
calific
NA
##GA
divino
evidente
elevada
##iers
orí
XIII
Excmo
instal
Uruguay
desconf
##yu
##vó
##dedores
sucesor
variedad
##cala
rodillas
##ry
rayo
antecedentes
convir
##ortuna
fundamento
muched
fiscal
##ivos
torres
Filip
invi
quatro
prín
##tencias
fortific
Benito
Hemos
veían
viajeros
NÚ
queriendo
Leg
tendría
Día
120
ocupó
Bay
diplom
considerar
Mundo
tig
Española
sagr
outros
Tem
satisfecho
esti
##berto
##gase
##ñaba
semana
##itario
trajo
pidiendo
##orán
Sancho
##fre
On
análo
Bueno
paciencia
Tierra
llegamos
departam
temperatura
consiguió
vencedor
Ruiz
compatrio
##choso
enfermedades
detuvo
##iencias
afici
bajas
expor
magnífico
examen
apoderarse
Alvarado
prisa
sujeto
frases
devol
##randa
##rab
##oría
##usieron
dores
##ensiones
##lij
dictamen
diligencia
Ala
examinar
Pob
Exmo
cum
contrar
novel
##éndolo
origin
##duras
##anim
tránsito
golpes
impre
##jeras
Pueblo
informes
acta
sobrino
continua
reducir
##ernación
duro
Málaga
##entaban
Constan
obten
lenguas
premio
##fecto
crítica
cumplido
166
##asa
India
##vino
maíz
##ecidos
minerales
extraña
96
mexicano
protector
Senado
cuesta
ofrecen
raro
exactitud
fazer
compas
pedido
tuviera
relacion
##rencia
veremos
##uría
muestras
ea
anda
##cante
TO
aques
Ante
garan
desal
lison
aparecer
salen
##rales
siente
constancia
##grama
##ampar
hablan
recomend
vicios
furor
##cerse
92
furi
colonos
Lim
##lección
descom
catal
vivía
regimiento
##cadura
Provincias
venida
Maxim
insignific
edición
circuns
##amar
libras
##END
imá
##ceres
oscuro
cí
ayudar
dignos
faltaba
ater
##ERI
##inte
innumer
actualmente
##sb
pilo
mula
conservan
aristoc
mentos
##guera
vuestras
perros
Alma
propiedades
eleva
##fas
##imento
Rojas
desconocido
intim
ios
destinos
pendiente
zas
##sel
vidas
Muño
culp
tiros
Alcalá
casta
progresos
consideraciones
Gib
muel
art
reunido
corriendo
habitaciones
entregó
famosa
ojo
tard
Capital
abrigo
menudo
Tengo
pesca
XVII
Lar
asust
distintos
Adelantado
diario
chico
##gros
chis
cubiertas
acordó
absor
##ielo
derra
Andalu
deste
felici
##tísimo
Nosotros
ración
reform
Vis
##tificación
##ericor
siguieron
posiciones
Morales
##itz
castigar
permaneció
IND
villas
ene
##oraciones
pretexto
cabec
gravedad
meridional
Sem
##ther
nó
vergüenza
estableció
permanecer
sensible
pedazos
lev
muchacha
##óes
##íme
cif
Oa
devor
conocen
esplén
Virey
##amarca
REVOLU
Esper
##gin
##izaba
muro
Indep
fija
##porte
escandal
mejicanos
humor
responder
##BL
ofrecía
##tid
NÚM
Ins
bisan
##rillas
cans
lóg
inces
privilegio
camar
imit
ocurrió
directamente
95
##lanes
Qui
Grecia
##ranza
profund
Har
##tinos
llevaron
reconocido
vasto
procesión
salía
##ándolas
miras
eme
93
felices
tributo
contemplar
Nadie
enca
caciques
91
SO
aliento
jardines
dro
espanto
saliendo
And
red
producen
gesto
##onía
bellas
##VI
jente
LIBRO
sáb
vís
rapidez
posee
##zarse
licenciado
##chu
abandono
Alto
sesiones
assim
hábil
Marcos
Hig
fison
##QUE
abol
##erona
Chan
encomend
perjuicio
Zamora
Guillermo
China
convic
comprom
mugeres
señalado
Justicia
Aca
##grafo
curioso
##éla
Guerrero
Dar
Archi
oeste
##pores
bara
conozco
radic
estuvieron
Guzman
barba
honores
mezcl
##ecto
providencias
reunidos
empieza
solicitud
elel
Argentina
Bajo
hermosas
##fort
nen
##land
carru
personaje
extraordinario
tumba
cadáveres
entendido
reparti
Simón
haza
ingra
reglas
##cador
##tamento
criminal
Egipto
At
Llam
##ectos
griegos
clás
ai
sección
aflu
esle
aliados
hago
Muñoz
lat
##ites
termina
gres
##tela
estrecha
prosigu
Dice
##cn
Fin
elles
expon
##ví
Magestad
disgust
ocupan
bajos
167
resolver
devoción
exager
reo
ceder
yendo
169
him
Julián
are
rumor
Ud
modelo
dades
##ICE
esclavitud
gado
##ROS
seguramente
oido
Chu
sois
fór
obligó
logrado
cú
##ensible
Sir
vit
##vian
##teres
esplend
AP
##éndola
desaparecido
Igu
arbi
cerrar
Cuar
arrastr
permitir
Cho
##ándonos
plumas
recorrer
serlo
##CAS
Colonia
hech
##ciencia
Blas
cuento
beneficios
jar
modernos
##licas
reformas
##cipación
hoja
cumbre
despob
habitan
asalto
apas
Gaspar
Ángel
Ill
Ll
##TES
##eto
coste
obligados
árabe
Ví
dándole
cometido
instrumento
Supremo
impuesto
##alupe
mostró
relie
vd
##pito
ced
claust
carbón
manifiesto
exer
frutas
falda
Pra
lealtad
Miranda
entraba
##hal
##CE
últimamente
bronce
lee
repetir
##unas
vire
texto
húme
Pl
repetidas
##dil
Hace
Provid
profundidad
amanecer
canoas
desgracias
acudir
vier
auxilios
ame
##tuvieron
sepa
siento
##quin
asegura
Jal
##geros
Bravo
Salazar
contacto
delib
rodeado
Cin
##éndez
incendio
creemos
murallas
Ref
##emas
97
verdes
caprichos
mientos
paraje
tribunales
inocente
Sul
##izando
##ENTE
frailes
##reras
alimento
permite
Artigas
portugu
DOC
Tro
Colegio
contrarios
Calder
1810
citar
alianza
huesos
acierto
Callao
99
párra
claramente
Lsb
habrían
Batal
inven
vapores
hagan
Habiendo
recurso
pensando
escap
primitiva
hier
sensa
##arlas
Siempre
##ep
Félix
debilidad
súbditos
engen
cip
trece
Murcia
##doso
podrán
solemn
admitir
Trinidad
parle
desm
Tenía
##güe
rs
##endían
cuarta
corazones
comunicaciones
abundantes
##iré
vn
##ástima
muralla
traído
##éndome
##jor
fri
chi
beber
Inés
insin
perfecta
colección
gó
barbar
Tribunal
dram
diera
##ung
novela
impar
California
malas
Córtes
archivo
##vento
alu
embarcaciones
Virrey
pasaban
Ejecutivo
alba
relo
##cadores
destrucción
PARA
informa
##ptentri
Díaz
Alar
Chil
llorar
98
quebran
gloriosa
##cuador
##tral
Punta
risa
ofreci
##ándalo
comarcas
##hel
convid
##ANO
##maras
Verdad
esse
asamblea
Cm
##ético
invo
interna
techo
##leto
pormen
obedecer
Tener
partió
pól
verle
Jim
estraord
llenar
demanda
##izarse
encontraban
conduce
olvidado
Clar
creen
Cerro
vecindario
CI
Die
inju
perdón
##torial
dulces
numerosa
Dan
##diera
cou
banderas
cubiertos
serio
llanuras
Andalucía
parientes
percib
compone
Comisión
hués
ceremon
PER
ña
ejemplar
Nunca
##gamente
##dole
emoción
Palma
brigadier
##inetes
ribera
pesetas
marineros
cig
##UEL
lentamente
masas
##fin
escenas
##port
combates
embaj
excepción
vencidos
gradu
incapa
contestar
##ragones
maestros
##ILE
resolu
dará
desigu
conseguido
salvaje
Ric
sendo
pode
creído
Ran
triunfos
sempre
gall
##hy
granos
batallones
Madre
##eses
olvidar
impo
bastantes
máx
Negro
prender
Relig
##cionario
enemiga
##quesa
negras
requer
##aragua
Via
##terráneo
exter
aprobación
sy
##nia
reposo
canti
oportuno
dal
suminist
##dita
Zaca
legis
Puerta
adornos
Esteban
hda
usar
afri
##cientes
##zcoa
colos
estrellas
sete
tad
Soto
Ilust
##tto
##valle
héroes
comunidad
##eria
##lim
concurso
cog
##vero
94
Jam
campan
##TICA
fundam
Cár
borde
##uración
Lic
##quista
volvía
ocupaban
numero
inscripción
Jeneral
estremo
escudo
mezc
publicación
herida
barco
someter
disgusto
muchedumbre
capi
##ash
infun
orientales
cement
quar
eterno
aparte
dir
alguns
superst
estás
inicia
presentarse
influjo
prose
Guadalupe
Ep
apasion
indign
declarado
máquina
rama
aceite
##vadas
orgullos
##uos
##cum
Muchos
sujetos
Habia
sueldo
Fernández
secular
especiales
atrev
##edas
ancha
enton
##ional
conquistas
##ribe
modos
litera
##cente
dito
decidido
gargan
Teresa
huéspe
Marta
innumerables
Segu
##ipú
oportunidad
Paraná
Super
cuánto
pir
##jidos
guerreros
faltar
prescin
His
Ib
porte
corría
propuesto
usos
depósito
##pent
##iría
dirige
mam
estuviese
Augusto
contemporán
##iende
francos
nariz
pretensiones
##cías
opuesto
rosa
delitos
rendir
eco
Hidalgo
sex
perdida
fui
domina
ful
##ñados
##vita
PRIM
capitales
seiscientos
Atlán
Sres
tomaba
esperim
Sego
dester
volviendo
pab
##ive
mariscal
arreglar
agar
mulas
##ciende
atravi
##jua
consi
##úblicas
margen
diablo
niñas
madru
mencionado
Brig
deli
##lanos
desenga
cjue
agrí
futuro
Corona
neu
alcaldes
privilegios
andaba
infante
verificó
ole
##üa
parar
##gantes
##ute
dudar
diferente
ásp
Manila
tronco
cera
##cable
##TRO
dona
dente
##UST
##ecimiento
toros
corren
penit
##dea
lodo
trascen
unido
Gerona
Iba
##piro
precioso
inesper
escapar
interro
ceñ
tempestad
##long
##ENCIA
Avila
queria
Hernando
doy
pertenecen
Apar
tempor
reunió
##gonz
tradiciones
##uza
gem
##tima
tema
inmóvil
marti
Puede
##emen
##dica
##josa
debida
concedió
vea
indicar
sentidos
1820
bay
profundamente
Gol
##inamente
##manes
pobreza
haría
##pirar
##DU
tranquila
presenci
colomb
estrem
##turbide
caído
tiranía
inspec
silves
brus
##rande
##udales
##enten
cres
grand
tambem
##ium
##gencia
suc
Vizca
gro
provisiones
exce
hábito
Llegó
190
rad
##cera
ino
llegaban
imagin
tados
arroyos
hermosos
ei
glorias
Gerónimo
fundador
fiebre
##fice
Duran
llenas
modific
celebrado
##énez
retaguardia
vicio
insigne
##orro
agentes
##uan
deri
mate
familiar
seco
Gam
lana
nido
conceder
escru
determinó
##zoso
XIX
Villal
oponer
coger
Guaya
Hue
indiferencia
tiendas
terminó
##MO
té
deix
cargas
duas
vanguardia
poderosos
misioneros
colinas
gobernadores
estudiar
melancó
nece
declarar
Vuestra
##árez
Geo
##tinas
dolores
##lex
##diéndose
añade
##graph
ligera
##ipa
nega
tinie
mercado
cibdad
tie
vasta
campes
géneros
rancho
Obis
entrando
Obs
bio
##ILLA
##ecas
veia
saca
Gibral
oh
##ENERAL
generoso
escuchar
vueltas
lina
ove
##mano
##ieros
quisieron
##cándose
##abor
##iosamente
discul
infantes
expl
eclesiástico
Laguna
acce
##gaz
descubrió
aparato
Sch
sacrist
indifer
##TAS
bauti
espíritus
constituyen
causó
diá
Vaya
Hen
sucesivamente
globo
instantes
abismo
calam
Pach
##lom
seman
fronteras
ka
heridas
pierde
pudiesen
misiones
##uy
enrique
##usas
fisonomía
Pá
producción
prestigio
##queta
habilidad
sencilla
situa
rincón
humanas
comisionados
XVIII
Carrera
territorios
desar
parroqui
celos
preferencia
ceremonia
banco
Bena
carro
dencia
reunirse
provisión
##vaciones
Cono
yor
paña
##irre
escándalo
Pág
##pulo
extraordinaria
método
pólvora
empezaron
CHILE
##rentes
comand
traía
cala
feroz
Plan
andu
##cillos
carretera
##quipa
glorioso
nist
##iam
cubr
##táneamente
plebe
QUE
voluntarios
sierras
ulti
##tli
orn
temprano
embria
Alcalde
táo
separación
Iturbide
aban
##vira
dejaban
##NDICE
príncipes
148
oración
##mn
##ENS
##ear
##hia
inac
pater
demonio
##áron
sello
vara
mesma
cocina
aflig
separado
##TOS
##ceta
aprovechar
Nicaragua
crímenes
función
##vío
##critos
corazon
mezcla
##gá
##iada
subió
acontecimiento
Corre
renuncia
##vie
Montes
##inariamente
Providencia
bles
##riles
suso
111
inconvenientes
piensa
Gor
paises
podria
convertido
Jesuc
rápida
inquietud
reson
Repres
Velas
consagr
suyas
##ou
##urs
temporal
NÚMERO
Gover
Bauti
rele
tele
pájaros
##gén
Camp
Mérida
diferencias
judicial
exacta
publicar
Calderón
##bras
##centes
pensado
Gon
##vedo
Independencia
dellos
conveniencia
distinción
##eiro
aplicación
ermita
demostrar
quan
presidencia
conoció
##dri
##XICO
essa
Nota
sonre
Mina
##embra
metrópoli
recibieron
##iares
##inadas
##uera
##paciones
debil
Viv
infortun
decad
apresur
composición
tirano
Blanca
profesión
simul
semejanza
##ENTO
##ALA
ná
##GRA
sec
annos
decisión
querida
vegetación
##ls
##verde
##doro
Cle
vuelo
##ciado
bajó
Administ
festi
ataques
##monos
superioridad
##dando
##landes
##iáo
mapa
adentro
repos
producciones
seca
castellanos
velas
##hil
divisiones
determinado
relij
##tiese
##pital
##zonas
Vargas
Capítulo
proclama
desea
Han
ocultar
MÉXICO
cerebro
##tificaciones
##bó
sacado
gallar
alguien
murmuró
risue
indignación
##ismos
##irme
##egado
extrem
cambiar
arquitectura
Ze
##íf
unidos
Tucu
escasa
almo
##iliano
yugo
metro
intenciones
Vé
##laban
enre
elig
descuid
uniforme
Según
muchachos
usan
descont
Dí
ciego
comienza
esquina
##vila
flechas
católica
##iciosos
Antillas
refuer
números
mia
Margar
you
Jacin
dulz
apostó
obstáculo
torpe
##orero
sopor
hallándose
rasgos
sencillo
mec
##enerales
vivas
leve
serian
convenio
remon
llas
pasada
tardó
##aste
##yente
auxiliar
irregular
Van
##ved
relativo
fresco
independientes
Jesucristo
anch
##ánica
calcul
batallas
concluido
habitu
salvación
##uch
vanidad
celebró
AB
Aten
##ical
desaparecer
Villan
faldas
petición
encontrarse
supone
Aya
##arles
147
Ves
dirigido
permanente
traidor
juntamente
poniente
fábricas
Luna
eri
representar
comedia
Conce
precep
##gad
##ñando
oprim
Ley
délas
reputación
Tomo
##saciones
doctrinas
ferv
Edu
Anto
obispos
esplendor
pecu
##ARA
Guipú
gusta
##tienda
Ferro
observan
omi
alarma
Hall
MAN
cercanías
##ner
observado
sagrada
##onato
##dés
pormenores
##isos
corrió
zan
capas
fonde
##rita
Condes
Comen
dispens
desesperación
servi
instinto
adquirido
añadir
##zaro
onsa
interesantes
Segovia
Cervantes
irres
Joáo
manifestado
desarrol
averiguar
##pla
veter
##ORES
multiplic
oscuridad
cpie
presum
##pus
elector
alrededores
##zano
aparecen
cil
cerrado
perfección
##gins
##éron
venerable
Lá
opul
Bautista
##gulos
ligero
capaces
##reas
morales
maderas
retirar
##zobis
##udio
##iter
constituye
Creo
Ecuador
rab
##rección
abrig
##pico
130
formidable
prolong
Porto
fenómeno
bi
loca
continúa
adelantado
Pers
arra
mod
inser
explor
primavera
estatuas
gue
construido
tinieblas
entrañas
##ericordia
presentaron
##oras
Popa
##tesis
##tona
##daba
##erial
Casi
Náp
##ceros
pertenecientes
Algunas
quejas
matan
hombro
naran
AI
##alapa
conflicto
Eugen
Arequipa
Trist
cuna
##mis
conferencia
mata
##cedores
traves
1870
Occidente
Dolores
eg
elocu
existir
Natural
solemnidad
Fon
lia
##zana
Aren
##ORA
##gráfico
escolta
supe
Federico
decirle
Valparaíso
verla
expresa
Filipinas
##cy
alca
conducido
rá
mostraba
Nápoles
solas
bail
firma
Bil
POL
##sele
plazo
Diario
##cate
primitivo
##tándole
barcos
blas
Americ
pedazo
COL
##tamientos
domingo
capacidad
sulf
deca
anarquía
140
sinies
espero
históricos
Wash
##LOS
mera
revo
havia
apariencia
fantást
usa
déb
TOM
liv
Dá
one
poster
igualdad
aprecio
##pé
condi
ana
complic
representante
fis
##tría
##ítica
artistas
idén
individual
inconveniente
fijo
griego
Pens
presup
canónigo
despleg
poss
##ÍN
Div
impru
cuerda
Mucho
governador
edif
asistir
prodig
pobladores
Ren
##igáo
solar
Evangel
##bus
##ranca
sociedades
terminado
NUE
confirma
redac
Dio
majestad
##ezco
##viéndose
recta
firmeza
vestir
ferrocarril
mananti
Lucía
##rés
##old
salían
llamaron
basti
anual
varones
Caballero
Tenerife
##guila
fría
250
nia
##mió
mediados
fl
##abit
comenzar
Agua
fusiles
habil
aclam
sta
##wa
##tiéndose
escribía
natu
artifici
posteriores
llamas
Gom
debiendo
desagrad
SIG
consumo
seguían
anto
maneras
##RIA
desaf
quinta
permitido
##EC
creí
Ramí
muebles
bóveda
resign
verso
infinito
Año
##gunas
horizon
##hum
##tuosos
Coch
populares
inútiles
##aray
##cesis
amado
cordi
##tadura
maiz
daños
llegue
cómp
plena
EX
Far
##yar
##dimos
Escri
##ánico
necess
judíos
prendas
infam
visible
comprendido
Cru
aur
##ÉS
laure
tura
filos
vigilancia
bord
##frad
##itamente
morada
preciosas
vido
conspiración
emi
descal
protesta
preciosa
##élago
escritura
##abar
##itor
DOCUM
Guipúzcoa
yjuzg
copa
dirigida
oye
##plica
sedi
asilo
hostilidades
nel
conventos
pendientes
fatiga
##ele
obtenido
execu
francis
Ka
deis
estri
fugi
Pron
##quiere
palacios
líqu
franqueza
desma
Alca
borra
acomo
Higgins
##entarse
dido
##ciosas
manifesta
envidia
divide
maior
pata
Mateo
falso
abras
trabal
Ortiz
amenaza
encanto
milicia
vaso
##mentar
advir
oídos
jesuitas
##tter
##uér
inferiores
anticip
lanzas
centen
entendimiento
nio
pastos
tesoros
joyas
Guay
Braz
Pela
##tito
##ting
serenidad
intelectual
expul
Cir
alha
habi
##LOM
proposiciones
septentri
puramente
##iverso
sexo
##quiza
directa
casualidad
manto
110
tando
subord
esclavo
rí
Deb
playas
subalter
mandando
cadenas
capitulación
bloque
terre
enseñar
Tran
##jones
únicos
1851
oculta
silenci
ejemplos
Pampl
##enden
paño
formaba
ducados
Sigu
compatriotas
##juato
destinados
cimientos
hid
700
dejo
vivido
enfrente
trajes
milicias
##RICA
juzgado
suficientes
Bos
bell
regresó
bull
##let
##bao
sano
Cordillera
lástima
paja
entran
vacil
proporciones
moderno
Guayaquil
adul
estableci
proveer
Tac
conocidas
defin
alcanza
echa
estrib
prelado
profesor
##LAN
Ministros
PROV
##didades
##itando
cito
distritos
atravesar
dho
##identes
humanos
##NDO
aborre
atras
die
símb
Tampoco
crueldad
Atlántico
##ñoso
##omos
Asturias
Ponce
Septiembre
pór
##gano
emprendió
brigada
pálido
Ramírez
dita
dirá
topo
criatura
Ec
clu
trecho
emplear
ángulo
afortun
Cl
caída
tantes
departamentos
ahi
1814
Gibraltar
creia
fórm
Leo
table
lie
##uh
respectivas
plie
cuentan
activo
hipó
determinación
ocurre
Fuente
mese
revolucionarios
125
narración
arrancar
alterna
##ignación
llamarse
##CIO
empleos
actualidad
rior
##IÓN
##inares
##igan
estreme
##donado
IL
io
vá
impresiones
##jillo
acercó
1823
Biblioteca
parque
fraile
##ISTA
alegres
VIAJ
introducir
moda
servían
145
problema
##gir
##embar
Ricardo
exij
pinturas
patriota
dudas
interme
penetr
piloto
tib
litoral
barca
suge
balcón
Maximiliano
Sent
Tab
##isis
Molina
direcciones
Juez
vers
intern
Bustamante
Bib
bern
alumb
disfra
tertu
considerado
##letas
cham
obispado
regresar
##far
coin
Florida
manu
from
gris
Amazonas
trinch
Bro
temper
Ri
##gica
demar
cabecera
amparo
quebrada
metales
mili
conservado
##embras
##mago
concent
sargento
##urados
Cañ
ilustrado
enco
pagan
Unión
##geles
puntu
inevit
yn
susci
volcan
negoci
faltas
Hubo
imponer
PED
commer
decidió
Comis
ejemplares
Gracias
instin
blica
varón
esperaban
elegido
parecia
hipo
Vergara
Guardia
ib
ena
pintor
incesante
##erosos
toman
estall
nube
misterioso
LU
##ciación
echado
inteligente
pecado
##inoso
Contra
faltan
secretos
distinto
colocó
célebres
ARG
defectos
mens
Cur
##iscos
abad
lanzó
retirado
primor
##trase
roja
Jiménez
mado
pass
outro
insol
transcur
imágenes
Dom
##ct
##monte
PARTE
leña
##derse
selva
siones
##dador
insu
abundan
Prado
ator
ángel
reducida
Cartago
arrojar
integ
locura
apóst
lust
algua
guardias
extiende
indul
princesa
conflu
prosa
1861
Constantino
Exp
desenvol
recuerda
##antías
Vigo
divin
parale
logo
tela
convin
dirigiéndose
sep
##uncio
escaso
preparado
solución
láp
##ÑO
seguros
##vaba
manio
creencia
##eren
abusos
correspondientes
entiende
fabrica
Bene
Vuel
##estos
##ville
##UD
Valdés
Dese
deuda
infelices
##bada
postr
pidi
encontré
Nao
considerarse
fervor
oli
dirigía
milagros
dex
apel
quaes
darles
toro
ilusión
##gón
##iba
nacer
encargó
##tezuma
empero
cuartos
fatigas
##gesti
cuchillo
##pata
vivían
pérdidas
hilo
casado
bolsillo
entregado
predo
promesas
pez
tido
##titudes
sufrió
brin
muelle
intendente
audi
##ius
perlas
luchas
##imamente
convencido
lodos
magestad
##ianas
##gero
##ciso
##ajes
abogado
Pamplona
acabamos
balas
índole
médicos
duer
##ullo
alcanzó
orejas
existían
facilitar
##bole
contribución
dadas
##ose
resu
muerta
hallamos
Pobre
dev
causado
##zal
pensa
correo
revoluciones
FRAN
cim
fino
##ity
Será
Maran
historias
Soy
perfecto
Espíritu
Ellos
solía
estábamos
engrande
cementerio
##orca
##itaba
caliente
opuesta
##yr
penetra
Hombre
##ctur
##gador
##istos
sancion
cena
aventuras
tic
tancia
##cinas
activa
desampar
siem
personales
acum
##mín
##usal
Campe
bienestar
Aguilar
Muchas
##isas
esplic
examin
desigual
dog
prestado
pagca
codicia
reos
hotel
homena
exclusivamente
##úb
distinta
encierra
eclesiásticos
ambiente
##íl
Caserío
propietario
débiles
mín
##jon
arrepent
Sober
Washington
fachada
Inten
actuales
ofrecido
plá
División
tím
Guanajuato
BAR
nombrados
infame
146
alemán
Vida
pesso
indudablemente
##cena
##obe
sabiendo
hábitos
Hernández
arbitrio
##dela
paisanos
descendientes
aparición
rias
diariamente
concluyó
HISTÓRICO
infa
cenizas
musul
poblado
continuaba
ignora
##umbres
extingu
Vene
##racia
cubre
entab
cantidades
mutu
Libertad
italiano
gir
huyendo
desgraciada
VAL
pois
quinto
1830
europea
huerta
bea
fez
reñ
formaron
bancos
esclar
Aviran
Margarita
Ras
bau
benefici
Viva
leído
GOB
##ídas
almacen
filosó
Tel
cios
ret
Asunción
asistencia
repitió
pil
##clo
##ERRA
cóm
tenaz
Aviraneta
enm
##igno
preciosos
fértil
puentes
aires
sud
estes
Cual
Maldonado
reloj
franco
consideraba
Villanueva
##eler
Carol
existía
demostr
negociaciones
##enses
apreciar
dre
riendo
desvent
entreten
peculi
##alle
criol
arrojó
regulares
cisco
luchar
engaño
descubrimientos
Melchor
pienso
##camos
curas
crecido
hura
egip
mani
costos
memorable
dero
exquis
merecen
##VO
atrevido
rúst
QU
XL
agres
garantías
magnífica
Dónde
ust
##ñosa
moro
preguntar
describir
Fue
geral
parajes
vulgo
reflexiones
Vizcaya
##dremos
aqué
visitas
sostenido
haré
##raciones
mostrar
Mano
amable
persigu
reparar
industri
guna
sion
Institu
construcciones
prosiguió
Queré
disimul
Cis
puntas
mexicana
interiores
senda
escasez
prosegu
cido
Et
imi
anteces
##ADOS
acarici
cazadores
org
Rin
majes
propósitos
dejamos
inmediatos
aldeas
Tir
##crita
##ok
##EB
puñal
astu
tinha
Hospital
Iz
jer
potencias
Luisa
1821
prev
obligaciones
1S
##ural
valer
decadencia
##gable
##pica
##tista
electo
##ump
veras
Ore
pureza
ayun
arroz
presidio
providencia
BA
adh
brillo
frecuentemente
Tanto
contando
pesad
##ñón
pedia
Cé
OB
estén
##idu
verdu
chiqu
sangu
##quilib
AV
volumen
peligroso
convertir
máquinas
adiv
dulzura
palos
procurador
hazañas
##iduría
solitar
déci
gasto
Valde
##món
##imes
facciones
##drán
tripu
pañuelo
Javier
conquistador
simples
esperan
deno
desempeñar
##itados
##ceda
viejas
cosecha
Ele
Estoy
ídolos
esen
cajas
haberle
##rian
batir
Inca
recel
signo
relativa
Velasco
esfera
##LES
mance
ilusiones
It
distinguir
Ola
trage
cuatrocientos
cuadra
Guadal
conceptos
tia
ordinarios
Banco
Bio
llave
demuestra
RO
Arch
hoje
resultó
Continu
lord
leyenda
##ellán
capricho
condesa
conh
desin
difunto
física
MEM
sucumb
deshon
marca
sube
procurar
Trujillo
##sáo
corro
méritos
porém
esclam
condujo
Isidro
sínt
rena
1812
##usta
afirm
Memoria
##JO
pretes
situados
contraste
Tun
tac
amarillo
representan
garganta
##orum
##lot
preparar
revolucionario
fg
##ód
detenido
reciente
bote
101
planos
madrugada
Acaso
coch
despertar
revela
posesiones
estrella
Mand
perfeccion
haciéndose
rompió
millares
guerrero
apoderó
caudillos
ridículo
vib
despecho
##goes
entrevista
descubre
rápido
Holanda
fantasía
ternura
TER
dedo
Alberto
dispuestos
corrom
ejecutivo
industrial
tratando
galería
frió
capítulos
sirva
esces
trozos
queremos
afición
frater
aposento
inau
vivi
procedimiento
Centro
##ds
entretanto
191
fina
Alb
##embro
católico
##há
##vimos
##uevas
ropas
ruidos
##jena
##cual
colonial
ayudante
batería
reacción
refres
144
##sol
murieron
quasi
muere
##vemente
monjas
lidad
rosas
##PÚ
carros
memorias
1808
estará
camisa
estand
##dade
medias
anteriormente
##iernos
##árs
Gir
baterías
heroica
##OBRE
##xaca
Museo
outras
Campos
exacto
riberas
##háo
ocurrir
acordado
descansar
MAD
##EI
incul
##itada
##peras
referida
Lérida
parcial
considerables
confesar
preparativos
obsequio
violenta
vacío
compasión
Alh
condenado
##tástro
volcán
destinada
ochocientos
Luz
depósitos
adorno
Tales
lú
debieron
católicos
Rios
Sig
jas
tonel
fray
pouco
##piélago
plante
llanos
descans
Hues
leche
miles
bárbaro
convenientes
pretende
curiosos
##pelo
privado
SS
##ctivo
esenci
##itre
##AND
llanto
alber
comenzaba
francesas
poseía
hac
inmig
enferma
comedias
lienzo
leyó
128
Gri
adivin
varia
temores
ng
compra
roto
vezes
mentira
tráfico
Puno
##ence
Reales
108
acercarse
Espinosa
aloj
##lusión
lagos
lagunas
afirmar
Nú
##tta
##pita
flam
despotismo
Ebro
Ques
Temp
gozo
tablas
noventa
##undos
anal
caras
labores
procurando
enl
##torias
creían
contribuir
concurrencia
##ítico
Saa
azules
indudable
propiamente
expuesto
femen
cerrada
sorprender
aspiraciones
oficinas
trance
Bilbao
esque
##irle
Víctor
segundos
Media
flota
resplande
ciendo
tán
##mel
diab
teníamos
legítimo
uu
convencer
Micho
restablecer
huellas
PROVIN
servidumbre
##timo
león
falsa
alemanes
criterio
conformidad
##alación
sabían
Paulo
honrad
Sam
have
contrato
exige
metá
maltra
ordinaria
explicar
perfum
##dilla
Garcia
elevadas
tributarios
New
mercedes
comitiva
fúne
##itoria
jura
##berna
##yese
diente
inu
propietarios
victorias
ada
##ustos
chim
insurrectos
poblar
outra
##yecto
Querétaro
102
levantarse
Ag
márgenes
sospecha
CONQU
deu
infancia
instancia
servía
maestre
hermanas
##dro
##entarios
##ivio
personalmente
141
acabado
pertenecía
Pregun
arch
escuadrón
procedimientos
medicina
104
estrech
respetar
Encar
pronta
cía
##joso
##domo
observó
jurado
Tama
relato
estuviera
categor
comisionado
Mall
later
salones
sorprendido
Crón
retor
mió
Urquiza
ansí
fenómenos
ponga
Ima
infierno
haberlo
empezar
permitía
##pil
impaciencia
2o
Tin
##entre
arres
Pacheco
véase
105
Medio
depar
Mexic
decretos
comerciantes
##ani
oj
dominar
contado
palma
dans
limosna
oía
trom
recién
Barra
distingue
rededor
promesa
Dió
Entr
queja
porta
accion
prendi
Conclu
franca
concedido
##ép
##idar
tabla
temiendo
avi
bille
##tentes
desear
Boli
Ademas
Márquez
doncella
##tuosas
Sucre
crue
##ée
determina
##CES
regalo
milagro
sumo
marinos
Huan
elegancia
ye
##entario
catástro
##ulla
##uérf
oficina
##ENA
parlam
refugi
cristianismo
##ruecos
tudo
incomo
air
trág
##pac
sueldos
sepulc
creado
pescado
rehus
PI
distancias
mejillas
inmediatas
empezaba
ball
ceremonias
hin
##enada
equipa
JUAN
##cinco
aber
121
urb
##valo
aprox
mah
traen
fresca
aquélla
##pano
##osím
efectivamente
sia
##zcan
acad
ponder
CAM
Decre
estó
##peta
Corri
revesti
port
mover
Mont
Tex
abandonó
Gen
##quero
colina
##endio
crisis
organizar
clérigo
##sed
sereno
##ficar
amenazas
biblioteca
asc
##itl
##uli
conm
107
hiciesen
violento
##ugh
trab
senado
atenciones
hablaban
##vores
latina
carnes
sabiduría
Arroyo
filósofo
##quino
repara
brutal
mamá
##ICI
armado
publicada
ates
marino
Paso
yerba
apellido
Bus
##bón
##ridas
##tenci
esclus
confiado
fij
sucesión
americanas
institución
POLÍ
Inter
138
incendi
Dem
lhes
debiera
elocuencia
##ñedo
Padres
Sando
fierro
alcázar
numeroso
claustro
deplor
alférez
Pes
Tala
##TRA
estatura
cardenal
empa
desha
clérigos
parroquial
132
Brazil
estro
ponían
señas
Abad
Voy
pabellón
Sici
advier
decor
103
contraria
##EDO
vín
##tom
criminales
Todavía
##nar
##ére
monedas
secreta
determinar
introducción
necesitan
gunos
atraviesa
##iedades
115
gobernar
Cabrera
audacia
##pen
quales
##éndice
carca
nutri
delicado
inhabit
Ler
lor
##lle
quede
casarse
##derez
citados
procuró
##ione
109
REVOLUCIÓN
Eul
GEO
Otras
##ik
##erón
madres
##INO
discursos
delicad
atento
permitió
Eduardo
regu
establecida
sangrienta
##adra
lav
##lava
interino
refieren
pasaje
temblor
AS
comodidad
impu
vocab
135
intér
republicanos
##pto
lazo
Saint
ident
1871
sagrados
Sue
##cantes
retar
desaho
figurar
Tomas
semanas
desh
visión
##rería
##bit
tuviesen
133
CAL
cado
1860
Jefes
evacu
##guo
##rosos
existia
##ixo
expedicion
Bru
bestias
Has
arr
tomada
sentim
1813
juegos
blos
apreh
Jesu
selvas
anoch
DOCUMENTOS
rigu
##fu
##ae
deso
inflam
inmensos
responde
Rem
##tic
goza
Anca
##RID
112
permanencia
Guzmán
vencedores
Excel
envidi
NE
rado
cayeron
vecina
imponente
Confederación
canales
Quien
##tífice
##unes
coleg
palm
vej
guas
comprendía
Entretanto
precauciones
##mien
##cay
corresponden
víspera
hur
##logo
baños
cansan
trasladó
##eri
seg
excur
124
soberbia
dividido
##áles
pares
desgar
exhib
botel
Aguirre
popula
santuario
sucesivo
adoptar
Jerusal
Pur
parciales
##tru
furia
Cáceres
definitiva
which
curar
admira
Cri
##ginal
excu
##uld
resi
lección
echando
guía
suspendi
republicano
Princip
regocijo
crear
estima
dependencia
RES
##quilla
carece
Acab
proced
cobar
funcionarios
Jalisco
sic
tonces
pav
difíciles
cruzar
castellana
ende
##entísimo
##tariamente
sabor
sirvi
##irlo
reconoció
##elia
profe
perspec
Comer
traspor
Orte
campanas
##chuelo
aniquil
pido
bailar
137
Mediterráneo
Ocu
##aga
see
lonj
misteriosa
##cucho
insurgentes
sombrío
ESP
Jue
atur
conspir
justamente
andan
vasos
Minas
exponer
Argel
Clemente
Hum
Coa
extremos
jor
poema
orador
míst
PLA
Toro
##aras
sentó
libremente
139
limpi
placeres
123
comprendió
garantía
##tísima
paisaje
considerando
Nomb
bil
anima
contribuciones
amenaz
aguardiente
##hn
##joz
hem
tenor
cuarteles
Cuerpo
paj
##ragona
##ónicas
inspira
##gens
metido
cargado
diligencias
simpatía
##rasen
portugués
breves
componía
Lara
##ieres
tocaba
##icie
pantal
oculto
AT
campi
chu
apare
Lab
106
sencillez
usté
##ciéndose
##ceo
Merced
literaria
143
##gh
##viar
Tejas
definitivamente
##óf
miel
cargar
enemigas
generosidad
Oaxaca
mino
##TÁN
asign
cantón
continuamente
simpatías
Magal
latín
##tarlo
espejo
fuimos
imparcial
Siendo
diesen
desbara
##quist
131
vuelven
admirar
Adiós
comedor
##gresos
Espa
peligrosa
defenderse
reglam
##erario
Segura
1811
##adera
##dom
creencias
Poniente
tendencia
##áneo
disol
142
Caci
bocas
estava
enamorado
pacto
convier
inclinación
Méndez
fincas
bergantín
##íces
estimación
noctur
presto
Número
diarios
señala
##minis
hacerla
llegase
ilha
129
Godo
##GRAF
posteridad
##ctas
Central
##tires
pref
##jares
párrafo
PE
Pil
Mauri
##quía
recibía
mud
##gusta
conquistar
explicación
##oble
anhe
desconfianza
##pada
##deste
competencia
Claudio
jen
##ERAS
libertades
argumento
##hue
cuándo
terres
vivió
viéndose
recien
trozo
antemano
##SO
##pón
##elio
exi
autos
1822
exceso
Memorias
Arist
anchas
desnudos
tocó
iniciativa
edades
127
134
1862
fum
acero
amon
ordenado
136
intentar
práctico
apete
economía
Piedra
##isca
pelas
simb
bastar
sudor
rodean
cáte
contienen
##tiera
serían
estragos
socorrer
puedes
puestas
andalu
Instru
indígena
Bada
angos
Recu
daría
##CIAS
román
linda
Tarragona
##ímetros
amaba
corrido
veinticinco
Indi
derre
##onados
conocían
barrios
Jerez
Islas
alcanzado
1850
Tib
assi
aceptó
rra
##IX
##grafos
gentil
destierro
característ
Ron
##tions
Sebastián
##tora
##barra
diciéndole
Fueron
lea
impreso
##ns
##JICO
mataron
##tarla
Esco
Canarias
recompensa
verlo
saludar
dispara
britán
precisa
comido
misericordia
pechos
Mam
ímp
##ali
restantes
miserables
Soc
castillos
##sivo
##ents
Marruecos
jugue
##érico
irresist
Campeche
SA
##coles
enseña
chileno
##cres
descuido
sepultura
oscura
eh
vna
ñor
##ui
sueños
simplemente
##ÑOL
##allar
apesar
sonriendo
##minio
convul
hable
Parte
viage
espantosa
bravo
Mercedes
Hizo
##cle
abiertos
guiente
Oribe
yá
inunda
##coa
manifestaciones
Jalapa
Red
atr
nando
##rs
debería
##álisis
GENERAL
##nan
Pereira
comisario
Gue
eje
traidores
concierto
SOBRE
##cea
pleito
ARGENT
novia
miraban
emplea
lecciones
pelea
altares
Acos
Lugar
censo
dha
suspir
Cuatro
sentarse
duración
acostumbrado
juicios
poniéndose
Pepe
elegantes
Cán
celes
##UCA
decidir
CAB
págs
marchaba
europeo
MÉJICO
Ancachs
##lota
Sea
Rei
conociendo
Procur
##ológico
galo
##dentes
##pida
##erios
##ésemos
acompaña
comparación
LO
anhel
amen
cintura
cómplic
crueles
Wa
rada
Quiz
126
privileg
vera
decoro
entradas
campana
suspender
miembro
##ei
##jent
##laje
haver
íntimo
leales
acabo
Adri
pelear
lastim
##chados
##iertamente
vientre
##rill
inmensas
viniendo
envuelto
rabia
##3o
andando
retiro
##eña
grano
limpia
##uj
arque
potencia
abur
abne
Suiza
Guan
limpio
Manoel
ló
corn
raras
relieve
presta
Cauca
Tratado
persever
insignificante
azar
taban
##graf
desfil
Ayacucho
Muerte
##fil
programa
prefi
chicos
poblada
ovejas
esencial
##lal
invis
habrán
cabello
duras
##parable
comercial
Soria
vengar
llamadas
Unos
##led
incidente
cedió
Núñez
Cum
ed
Castellan
testamento
IS
##ao
##pero
##GOS
agente
recí
andaban
dedicado
##zi
##timiento
caen
repre
venian
criada
tamente
aplica
amantes
veian
##gancia
Murió
##icismo
gi
##itorio
114
epid
equilib
verbo
pastores
##rosas
elegir
poseer
heroico
##TOR
congre
buscaba
had
tún
comenzado
##berg
señalar
##vando
JOS
Zar
Liniers
##bítero
insinu
contó
##ócra
unirse
ordem
armamento
navega
VEN
órgano
Sid
pend
rega
resumen
galle
Mala
##PEND
reclu
descubierta
profundas
##abele
Evangelio
##pea
trascur
chilenos
##for
conclusión
##tienden
sospechas
distribución
Apos
Quir
122
cometer
democr
Beatriz
ESPAÑOL
##dosa
exigencias
inocencia
cis
passa
elevados
ann
Dor
peces
##tti
##vara
llegué
colocada
PEDRO
##rete
desgraciados
##tay
generosa
consistía
Arias
sana
##ertos
episo
inaugu
toria
delin
servia
realista
cuadras
engañar
físico
HISTÓRICAS
Coro
mandaron
desapareció
municipales
cálculo
APÉ
Justo
tuvimos
##sim
proxim
delicada
anuales
##inamarca
abus
proteger
Jacinto
Eulalia
Ix
tud
denunci
##PO
deh
herencia
119
unán
serp
jugar
existentes
Moc
enju
tendencias
teoría
decimos
prácticas
Cul
resent
librar
irse
defecto
Archivo
MI
##lemencia
impresion
distantes
Salva
generaciones
dimensiones
alc
expediciones
cambiado
Sandoval
redo
dinas
huérf
portal
##itano
Cob
chan
sumer
##ológica
perd
##queros
octa
##váo
##cian
conje
##edia
adecu
118
##MI
habiéndo
cantos
Imperial
molesti
SI
##UL
Mata
Tucuman
viese
confesión
##árqu
diremos
arries
Roberto
117
reflexion
esmero
convicción
Situ
##íb
loa
preval
despro
Corn
coloca
mediodía
XXV
jesuí
jus
atraer
Ray
##ilia
exposición
##cismo
catedr
consulta
discípulos
##inan
accidentes
pieles
publico
retiraron
probado
perseguir
Lázaro
1824
##ipotenci
##sor
mete
ofi
firmado
eclesiástica
hones
coa
113
Eugenio
Vin
severa
1817
rodeada
situadas
##dilleras
traducción
símbolo
yes
Op
propuesta
avanzar
Dere
oidor
##vales
desist
resal
adoptado
transform
estaría
Chaco
deje
toque
impri
vecinas
anchura
##só
negó
##onales
expedi
distinguidos
aclar
##bado
pedi
fac
##OMB
detenerse
Vázquez
caudales
Algo
gruesa
aquéllos
morib
declaraciones
angustia
fundamental
tró
Comun
##heiro
##hao
##ivel
extensa
##metro
##veis
Antio
opera
sucesores
concesión
Edad
##vían
frecuente
bía
##eu
##renda
desembarco
Ita
desol
Revolución
##nio
dirigirse
oraciones
injusticia
##cles
severo
diminu
##éricas
fiera
my
##rei
Córdova
##rate
Gui
cientos
pronunció
choque
pálida
##eb
##ueve
##posiciones
reconoce
Allá
despojos
Saavedra
temperamento
inutil
tec
##gou
Noti
consultar
tio
##izaron
fortificaciones
tex
antepas
beso
##trico
116
diócesis
##Ã³
profundos
Casta
##ité
vecindad
ídolo
Toma
tica
##mática
verme
hondo
correspondía
##ERNO
Diputados
Tara
##giendo
##yán
Bona
bian
imb
inspiración
imitar
lograron
duelo
infi
conve
pasto
fertil
##ómetro
asesinato
escasos
combinación
Ortega
cimiento
perdi
merecido
Gefe
barbarie
Escrib
insectos
capitan
primitivos
TOMO
darme
hicimos
Jerónimo
troncos
caserío
contaban
cobarde
burla
Reco
Bernard
absurdo
nauf
foram
Calleja
degol
##itana
paiz
gota
1859
soberanos
##ársele
reto
procura
preocupaciones
Wil
ofer
ut
##orial
cuero
isso
Pocos
Bis
Bár
suprim
##jia
meta
talla
tributos
almacenes
tino
##urada
guberna
trope
refi
##ificencia
contrad
episco
precisión
cial
anex
##pieza
alz
medal
prestó
Juárez
01
sustancia
pariente
descol
mozos
señorío
lejano
Hur
exag
sofoc
ruego
##siva
universo
estero
escel
torrente
confluencia
Hi
cabeci
SEGU
ampar
alumnos
estómago
##cama
amos
impla
temple
perpetua
Diez
Sos
##tle
proa
salto
Camar
paseos
fragmentos
semi
pleno
MADRID
##vente
obreros
continuas
silen
sillas
lance
prometido
fieras
##pr
corrían
aparente
intentó
aprender
lio
##oló
subde
servidor
inevitable
##viado
##éndolos
celebra
dividida
lámp
lego
pavor
conocemos
acomod
tirar
lazos
reconoci
reducidos
perteneciente
GRAN
##éa
pour
bata
cocin
Dej
faltó
1847
convoy
nad
##stmo
##ambu
posibilidad
vacas
sinceridad
intérpre
Pronto
Ed
vér
repúblicas
piratas
dr
mén
traían
discordia
gobernación
levantaba
conferencias
Ari
Ou
evo
ue
##cub
mande
expresado
Badajoz
unida
cacao
amada
recibiendo
indemn
colocados
Termin
repeti
aplausos
##aremos
carab
causar
1848
##tificado
mandato
##fal
Chac
fijó
##ficado
greso
mesas
martirio
##pina
autorizado
ilustración
manejo
Venecia
##jante
1857
titulo
##iena
pintado
desiertos
destitu
##éditos
ecs
invasores
transforma
esencia
Desa
cobrar
Nuñez
denominación
niente
##dré
acusación
generación
dibujo
vistas
data
crítico
cueva
cumbres
##iciosas
##umbr
##gosa
referidos
izquierdo
Santísima
Bernal
evidencia
és
descrip
muitos
ansi
puse
avia
##ucar
term
bastaba
indefin
1825
severidad
contornos
##mados
compens
##ORIAS
íntima
Cid
depende
representaba
excelentes
##entadas
pasamos
posibles
ladrones
Pompe
Hom
##andes
pájaro
Huesca
isto
##jeda
costó
procurado
balcones
magistrados
rante
##NA
bailes
capellán
limp
conservador
pompa
presupuesto
ingeniero
atribuciones
recípro
regidores
mesti
levantando
##eméri
Quiro
completar
desarroll
##ñones
ocuparon
conservaba
argentino
intrigas
##aderas
pertur
maj
serena
##ezcan
##verio
cív
alaban
varon
disputa
##ienes
Fuera
##chen
manifestación
cauce
##onga
##teria
YUCA
Produ
pati
cerró
destreza
Capilla
demostrado
excepto
##ondo
##tive
inme
abuelo
Pot
desconocida
pí
##poración
veneración
1815
reliquias
tranquilamente
Zacatecas
avar
rre
todavia
atacado
epie
##culas
##legado
chinos
totalmente
septentrional
cofrad
regia
Cad
Villas
órden
Lavalle
May
guia
tormento
levantan
sirviendo
Tlax
centenares
Mallorca
tendido
propone
##ñor
##quim
privada
Pardo
aventura
US
##ampo
nosso
titulado
difun
fuertemente
chica
pesado
arrojo
##osímil
jos
estancias
dotes
but
hospe
remediar
haciéndole
unidas
##onesa
Def
##tang
formados
pierna
novelas
lom
##uces
##cedo
saco
acordar
síntomas
sollo
agitación
Berm
cansancio
Bayona
lógica
Bara
odios
##bias
talentos
##ficencia
afán
reconcil
bit
##ki
foras
Reci
libra
##ólogos
##cie
Convento
aparecía
eminente
Bél
tocado
carril
puri
reedi
##tadora
integridad
prior
mare
conducto
ansiedad
Romero
mio
dial
sonido
admit
dirijió
##rieto
guardaba
AD
Adu
novio
##istía
verdades
hubieron
##úsculo
Crónica
##TON
##icanos
afuera
acudió
Jacobo
colosal
nacionalidad
hacemos
embos
adv
Cr
úl
##inaba
cors
compan
deseando
almor
increí
abuso
Relación
fortalezas
rechazar
##úbilo
##cher
cambios
seña
conducía
##bs
##óla
##GR
espadas
funesto
enviados
Sec
luto
pretendía
PO
##íanse
penin
##gráficas
usaban
Segundo
censura
diría
abiertas
plazuela
##huacan
Naturaleza
labranza
preparaba
##jam
amigas
apoderado
hig
salvado
Docu
Sarmiento
##omba
malicia
quedarse
##ragio
feroces
##onio
certeza
electores
hogares
repentinamente
proven
india
valeroso
Salta
Canal
ángeles
prevenido
Humb
enojo
##tidumbre
dilu
relativas
indiferente
gesti
##quetes
Elvira
pasadas
relativos
retroceder
COS
##ser
recelo
júbilo
##abu
##picio
escrupulos
almoh
catástrofe
telas
##radores
##nado
concre
juro
Pascual
terminada
modesto
ofreciendo
modifica
Durango
sera
tun
serran
##ecimientos
escritas
sexos
Corrientes
milla
humedad
1828
cámaras
IMP
Vier
tipos
millón
ordenanzas
imitación
##ker
marchas
mendi
damos
jac
migo
ejue
##bulo
dante
verdaderas
ángulos
componían
MEMORIAS
impuestos
##zuma
##namente
##inando
obli
raciones
hacerme
##ARES
alimentos
forzoso
Salinas
inocentes
Oficiales
viera
##jese
teñ
##feras
gozaba
Morelos
Autor
desempeño
hospitales
oidores
notorio
quitó
nacen
Mondo
##COS
parezca
Concha
Donde
rodea
##ibo
Espe
Marginal
demostraciones
ESPAÑA
Sicilia
tenéis
Relaciones
mató
mortales
levantaron
feligres
declarando
Escuela
##BLICA
irresistible
Jar
Vos
alist
raíces
respetables
mercancías
CONQUISTA
ardientes
##ructu
marea
revista
aumenta
pretensión
##idencial
dous
Conven
funesta
astron
##idero
racional
subido
bellos
maravilla
##dese
1863
reinaba
##uve
corral
Anda
míos
misterios
discreción
teatros
##vieran
perecer
##uales
##chadas
iner
##cede
inund
saltar
disem
aplauso
espontán
Sacramento
Católicos
estandarte
tación
xv
impun
Jamás
categoría
##anta
Arre
cristales
Orientales
cálculos
agrega
sacando
necesito
papá
1852
rango
##tent
caía
facción
##ganos
Quesada
ARGENTINA
cic
##rías
informado
falleció
DOM
meros
norm
pio
##trica
ciega
dedicó
dormido
##gráficos
ami
ridad
##abilidades
docena
establecerse
vías
sumas
caver
magna
colec
encerrado
hácia
##hin
##vala
##CAN
##viana
transpor
maravillas
vertientes
Trad
##JA
Salió
Roca
audaz
sable
##EA
estaciones
tormenta
territorial
Narva
Instituto
honradez
Riva
Levan
presentaban
Tacu
1833
sumisión
SIGLO
én
Tajo
pretesto
matem
tendo
ordena
sublevación
Pel
campe
trayendo
abandonada
acompañaba
contigo
subsistencia
Finalmente
instancias
incó
disponía
conversión
dei
##curio
quita
aspir
##teniente
adhesión
ímpe
acia
##pañas
1819
afectos
sospechar
RIO
cata
Marques
##RIL
Salas
Libro
miran
tierna
procede
avanzada
destacamento
periodo
embajador
##já
accidente
Magist
Alvaro
Compren
chimene
Sel
##dasen
##bajo
Villaf
1846
CUBA
##ciano
literario
tripulación
pagado
linea
setecientos
legu
##iete
recientemente
favorecer
Soledad
##GUAY
eo
metió
Marco
dato
Cerca
localidad
Lam
aga
esci
ofens
rol
##jándose
Union
Jas
ítem
favorables
desó
centros
til
corres
horrores
mostrando
pulgadas
modestia
enven
fueros
derrotado
triunfante
curiosa
##03
##FICA
caida
destruido
Humbold
anualmente
tencia
dud
##ceptible
administrador
liger
suelta
ANTI
Apo
fana
perdieron
##tala
this
##gándose
tardar
reunidas
corredor
mim
cortado
##gne
##dre
##tigo
suspiro
prelados
ved
vergonz
Parro
amargura
cle
vír
##landa
repito
Inquisición
vestigios
PLATA
oyendo
dolorosa
ingenieros
entiendo
maci
asper
trataron
Chia
Herman
históricas
afe
##iados
##pres
##ciosamente
##valos
1816
Narvaez
OR
rales
secu
cris
vicario
turba
fasti
manuscrito
##gatas
##reno
separarse
alhajas
peculiar
meridiano
investigaciones
provisional
GOBI
Caro
comisiones
boli
Viejo
##tibles
cuentos
ocupada
perso
estraño
proponía
Magallanes
she
##zase
barón
Monter
Almagro
##we
Amar
Pasó
Apro
cifra
Já
precedente
##mase
mejorar
arrobas
figuran
anhelo
chal
resultar
##rara
gober
Indu
ondas
##ónico
dices
escrú
##anova
inscripciones
cuadradas
##volencia
patrón
##chel
virgen
vivamente
viniese
referencia
harán
Administración
nador
##tasar
Mah
gratu
##dam
arzobis
carl
tivo
Manzan
estuviesen
extenso
brevedad
aventa
##cenas
Hun
gla
##pam
acusado
dignas
ció
elevar
Efec
biendo
##áyo
bajando
rector
reunieron
Austral
PROVINCIA
##ñeta
##jenas
detes
mandada
colonización
firmó
enn
##tosa
Cuál
ño
##neros
Quevedo
amenazaba
##izaban
faja
horribles
párro
arcab
tropel
Amor
Capitu
agregar
TOR
inno
##cete
Elena
abriendo
rebelde
delicadeza
RELA
reúne
##ché
exis
##itudes
##piran
encargados
REPÚ
alfomb
reservado
Monti
pintar
soberana
estéril
gus
intran
Espar
coco
mejoras
Roque
bóvedas
linaje
fós
estú
##adavia
casó
##olog
remitir
primeiro
obscuro
diendo
Char
trasmi
Buen
sensación
originales
merecer
quieran
inglesas
Estrecho
Igual
##tigu
##dista
tira
escomb
ofrecían
Urb
federación
##zu
melo
##mosa
cansado
arroja
lis
ocupando
mostrado
mejicano
espantoso
heredero
monstruo
PU
sh
estir
sien
Cama
monó
sostiene
extrava
repugnancia
calumn
Bolivar
Pinto
nía
concede
carruaje
monarcas
Palmas
consagrado
vado
cielos
acompañaban
1840
lúgu
bul
Juz
instan
respectivo
dijimos
##ciar
pozo
tremen
significación
indispensables
Apu
Sé
##cott
cayendo
impone
intermin
ocupados
enferm
1845
flaque
perpetuo
resgu
tratan
veje
traspas
reciben
1864
recomenda
atravesando
compromiso
##esse
##cules
##nación
##vares
relativamente
abstra
hamb
sobra
traia
fall
cule
necesariamente
deseado
usado
##ibil
totalidad
aguardar
Oficio
lent
pp
pedía
Infante
Huer
##edera
valen
Ahí
rastro
molino
azote
secciones
Caz
Cau
Duero
robo
agregó
Humboldt
circul
pregunté
vestida
recorrido
##vial
Estrada
confe
atentado
1868
ecli
recobrar
tendrán
Joaquin
##ful
##sidad
sirvieron
1818
oscure
##len
veneno
crece
antiguamente
domici
llorando
jornadas
brisa
Abo
mora
##táb
reglamento
resultas
ESTADO
oto
desalo
principi
formarse
advierte
compad
supieron
convenido
POLÍTICA
##jil
Ald
heroísmo
canoa
gigante
terciopelo
##isten
corrupción
caminar
indire
esperiencia
##tánzos
bondados
apacible
proponer
remor
cente
##uas
animado
tribuna
Tolosa
alza
Inmedia
pesada
##vidas
Ambros
furioso
abnegación
liga
##tografía
##cese
cogió
Franco
false
##endero
1855
##huac
ínte
peninsul
##urt
eficacia
gala
altera
dix
bravos
1858
descender
promul
improviso
fó
cond
partí
##tarlos
constituir
1854
antepasados
Plin
##ióse
moralidad
imposibilidad
APÉNDICE
GOBIERNO
Tá
umb
##adeo
traza
##itarios
convenir
señaló
elogio
loma
yan
##eroa
##trava
grato
Valent
echaron
##uss
tesorero
permanecía
tentativa
locales
Paula
culpable
Agü
reír
creyeron
1836
bran
##riese
moment
circunstan
ranch
custodia
Superior
Cón
eléc
invención
despachó
ILUST
alcoba
Bue
##áculo
##tolo
Monas
ingenios
concilio
Gü
Paul
honrados
peruanos
MUNDO
paralelo
Form
##igua
##obar
Alcán
Esos
bastan
dirigieron
Caba
concurrir
centa
exactamente
Bes
##ERTO
##inero
meio
canta
océano
infinita
wa
##zamos
encab
##ámpa
raso
felizmente
Decreto
tria
proli
mantas
Chilo
Patr
diámetro
amonton
DA
allan
acon
terremo
Escal
vaga
Comon
confirm
atroz
Gan
##UELA
disip
sostuvo
penosa
cooperación
meseta
CAN
lento
##arían
mati
##ficamente
Quiero
atribuye
Belg
sólida
uo
##cén
##lace
baga
sole
posada
recto
modernas
Pagca
perspectiva
Quiroga
met
tomaban
futura
tregua
1865
##cracia
Hér
eb
resca
fuí
embocadura
comunmente
pedes
mártires
socorros
elogios
NUM
sn
occidente
desastros
oríjen
prevenir
##quillo
volúm
faltaban
Caldas
contentos
gato
quietud
egoísmo
Torque
amarilla
mencionada
pronunciar
##álogo
estabele
cordilleras
cargados
pronuncia
divisoria
municipio
magistrado
incapaz
dig
Orle
protestas
perdiendo
##biese
##pell
abun
galerías
##uria
remos
espir
extraños
lenta
##entu
cuerdas
móvil
##ceb
alarm
nossa
Chim
huevos
##idado
##casen
##parte
extrañ
competente
geografía
TI
##ET
gruesos
CASA
ménos
eti
##aduras
incid
patas
Lucas
convenia
pasajeros
concebir
BU
gü
##ato
cubren
gruesas
campañas
indicaciones
Cuánto
Cierto
Num
##YA
##rit
##terios
cañas
guerrillas
establecidos
deberá
epí
extraordinarias
fórmula
Dul
##CRI
##kes
##ticar
acaban
##ganda
Fortuna
bían
fijado
##ega
cortas
cabell
cercano
guir
Cuad
constitucionales
Ríos
dragones
Maza
tome
construyó
mártir
Ace
pertre
tomos
Oca
##RAL
abe
afian
virrey
frust
Verde
conquistado
ensue
turbul
ls
salimos
##cillas
corporación
renunciar
##bon
deve
calabo
entraban
homens
pierden
redonda
soplo
pirám
##ilios
comprendiendo
distinguen
ganas
##lejo
##éndonos
##hual
Gaceta
ál
##uni
auia
cep
aristocr
##tistas
##viano
sentí
claras
famosos
##lería
##cima
cortos
##ecidas
realización
acababan
practicar
agricul
##ster
##inoco
mayordomo
añadiendo
##endar
caro
Tuvo
##ambra
Bernardino
##ee
cong
##diano
dello
abon
peste
Canaria
claros
auxiliares
ensal
humildes
sado
##low
procedentes
ligeramente
perseguido
melancol
Cont
calcular
arrojado
sucedía
Morro
concluye
quedará
idola
elocuente
próximamente
MONTE
Cárden
adiós
##lea
##tese
embarcó
mandados
##ixa
Bey
feste
jén
jinetes
##lador
##distas
Talca
esterior
griega
aristocracia
aurora
gún
mág
##ks
perdidos
abrum
alojamiento
portada
##ERS
1867
Bélgica
granad
fueren
costo
Convención
cerco
autorización
perderse
##jec
premi
Jaén
gravemente
##entura
##ORN
1856
Aquellos
3o
##dé
harina
parroquias
##dá
unir
Carras
retratos
listas
ph
##yun
pecados
Ste
##yentes
Ville
desastre
Serv
##ulación
llevo
manifestando
##din
##dones
##letos
priva
recibidos
Hacia
dellas
##cuatro
tareas
1832
adelantos
exigir
fecun
callar
tardes
Monarca
NUEVA
bautismo
fib
##ximo
##jente
##nato
humildad
##zer
##icar
agita
defen
marchando
beneméri
excesos
delirio
Vitoria
##zaga
exclu
1837
signos
apresuró
precaución
Pelayo
infieles
SAL
patente
##versión
continuaron
reuniones
construida
##REC
1835
1843
ocupaciones
cigar
dispone
posteriormente
Represent
##GRAFÍA
pru
palmas
continuando
ansia
exaltación
FU
sentada
boda
Hac
Hijo
##dada
quemar
abunda
plato
escudos
fruta
1829
##ástica
sustento
Wal
##ieta
##ibes
implor
mercados
combati
correos
flecha
suplicio
Cuartel
relu
dominaba
suaves
ignoraba
Batallón
Valen
1853
económico
desórdenes
##grar
consin
empezado
idiomas
remate
Gloria
##LIO
quedase
quim
yerbas
Belgrano
##víos
volu
obligaron
Español
velocidad
trincheras
Comercio
natura
sofo
cantando
refug
traslación
astro
AND
Dion
trem
Prusia
dinastía
alzó
centímetros
pertenecían
almuer
roj
climas
dulc
econom
Mosquera
obscuridad
Plinio
tez
moverse
Const
##tálogo
arau
resoluciones
escombros
Fiscal
llamando
Christ
verificado
magníficos
##ciada
cación
movió
canas
separados
##dolfo
oponerse
tertulia
produc
fuero
desnudo
homenaje
nomin
redi
logra
analo
mantuvo
1844
Muerto
Ces
##forte
opres
goleta
anochecer
##cú
Correg
1879
Fig
Neces
sis
prenda
montan
instalación
##ICOS
acompañó
asegurado
grandioso
##mones
salí
venas
piano
##inela
tumul
nervios
cubría
##ñadas
alivio
pescadores
cesó
Betánzos
pronunciado
tumulto
defensor
análisis
pasase
producía
ancianos
##tn
alquil
aumentó
Basta
biblio
##paba
Luiz
##cienden
resplandor
pern
saludo
cabos
sufre
llaves
notado
Portales
subiendo
irá
primeira
cronista
Yn
##olos
bandos
dispuesta
##colas
alguacil
YUCATÁN
##diesen
##cayo
pequeñ
voluntariamente
señalando
solemnes
nieto
hueco
inaudi
bueyes
parado
inso
importaba
comerciante
contradicción
##fia
Ingen
cooper
proximidad
nn
esbel
continú
plus
##répito
solicitar
##EDA
recordaba
adversarios
ae
manchas
Debe
poderosas
cortesía
##itim
incons
taberna
devolver
##ctamente
##cimos
##telo
##selo
##inacion
##lamiento
Copia
##ILL
ANALES
refugio
Mondoñedo
Banda
mada
##cino
##adilla
sosiego
Vino
who
##ont
##riga
asientos
Vice
despeda
artístico
autén
huéspedes
JOSÉ
Dentro
escur
dida
desent
aplas
Estable
creciente
vayan
quise
##vano
granito
tratamiento
hallo
##árselo
Católica
Us
exteriores
mancha
pacificación
Flandes
##tuosamente
aseme
vendrá
viviendo
volverse
1869
Serrano
maga
raíz
europeas
Brigadier
Gab
acamp
interven
cañon
deliber
observancia
##ament
previsión
verb
presión
montar
agru
agrado
capitanía
corresponder
rasgo
hielo
mó
turno
##GUA
Diccionario
estructura
exportación
sincero
torrentes
Sao
expresar
dispersos
desembocadura
Alcántara
PR
Yu
frí
consentimiento
tigre
##blar
decidida
industrias
dera
##abamba
cuáles
haces
any
##ury
comunicar
estím
guardan
humilla
descubr
ensenada
##iasta
delicioso
caido
visitado
cuidar
INS
localidades
##ibre
tomadas
graciosa
sobrina
##TRODU
Hércules
##tiza
destinadas
tada
lanzar
##ventura
sujeta
dorado
Ambos
900
Garay
forme
disolución
recibo
Teruel
Respecto
monopol
##legar
anta
anales
cay
Reti
##alli
Compan
apropi
avisos
350
comprometer
PUE
inquis
clá
Morillo
Pastor
desgraciadamente
remotos
posesion
Cris
mís
##coso
##cuaro
anuncia
lleve
defendido
magnitud
Pul
Sede
Santafé
comunicó
acometer
esmeral
Álava
##ford
##ánan
vengo
magnificencia
reclamaciones
espresion
##ben
appar
dejase
hicieran
INTRODU
Vista
carpin
valores
haberla
Sara
##forma
##lí
anunció
Artes
##ARRA
raros
Ferrol
trajeron
Caj
fila
algumas
pintoresco
descontento
justos
Camino
Cisneros
Patag
Orinoco
cautivos
desagradable
tenientes
santidad
sostenía
negativa
Lerma
Pern
##orías
casamiento
trayecto
ratos
vuelva
relámpa
volúmenes
Huel
##BIA
recibí
personalidad
brasile
Lagos
denominado
ORI
escultura
exhal
penetró
Torquemada
bizar
mú
incan
bode
padr
1827
echaba
tla
##ceas
cartu
realizado
huertas
fúnebre
quím
disuel
limitado
depen
celesti
vital
dándose
duquesa
##risas
ocurren
alguma
03
justas
eon
dictador
inspirado
supi
##chón
med
Arri
pidieron
formadas
carnic
Lla
Lord
##alos
##ick
logar
favores
Paco
benevolencia
inim
Antón
Abd
broma
cues
oportuna
fabulos
líquido
vejez
Sera
Tez
daré
ejecutado
##aldo
suici
requiere
entáo
sordo
extranjera
omni
Jama
Lec
##bita
blanque
Expe
##ction
estimul
Pun
delan
Apóst
labradores
1826
demora
lamentable
vireinato
##fan
##tóse
reducción
conservadores
bonita
##wo
cajón
trazado
##iremos
riqu
aprovechando
esten
gracioso
Rol
##edo
##pando
##erno
ofender
##pirando
honda
Arauco
Cano
##ÍS
##orno
arca
Conque
terras
calzada
mandamos
contesta
Victor
telé
roman
judío
ñoles
vega
subdi
cualesquiera
Álvaro
diestra
bernador
comman
##guía
solitario
panor
atrevió
demol
zapatos
Comonfort
##rana
emis
rubor
erario
desb
##trero
serra
necesitar
miserias
Braga
profesores
artística
nul
noso
pris
escra
trém
verdade
Amer
Baltasar
INDE
Pros
fiz
##chaban
parape
valenci
Salto
prodigios
Navarro
legítima
veinticuatro
##PE
##inha
Incas
Cardenal
Abra
qualquer
Villam
##mana
botas
extrañas
ocuparse
1831
05
margem
extender
remota
##jir
devuel
carg
DEF
embarcación
mandé
holandes
##eradores
dicta
deshe
Alcázar
causaba
acudieron
procedió
narices
Borja
tentativas
Claro
Edi
##entor
naciente
esperarse
existente
out
sorprendió
oportunamente
##ñiga
ciales
montón
floreci
##CC
escre
ejecutó
aumentado
estranjeros
describe
Ambrosio
##gé
sillón
Tudela
##ult
puño
talvez
hacha
solían
firmar
celoso
arbitr
Quirós
##ises
peones
ésto
desenf
huestes
RA
ardi
ignomin
silvestres
prelim
baño
colm
Nazar
acompañada
##rést
Aún
##rándose
##vidos
Consul
coches
transe
lancha
estendi
Mons
pertenecer
aseguró
argumentos
cuenca
desd
fijos
volvían
Tunja
Hel
cro
##lra
fundo
pisos
Suprema
Soberano
biz
##vad
tocando
honrada
apariencias
sitiados
Legisla
lumbre
encub
##ness
dable
##titlan
##tate
caser
esplica
Mariscal
##ifi
cierra
terminante
repetidos
inspiraba
secundar
demostración
solemnemente
INTRODUCCIÓN
Fan
sustan
sit
##ture
##pote
Boh
procuraba
dedica
pusiese
##orosamente
marquesa
Población
agrícola
esencialmente
##mal
nova
pesa
bastón
acercaba
sobrevi
Paredes
representado
abrazar
abrirse
adornado
AMERI
##tierra
##emin
presbítero
ane
natal
trataban
económica
Sra
##iona
sombreros
turcos
1834
Daniel
tiago
movido
lomas
desment
admirables
sublevados
Municipalidad
Orleans
Escor
goce
consagra
bigo
##ienta
##nales
unía
escuadrones
obsequi
Tesoro
maravilloso
PAS
lanchas
sometido
tiranos
italianos
corregidor
resuci
Ign
doscientas
Rivadavia
enlre
SUS
tiende
ganó
rendición
travesía
meu
intelij
##ELL
cruces
adquirió
raya
off
fallo
trabajado
rodeaban
suelto
succes
##íg
muñ
cional
vaca
limpieza
ensayo
tierno
##wer
##isio
##iega
medir
tejidos
imaginar
pital
filósofos
Figueroa
##vana
queb
leones
##urgo
garanti
##caden
algum
##enga
##eciese
Arce
grata
Godoy
motiv
levantamiento
arreci
jornal
interrumpió
TOTAL
##its
dejarse
content
pretender
intent
gau
Aqu
pam
establecidas
Colorado
recogido
infati
BO
Ojeda
##ílica
reir
enten
saberlo
240
manifestaba
Diputado
electoral
##nica
##VID
##ombres
Chor
##tíbulo
enviaba
rub
deseaban
1866
rumores
apercib
agonía
acompañar
penal
reparo
adap
Gall
Reun
indias
##drían
fals
enérgica
científica
feo
##cue
suscrib
##CIS
Boca
tabern
aceler
reser
temible
Bul
Fron
Tas
Entra
abrieron
insensa
semillas
geográfica
evan
##eratriz
responsable
manuscritos
armar
vende
permanecido
1842
respectiva
apetito
toneladas
##ango
##cibles
prós
costados
hacerles
expan
andado
Lorca
reverencia
trabajadores
explicaciones
ácido
salas
candor
faltado
##belle
hispano
Religión
##uarte
deudas
estiende
muitas
conside
Pontífice
promover
perjuicios
COLOM
vehem
##dulas
##jento
nacio
bajan
rojas
choz
derramar
Fir
##ucos
inta
adher
capel
dudo
Garci
dictadura
desenlace
ladrón
Sonora
Vá
entusiasta
apoyado
Talavera
##PENDENCIA
flex
apuntes
##rego
dela
movi
imperfec
candidato
fanatismo
Pis
##dicho
estrépito
islo
guardi
comprendo
1880
diplomático
oyeron
poética
salga
Concil
aflic
Colección
limita
conversaciones
volví
Dávila
Imagen
Span
qae
##omeo
canon
Vela
sacaron
concern
estruendo
nados
##erosa
indicada
Descripción
juzga
compañera
Cangas
componer
marítima
Josef
radical
Acer
Zo
##abá
##ight
##egados
produjeron
Calatrava
manufac
detu
explotación
gras
##ciados
puñado
Monta
reduce
corteza
suficientemente
pregon
inmens
criaturas
Tabas
##DOS
secas
muchachas
suponiendo
cuidadosamente
Sto
perci
navegar
infinitas
descarga
reaccion
##onada
raices
enteras
ejercicios
desastres
emancipación
estipul
Agüero
melancolía
##americ
cultos
desembara
1841
Volvió
contienda
carecía
Agustin
convirtió
INDEPENDENCIA
mosa
##goso
incer
palmo
convención
piden
encor
##tou
##undi
##def
mantiene
casco
dotado
discor
temía
prontamente
Leonor
Licenciado
sepulcros
Cárdenas
brasil
##ken
##elho
introdujo
engañado
Chiloé
contro
volup
constantes
variar
ordenanza
Barba
establecieron
pañoles
Vidal
##adía
cone
Encon
Salom
pedían
discípulo
peñascos
Jú
220
Rivas
dándoles
mide
coman
amas
gastar
avanzó
desembarcar
cosechas
acceso
deg
##iten
sincera
##tancia
Desgra
Nuestros
Resul
fecunda
verdugo
##abón
paro
arren
volviese
soberbio
Carrillo
recordando
salvó
##est
hablamos
quitado
hebre
##tinerario
gradas
mercaderes
Australia
Ceci
Reme
maestra
penetrado
uniform
fomento
tuvieran
gallinas
Hung
lé
concejo
Joan
dormía
suspensión
huella
entierro
MO
Tr
##eal
##quitos
mansión
##melo
Nov
hume
##ecerse
hasla
jurí
##enti
##gueras
##ienden
resultaba
representaciones
saliese
##ércoles
emprést
ofrecieron
interesados
amarill
Urdan
alarde
Esperanza
falsos
picos
impuso
Carre
Supon
tradici
ocultos
invencible
bloqueo
astucia
verificar
inclinado
mancebo
##ñarse
##orra
##abando
persist
recientes
votar
Ramiro
simpático
bellezas
positivo
adivinar
##cipa
##ásemos
carecen
##iéndola
entenderse
ampli
rueda
Ea
##alas
##isticio
quod
despidió
feito
onzas
interesa
abandonando
Padilla
cuen
peña
ill
zonas
prést
ticia
trar
código
##greja
Tec
plo
##rem
##rane
##ciaciones
creó
ANTON
digan
terior
seguinte
##cingo
piadoso
mien
##iño
##áos
Matan
juven
trabaja
ligereza
##pí
decian
elef
notablemente
muestran
desconocidos
##burgo
escepcion
Cielo
esmer
indicación
Gobiernos
madri
##ineos
1838
Respon
contempla
Regencia
justificar
acumul
Tolu
##hó
##ibe
charla
sentados
vinos
##ueste
mana
montañ
Ultra
02
sho
##bido
esplo
señorito
contribuyó
dueña
Misiones
inhum
popa
##vasen
mirado
pérf
fosse
Vivero
Bla
##ianzas
Mac
bargo
decirme
##gría
Zavala
incluso
bárbara
apertura
Trans
##charon
##guno
cogido
pongo
pique
ímpetu
Viendo
requis
arbole
huyó
avenidas
##uroso
dejé
merecía
niebla
calumnia
Fab
antro
actas
subterrán
dependientes
señalada
excelencia
aplaudi
principe
atacó
transac
indepen
##ameda
confesor
desfigu
moderación
Itur
vor
embelle
chor
Palencia
impulsos
ruedas
Governador
soportar
hidal
infal
Carri
Militar
marinero
taller
increíble
jener
##cedió
subalternos
Cesar
##tava
resignación
Mariana
señalados
Julia
condenados
Cónsul
Cund
Sanl
ILUSTR
nera
##ína
##pá
##dalos
corporaciones
contemporáneos
##madura
arenas
estuve
192
abandona
observando
1809
proclamado
Inmediatamente
##ota
sutil
##iéndome
escaleras
escasas
arquitecto
Maestre
otoño
impas
confiar
Quil
##pulco
regularidad
frescura
aduana
##ñon
##medi
bate
combinaciones
anunciaba
Bermú
Cic
grá
##vre
redujo
Ayala
próximos
triunfar
gunas
Antioquia
Hungria
ademán
Quijo
llenó
bestia
desaliento
almuerzo
Pic
poé
##radura
melhor
compromisos
afluentes
Plas
##ZO
Mars
##ally
formul
AC
##qua
mix
estudiado
ordinariamente
Loreto
equilibrio
Fuerte
persuadir
limites
lus
águila
rez
inda
intol
carita
cambió
guerrill
remol
sustra
marítimas
reu
dit
tenerse
Aure
infinidad
arbustos
eminentes
Vélez
coinci
industriales
##onos
paños
##ibio
abandonaron
sensibilidad
confuso
crónica
cabaña
silvestre
bulto
##deza
compás
##gasen
made
1881
discutir
desnuda
respir
Esm
refuerzos
envenen
Monasterio
Rena
##aV
##tens
atravesó
infinitos
designios
sangriento
maravillosa
Av
arsen
temo
pliego
aceptado
poesías
Bahia
concesiones
Tim
##orios
##reira
comu
##rese
exemp
godos
fundamentos
huyeron
##canas
pincel
##INAS
laureles
##GUE
comodidades
ratific
inflex
finca
clasific
álos
##ueta
muda
recreo
Comand
##STI
Consider
austral
Michoacan
Tabasco
Mesa
inmo
##laria
enviaron
hí
pés
##ieza
copas
capillas
platos
ignorante
entramb
mantenía
patriótico
bió
ardu
infor
ocurría
tambor
adjudi
disgustos
alcaide
silencioso
cuent
mencionados
riachuelo
##vall
sele
##erogl
aptitud
fomentar
Rincón
oje
##como
##varon
latino
soñ
##érs
Chin
sistemas
ventajos
designado
Carolina
##reh
ponia
hallé
asesinado
pacífica
##chiller
Correa
cuanti
Monforte
trabajando
perfume
órganos
AMÉ
Cres
##tat
##ibar
factor
##ONI
estudiantes
asegurarse
Tenia
ausente
proseguir
Sum
##alte
estup
Ayer
sitiadores
tolerancia
fera
##ert
favorito
210
cauti
Pampa
contemplando
embajadores
##ambuco
Villafranca
ach
tera
Revista
hog
transpar
exigía
prometió
SEÑ
archivos
precipitadamente
agrícolas
pavimento
Hurtado
MOR
pia
tico
##jica
lava
##teos
salario
considerablemente
Alem
Gál
up
##kol
tormentos
Moham
Galle
aplicar
archipiélago
REPÚBLICA
Zú
dés
íbamos
##lora
##arez
esqui
tej
Heredia
##uth
##itá
median
pacífico
sorte
##gativas
tomase
emigrados
##urd
gritando
información
VIAJE
Urdaneta
banquete
##aloa
reconociendo
dictar
introducido
aprobado
consentir
negociación
manantial
CÁ
URU
mrs
pica
zos
##sados
##zanas
opuso
patrimonio
recibían
chocola
demues
atravesado
democracia
legislación
Iglesias
##antería
reja
gobernantes
cultivar
capitular
muchísimo
Oficial
Observa
taron
##gs
##puesto
##organ
emplean
testimonios
acostumbrados
desocu
augusto
Parecía
##quillos
nan
seas
Cham
fracas
concluida
alumbr
Mauricio
##picos
donación
escab
##udadanos
Arm
suertes
carbon
jenerales
Quint
dictado
despertó
mueve
##GRÁ
cén
rapa
indicó
volar
cesado
influencias
evolución
Tlas
porto
importe
sentar
llevándose
doloroso
cruza
##orey
aventureros
colmo
##minar
##ANDO
instruc
dictó
faculta
titulada
nervioso
cláus
Quijote
altamente
injen
hablo
Matam
sostienen
convenía
aprobó
Estrella
derredor
ileg
##gidas
goberna
Peru
senadores
fundaron
COMP
Bahía
grabado
fim
##ilos
guitar
conformes
valía
Logro
Motezuma
ordinarias
desesperado
pisto
##TAD
Hugo
Fuentes
dizer
científico
austria
grem
Ato
Xa
##zosa
contri
Estando
Cay
civiliza
empeñado
provechos
rejimiento
08
pror
tendremos
##inosos
occas
adelantó
servidores
##So
##inea
Lago
vigorosa
modesta
Bermúdez
leido
##gat
resultan
espectadores
minuto
presenciar
Acosta
erección
juntar
rudo
contribuido
avist
ostenta
asociación
pessoas
cabellera
sendero
ente
intitu
comentarios
perdía
tripul
llana
rencor
Ia
cieron
David
correrías
fundadas
##burg
hambri
Sería
##lé
##ezol
Esté
moriscos
llevase
armisticio
asesino
persuadido
emigración
Ramos
vora
##uin
Arg
Sua
##RIN
Montal
hubiere
cruci
reflexión
pacíficos
reside
rojos
buscan
Dijo
avanza
Cra
Ocho
danza
##quedad
##ceu
Cuanto
galante
fábula
Dicen
sábado
aquelle
regalos
Ham
##tuosidad
escase
exerci
neutr
Octa
##ineros
potes
anoche
fundadores
Páez
entregarse
humill
convertirse
PERÚ
##ilan
orgulloso
araucanos
queréis
##NDA
pareja
deducir
##pendi
##itores
confies
##vides
Barre
estudiante
gustaba
celebridad
folio
Tlal
##dicos
dois
abría
públicamente
caballerías
trasladado
convenga
presentación
quebradas
URUGUAY
##ça
solares
antecedente
Provis
hospitalidad
ANTONIO
##viene
##jios
enumer
##omar
caf
rota
##cinio
chozas
1849
colocadas
creerse
universidad
vulgares
empiezan
vana
##adizo
moza
salidas
indicios
Pasto
##iéndolo
dividir
Máximo
táuo
Pompeyo
penos
##rima
desolación
hy
locu
##rision
huésped
Elo
Mendi
Pilar
espresa
Contes
adora
John
afecciones
ROM
##obos
geó
Prelado
pronunciamiento
##animidad
Geografía
estrechas
borrar
ladrillo
preocupación
bendición
desesperada
botes
##quívo
egipcios
intoler
Generales
colegios
agrup
Grandes
tonto
##ológicos
deduce
Clo
Mus
##ñil
reas
Alta
ray
feudal
cré
establece
celebrada
cazador
implacable
Tul
##adillo
tender
Ass
rendido
agradecimiento
Niño
funcionario
Fi
perturb
Angel
prontitud
presentando
cumplió
galeras
borras
organismo
murmur
flanco
delincu
actores
insensible
conducen
Fermín
agravios
##iense
arrim
verás
vago
honrosa
indulto
Cele
fértiles
hazer
arbitrar
##ecia
reprimir
sabéis
guisa
avanzando
saludable
coronas
Instrucción
##fra
cueros
##cería
VIH
poseen
lejanos
caminando
custodi
bruscamente
sacristía
desobe
corpor
##med
preguntaba
enteros
Esmeral
##zándose
aspec
Cayo
gastado
Ildef
insultos
lám
##bell
##tif
capita
Chico
honrar
bandidos
hueso
Toluca
##gran
reses
horm
permanece
indíjenas
BAL
LXX
enar
##igar
arjent
##urre
enemi
Partido
##enciar
coroneles
dichoso
inmin
##isse
##deces
divisa
trascend
Long
Wh
##yon
cerrados
Carlota
alejar
revueltas
cui
tomados
cubri
gallo
lienzos
manantiales
blando
forzos
##riguez
Quiere
Venus
diploma
áspero
fugitivos
##dós
enro
previn
##ceno
cuadrados
1873
erudito
Escorial
##tile
tocan
pasé
antiqu
Lev
virtu
asistió
invisible
##inelas
poético
matr
variado
Salado
brazas
1888
Isa
revés
aumentando
ligeras
despachos
adelantar
gentiles
billetes
Cro
Lú
##adme
mapas
Albu
ejerce
definitivo
Logroño
cercado
recuper
Tenemos
Cédula
Ao
tinta
##BO
##didamente
interesado
SANTA
domésticos
hechic
retablo
detiene
mudar
##imien
cambia
##pone
opresión
Muley
conservando
discusiones
heroicos
satisfechos
invadir
Popayan
Orel
ME
##uran
##blica
aseguran
robado
1807
Bárbara
Llo
##bú
alt
palad
refiri
pudimos
repartir
Cámaras
cuántos
hidro
cátedra
celeste
uua
Mañana
figuraba
230
Mediodía
sede
desciende
procedente
##imil
Lau
mejora
Monsal
laber
inútilmente
despoblado
von
##ándalos
##dosos
place
Arcos
contenta
rostros
obstru
semilla
gloriosos
salvarse
calamidades
Scott
##ingu
respirar
dole
servil
Calvo
dibujos
##DIOS
Freiré
cúpula
viernes
Quintana
Cien
##ríos
##yer
##tear
recibida
reconocida
Aduana
Cun
lomo
##toma
Estu
Matías
herir
barb
comerciales
dedicada
respectivamente
detalle
Maestro
##rás
##zes
anc
nacion
agasa
enterado
argentina
consignar
dezir
pilas
##ules
dominante
citadas
Capitanes
encier
cumple
latin
tot
##quín
abren
Pedra
Empez
colocación
vegetal
antigüedades
círculos
Cinco
criollos
lúgubre
Lad
lante
##tao
##emias
bajaba
confis
##vari
provinciales
pensión
Peral
intemp
intentado
necesitaban
cumpli
deslumb
Declar
verte
despierta
boa
desdén
Hal
descrito
sienes
##ragon
remedi
Ferrer
acostumbrada
Foi
tit
##vase
##TAN
embarcarse
1883
riesgos
Diputación
Benavente
BE
Cen
mór
reún
##egre
llamamos
españo
##critas
vincias
Ayres
extranjeras
permiten
patriótica
epidemia
##fuer
##enario
##chones
desac
##lasen
aglom
repetido
encantos
amplia
Albacete
##ican
##eli
##terna
nacidos
hoguera
únicas
Cartajena
Palacios
Fons
line
##sable
##lá
tocante
augusta
Cuyo
fáciles
emociones
Rozas
ridi
##íale
reza
##itaban
poli
efectivo
Amé
sostenida
##IDAD
composiciones
Intendente
##hech
amarga
contemplación
MARÍA
estadística
COLOMBIA
rif
##cacion
sacan
##sao
curiosas
##gones
##itanos
distri
escrip
levantándose
##íferos
Ave
##gáis
concordia
diosa
##trán
apartar
Ningún
Ninguna
candidatura
penitencia
Sy
Sigue
mic
casada
previa
abdi
decente
subida
aparecieron
##ONES
sombría
Alejan
Tos
##oa
##deos
buf
##piter
vacuno
trabalho
mutuamente
##lín
corpul
passar
arbol
Aguas
Ibarra
cían
arros
abaste
conste
ponto
expidió
encuentros
vulgarmente
tempestades
commercio
Sanlúcar
##órico
##íp
intima
pajar
retira
Pirineos
intérprete
BUR
TRA
fro
##dante
labrar
atribuir
##ársela
paragua
Rela
violentamente
Ultramar
##bis
mediana
conocieron
##irez
urgente
niega
arrastrar
precedido
circulación
Celes
rro
seré
llevarse
tradicional
foso
##udez
##ward
##quisa
espor
crecer
##sose
secretas
firmada
peruano
habitual
##questa
Occid
súbito
Caballeros
##VIDEO
equ
indican
finas
quedaría
inquieto
reemplazar
vacilar
pertrechos
convi
concor
##redo
##vedi
parlamento
infra
suplico
pantanos
inteligentes
prácticos
abraza
besos
edificar
Esas
feria
comienzo
mercantil
estalló
apóstol
Jamaica
Ful
##anismo
##dimientos
teme
suavemente
obsequ
atrevimiento
MONTEVIDEO
Hip
##daron
poe
perez
cetro
rompe
Exposición
1839
uns
desmon
habitaban
Orizaba
conservó
ensangr
DEFENS
4o
pé
espuma
##cosa
sufrieron
agudo
280
harían
ajeno
Román
bergantines
Eres
cana
##táo
##temos
miri
espeso
levantada
molt
Segunda
Honduras
frial
indol
Armas
balles
despedida
embriaguez
Ildefonso
Traba
siguien
##viles
inclina
infantil
limosnas
Divina
laterales
cuja
sienta
##EROS
prueban
Llega
##EZUELA
herederos
Isidoro
Sabe
##PAR
matando
sacaba
existido
dirigían
avanzadas
acordaron
embajada
uni
entendía
seguimos
##ONA
combatientes
poblados
Quis
conducidos
abandonados
Agri
##adá
buscó
liti
envuelta
dema
quedo
novo
##conde
señoría
capitáo
encontrando
balbu
fianza
hembra
ji
trin
tomamos
escuchaba
legislatura
Tacuba
chimenea
AA
oidos
##TICO
Contr
##oroeste
lisonje
instintos
##gus
naval
advo
crep
distan
trabajaba
embarcar
crip
contestaba
aconteci
Arau
piadosa
refuerzo
lustre
abertura
modificaciones
Iri
nava
ergu
consiguieron
povoa
anduvo
convierte
uñas
##yal
prevención
teorías
liqu
expediente
infernal
persuas
cómplices
lentitud
INSUR
Pase
bl
regidor
ciruj
Alhambra
diálogo
prepon
privados
tomé
Artill
gotas
Obispado
Den
bir
##daban
delle
leía
locos
Feliz
acreedores
concili
Irlanda
percibir
bá
asum
Arte
extendía
exceptu
ambiciones
duerme
##éndolas
podríamos
surg
disimular
Atra
##gut
pinta
sospechos
episcopal
dimos
##egada
consejeros
leyendo
Manif
Teatro
orij
Obando
Biblio
Viena
esqu
parada
intes
sendas
##fato
separar
cuántas
sufrimientos
infamia
Constantinopla
lámpara
ET
Varios
dieran
##iosidad
crónicas
Juntas
matanza
##ellas
##ters
##losa
impide
coad
monárqu
condescen
encamin
commun
##épido
monos
##enetr
Nieves
freno
tragedia
Jerusalén
CRI
visitó
quisieran
quisiese
parecida
bebida
Concejo
Socorro
incidentes
mental
tores
demonios
recio
respondía
entereza
##abela
GAL
nales
##aes
##hol
##xido
anun
goces
VENEZUELA
##rendo
pozos
calmar
Sarria
CAST
persecuciones
previ
venden
confines
combust
eclip
bispo
##ibal
constar
constaba
portuguez
Matamoros
perver
perfi
veis
premios
Acapulco
devas
reía
Cub
podré
Pasa
conciudadanos
Florencia
sacrificar
insoport
Gros
viz
##eld
mages
cinta
encuen
espacios
distinguida
avanzaba
despedir
##ológicas
perjudicial
blación
##gadores
diam
apor
Suarez
templado
contador
limitar
desconcer
reconoc
fabricar
Vascon
##nis
avanzado
1872
##alto
especu
contrarias
atendiendo
Extre
Beren
agravio
insignificantes
##iduque
puros
##úr
exh
pac
sonó
225
permanecieron
viveza
comandantes
esclamó
Cundinamarca
Bob
acal
niñez
comprado
Mejía
lindo
bombas
06
##raga
osadía
Prote
cariños
conmovido
HISTÓRICA
registro
panorama
Nico
ua
##ámos
revi
bula
brillar
portentos
sabrá
torio
comprendida
ejercía
separada
1878
pórtico
encabez
Plasencia
ecos
##uedo
aseguraba
penoso
recorre
Joaquim
aquesta
Tienen
sienten
exhor
tancias
solda
ayu
1874
impedi
Alcaldes
cortina
espul
cami
padecer
conseguirlo
##jalá
zozob
multa
huracán
legumbres
Phil
inic
paraíso
imped
disse
dureza
dirigen
sostenerse
prohibido
ensayos
chocolate
##hí
susto
sición
mundos
estrechar
preguntado
cómodo
garro
desfalle
Atacama
sid
acertado
legales
renombre
colocarse
##ufre
##Ã©
sermón
##cencias
señoritas
gozan
##cóes
campiña
Alic
DOS
Zuri
giro
niendo
ÍNDICE
##orras
abul
francamente
##ctora
##ENTAL
italiana
CAMPA
reparación
Cuevas
xvi
ños
resbal
marcada
principió
ayunt
falsas
Barb
bonito
Fuen
designio
degrad
preca
abomin
Mancha
romance
violencias
remitió
revelan
pliegos
Cacique
exor
seriamente
450
lejanas
inacces
Eh
##way
##tiesen
alia
muertes
Abu
pecto
serpiente
TEN
##ticamente
##dien
##ded
cordón
##urbios
dependiente
260
instruido
procuradores
reclama
perseguidos
hábiles
Bonaparte
senta
entro
choc
sentencias
cómoda
estrago
reconquista
experimentado
lunes
Ira
##bros
baña
capitane
1876
epo
restri
##inosas
Presi
copias
doncellas
Ribera
Escocia
Fonseca
reiter
prisiones
vendido
fechas
honorable
esclava
caudaloso
frialdad
##ITA
##dices
##garte
sona
daquel
continuos
Montejo
predile
occidentales
temeroso
seja
obligaba
contesté
Prieto
opos
pante
##TIN
tratándose
romanas
mandou
arreglado
poblacion
residentes
AMÉRICA
Dal
Tán
hembras
pó
tina
##lete
impresa
resuelta
seculares
tis
cupo
terminación
Suces
ofendido
tendrían
Allende
1882
Emilio
misionero
bastimentos
Castellanos
ate
ric
imprimir
Rub
Primera
arbitrios
##dell
##urg
canción
Reyno
quintales
Tuy
aprendido
Retiro
Mom
reorgan
##petas
medicin
cráneo
195
molinos
amotin
acarre
injurias
presumir
lápida
Ses
##uber
latinos
Estamos
cabil
true
mineros
erudición
diestro
acuerda
insufici
Artí
menospre
baronesa
##entaria
gustos
270
marchado
solicitó
averigua
Continente
hipótesis
intercep
palpit
llegará
contrabando
Chillan
##padas
##ára
aludi
aliado
##elle
Entró
intervenir
Satur
pintada
genios
robusto
sarra
provocar
aventurero
contorno
procedencia
nidad
##ientas
considerada
escribiendo
corrieron
lícito
Raim
atropel
Zúñiga
Eche
mudo
animación
entor
Estad
tercios
repite
venezol
nombrada
alcanzan
##lloa
restauración
inago
REVOLUCIONES
arraig
Im
clo
palp
regencia
gritar
organizó
eternidad
SANT
conflictos
plenipotenci
cubrían
ultimo
tacto
eos
Baza
Barros
obligar
sepultado
evidentemente
visitador
represen
usaba
Cristina
castigos
principa
fabricación
Dulce
ró
##úmulo
Souza
eternamente
Dionisio
Pernambuco
Viz
##zia
##anse
prover
##veira
mediación
Catam
Baviera
##quieren
resueltamente
Ár
##íficos
condado
##rael
verifica
cerradas
recre
##ICAS
determinada
restablecimiento
cárceles
intu
cejas
pedirle
ayudado
empuje
TA
Éste
caían
barcas
autori
1885
dorados
instituto
adornada
##abuco
sintiendo
organizado
ATL
fig
wo
##the
saltó
paisano
agujero
mezquita
aguardaba
Bé
##cialmente
notó
##cagua
caval
confor
acusa
regularmente
disminuir
máxima
##pura
##MOS
mante
emped
usando
Diana
preceptos
divinidad
Llanos
##game
##gines
##cuco
llegara
mueren
buscado
encargar
acompañados
haremos
divididos
intermedio
##urando
##vaban
##UES
aser
terci
trabajan
especialidad
Mejor
ruta
circunferencia
preparó
Emba
invasiones
sólido
impaciente
enérgico
lino
sider
pren
asol
##gatorio
abiertamente
marcado
Caja
Nava
domi
doctores
##IVERS
propaganda
##rúpe
domicilio
estam
Alg
1887
frescos
vicis
presas
Christo
##heiros
jueves
rechazado
demarcación
Fres
Fac
área
##trados
##tern
serios
Rever
chist
principia
they
Provincial
entramos
antecesor
Spanish
Fund
##terin
sonrió
venid
1875
Ali
mari
Dicho
destruida
Sha
##entino
explos
crá
referidas
murmullo
cigarro
opri
acabaron
ranchos
pleitos
sorprendente
colosales
terrestre
##xos
roc
more
temblar
críticos
Milán
Seminario
rendirse
##ulipas
vínculos
04
##cc
parto
espesa
Corral
histo
directo
grita
centinelas
dominado
robar
Remedios
##GAS
quina
saga
##sou
aug
tropic
extraordinarios
confundir
chilena
espléndido
ida
pino
##locu
chill
vocales
primeramente
díli
Golfo
09
manzana
vias
fea
botán
escape
licor
Eg
Nombre
##xe
manta
Charcas
ordenar
Lozano
Mercado
firmes
Mez
TE
siembra
deseoso
aprobada
aran
creada
confus
reproducir
canónigos
dijese
húmedo
Ton
estallar
rezar
mandase
venera
mantenerse
Alicante
##jol
compuso
##yola
juiz
##RIAS
estrechos
fóra
centavos
Abre
Of
ip
escapado
desmay
##ary
##fices
CAMP
##querque
hostilidad
Geor
aficionados
ritos
sali
cerdo
barr
llevados
sufriendo
articulo
concebido
Companhia
nobil
Conquista
cohe
Correspon
##tono
obscura
continuado
##ILLO
expresiones
singulares
anciana
aislamiento
argentinos
Gálvez
zón
##pri
reb
cubanos
mostraban
cruzan
##onetas
Solís
asesinos
sosteniendo
encendido
engros
Atenas
sulfuro
bla
ceg
##GEN
vencida
##baro
opuestos
poderío
guardado
reflejo
##ificaciones
lejana
convoca
GUERRA
saqueo
grabados
internacional
##ft
##zor
puras
llamamiento
decli
denuedo
corredores
diversidad
eficaces
tranquilos
ruegos
Aranda
mercaderías
07
hec
nóm
conchas
estender
##guilas
tuyo
vaig
arrogante
nieves
Borbón
fecundo
veteranos
Fla
aff
ruda
imaj
observador
celebraron
trasladarse
confirmar
vacante
botella
perecieron
##tricas
comprendidos
##uce
##ánicas
santas
llenaba
atropell
variados
vírgenes
Hero
Haro
ferocidad
Pezuela
bom
zelo
##gil
##aram
salia
sanos
sometidos
relieves
someterse
inesperado
oca
##estre
secos
dise
##peya
##ARDO
203
193
podíamos
comprometido
intriga
desengaño
##oll
camas
adquisición
maldito
mereció
rubia
cédulas
rodeaba
Regimiento
Eclesiást
cimas
ox
cuencia
acan
constituido
198
turbación
Obras
desembarcó
##plicable
normal
Ulloa
cn
sente
repetía
Puig
sultán
repugnante
varonil
Seme
ges
##jase
dote
herra
pretenden
Olme
enlace
exas
##iciano
March
favorecido
Osorio
Osorno
arrastra
mensaje
Geno
##camento
##plan
suscri
estacion
##inatos
fora
adven
##caro
darán
regente
tao
208
fonda
acompañan
aislado
arribo
Júpiter
nun
##utas
##idan
Guia
Tamb
municipalidad
vidrio
Chihua
freg
llar
##riera
ditos
arcilla
regio
almacén
##cripto
Tampico
encender
##áronle
catedrático
##Ã³n
Orellana
negado
205
diezmos
colorado
generosos
pusiera
silenciosa
académ
##tén
##itia
##jió
##untes
precedentes
215
Ninguno
Popayán
Sáb
##iamos
##engo
##ridades
indo
vitu
Ingles
desapro
dilatado
gestos
ie
pendencia
##riz
##celo
repon
teología
Carva
Gallar
Ria
##minas
desto
cebada
iré
trasporte
gritaba
Cande
intensidad
satisfecha
cristianas
desemboca
hidalgo
##picios
cuida
excus
##usco
previo
honroso
204
reconocía
vastos
##quería
bolsa
sacudir
Nieto
EXP
##ARIO
cuñado
fortificación
conocí
pagaba
separó
desprende
espléndida
desinteres
aseguro
apoyada
Castellón
sufrimiento
Oña
neros
inse
constan
sentirse
201
importación
desaparece
rían
time
abar
espuesto
disi
aprobar
choza
Representantes
Acon
wal
##IR
contu
##cenos
darnos
elevan
cesa
reconcent
trueno
estrangeros
Derecho
omnipo
Pino
Xo
##eridad
serias
afan
199
baluarte
separadas
Veamos
Alférez
condena
##utla
Sacra
tenacidad
Adolfo
Bac
Len
pergam
##ensis
generalidad
comprenden
there
revolucionaria
dogma
##tib
estamp
##guan
destas
##ganza
cede
Mans
arranque
estímulo
Plano
gada
tuer
alzar
##poca
##quivir
centinela
196
##cadero
Apéndice
impertin
proporcionar
engendr
párroco
CER
##alan
huye
Cole
virtuoso
pobladas
Condesa
advirtió
atorment
Varias
##coma
##dy
##ÍAS
algar
prus
consigna
Che
desconocidas
contenía
Nilo
Ora
rán
##ETA
eram
Consta
infructu
##g̃an
acercándose
Ayud
Municipal
Dra
etim
##IOS
##ÑAS
partiendo
halle
amorosa
occu
cañona
despacio
Hora
##yéndose
##oneta
restante
separan
Joseph
sonreía
infatigable
I03
Larra
Armada
##eau
mandante
comunidades
invol
representaban
Vieja
5o
Nas
were
indicio
confió
fijarse
robos
##UDAD
Tradu
soltar
aztecas
amargo
1877
próximas
arrastrado
bruto
inspirar
apreciable
fielmente
Cora
dres
##ñaron
##g̃on
cubrió
curva
escondido
indiscre
##embargo
Ved
recar
comesti
privaciones
lucir
tuya
cualidad
atenta
vegetales
fantasma
equipaje
redes
emperadores
llegados
##vilidad
estraña
gordo
sagradas
hierba
dones
mañ
cantones
morte
barbas
Ramirez
verificarse
PAT
portuguesa
astronóm
Sena
##zin
feb
respetado
Sinaloa
altern
##plicas
ensay
solitaria
aderez
##CAL
##énico
Alme
torna
influir
sangrientas
melancólico
cra
##ccio
##ierre
espos
trazar
##bot
largamente
Metrópoli
fragatas
vivienda
guay
redondo
psic
párrafos
grotes
décimo
busto
##gico
sanción
Silves
inmigración
we
##kin
##toso
maria
despi
aislados
Primero
hemis
reis
prescrib
valent
##áráo
civilizado
afirmó
Recono
camaradas
virei
Salvatierra
clemencia
its
##pones
##erg
deliciosa
##usse
##ieu
prema
Coim
##ISP
jardin
practicado
sembrado
Artillería
Vues
rido
##rov
paró
reseña
veja
cerrando
canciones
maldad
concurrentes
Santísimo
##grafías
istmo
##tie
notario
espinas
granaderos
Berme
Andrade
Quintan
infortunio
calidades
cansa
senador
##ADOR
recompens
MANUEL
Quizá
##mito
venda
defendían
Ino
fria
##orería
acentu
gobernaba
197
Velez
Serna
320
modelos
adversario
##vedís
##GLES
##citas
lobo
##udis
##ENTA
publicados
brilla
rebaño
volcanes
subdele
parentes
versión
tub
fins
subía
SEV
Melgar
franciscanos
Fam
Pico
##moles
##uño
crecen
declam
Casino
consideran
1884
reconstru
sencill
crueldades
aduanas
Honda
BIB
brado
mü
vean
chich
posta
polí
consejero
REY
páj
Obispos
CENT
MIL
##sin
##gay
duran
##áctica
bordes
espaciosa
tural
representando
popularidad
talleres
##ciadamente
indes
hav
Santidad
emble
autó
guis
Caridad
##ortales
##caltecas
Repú
##ings
211
acogida
detención
Persia
Bohemia
oal
leí
nossos
Boya
cobardía
sidente
##vimiento
##ciable
recado
Canadá
admite
disfrutar
pitán
DIA
rando
impidió
coronado
limitada
Cervera
predomin
Arica
bí
sible
solidez
tratos
contratos
valiéndose
dedicar
proporcionado
flanque
áspera
nían
almi
##eraes
##ísi
armadas
imposibil
despachar
Jean
manifiestan
CIUDAD
Maranhao
Gro
##ñaban
##FRICA
##ramiento
iniqu
cortada
cartera
fecho
viagem
resultando
juzgó
Apolo
nerviosa
musulmanes
desvi
parage
##ombo
amn
regener
sobrena
Efectivamente
AU
Zan
##pedes
pagó
asa
##trasen
sueltos
ignorantes
cónsules
##VII
maquin
compró
cedido
refiero
sufra
balance
sement
períodos
invitación
indigno
valió
Corpus
apoderaron
trascendencia
sacristán
Correos
sentimental
Becer
listo
ÁFRICA
##IRA
comar
precur
verlos
volviéndose
iría
pintadas
evolu
ocultaba
Guadiana
Mexicanos
cidad
zado
##beta
quad
mascul
pudor
219
sembrar
##utat
hilos
Viaje
egército
patios
preponder
2i
iras
pague
tram
patriarca
caseríos
##NO
##tarme
Repu
216
ciegos
violentas
##polis
menciona
incomparable
peninsulares
##ols
##guin
misas
previs
descubiertas
suponía
redacción
clásico
sugetos
pinos
lega
embarca
Hai
buscaban
comunicado
carruajes
calabozo
Huelva
Mul
Pim
##vé
populos
monja
consti
ofensa
recogió
ventan
Tamaulipas
deplorable
Moctezuma
celestial
##dona
##chin
mator
librarse
minis
Monarquía
rompiendo
Llegada
Sá
enj
##abon
##gudo
muera
anuncio
##ignidad
decretó
Prefecto
determinados
Illmo
intrans
gados
##ñen
##ÑOS
##ped
##tame
Vicario
pretendido
retirándose
navegantes
dorada
Recon
renovar
Guevara
cés
nidos
viste
##VAS
Montaña
leyendas
clon
corrección
colorido
dilatada
injusta
anglo
robustos
Documentos
Pedraza
nero
##lis
casar
Cath
quieras
212
labrador
LX
##puso
rectitud
##vildo
guardó
debate
inmortalidad
inviol
FRANCIS
##iante
chino
hua
##ANOS
declararon
ilustrada
impresos
litar
##fín
##allo
##orth
##ábale
brío
Gobernadores
##GUN
encantador
labrada
Lit
Oru
directores
pintados
extendió
índice
delicadas
paternal
unánime
BURGOS
evangel
catálogo
quist
##pientes
207
vuelvo
rengl
echan
dignamente
abate
arranca
novedades
barranco
desvel
aprision
pup
opuestas
llora
##cedían
enterrado
galas
recorrió
escaram
Rayón
NUMERO
ati
Cabeza
cumplida
recorriendo
corregir
neutral
Cochrane
migos
diferenci
intentos
Rioja
recurrir
estimado
primogén
repentina
Chihuahua
Mitre
haria
##UA
##reu
aparecido
Mej
garras
Montezuma
ENS
magníficas
hara
##bora
follaje
jénero
vicisitudes
Pío
grana
consideró
clamor
artificial
terremoto
##seos
acti
confederación
tendré
patrona
cronistas
sensaciones
engrandecimiento
Mana
fica
ola
china
auton
apartado
Nació
alcanzaba
declaraba
admirablemente
Ceuta
oscuras
frescas
nim
unen
##itarse
faltando
##mbro
descansa
##aredo
espesor
ráfa
afortunado
##form
##rión
sonas
Suma
libertador
dirigidas
maravedís
adoptó
Gracia
Princesa
##gab
##taca
desfa
mangas
vetas
mercio
indef
abatimiento
agradables
Código
chispa
Cosa
siga
asent
Aldea
significado
meterse
Corregidor
Avel
antor
acam
Estan
provisto
cercanos
efectiva
ruin
direito
##trana
Basilio
apasionado
horizontes
Ost
ere
verosímil
religiones
pasear
republicana
disimulo
DEFENSA
Torn
papas
pasará
Alber
fronter
BIBLIO
Ph
##TRE
Interior
Queda
constituyente
Junin
asistido
adelanto
Zapata
lejíti
contenia
Tacna
além
##iscas
Max
defendía
Petr
enseñado
celebración
interpretación
inesperada
##jida
##óng
remit
marco
##egro
##tanas
piés
acompañamiento
crucero
inclus
trasladar
##fio
##ures
##orar
lagar
delegado
Chich
talle
marchaban
claus
artilleros
##ufra
catalanes
túnica
##gineses
tín
excom
quil
aspira
apuros
ciuda
Coquim
223
durm
paciente
NOTI
Leonardo
mahome
ecua
prendió
saltando
trado
Quedó
360
capitulo
##cleo
##king
notoria
##emo
solí
Noya
##enderos
domingos
213
beneficencia
Discur
repartimiento
Nan
##rom
concu
esplor
adminis
posse
Yaye
empleó
referentes
Presidencia
diputación
resolvieron
discurrir
##éronle
lán
##gli
suena
incu
dou
debieran
Inst
ideales
brav
frutales
abrazo
reclamar
Buenaventura
Comba
##juez
##win
Almo
produciendo
llevada
acuden
209
atencion
##RUZ
Piedras
RELACIÓN
Tho
##vá
sevil
##tain
desierta
muí
##ceos
paces
Marcel
atmos
194
permita
literarias
enc
trescientas
astros
primitivas
jurados
doméstico
Teodoro
molestia
##sam
##dano
##lias
##ámb
dijera
carreras
aumentaba
Apostó
Fru
##varse
quista
prefecto
appro
abuela
forzado
coge
raiz
huma
pila
autoriza
emancip
científicos
Idem
fide
dife
##chitl
repren
decisiva
encumb
descubren
opinion
admitido
representada
elegidos
tiró
sarjento
escopeta
Rodriguez
barranca
Villalba
confirmación
POB
##ples
museo
creciendo
##tania
substitu
Lou
Extra
aprovecharse
1°
##IRO
##ws
enig
reves
trate
lución
Loyola
desean
cuadrada
1806
encerrar
guardando
descob
conspiradores
Hes
kno
##ning
##deo
##ister
sonar
barras
curato
jurar
Sultán
##itimidad
diamantes
involun
maña
Chal
diversión
##TECA
preparada
fazenda
prolongación
trastornos
crepúsculo
naci
api
marfil
despó
venció
rodar
interrumpida
espirituales
Cuántas
infalible
Bala
##ny
##vidades
##abé
verbal
Caye
opi
bandas
expresada
prolongado
contemplaba
autom
COLONI
Homero
Serra
##tío
prólogo
##umento
Ann
desagua
sacra
bec
##ladores
##inten
unió
sou
caballeres
asegurando
atrever
Recor
comienzan
siniestro
Cip
cuevas
##pía
demon
note
obligada
escucha
cuadrúpe
extension
recuerdan
folleto
relijion
inminente
Aus
##gías
##orable
desv
Ensa
foro
##gencias
cultiva
promon
trucción
revelación
##úd
##imismo
pausa
cercana
206
descubrieron
nudo
mármoles
equivale
Cañete
gim
vue
verdura
##tale
enemist
escapó
comprenderá
piensan
denomina
bab
semin
confusa
senti
polo
Sagun
brecha
Serena
Tomó
marítimo
Maranháo
Acep
rió
diencia
##ism
racion
publi
##lement
1886
deslumbr
Cornelio
jesuítas
dam
tarse
##uja
deque
lam
##reinato
retó
viesen
Fez
tór
##puesta
invari
pot
##000
entern
pasaporte
incompa
mezclado
SOL
Well
pizar
##áneos
respeito
cruzando
##tológ
depositar
Jesuitas
##cidades
##deu
##tubro
locomo
##trera
verda
emir
replic
palmos
braz
dineros
Dam
sumar
##die
portero
##tadero
Murillo
suavidad
Apol
entusiastas
sostenían
Som
Vid
vento
privar
Algar
camina
dudoso
Departam
horca
cesión
logro
púr
huerto
Ocaña
RU
tirando
##jaca
Despa
temps
plana
Ospina
vigoroso
DOMIN
laberinto
2°
FERN
##cou
pervers
merec
afil
futu
217
mostrarse
extrema
lomb
##cif
##also
conos
decisivo
pensé
Toribio
Orient
ventajosa
pidiéndole
demuestran
##sima
##red
obrado
##caras
hacernos
Juris
202
222
ajena
Nego
Rector
ingratitud
PRIMERA
holandeses
##pis
mandaban
218
Alex
alteración
devotos
Coimbra
Oran
crib
estampa
##chero
azufre
##rupciones
espresado
loque
##caz
##uél
abuelos
participación
mandan
Baja
genero
Alvarez
acreditado
insistió
Preguntado
reúnen
##istencia
maldita
ofendi
antipa
recibimiento
intencion
púl
##OMBRES
Silvestre
##PCIÓN
##chera
##veda
caricias
Alpes
impi
rubio
##EDI
dispers
trabajaban
neo
##elli
##jeza
estrel
apremi
Martinez
aprovechó
mínimo
Guadalquivir
atrinch
aspiración
corpo
##ival
logrando
físicas
variadas
núcleo
cansados
Bell
Pisa
esquis
##vear
cerci
quedé
celda
inquieta
Aman
JORN
igreja
##üe
##enan
canos
civilizados
gustan
Junto
214
226
tinte
imponía
Sargento
encomienda
tonio
alemana
razonable
UNIVERS
Plu
hir
##zara
decla
reunida
235
acepta
jurisdic
repitiendo
Contribu
encierran
Acom
Bi
mengu
recojer
proceden
Villav
Venegas
enseñó
Miss
intrépido
vehí
AMERICAN
##jame
perpendi
entregaron
cabras
trada
Carval
##íticas
lares
arrojaron
gobernó
##ADAS
elevó
hallará
Cerda
reservada
Gene
##inco
comidas
cazar
salu
proviene
hij
valerosos
podéis
literato
tremendo
confieso
Evan
Polo
alleg
corbeta
Cuándo
vocación
prontos
animados
marcharon
Impos
dividió
conjurados
invasor
Amparo
profeta
Coquimbo
Pich
ler
ríe
##cico
end
reten
Estudi
cometió
cursos
eclesiásticas
CARTA
Maraca
operarios
insoportable
Llor
levita
cargadas
##cisión
Goya
celebraba
prolongar
dividen
participar
usurp
grandiosa
Olañeta
aproxima
moribundo
cocinero
pistola
prero
impenetr
tomarse
rectific
afanes
convencimiento
sujeción
proporciona
apoyar
anunciar
UNA
residía
risueño
atado
caos
techos
nombrando
estáis
Arzobis
distinguió
sencillas
Catamarca
##trante
##rísimo
anillo
245
ligeros
exigen
agregado
sublimes
pintoresca
oreja
Lobo
grillos
##redi
anivers
titud
interrupción
seguidos
considero
Orb
CONS
Arenas
Leopol
inmensidad
concha
mantienen
maridos
hacerlos
variación
hablaremos
estranjero
tornó
positiva
fertilidad
Roc
deudos
apéndice
lujos
riores
rosario
músicos
utilizar
inspección
mañanas
yos
depu
desaten
trastorno
simbol
atrio
encaden
##érsele
##canes
acompan
255
Cantab
sujetar
cenar
colegas
proclamar
estadíst
desterrado
galope
recomendación
lámina
atar
lue
Juanito
##feta
profan
predicar
Romanos
guardaban
efusión
aquest
tardaron
alumbrado
seriedad
cortó
tiva
Cuan
haberme
lanzando
Vicuña
inexac
federales
##dulidad
metaf
febril
Pine
actor
##veza
duques
pueble
dejará
Mois
XXI
lejisla
legítimos
Triun
Ugarte
##letín
parecieron
producían
Barran
sorti
XXII
fatalidad
bayonetas
episodio
Rue
##pidos
siesta
asciende
1800
empre
Descu
apoya
232
observaba
escogido
apagar
blasf
Monterey
Fom
Lus
saban
##eado
##guos
desús
##cato
regimientos
##liam
extravi
olvida
##iéndolos
odioso
tremenda
miriám
Carvajal
Aviles
requi
##trina
##dosas
corti
tendió
faenas
trian
blancura
bande
individuales
artificio
alejarse
lloraba
conciliar
apostólico
##cord
indicados
espediente
entré
visiones
comuni
Canter
secretamente
espacioso
bendito
DIE
cifras
aproximación
pedestal
Ko
##pom
dición
##icianos
orquesta
grandezas
desmoral
cordial
conmem
Suecia
imparcialidad
alzamiento
hemisfer
Ano
Spa
altan
rescate
facer
acudían
encarga
labrado
vastas
234
Menéndez
clásica
cilind
perfidia
Bran
Doro
indicaba
vendría
osado
subieron
Manuela
planicie
224
aguja
tristemente
Tapia
amplio
VILLA
##zona
proto
manía
##ibust
Condu
adquiere
montados
juguete
GAS
Moro
hen
##abro
##velo
Están
finos
Manrique
##auh
resueltos
administrativa
SEVILLA
Dias
Rel
Vich
envía
llenado
injusto
ultramar
Celanova
extremidad
xico
##yera
reinar
##lah
##istro
aroma
racio
recibidas
arrojando
221
perdonar
tornar
ridícula
impotencia
septiembre
Brin
yuca
ía
ingreso
##cela
anchos
esperó
intenso
rivales
germen
prescindir
carcajadas
congreg
Abajo
Der
##simo
dotación
quiénes
famosas
timbre
DOÑA
Cueva
Derro
PP
riego
congo
obtu
Alvear
Camilo
padecido
ilustrados
solicitado
asesinar
abogados
Aranjuez
análogas
prodigiosa
HER
##VIII
perdidas
cipal
vivia
orde
Chib
agon
supri
genera
sencillos
mentir
carretas
confeder
Copiapó
##allas
##tración
##idación
intervalos
offer
Repúblicas
236
Ocampo
Alarcón
##ms
##art
praderas
##dería
Alman
Francisca
290
concurren
Ferreira
disponiendo
Llan
tentación
##rou
abro
firmas
Cabello
228
transporte
foco
brillaba
deberían
admirado
Vasco
iu
calaba
suprov
saberse
hubiéramos
clave
Belén
arrastrando
esforzado
catalán
ojeada
##idoso
##ieras
abas
Estaban
creido
regen
227
surgir
desempeñó
##riego
flancos
temporada
transformación
fiero
##gándole
##lie
pardo
paradero
##icano
anul
dejara
##chea
mesmos
frai
encantadora
rodilla
lógico
Batalla
Aqui
Añad
Ech
Rum
tle
recep
Alteza
suben
Baños
servirá
ceniza
rindió
aplicado
diverso
magistra
opone
antecesores
lación
sugesti
muriendo
acera
salpic
consigue
joya
podremos
violentos
ambicioso
bendita
Valentín
Gram
Linares
zó
##lán
##vig
##YO
descripciones
##itaron
##ulario
montado
quedamos
275
imperiales
aficionado
fraternidad
deud
marcos
desplom
barri
atractivo
237
sofocar
1o
VER
rencia
rías
sidad
##GE
ingresos
luchando
agitado
Correo
Parque
##llada
carcajada
##xas
##abos
lobos
expos
##cions
votación
guardas
arrogancia
229
expresamente
envueltos
prevenciones
Fri
Orig
dían
alus
rean
campa
acompañando
discreto
legislativo
Gabinete
Fen
aju
hiz
##su
laud
##emes
sobrado
##ceses
repul
alcanzaron
consagrar
monasterios
permitían
bayoneta
artificiales
CL
nec
##tch
nociones
adoración
montones
Curi
hablarle
despedirse
clavos
dichosa
plegar
firmaron
descendiente
Llegaron
espectáculos
Quiñones
Procurador
Rita
ritu
##jé
aspirar
corne
jugo
defiende
planeta
excesiva
arquitec
campesinos
Call
enderez
reanim
deslin
habíase
infras
Chic
boh
Américas
consideraban
their
labio
avance
cruzados
incorporarse
MIN
##BRE
cediendo
france
supiera
Sagr
233
oportunas
informar
Vds
##vario
convino
differ
determinadas
impuls
farol
perfil
mensajeros
rable
##ñes
##onda
maqu
##antepec
valido
##RIT
substancia
Sale
intimidad
discordias
Eva
Firme
blic
cida
male
acompa
251
sufren
viniesen
domesti
SANTO
parejas
alegremente
estribos
trágico
TOL
lira
rit
sp
##feo
##yra
##loso
movía
Introdu
Chiqu
ponerle
##ástico
dióc
gorra
embarazo
laurel
incesantemente
sario
üa
castas
Cartas
enterrar
manifestaron
terminaba
Empero
remedios
colocan
comisarios
triunfal
confirmó
sustentar
veloz
Moisés
clor
Ín
##pósito
quema
porqué
exim
cantó
Artea
expensas
colocaron
acontece
Tristán
timo
##anidad
alab
##igra
teja
poderse
particularidad
Monteverde
cañada
eficazmente
dependencias
aspectos
##tho
apri
dispo
adya
231
##tolicismo
ayudantes
rompimiento
Irala
Jueves
Matanzas
Fras
bros
sáti
##adería
encuentre
africanos
Expedición
Zor
##túa
##hir
anom
salientes
Castil
escribi
cuadrado
mostraron
suponen
yerno
Coahu
##adi
alco
must
##ití
residen
predeces
entreab
compreh
Angos
aceptación
imagina
##ólico
complacer
Siguiendo
medalla
corsarios
BOL
guno
##teis
desver
necesi
Colima
dominan
enviando
reducidas
empezando
vasallo
promovido
rebaños
intelectuales
##ondr
repas
conozca
insulto
##mith
urnas
Ord
simpática
astuto
mencionar
Angeles
aseo
láminas
dramática
rarse
ém
detras
##arda
prados
##tade
llamo
contrati
pensaban
##ballos
##iéndoles
##ambú
Huerta
evi
##pú
ciutat
coyun
rogar
encontrará
victorioso
Almería
MIS
Pió
aya
##uedu
minha
olvidando
Molino
púrpura
We
sica
diaria
aprue
prestaba
presenciado
##note
desaven
Abel
obligan
emprendido
sensibles
Escobar
##écdo
apresuradamente
empréstito
Cantabria
##erado
Alpu
brevemente
Sotoma
receb
##UNTA
apóstoles
Cajamarca
Ñuño
##CRE
sustancias
veamos
ataca
limí
doméstica
guardián
oyen
##ueba
elab
debidas
252
determinaron
acrec
réj
pretex
peregrinación
problemas
Fun
jeo
##jun
##FICI
respira
editor
vindi
linha
Virgin
dispersión
Tiempo
robusta
culpables
exageración
Boyacá
##linas
batido
Deh
Casti
Monro
públi
Señoría
Concilio
BIBLIOTECA
aval
fól
##danos
##itadas
conson
##mont
258
sueltas
precede
preparación
##koff
superstición
pilares
Tánger
##orada
perecido
castel
cipio
teve
##celi
sufría
Goy
Bella
disparos
vísperas
colombianos
prolongada
Non
ám
noite
mole
medicamento
sentían
pongan
falto
barrera
Tehu
difuntos
239
castigado
asistieron
pulso
Vaca
dramas
Murvie
suntuoso
bombarde
puntual
maniobras
Ronda
Cú
##cheros
desle
##urrección
calcá
traslu
Sagrada
atacaron
brillan
comprob
Cualquiera
nulidad
##gasta
casados
Recib
intenta
agradecer
##oriales
acreedor
murmura
inclinó
significar
estraordinario
degener
entrambos
Arteaga
Dif
VA
event
fasta
lito
##adado
altiv
lastimos
bastó
Quando
cintas
construc
Morelia
avisar
rejion
Encarnación
Jen
MM
utens
##colo
##ient
##ísta
##alía
dels
inad
##termin
matado
apuro
Unidas
##zose
trián
familiares
construidas
escapa
infanta
privile
enamorada
Ulúa
ferrocarriles
himno
previene
Amigo
Mena
if
##reste
##bay
triple
considerados
Cosme
precipitación
copiar
abolición
colombiano
Mandó
suspiros
Gallardo
obrero
oradores
##olula
estableciendo
##ellones
ondu
respondí
lances
Dirig
Moya
rápidos
literarios
vistos
Naran
Tula
##Ã±
under
entrist
##ceso
partidario
##illy
Tay
guarniciones
apaci
devoto
farsa
Zarate
##riega
bajaron
disparar
Esmeralda
lem
mudan
marcial
##uste
Mario
complemento
acabada
pagaban
remotas
prodigio
temblando
reverendo
padrino
##by
verán
bajado
peores
libertar
atentamente
intentaba
probabilidades
Public
bende
Policía
bahia
asedio
pliegues
momentán
Evora
##ond
##ortes
##cimento
##unales
Sitio
crian
conduciendo
atacados
Prín
divul
risas
peregrinos
enve
prend
241
navegable
fanegas
consultado
##CHA
##gaduras
guitarra
Tig
ingres
##treros
exec
bertad
Narciso
Municipio
carlistas
esmeraldas
quebrado
Águila
##ié
estrada
mire
Ester
traicion
cerraba
Exteriores
remun
CUAD
distraer
designa
collar
mercurio
Quiso
desagüe
viajar
lanzado
legiones
intentaron
rompieron
coronada
Católico
Neza
Olot
##ky
##tema
Mack
Lucio
contingente
aparecían
244
cautivo
##GUAS
consulado
Euse
mercader
##otnote
oferta
##iadas
##ní
incal
##deña
##daz
forte
embal
duplic
histor
caravana
##rerías
prój
mencionadas
insignes
Observ
horizontal
metálico
romances
incertidumbre
Alejandría
Raimundo
oso
pios
##misión
tech
certo
tiernos
adictos
cariñosa
peligrosos
analogía
transeún
Malo
##lega
##iao
##irla
Confi
##ériles
243
atrevida
##ístola
advertido
aplau
eminencia
característico
Aleg
Sp
jan
##ald
presteza
Luís
horno
convencerse
levantaban
256
ocurrencia
colecciones
súplicas
Germán
caminho
levante
melancólica
alfombra
Patagonia
Cayetano
Digo
Tob
xx
##cinos
dirán
##ienses
Suárez
juzgaba
cruzado
variaciones
mudanza
VUEL
porfía
##cuta
aspi
##consul
sopl
derrotados
efig
arruinado
ks
tent
devia
##adel
simpl
cortinas
aquelles
cantaba
253
cumplidos
referimos
durar
##alde
Anas
agrada
hondas
Delgado
ostentación
Polonia
Gamboa
UNIVERSAL
cli
##huela
mantenido
abismos
tiemb
viril
viñas
Barón
estuvieran
combatido
examinado
peregrino
aparatos
Avis
Lem
##vadores
entrase
animos
Alco
debidamente
Magn
variedades
preocupado
Llegado
impregn
bitantes
almorzar
Gr
##JAS
##adia
##tul
reper
conquis
238
marcharse
rumbos
múlti
Stan
TRI
hinch
nión
##leros
##ecí
puños
oficialmente
##iram
quinientas
little
atribuyen
Sabes
meridionales
memorables
Sagunto
fico
lencia
##rumb
dea
##oni
##itro
Mapa
diferen
ponerlo
temeridad
fusilado
azotes
revuelta
Plen
Sotomayor
pist
yeso
##orga
hachas
##gote
paje
moreno
##ERES
subyu
volverá
singularmente
mejicana
prolonga
convidados
##coes
forn
Magno
hoya
take
257
Balboa
acostumbra
quemado
espontáneamente
imprudente
forzosamente
viles
##CL
leis
##izador
soltó
##cona
##calo
247
precisos
reapar
Cicerón
réjimen
ty
reden
quite
diser
calm
calzado
ironía
Obra
Balles
velar
delicados
Valparaiso
E1
Lí
delicias
esses
##loque
decididos
falla
tortu
##ney
sufrag
diversiones
Capito
Aquello
convocó
deleite
bolsillos
fundamentales
alternativamente
Ná
igle
##foro
##enque
##esan
esce
descri
desti
bodas
labra
Cantón
referente
agradecido
1889
homici
saludó
reconquist
fatigado
acuerdos
yndios
insolente
ocurrencias
Tlascala
cousa
capite
pecuni
them
ART
encomiendas
ero
nic
##uns
##itable
cajones
extienden
pola
tejido
propicia
pondrá
recelos
Pepa
culmin
265
disputas
##IMO
máximas
perfumes
Situación
madrile
bé
bido
##ramo
##amonte
corba
##vola
##venida
face
Capu
decencia
fracaso
comenzando
Despues
cortejo
remitido
equivocación
comprobar
inclusive
damente
ronel
##chil
legado
respiración
hablaron
pasajes
brillaban
empeñó
derribar
dulcemente
##ífera
sucio
altivo
##rudencia
##urosa
repor
orbe
rapi
vengarse
##tilde
suav
alimentar
súplica
exclusivo
Benedi
revis
metr
perma
interlocu
guiar
242
secretarios
declarada
baluar
ilustrar
tinham
pedra
Bello
prohibición
ácima
##ciese
mache
naos
chic
veintis
risueña
cando
pampa
##idem
cién
cargada
califica
hoc
minero
virrei
Liberal
Tomé
Guarda
incorporó
tardanza
gradualmente
aclamaciones
atraso
Coahuila
conque
Alon
christ
##vant
arroy
trechos
respondieron
##thing
costum
Huás
rodeados
manejar
Gamarra
##charse
saliente
fundición
Manus
##tíf
254
246
Nevada
acaudi
adornan
avenida
Plá
repetición
Oruro
bona
cás
##vaca
ordenando
dispuestas
depre
pagando
264
incompr
angustias
enarbol
previamente
Canterac
altivez
Ach
saltos
Cax
Arz
##vesse
hallando
electri
cunstancias
Ai
##dria
##dieran
notarse
anon
passado
taza
Ordo
escalones
complacencia
Brigada
Excelencia
matices
desacredi
Ventura
major
Alameda
atrevía
Solano
concurrieron
prometía
heredi
efectuar
dramático
telegrama
escrúpulos
interminable
vehemencia
amnistía
##iata
quam
##OSA
refren
llevamos
poseían
conservaban
Torrela
encarnado
espesura
Funda
gando
hama
táctica
##BE
##tegui
##iantes
millon
##tant
particu
supresión
acercar
conclus
perpendicular
Murviedro
ari
riendas
##oo
##visto
##urri
entretener
Sup
##ificado
sép
##ragáo
asesinatos
Sarra
Primer
disculpa
pendón
alabanzas
impasible
##samente
##ULA
insa
previno
coque
milicianos
agol
Gual
naturalista
ondul
corrida
palav
convertida
impedido
cuánta
Robles
Footnote
simultáneamente
Domín
arrabal
##quisaca
sencillamente
pbl
##mor
##ania
##quir
##itaria
Siria
traslado
filan
moderado
desconsol
Afortun
literatos
controvers
OC
Sh
idio
##oli
manzanas
##ezo
entregados
debes
refun
Bajá
encargada
escuadrilla
escoger
flaco
apellid
plenitud
imprudencia
expulsión
pilla
##tuarios
Cata
guaran
viviendas
##REZ
divinos
inef
Lal
Vig
lavar
artil
Sola
danzas
desconocer
confirmado
besar
ambul
cristiandad
carneros
inspector
extrañeza
##inidad
docto
amones
seguia
ilim
desahogo
supiese
##cables
##ast
concien
into
##itra
exca
Anales
tubo
justifica
exclama
equivalente
incansable
sér
##ífica
perspica
1500
causan
afam
dedican
afirman
memorial
escepto
sagacidad
jinete
tul
##avent
Mari
llevarla
reflejos
apelación
interrumpido
buey
refugiarse
monopolio
Cecilia
Melgarejo
Emb
pg
##VE
notaba
suscep
terio
contestado
escribieron
248
aguer
organiza
demasiada
alterar
preferido
arrebatado
evangé
vería
prestan
fatales
Maya
Aré
Medell
ediciones
arrojan
animada
ladrillos
desdichado
plenamente
Antigua
Parroquia
Contreras
Cuesta
##FA
very
##vega
primaria
sabore
volum
##ciller
##tonía
autorizados
268
aument
tumbas
diversa
absurda
Tlaxcala
flaqueza
Artículo
##lum
##pió
##taz
moce
pugn
caliza
crees
Debo
torbell
##ificar
constituían
##beria
incontes
homem
haciéndoles
siervo
Viernes
##rus
##jel
estériles
tute
##manera
DESCRI
Pirú
africano
orgullosa
JENERAL
mios
over
suposición
tratase
certific
Guido
ahuy
dentes
272
predicador
vertiente
DIP
Déos
gallina
prescindiendo
cochero
Tarapa
imbé
parentesco
Sib
Viana
kilo
##istió
pega
menoscab
trabajó
atten
administrar
luminoso
rim
alzaba
salta
##igny
invadido
fijamente
VUELTA
calcula
pescar
atrevo
LEY
sofá
Hispan
calamidad
omitir
Candelaria
By
##ijas
##pete
espías
calibre
288
característica
temporales
Biblia
Apóstol
##lec
##ueras
##usiera
mat
carecer
maldi
Balma
Pueblos
abrazó
##AYO
descontentos
Yndias
6o
##gales
Sania
gramática
Gobernación
amoroso
fundados
envuelve
irritado
GEOGRAFÍA
pantalón
remordimiento
##iseo
exuber
compuestas
##quique
##LOGO
Canón
Japón
262
cruzada
ausilio
Volun
timidez
metropol
ofensiva
Lamas
fí
enunci
cuasi
Judi
muertas
Covad
figurado
desaparición
Chaves
educado
mantenían
íntimos
injuri
FRANCES
Chacabuco
DOMINGO
Maracaibo
2a
Damas
lamentar
contados
matas
amabilidad
País
causando
trep
Mujer
errante
Julian
separaba
llenan
críticas
significaba
alboroto
Grijal
Hacía
Liv
VE
cordo
meditación
constituía
Navarrete
aproximarse
Chuquisaca
comestibles
Dado
##diéndole
cuente
sont
tropie
atentados
invent
cumpliendo
destruyó
convocar
Apa
Avan
##stantes
##chon
salvador
##bléa
cousas
##rene
plática
clasificación
filip
Joao
ahogar
cabañas
herrami
Flo
spe
##daje
##mela
navales
destos
anticu
##generación
##ANTE
turbar
recomendar
CORD
perseverancia
Bale
what
##ñi
##rela
algaz
habeis
caño
mortific
galán
practica
cariñoso
equivocado
férrea
desbord
MUR
##plo
porem
ameno
##maseda
##eciera
frac
286
auspicios
sacaban
avergon
Atlas
##ROSA
biografía
matemáticas
America
aniversario
pales
##ciera
patro
dag
cantan
opro
religion
inmortales
envile
caute
desenvuel
arrancó
confiada
Prior
Tineo
condens
hál
Lucre
afron
atón
estarán
escriben
cuestion
cultivan
peleando
artesanos
##DIZ
imitando
torpeza
opulencia
siniestra
Recuer
pupilas
Aur
Siete
rito
zumb
##bano
proezas
despar
colabor
Guinea
atrac
vivimos
pantan
preparaban
procesiones
rigores
Principe
monstruos
desdicha
vehemente
advocación
futuros
itinerario
##eada
##áñez
inco
cular
acuedu
crean
plaus
embarque
descubiertos
comenzaban
adoles
consignado
fallecimiento
molestias
medallas
hectá
atri
filo
sales
provi
pericia
manga
tene
palid
situaciones
dominando
##ólito
Ruy
330
##IDA
fantástico
Zu
##cci
##vamos
exó
jugando
haberlos
##ENO
invitó
been
Habrá
gruta
encendida
investigación
efectuó
espesos
insuper
británico
cirujano
STA
will
##otas
##IENTO
enarde
anécdo
macho
asy
##umba
Nova
mediano
realizarse
Unas
##ábal
Saha
Bou
285
than
descenso
Rancho
espontánea
FOR
Puesto
detuvieron
prende
##ficó
Perman
Existe
navegando
Civil
encerrados
bárbaras
Pien
confec
perple
##ensor
compl
##ORIO
pretendió
dedicarse
##ambres
Argelia
conjeturas
refirió
Due
drid
gasta
##abi
entón
monjes
ejem
##itat
##ALL
##jesen
estraté
concibe
fortunas
1789
effe
Cruces
botellas
limítro
Sis
##hán
dilación
peren
infes
##íticos
hubie
quintas
mezqu
detenidamente
Castropol
Patricio
inexplicable
vacilante
Magistral
Covadonga
gundo
##tha
engan
asan
cascos
acusaciones
oscuros
precisado
anunciado
judiciales
ascenso
algazara
##todos
socios
poderosamente
Bail
suprimir
comendador
276
modales
FRANCISCO
aix
home
##tun
losa
##ANTES
##ARO
259
Organ
intensa
Terri
ESTU
Dirección
episodios
jesuíta
Smith
cús
fici
raba
sard
##ées
##émos
##cierto
##aber
porciones
descienden
salada
##pila
filibust
contribuyeron
pronunciados
enfure
patronato
oíros
Resta
ocupadas
Pepita
vestidas
rincones
deserción
análogo
Antequera
ornamentos
serranía
Yan
##semos
##titos
intre
defendió
padecimientos
narra
penetran
340
comparar
desnudez
##ambleas
resguardo
prorrump
##IZ
cosmo
chus
Cua
decoración
Dorrego
vergonzosa
ILUSTRADO
cs
endu
##less
apó
##posas
guerrilla
cuanta
cincel
belic
magnán
suplir
originalidad
injuria
facciosos
gerogl
tidos
##temp
cath
##viam
calla
Dejó
mayora
fing
decirte
gozaban
Perten
##mendar
##guem
volvería
310
Soler
##quíes
preferible
flujo
incremento
PRIMERO
Guayana
Olmedo
biera
##eja
##cimo
envia
##indi
máscara
calientes
contraído
Navia
Pascua
acordaba
cambiando
severas
incienso
NACION
TERC
Noticias
Extremadura
##flores
##utes
##bamba
dique
augu
Cavildo
Prob
juzgados
267
273
nubl
ESC
provisorio
confiesa
barrancos
excursión
##stra
##chia
##resti
cortando
impera
Maule
fami
Mex
séquito
viniera
transmi
foto
desaparecieron
exactas
temerario
gentío
baluartes
##tazgo
sima
##cario
Moneda
habitante
##g̃ód
sufragio
281
protegido
preparados
penetrante
doradas
párpados
efím
idolatría
metafís
Taba
lid
##tarias
escándalos
venidos
valerse
##RIOS
pudiéramos
Mire
cometidos
ocultas
probidad
Faust
apuntar
esclusivamente
companhia
Años
Babil
noven
paris
cujo
huido
fijando
Leyes
tapa
274
pretendían
otorgó
Cuántos
copiado
científicas
HO
##jantes
lamentos
sug
##cern
##vereiro
juan
Deus
pesaba
##iguración
Antonia
sirviese
prometer
Robledo
radicales
estraordinaria
Benavides
trinchera
igno
##etes
##uncias
##urales
denes
cuidando
dignidades
preparando
##élico
besó
excesivo
Oajaca
NUEVO
relámpago
neutralidad
Huáscar
Dur
Tron
##inc
reso
manteca
tivos
ofren
##cturas
hostiles
284
vidri
Acuña
Chiapas
Indust
soledades
inagotable
moria
ub
##MIN
##tativa
comía
angel
motín
entregada
nombraron
##iéndonos
dende
reyno
incru
Bour
266
elevarse
emprendieron
solicitando
consagrada
exclusiva
barrancas
fisi
antojo
##ANDER
escelente
bondadoso
Desgraciadamente
##uado
##abria
inqui
too
##catl
sobremanera
respetos
261
263
cobro
compatriota
diluvio
DU
aza
##kan
##tifi
habiéndole
mission
marro
##tricos
principiar
llegasen
minera
tañ
Mote
249
encomenderos
erigido
gótico
apelar
Aurelio
metralla
esposas
solia
sonidos
realizó
escritorio
305
nup
Cristian
advertencia
Romano
fascin
amplitud
cobardes
##abuena
cue
##émonos
rebo
aras
Estás
martes
Marte
Gobier
Prop
legiti
inclinaciones
Ampurias
aguardando
Jacob
muelles
ATA
HA
Llano
##éra
##áramos
##terno
##tense
imprim
viña
ornato
##ifique
partieron
269
renunció
dejaría
procedía
Berga
dormitorio
aposentos
prudentes
cortesanos
anunciando
aquéllas
reforzar
administrativo
recogiendo
alucin
Cumaná
##nn
##VS
rebos
##tula
habr
ganando
permanentes
271
tradicion
aconteció
desarrolla
Mello
excitar
afirmación
citas
##fore
##pora
##ñales
##inga
##guero
desme
levar
##ecería
susur
tendidos
escenario
proprio
dirigidos
reunían
##gueza
escribo
ejercido
370
peligrosas
Céspedes
exagerado
bravura
Yun
aragones
tentar
##ital
##izándose
first
vascon
##bert
##fite
Herido
Zapo
formidables
ABRIL
angosta
engal
comme
Marin
postura
necesa
existió
profusión
estrepit
##ILLAS
queso
revelaba
suponerse
Comision
sucumbir
telégrafo
primogénito
cercior
JO
##fl
##amon
tratamos
vagos
##endario
convienen
inmun
301
Pasaron
sorprende
Vati
##islao
insignias
LECCIÓN
circunspec
incógn
Fomento
PRES
##fue
esquer
diante
##jole
pegar
funestas
negarse
grandemente
278
molde
gorro
palidez
profana
errón
señaladas
279
ínterin
celebraban
precipita
huecos
rocío
Venta
Xer
brar
let
baix
yace
Arturo
causaron
publicidad
##uaciones
secretaría
Guaira
Aquellas
sollozos
##hechores
Almeida
Jan
Ledes
##mí
degrada
##enco
##uesa
poquito
repel
##éricos
traspar
contestaron
282
procedido
fusilar
##issáo
desarrollar
incómo
Camacho
##jano
envío
##ánicos
tenente
sentimos
temas
conducción
Calcha
burl
apoderándose
##ENTES
conjuración
##uezia
experimentar
exquisito
reglamentos
escravos
St
ópera
quejarse
crecía
##cencio
reuniendo
senhor
recoge
lingua
promete
predicación
canalla
perdone
ticos
##días
##yesen
##tuo
prole
tarje
frág
cubriendo
gale
Berlín
simula
pisar
Gin
nuel
##tier
cuernos
desval
activos
vila
Valverde
jeto
descons
ambiciosos
expedicionarios
SANTANDER
DESCRIPCIÓN
##BAS
enum
indom
Lejos
Quieres
##cidencia
estanque
envolver
NOTICIAS
##ring
##sela
##toriamente
say
tamiento
Chica
##ficada
bofe
Proclam
extendido
destruye
ocultarse
tintas
sujetas
paseaba
pirámides
Valenzuela
mías
Últi
##eidad
##moso
##zum
##huel
anarqu
cortés
preve
##cesión
pasta
##andú
Coleg
concedida
298
cruzó
consiguientes
then
##nikoff
Frontera
Eusebio
Hici
##ÉR
vergon
##lanza
ciado
contentar
fou
rechazó
hueste
aguarda
Bonifa
furiosa
viviente
CÁDIZ
trascendental
other
plic
case
sucedieron
súbitamente
resplandores
fórmulas
abejas
NÁ
UR
cados
##inia
alcab
##teando
##gués
tant
nacida
veros
##vela
facto
##videz
ordenaba
publicadas
325
extraordinariamente
prohibió
##misible
8o
éramos
##zamiento
##umentos
querian
mostra
urgencia
embesti
consumado
destacamentos
Federal
húmeda
naranjos
Renacimiento
opa
pou
Santuario
apli
Parlamento
afr
Salcedo
empleando
obstinación
atreve
alejó
engaña
traducir
Siguió
ticular
desinter
Domínguez
nesta
##tias
cuestas
corno
soñado
mona
##acán
seguí
opor
Valor
anteo
Pele
##illero
suceden
adole
tigres
déspo
cem
pida
##parse
##ceño
viudas
joy
ejercen
convertidos
despejado
##TIA
licores
about
Zedula
deshonra
SEGUNDA
forasteros
cautiverio
ham
##Oes
podi
mandadas
honras
vine
señalaba
resiste
conversa
mitra
rejiones
Protector
oían
leen
profer
sazon
Seis
interno
Chinch
minos
culpas
figuraban
legalmente
295
incorporación
comprometidos
depositado
conmoción
Astorga
peruana
infundir
radiante
Brown
excursiones
magnates
##rimac
Genova
##tist
##usiese
persigue
Rojo
silb
##iesto
312
desnudas
ambicion
escultor
cómico
Aprove
BRAS
Hí
##tosos
##torre
guias
Miram
bram
277
protestar
defendiendo
orgánica
alteraciones
utensilios
capiteles
##og
enor
##try
arrab
page
tropez
autorizar
caballer
Habían
Ayun
Publ
Villena
ayuntamientos
benemérito
Levante
##ñol
##dicas
Seo
Salud
conducían
Capitanía
provision
Turquía
protectora
servigo
indemnización
Balmaceda
Agre
Voc
aa
imita
nadas
##tieran
##icáo
##gueros
Cuenta
justificación
ignoro
lindas
Enriqueta
devota
Secretaría
tamaños
mercantiles
benéfica
Bad
i8
rusos
mengua
certidumbre
mayormente
palomas
pueril
Berna
Record
clásicos
fondeadero
pesadumbre
esqueleto
Hil
##zir
##juela
##isi
##itla
##yotl
acudido
llería
sucesivas
##ILA
##fijo
deberán
1803
comunicaba
convenientemente
auditorio
identidad
fastidi
##lima
##FICO
##tita
##tione
##cionar
##ciosidad
callejón
voluntades
hazaña
inundación
valentía
geno
##idora
aptitudes
cargó
despos
Mau
Sucedió
poseído
##cribir
obedeciendo
destaca
defensiva
archiduque
cúsp
Ledesma
blico
##sh
llevasen
##ecimento
acude
transig
correj
sorprendidos
1801
debates
Sabo
temblaba
avaricia
sementeras
##vieso
arrodill
reconocieron
legalidad
287
amarillas
LIBER
ingrato
populacho
commandante
láti
rentes
##RUE
conex
##ecemos
##trada
saliesen
Set
Chalco
enterarse
territo
instruir
distinguía
315
ignoran
dirijido
Santana
borracho
compensación
gremio
Gral
lici
nario
entienden
##enter
trazas
daria
hicie
atendido
prosigue
burlas
excepciones
when
Jueces
William
falsedad
sá
##adísimo
regar
anónimo
##ENOS
Colo
indecible
culta
cienda
Virg
arribar
Viajes
palmeras
púlpito
Oce
##ót
mingo
patricios
##teriormente
289
mostrador
laderas
rechazados
aisladas
Medicina
análogos
quarenta
She
oon
estren
paloma
cuadrilla
Hecho
REG
disposi
Padrón
obscure
severamente
defendida
derrama
Gand
Jord
Noroeste
use
vina
##hora
##anca
##andas
casita
##toriales
Marino
aud
fijas
Pav
mandíb
apodera
Verin
ramal
##umbra
fazem
claustros
calumnias
Apurimac
intelijencia
rados
##uad
arom
veréis
botica
Haz
Profes
visibles
limitó
marchan
XXIII
##arquías
horroroso
humillación
PUEB
Embaj
Imposible
Dorotea
EP
Echa
##aros
altres
##dao
preemin
carica
palco
permanecían
283
##AYA
inacción
bodega
exasper
daron
##íno
##DEN
##tila
anón
resum
corrup
ciente
##veras
bastará
presentada
cadalso
Urgel
precepto
limpiar
campiñas
FRANCESA
roma
ventas
dicción
catara
##eracion
fríos
queridos
afrenta
cuaderno
concibió
norteameric
Sabio
asombrosa
inició
cofradía
floreciente
Reno
Vila
##unos
##chuelos
##noz
##tanes
rotos
##culada
ramales
celebran
titución
Burdeos
halagüe
##epres
naufragio
Villegas
durmiendo
téc
alteza
cafe
pereza
##acáo
finan
bastaría
inventado
reconocen
291
evitando
apoyaba
fiebres
nosotras
uf
secta
delgado
##quanto
coj
venimos
vagab
piquete
Bret
1890
incurrir
indiferentes
desplegó
pantalones
Lavalleja
Horacio
Agra
FI
GER
##gala
##pidez
altiva
prado
vais
Tortosa
Imprenta
jaula
misteriosas
Argentino
majestuoso
residir
Vm
##ñá
##imecas
posto
faltaron
criadas
animaba
ordens
Borgo
trenes
gubernativa
majist
##vese
##DAD
##áceas
rejas
residente
compadre
disturbios
pesadas
conductor
labran
procuraban
consumos
mentiras
CUAR
aconsejar
paralelas
feligresía
Gama
##dale
altre
##iciado
Santi
motin
saliera
entregaba
valeros
rotas
Arabia
autorizada
templada
futuras
pregunto
constituciones
permanecen
queste
disciplin
Magestade
grandísima
previsto
Quizás
dehesa
Hungría
ig
##IMA
traido
##ustra
dejen
dejasen
varía
justicias
cuarzo
303
cartagineses
genu
Linn
periodista
acusados
gigantesca
fulmin
consagró
ESPAÑOLES
ruso
##ÁTICA
albar
didas
sito
impel
batió
capella
##chet
contrari
Exam
309
294
pañol
laborioso
esparcidos
subsistir
Archipiélago
billete
andaluz
mestizos
Angostura
cidos
##xena
recip
digamos
leva
resorte
disensiones
Carbal
agujeros
##hualco
tinu
músicas
núme
Acuerdo
diablos
resguard
ensueño
preliminares
##cocha
##garo
Reda
propuestas
##tris
Cumpl
acabando
307
balde
respuestas
Benjam
avec
uniformes
análoga
escaparse
imaginarse
QUIN
Wellington
ESTUDIOS
dolo
limo
##iéronse
inti
Almonte
indicadas
rup
Amad
convencidos
Sou
tirado
bromas
Soldado
sospechoso
Escudero
fragmento
equidad
CLAS
ope
tadas
##ermo
##cusa
perte
soñar
##ínea
seguridades
sentaba
funestos
inmediación
resistió
veintidós
Aga
Dn
NUES
##amien
serpientes
cascada
Habiéndose
ocurrieron
empezaban
pusimos
Gertr
ultima
continúan
inédi
sobren
##lamo
##ONSO
olla
echarse
alimenta
Florez
manejos
circum
vérti
caverna
Tezcuco
declive
##udes
mutil
marcar
debidos
debíamos
hou
botín
coraje
señalan
cober
##field
299
Solamente
dirije
competentes
Bruno
eligió
parcialidad
Tienes
nente
##hado
##ít
conlra
##elga
aráb
povos
salvas
librado
llame
juntaron
contestaciones
armó
##gües
amenazado
Neu
precisas
almend
fallecido
Garcilas
Lúeas
atmosf
endure
##inaron
incumb
arcillos
bajada
Congre
308
publicaron
distinguidas
rápidas
Largo
convicciones
mezclados
Carrasco
fibras
Africa
Gel
lente
##vianos
codos
pescados
extrangeros
escogidos
adornadas
fortificado
HAB
ramente
##grosa
##CEL
##VAR
tendida
Sepul
coal
estupor
304
alegando
1000
Sabido
clamores
erigió
contemporáneo
JORNADA
Gén
Ojalá
pado
deán
##onadas
lain
alzando
intel
cordel
##lang
sagaz
sabias
Cuy
acompañaron
organizada
despojo
vestía
remoto
aislada
formalidades
fiscales
Comisario
BATAL
ignominia
pim
##nino
sias
caáyo
costar
dejándose
Totales
Feli
llevarlo
penetrando
Mercurio
lágrima
sangrientos
cereales
graduado
estrope
guirnal
Tito
mados
defici
activ
abando
monar
bola
apartó
plantaciones
suple
Morella
abandonadas
333
ensueños
emisarios
Consulado
mig
pánico
dilij
exen
##pugn
306
cesaba
##huma
esclav
contribuye
proclamó
caminaba
Henrique
revestido
penalidades
Forma
Nó
Sier
novios
perto
peripe
lleven
moti
##dena
guientes
Inv
guerre
hortal
cór
habitado
484
Escribano
Iquique
oa
##gentos
estío
pré
##ligencia
destina
##cadia
380
descubridor
escarmiento
exaltados
sobrenatural
##Ao
##ámenes
##raje
cerdos
##fectos
##ESTA
circo
contraban
extensos
Vicepres
dócil
sinceramente
Inspec
calavera
bigote
FR
##jamos
##lacion
entendió
amal
mote
olvidó
exclamé
avisó
caracteriza
Quería
##entrional
explí
Algeci
ava
equívo
vamente
empla
aure
crecimiento
osci
sentenci
arroba
publici
fracciones
292
314
quisiesen
cautiv
fenicios
atraviesan
Fortunata
Iban
cable
dhos
óp
##LAR
serle
miss
prés
##umilla
##viales
marinas
coh
plaga
vagas
producida
alegro
terminando
hallazgo
roble
ingenu
engaños
carnero
Huanca
juvenil
matorrales
Fol
lles
eli
##tiga
##unión
##illar
##ciaes
cortadas
Santia
Indio
morena
probabilidad
jurisconsul
suspendido
molestar
odiosa
esenciales
Marsella
FRA
Jard
MEN
grea
##gú
##IF
recos
PorL
candi
hallase
arrojados
reunía
restablecido
Aparte
apostólica
plátanos
verdugos
préstamo
arboledas
Oñate
PAL
fusión
rudi
vade
work
##riesen
toled
habernos
obtuvieron
##vat
##viente
##mann
Juanita
##endan
occi
Llevaba
grandísimo
Um
tario
##une
nacieron
##ionarios
##itará
falte
##tiendas
Maltrana
Ambas
maniobra
Ez
did
##tudo
Caste
dirigí
lanzarse
297
Cela
proclamas
cabeceras
gallego
##MIENTOS
lias
##fina
deterior
##uén
arg
Sancti
presunción
forzar
indicando
Tepe
prostitu
sistem
descargar
eslá
Raskol
arquitectón
desinterés
Cue
##zuelo
##uia
culo
pereció
vernos
Albor
salinas
Marquesa
cheg
insub
temido
negaba
aguan
##ponerse
inquietudes
jesuita
acceder
fósiles
coyuntura
Raskolnikoff
Fad
HI
Viene
##mitas
portador
aclima
entona
nicho
##gosas
darla
juntó
cría
pagados
##tánea
doblar
artísticas
Niebla
estorbar
inmóviles
sugeto
cafés
would
esposicion
entónces
ege
##enz
##igamos
comport
compuestos
emer
menuda
auctor
plate
malde
gobernado
inventar
voluntario
extensas
335
##amanga
acog
calificar
Debemos
mesetas
Mahoma
intemper
Afortunadamente
DIPLOM
Flora
##tábase
##TAR
##AV
##stin
##raca
oblic
tendía
segundas
Navidad
ponerme
terminan
aliment
##URS
Josefa
Camargo
Til
manjares
##íng
vai
1600
visl
313
satisfactorio
iniciado
exporta
gaucho
EM
iris
##pidas
make
##lanca
servirse
acusar
aguda
proveyó
respecta
dobles
420
contenidas
Tremp
orígenes
hemisferio
Clu
Diz
Higu
vien
##jales
carecían
conoces
conveniencias
brava
agudos
gatos
vigilar
colocando
amenazando
avergonz
Tarija
bomba
exploración
SEÑOR
exercicio
##aren
obrando
espediciones
presentase
Rocha
293
ventajoso
músico
lloch
Grosso
Gertrudis
##peare
reple
##feos
extrañar
ganancia
##onet
desempeñaba
gobierna
contigua
incomple
ascendió
usurpación
trastorn
convulsiones
azoteas
Departamentos
gon
##prudencia
##date
patíbulo
mantu
expuestos
boticar
patriar
habitaba
térm
reparos
pedreg
eternas
Brus
publicaciones
pirámide
arsenal
rural
##volo
sexto
vendió
pundon
Barbas
corresponda
302
##querías
296
tiradores
oratorio
provoca
despreciable
BLAN
ile
##zione
##lay
offici
Gallo
ajenos
Orotava
retribu
vocablo
hes
rri
rador
zur
##uen
##TER
##ólica
##uega
##tian
profec
pasillo
nifes
salte
presentados
bander
representó
XXIV
fábulas
James
pensativo
adecuado
lángu
redención
OS
echo
vizca
##jí
contarse
recepción
casual
dudosa
##vania
decid
vocal
afable
derrumb
Aband
sorda
ocurridos
avisado
quitarle
agitada
operar
inflexible
Virginia
sci
##lero
lamenta
reha
mias
docenas
mareas
desplegar
##uella
capuch
ciudadela
Chiri
##vose
esperado
rudos
continuaban
acertada
construidos
Goa
##IDO
##QUI
republicanas
musical
luminosa
exterminio
panteón
Hy
jade
tiz
##uk
##áculos
##letes
reim
comiendo
ancla
##pefac
Math
Parra
levantados
Coloc
like
311
adelanta
cultivado
lluv
sustituir
húmedos
Tirso
Aristó
cabecillas
emboscada
cartuchos
diplomacia
automóvil
##fiteatro
beza
cica
gira
##mentado
##POL
##anco
condicion
Martí
intervalo
##erne
inspiraciones
boy
refriega
liberalidad
Pozo
resuelve
rige
leerse
naufra
##pp
##areas
unieron
susceptible
presbit
trama
codo
##ciou
anticipación
revól
imm
supremos
pareciese
registrar
arenoso
cipales
##graphia
Comendador
LUIS
##tología
AÑO
Oye
Ordenes
brib
stu
teneb
petu
expuso
moscas
lanzaron
##huas
desconfi
colega
##jenes
desprecia
remover
atroces
sacrificado
cantares
Huay
poéticas
##urdán
arrabales
ní
##PU
##útil
leves
##gosos
agilidad
Quinta
Beltrán
espectador
designar
##EZAS
##CHO
denominada
Acompañ
Laredo
Piedad
jabón
nunci
##zán
##yá
##citur
enalte
##inilla
refe
meia
bachiller
participa
##postería
juzgando
ELEC
llevará
echaban
##itania
campesino
Indud
Dun
Llu
nella
samente
##brar
##alar
esquinas
pasara
tración
##trices
Carab
moría
##RECCIÓN
difícilmente
disputar
adornados
bajaban
bajeles
amplias
hablemos
yanke
Alegre
efe
##mm
priesa
traian
Redu
bienavent
rectas
minar
encontrándose
Valmaseda
llegaría
concurrido
fango
pedí
Nordeste
colegial
Arriba
Monserra
arrecifes
potestad
ginetes
queden
Repar
provistos
calent
##gnos
##cillería
ademanes
escribí
confunde
sunt
incapaces
impotente
Planta
ennoble
parten
tratarse
termino
##villo
aparta
olra
sirvan
319
hermandad
##ístico
Thomas
fusilería
eruditos
agitaba
descuidado
oaláy
atin
faro
##má
##oz
perdición
pasen
senten
##jeran
##villas
##brada
Cali
repartió
desaparecen
gloriosas
encerraba
compacta
censuras
rivalidad
Religiosos
hipocres
cómplice
congregación
secues
Azo
Fáb
Somb
##imar
maz
miércoles
carencia
meditar
ducta
Cholula
tiernas
conval
Moque
balanza
protejer
brind
utilidades
Gomara
##ófilo
NI
ars
##raso
##izase
Santam
your
Améri
hallen
servirle
grosero
Mona
Obe
atiende
jentes
##gera
##reos
curación
sacos
traz
darían
densa
dirigiendo
Creemos
juró
enfri
faroles
Llegamos
quitaron
discreta
paralelos
penetraron
DIPLOMÁTICA
##flu
##cifer
acri
presidentes
vegas
collo
Calzada
amargu
321
Infantes
brotar
Orozco
Figueras
diplomáticos
atrevidos
refiriéndose
Anastas
##fuegos
LIBERTAD
PRE
Ye
##ess
indivi
libró
regir
graciosas
escrituras
repartidos
316
castigados
desempeñado
matrimonios
revelar
informó
prodigioso
Chorrillos
Semejante
Leopoldo
intrepidez
Deme
MUN
Pru
##xó
cavall
espina
embu
Marcha
cerveza
guantes
padece
asombrado
inneces
milagrosa
Cuervo
económicas
indulgencia
alabanza
cráter
Veo
zada
##pha
##reta
prova
Ello
esposos
Alia
teo
colgado
recibi
Pay
##vismo
taes
blanda
ocaso
abatido
cautela
asisten
##timamente
Osuna
peticiones
arrepentimiento
Samuel
parlamentario
Lucrecia
Cál
Istmo
nam
##esca
complica
discern
ducir
fallar
hornos
miraron
ganancias
dependía
Oriza
impetuoso
escuadras
365
Baselga
Tehuantepec
##tulo
asquer
obraba
monf
pesados
France
##lice
aflo
proporcionó
MARRUE
encendió
inop
Valdeorras
CORDILL
##ader
comían
repuesto
candel
##ICH
misteriosos
Oliverio
egoísta
infames
aspereza
Montiño
guerrilleros
Miramón
Ced
Jur
Opin
##hué
##ling
##üo
##omp
caciones
##quiz
obró
cierran
mercen
visorey
absol
absuel
cesaron
cuidaba
chocar
asienta
explicarse
contagio
escandalosa
exquisita
cabildos
MILIT
desco
fajas
cantaban
##RIS
justi
lanzaba
amenazaban
324
1802
pronunciada
sembrados
Conforme
escandaloso
subdelegación
ENSAYO
Bendi
Dada
POS
glos
##cter
##ss
##vantes
alias
estingu
abrían
hirió
pescue
Paca
baste
ejerció
expresaba
##embran
tingu
absten
Vespu
##UDIO
esplicar
octava
reconciliación
TENEB
MARRUECOS
Cy
ricamente
seño
ree
##chtli
leo
Maio
Parti
mantenimiento
trabajador
agotado
náufra
Carolinas
anexión
gio
inma
petri
piü
imperiosa
demostró
ALBA
Embar
reinte
1891
##CUER
bullicio
Fá
##ancio
inus
aclara
contraer
hocico
inserta
##pite
##mberg
templar
testo
encargarse
gustoso
Massa
tasa
amenazada
ajenas
brota
edificado
húna
campanilla
Pilcoma
frio
roso
inher
cah
podem
preh
##ifas
##tambo
Natur
concedía
declarante
destruyendo
Montea
Tagle
480
traducido
insistir
franciscano
Sigü
Capitulo
Chibchas
##fens
alusión
##érri
##geiros
arrojaban
bebe
Jaca
despachado
protestantes
bebidas
audaces
inverosímil
Castañ
fecundidad
Pia
detri
sedición
divor
ant
obtiene
apr
##urable
propusieron
##CIAL
aumentan
suegro
Meridi
ocuparnos
Miraflores
insistencia
Ampurdán
##ímetro
descalzos
locuras
Arévalo
brisas
str
##mona
##bones
essas
##ely
manso
amig
Depois
infiel
necesitado
darte
gozando
esperamos
alegrías
hacendados
amaneció
inclinada
rácter
entu
##peda
empal
huyen
vagar
after
Perdon
admitida
demor
suspendió
obscuras
cumpla
pergamino
Plenipotenci
reminis
perla
pai
privadas
peu
Novo
Descub
condujeron
negruz
distinciones
senderos
Satan
##ILI
##tlil
chegou
ornam
TENEBROSA
##uzas
##utica
##taros
tray
valia
muni
madura
##RACIÓN
dejarle
empeñada
supongo
toldos
Rivero
sólidos
agobi
sobresalto
absorb
SIGLOS
mensual
Entrada
chaleco
arzobispado
carnicería
pundonor
pía
rurales
##irs
##imán
Laure
impidi
Espi
Angu
##tria
inscrip
##ESA
Naval
##celes
Roger
estuvimos
fracción
satisf
immedia
recorren
jurisdiccion
desperdi
confundirse
ensanche
Hallábase
ORIENTAL
promontorio
IGLES
##inho
digas
feita
bastado
estupefac
Platón
empeñar
proclamación
equipajes
impunemente
etiqueta
two
##uil
mación
intermit
seguras
Guill
Pocas
Boletín
agujas
Rubio
##aux
llenaban
firmamento
acordarse
métodos
desvanecer
Triste
Aboo
Somos
vom
##adada
eslos
recho
##late
Elías
saña
trabas
decidieron
ordenes
trote
Salieron
descubriendo
célti
campamentos
331
confundido
confiando
carbonato
restaur
íntimas
Briceño
mezclada
plebeyos
umbral
Oidor
maron
óxido
##uu
##órica
##çia
debi
##enle
##tizar
muita
anos
resortes
corrig
sopa
guiado
morro
inmem
dependen
turco
318
derrotó
Impor
arrancado
Vive
guapo
recordó
noveles
cúb
##ífero
Vuelve
urbana
magistratura
Saboya
Gi
Ihe
VV
tho
##ère
##icul
andas
tomara
infund
Paez
quedara
subterráneo
Protes
pertene
atribuirse
veterano
desventura
Cuadro
cláusula
Lomb
##ñigo
Contiene
disco
auth
Leandro
supuesta
retiraba
##tly
323
pedro
##émica
Eugenia
Americano
albergue
escrúpulo
hench
Bonifacio
Landa
vál
##cke
##viere
##poso
desden
app
Altam
##ensibles
creció
sables
obligando
hablé
sellado
incendios
excitación
ásperas
idéntico
interminables
dust
ear
gación
##tabilidad
sepan
diad
antí
##soes
tienden
##biéndose
Calvario
##ráz
reconh
fundaciones
geográfico
reemplazado
benéfico
instantáneamente
GO
GEN
eras
mentar
ini
##isar
##trales
animo
##ulio
Escla
sonrí
soi
chin
daremos
irán
##iciaes
educa
sonriente
Olim
nistro
hipócrita
GON
##ciría
Elias
Matto
ceb
barn
suplicó
Colum
escudero
labora
Rosales
ARCH
Roman
##camentos
1793
patrono
sólidas
sepulcral
dialecto
descubría
Capitolio
trig
estabilidad
serás
espuelas
prestaron
##moslo
sonrisas
Ansel
Machado
malvados
Paraíso
proyectiles
Admi
sometida
atravesaba
iluminado
paralel
tímido
intimación
Spain
Ciertamente
Mill
rienda
##allos
nous
inalter
desqu
sigo
batirse
sah
sonaba
librería
creto
subteniente
##riola
Nuevas
sombre
decretado
haciéndolo
encerrada
##ondeau
físicos
exaltado
sensacion
idéntica
Cochabamba
lonjitud
Atocha
autonomía
Grijalva
grada
##10
rección
miro
bañado
trasform
##net
desair
conciencias
arreglos
rinde
redactor
contradicciones
Bayamo
cansada
deshacer
limpias
Sección
Prad
equino
neci
siembras
##cionado
gram
atacada
legitimidad
admitió
##xochitl
336
pedre
sostenimiento
vidrios
seducir
candidatos
susodicho
Comenzó
expansión
Gij
Nel
sando
##DAS
##ineo
compo
care
empañ
##gni
##gramos
fechada
subsi
extracto
bandido
declaro
curvas
317
proveerse
burlar
390
hostilizar
edificada
Olivares
mensajero
desertores
juramentos
explosión
ATACA
Biv
bizarro
cm
fizo
word
##sá
##jona
##rac
##dillo
##uégo
##uses
nativo
abono
presidi
Detrás
encono
temibles
##ANI
riel
inmol
empleaba
respeta
predilección
capitulares
venganzas
gorda
MART
experimentó
salvando
insolencia
Arzua
3i
MED
Pit
lamp
apur
presid
califa
Incl
##zasen
Frank
ofrenda
##endí
respetuoso
dade
profundidades
permitiese
aceptada
seguirá
334
confunden
##yrre
pilastras
DIEGO
jene
ouro
##filo
##tándoles
##JE
##riedad
comens
llego
Peque
plataforma
ALB
alfil
estrangero
Antoñ
paralela
pajinas
terrestres
SEGUNDO
Acevedo
Ensayo
Alas
Ox
insegu
angosto
Anim
encontrados
Teófilo
dedicados
aleja
lograba
coplas
Arana
deriva
club
móviles
Bermejo
atrincher
regeneración
LUS
ever
oigo
cat
ardía
salon
adje
Aná
faci
##ludo
frentes
transición
##TURA
550
Bonilla
imprimió
inquisidor
Palo
socio
veneci
##dorf
corridas
olvidaba
embeles
alejado
govern
transcurrido
islotes
TOLEDO
Hombres
##asse
sejo
##diga
##taire
Escan
Conviene
Israel
##isteis
Alpujar
Fló
Mier
##dina
entienda
alti
day
opusieron
distintivo
colorada
thro
músculos
compararse
consume
esponer
envolvía
hierbas
Governo
ennegre
medicinales
Torrelavega
auer
tara
##iando
##dora
##éres
elabor
desse
##edora
saldrá
##enote
cultivos
chaqueta
infinitamente
contenían
muchísimos
regaló
asoci
predominio
Ignor
Cienfuegos
combustible
preponderancia
Bl
ancl
Uni
atrajo
necesitamos
Conserv
competir
vertical
filosófica
eléctrica
convocatoria
Pilcomayo
ecu
máo
##rándole
##DIT
esferas
progen
##medio
espesas
cabía
emana
hacerlas
fronte
arroll
Seria
inspiró
ascender
helado
electorales
desigualdad
termómetro
grasa
Sigüenza
Bec
Cib
sena
##ZCO
noci
vijil
amorosas
apoyó
##chard
imposibles
tributario
Adán
pierda
Romana
acometió
africana
cigarros
gl
estensa
##guán
granje
##venido
vendi
##RIQUE
hordas
autorizó
arroj
correspondió
Moros
usá
voluntaria
resisten
Apuntes
desapareciendo
representativo
toldo
PARTI
desorgan
NOTA
mateix
Estéban
Rip
ste
##inarse
coma
##pay
##icies
preco
tiembre
traigo
##rosamente
tomen
pondría
vestiduras
VIA
demostrando
solicita
Consid
volvimos
1790
accedió
bordados
desastrosa
látigo
Hola
cero
##jecto
sutiles
estenso
recer
##isado
salian
##baciones
vete
##seguida
Habla
sacrí
murci
volvamos
pañía
London
CHA
perpetuamente
peregrina
instalado
química
persuasión
Zum
##zábal
pagas
patentes
aserto
pret
verí
Cordero
torne
sostuvieron
habitada
paisajes
epita
Cerdeña
encantado
440
seductor
perjudicar
estremidad
inofens
aclarar
Juzgado
consintió
Peralta
adyacentes
BEL
Oy
ax
sencia
sucum
##omer
rell
promin
##tori
monje
monton
mere
momen
cliente
ejerciendo
comparado
germán
majestuosa
forastero
PATRIA
asta
hera
##ctar
##nero
##pren
##alá
##intes
incau
mudos
##izadora
Conquist
ortografía
Deum
cuerdo
situarse
particularidades
##úsares
despojar
chegar
Rodri
disminuido
mulatos
trabalhos
reflexionar
cabecilla
epígra
FIN
ticas
##gables
##ñamo
alabar
costaba
venciendo
poste
pescador
reciba
expec
juntarse
usó
aceptaba
Alfredo
Informe
sastre
cuchilla
ocasionó
tapias
chispas
Jara
Kan
belig
gér
enloque
añadía
1805
Escuadra
cresta
escesos
Comandancia
presbiterio
Dir
FON
ede
hob
##pala
sequedad
##ray
ess
caj
cortan
hetero
Deci
pensaron
Perdón
arrojaba
sombríos
procurarse
ALGUN
Beni
cargamento
exemplo
tripulantes
ATACAMA
FEL
Gara
homo
águilas
##cm
inel
prolij
maquina
bati
tutela
interinamente
decide
temerosos
Barrio
##tiagu
perteneció
podamos
acaecido
prohibe
regalado
circuito
Ilustración
mensuales
tropezar
notan
poqu
Regla
vetu
##jería
Universo
comprendidas
tosca
ejercito
sultana
monumental
despojado
procuran
irritación
requería
trascurso
humede
Negocios
Om
Rs
fosos
##cob
Eliz
Chun
decír
llevara
##regado
##táis
Alejo
##bulos
derrotas
1804
375
despertado
siervos
vaciló
vínculo
místico
huérfanos
antagon
Babilonia
engalan
Indudablemente
LUSIT
rer
temos
##vistas
contiendas
intro
casca
Concel
##ioni
ruise
Pelo
aumen
pretendiendo
titular
Tarifa
##huatl
Tolomeo
domésticas
Sidonia
Ixtlil
desistir
desenfren
Ame
gular
loro
##bum
curan
muero
arado
Maz
agresión
temente
Metro
sucesivos
declaran
asegurada
navegante
Cartaxena
enseñan
acostumbraba
disminución
radio
VIAJES
Amo
Dob
Dinamarca
cár
tlas
##CAR
espí
auian
volta
ínteres
íntimamente
Belmonte
Hotel
concepción
Senhor
Irun
Vieira
sábanas
cornisa
vértigo
Crespo
White
Aristóteles
Cardona
oficia
Europe
mezquino
adopt
332
cruelmente
Declara
afluente
fantástica
Adriano
delincuentes
plenipotenciario
disipar
Dante
xi
##sores
##urez
##ME
##doeste
resis
cascab
sonora
malvado
Compos
tapia
Tejada
Existen
Adelante
750
Clavi
décima
comportamiento
Satanás
Oidores
PREC
Saban
TR
yr
##fit
portancia
##lema
##ecos
##pela
crecida
situó
construyeron
nieblas
divinas
consecuen
Oliveira
barraca
INSURRECCIÓN
etimología
Voluntarios
pescuezo
even
garon
yas
##elles
##oracion
disidentes
cote
formalidad
##tamentos
criar
circunstantes
enviase
interiormente
sometió
aprestos
Pinzón
repentino
Zurita
LL
Sed
sres
##dus
suger
##icana
simo
legen
habitar
arce
asigna
##ficil
regim
grama
aguij
##ROBA
atreverse
asiste
ESTA
manufacturas
percibe
Xavier
emblema
Fadrique
egecu
Asegu
oo
##ubio
##ppa
reí
embe
august
creando
intere
destron
pipa
good
apareciendo
atracción
##TIVA
RECUER
observada
ingenioso
345
esmal
graduación
suministrar
Terminada
Manzanares
consagración
Flórez
Emin
Vide
nerse
##cem
##sina
##ígenes
serenos
Montt
ejérci
brea
##itasen
aguada
harta
cruzadas
327
337
farma
Acord
repartimientos
entablar
trágica
opresores
Bomb
nativa
espía
Sete
volviesen
morían
realiza
denuncia
Barco
circunve
Isma
Venancio
328
##temor
vireyes
Infan
otorgado
irregulares
corrobor
Benedicto
MURCIA
Alo
Ré
##hara
forga
termo
funerales
minería
##liqué
basílica
Terán
asistía
aprovecha
inep
Cree
GUI
otorgar
precipitada
mínima
Roldan
Faustino
Bras
ER
Mura
Pera
##esis
Ellas
cortados
soles
valga
roce
mortan
causaban
Leguas
edificación
##ilea
##pulas
considere
##theca
326
Thiers
enerjía
1492
yeguas
octavo
trémula
desfavor
herramientas
saba
##kas
pasasen
sobreco
Esla
reprim
Corne
Buenas
tenerla
before
##uriz
encendidas
peli
Fundación
cúspide
Tus
tilla
ñores
##sio
catolicismo
##ullos
sermones
asoma
tejados
##vidor
criti
Calla
olro
aceptando
gruñ
conservarse
tonos
This
dirijir
dádi
excepcional
arrebatar
alternativa
arresto
redobl
peripecias
Obl
##dic
delegados
##court
sintieron
pagos
cordura
presun
calado
infec
botones
Miño
dejarlo
inefica
suspica
Americana
Manzanillo
agricultores
Ty
seo
sucia
##digos
serem
Estrab
faena
Inquis
##hoy
rastros
amarillos
##ómetros
352
##issimo
fantasmas
oprimido
##ócratas
aspiraba
##tización
Cárcel
Uribe
Vír
iremos
##teau
##olia
tocaban
seru
serve
lleguen
##caria
pobló
subían
##ctivas
procuraron
afecta
conquistó
malestar
Azara
acordes
Oliva
monotonía
avecin
instaló
gótica
desarrollado
lóbre
convite
efigie
Aurora
Monteagudo
Gim
ns
##íbal
##cija
arcas
peder
aura
duvida
##eciesen
canje
consternación
escuchó
Peñal
apreciaciones
Ceballos
clavo
Merino
precipitado
enérgicamente
rivalidades
subordinación
Ly
Otero
cante
nicip
lac
##abí
##igh
prever
pegado
sonoro
volviera
infiere
decl
Comien
juzgue
celebre
embust
celeridad
mueven
##éceme
cuchillos
piadosos
esculturas
legoas
mendigos
PASO
Sábado
Thouar
Anselmo
GAR
iv
ist
jando
##fri
tots
medicamentos
tulo
juzgo
civilizada
Hablando
referirse
tribuno
arrastran
preferente
reproducción
ingrata
subordinados
desenvolvimiento
macizo
aflicción
prójimo
Vicepresidente
hipocresía
n3o
##viz
##lat
parás
obran
Algua
maris
allende
##gramas
##culado
pudie
moviendo
instruidos
soberbios
llenando
Panuco
Caballería
Mártir
Reflex
ojival
Sabana
hendi
vuela
##tándola
##esí
presento
##naval
ceño
neóf
condenar
obedece
reinó
acometido
hábilmente
gallardo
Defensa
Ochoa
cohetes
DIARIO
Discurso
Nerón
tima
##damos
temían
only
ejecutada
Hub
asistentes
322
consisten
edificó
cátedras
Encontr
pistolas
Barbastro
Vea
cúmulo
upon
well
##isti
Palm
Palos
inteligencias
##uregui
celebradas
chiquillos
pessoa
GEOGRÁ
monótono
##glo
##tapa
recia
diarias
##quillas
many
manan
miti
##dulo
Marcial
tejado
postre
ENTRE
benigno
explicó
huevo
Treinta
hechura
##bá
desiertas
carriles
meras
objetivo
convent
ponerla
permaneciendo
Augusta
almenas
terceras
##túan
Reforma
Ilustre
Cárlos
inundaciones
gestiones
portuguezes
inmemorial
DIST
cern
vó
secua
inque
##tención
pesta
Pata
Moral
flotante
defensas
intrép
##hyba
coincidencia
Mamed
bib
##ií
##LADO
##esos
alzado
##dat
cascadas
Sanz
cantor
optim
ínf
regresaron
llenaron
asaltos
1792
restableció
festividad
Ateneo
##sedumbre
advenimiento
Aba
Pira
Ésta
##iria
##igal
esclu
viu
herradura
Nave
Peñ
pelota
exclamaba
Nuestras
aprovechado
nietos
vestuario
desconsuelo
Gru
Sosa
tém
vall
vanos
##BI
quedasen
meios
##denales
empar
monges
##rista
minoría
##ificada
##igao
339
entier
necessario
freguezia
CORDILLERAS
##zgos
##ULO
##çion
lap
entidad
potente
cabida
chicas
finura
Arco
servida
Barca
extraer
Sau
galantería
balsas
bríos
reliquia
ocasionado
Isidora
intruso
zapatero
dogmas
Vaticano
Algeciras
MILITAR
EDU
##ancas
ditas
##icó
exista
##urn
coe
callado
##tine
Cañada
Papas
quedándose
belicos
probó
celosos
trasladaron
arauc
gigantesco
barato
situacion
mecanismo
Goyene
Confes
despier
apartados
Garrido
##udación
elevaba
Pueyrre
adquiridos
##ISO
matriz
1794
##ábanle
variada
bordado
enajen
impugn
elefantes
##ieur
preb
##lama
tuvi
Mater
insecto
derech
oficialidad
Navas
##huano
vigas
asistente
parecerá
asturi
quedarán
Rosalía
tonta
confirió
labradas
Chantada
escaparon
desengaños
Antofa
lápiz
Cuén
guel
##iques
##xar
##onar
diar
vivieron
cali
conocia
##udada
##udamente
profi
att
absolutismo
Urrea
aplicó
conteniendo
subsiste
literalmente
aperci
hileras
ofertas
glacial
GASPAR
torbellino
atractivos
Orizava
BEN
Cement
Rhin
Ídem
altitud
tengamos
espum
presiden
indistin
##tillana
herma
encuad
tesón
Sacerdo
Duarte
Pasado
ignorar
adquiriendo
Espero
jurisdicciones
irref
contenida
detenidos
cálido
propagación
reformar
sonreír
filosófico
trasportes
cívica
Sucesos
Ntra
Tí
##hores
##ION
##GAR
##well
##amal
##gola
puj
sota
guió
contrajo
##úmero
Paria
Manol
indus
Solis
##TIMOS
preocupa
CARLOS
Negrete
turbado
Triana
recogimiento
oprimidos
perdona
Itá
Lunes
hie
##oman
##tiéndole
##quet
hablase
##urosos
ciembre
##veu
repleg
##íng̃on
Diablo
ejecutados
expresan
##ásticos
intendencia
Precis
bonitas
351
tambores
MAT
órde
íntegra
ROMA
zozobra
pleg
##iéramos
anac
paquete
hoteles
trofeos
##udado
defra
embarcado
ruña
naturalidad
urban
##tson
ocultó
##tzalco
342
desdichada
NAV
orígen
chicha
Táuo
uniformidad
Príncipes
maba
porcel
##taje
carcel
munici
escuch
estarían
repartido
Prelados
linterna
329
Bellas
XXVI
protestando
molesta
estorbo
susodi
pórf
negociar
femenino
romántico
capellan
transacción
Tabo
equita
##úese
##inaban
##omen
loza
musa
metam
prestando
viembre
reptiles
repique
circula
langu
expresó
pareceres
precipicio
geográficas
ascendía
piadosas
Mirad
democrático
Gala
añil
##ÁS
##goa
cabra
cerse
inspiran
##hechor
convendría
edifi
envié
atrae
garita
electos
recorría
creerlo
asesor
tratara
superficial
conocedor
huertos
indiscu
Bibl
Derechos
desalojar
Abreu
seminario
né
tár
##ean
##yamos
unanimidad
nostra
##cense
gritaban
tesorería
cobra
Betan
prometo
distracción
##EIRO
fúnebres
Fí
Misión
avas
agust
list
lanas
##aa
##cuas
quia
Laura
tacitur
Bajos
suceda
contiguo
persuadidos
quitaba
caprichosa
##kespeare
pampas
abominable
cuadrúpedos
desventa
corbata
Hija
Menes
##erda
Noche
Montano
fraude
interesaba
355
##ethe
malogrado
encaminó
arrastraba
culebra
indirectamente
cañonazos
imbécil
hectáreas
Virgilio
HUEL
atemor
federa
##llano
##UC
##ÉN
##got
restr
Alde
##ions
Guaran
irrad
Perez
invitado
##ridores
##áls
térmi
##írculo
empeños
alimentación
desprenden
Michoacán
renglones
revólver
Coc
Lig
##tándome
cao
sinembargo
Alguna
prestados
Retir
repiten
jug
sillería
cumplidamente
fotografía
narrar
368
vestíbulo
retrocedió
rústica
Jerusalem
suicidio
Sagrario
##geo
##rina
##lau
##ilu
Constru
##tífices
dictadas
repetimos
exigió
359
paseando
rendidos
dize
redonde
Britán
##melitas
amotinados
Clemencia
dras
fensa
##rísima
serva
##lanada
cabez
adorm
configuración
##itur
Loa
temia
escuchado
acercaron
vinte
coleccion
profesaba
contenidos
acequias
picar
invenciones
ruidosa
ciclo
Várela
Occidental
Estadística
Ayudante
Menos
##fix
##pias
elim
delgada
rebus
mozas
sobrevino
repiti
debéis
agran
tarda
gobernante
extendiendo
decretar
adquirida
ansias
celebrados
dirijida
1550
calculado
Inocencio
PÁ
gunda
##íd
delicia
inol
##quetas
perador
forzada
##ege
apartarse
ruidoso
Mila
banquero
ganaba
bet
##entasen
semejan
reducen
idóla
ronda
arreme
##GUEL
protestó
##ócrata
Vierzo
Bres
Kar
Ofre
Rar
tades
##iaba
##ladamente
##ongo
retener
##éne
##dere
sobrada
##landia
Capac
tomasen
Juicio
##pié
divertir
peseta
Gutier
aguardaban
abanico
estremeció
puntualmente
pícaro
again
montañeses
COMPROBA
epopeya
Lalin
beliger
lisa
otom
##clar
##hen
##ün
deferencia
##dicción
noción
##cetas
Estero
##bat
tienpo
fijaba
recal
espejos
##ALO
Barr
rial
declararse
aumentaron
recogidos
concluyendo
VIDA
Soldados
346
acostumbran
aprovechamiento
disparó
cercanas
Saturnino
Rueda
indomable
aureola
##zig
##asis
encla
descif
prendido
versa
Alcan
Portillo
guin
Franc
recón
hablaré
sarcas
suspenso
Misericordia
amistades
dilatados
amedr
cogiendo
trópicos
occasiáo
Felizmente
vejaciones
desvelos
transeúntes
FA
Ptol
nocer
mutua
##vao
termi
isle
Cofrad
favorita
preguntando
usada
genial
concluía
348
aceit
Político
acreditar
reemplazo
gallarda
prendieron
##ICIP
ritmo
COMPROBACIONES
i5
tiendo
Ña
##ualmente
##óa
##orados
venenos
##ponen
insuf
Paci
##ANAS
pláticas
Jauja
llevarle
ostentan
460
Piura
interrumpir
grosera
1580
exercito
chiquillo
##EIRA
Recuerdo
desfiladero
Sidenote
COSTA
arrend
oce
##fino
##lro
adorme
Loja
cinto
plantar
##ctus
declare
proyectado
predicó
perseguía
disminuye
conciliación
arenisca
restituir
aficiones
cipios
supersticiones
vestirse
esclarecido
inefable
Há
Pez
dú
naba
delgadas
leza
pactos
venen
coloso
##únez
ducado
afueras
amargas
malague
liberalismo
incomun
Tlaco
Vidaurre
bagajes
Shakespeare
Dura
norma
##ÍO
maca
estaño
##dulos
esplicación
Almi
nombran
most
acertar
animoso
surge
##ELLA
observé
ayudó
adornaban
erigir
peculiares
Caciques
Bazaine
Familia
OL
Vener
aé
##guadero
loe
depra
alegrar
cruda
descendiendo
410
Senador
piraguas
enérgicas
arribó
furiosos
conejos
Pales
vena
##tza
##VÉS
suo
cuchar
mansedumbre
Ense
##ize
Algún
Port
##ficit
##andra
##ándote
grietas
extraor
reparto
ansioso
provisor
renovación
revelaciones
commis
Baleares
Histo
Ocur
cales
metieron
maese
decís
reconocidos
Bolsa
jaz
ARTI
visten
fiereza
##ENDAS
brusco
Escribió
puntualidad
HAS
Tezco
##idia
##darse
##zy
##dial
reman
##ulares
mang
##tasis
##orato
Mariqu
##parables
rogó
decididamente
##pilación
Pere
derri
surgió
Preten
1778
Nariño
autent
rústico
fraternal
refresco
monótona
plausible
##íbar
##pur
dieci
mang̃a
##rua
Martes
##egó
turas
cansar
fundir
antip
crianza
garban
escapara
338
##EDAD
aprovechándose
descargas
entendida
Universal
almohada
Jordán
lamb
##rutia
cipe
Concep
després
emperatriz
##pont
maleza
liempo
distinguían
Palmar
cáñamo
responsables
Posteriormente
Green
lastimoso
XXVII
silenciosos
refugiado
rojizo
geógrafos
Sas
Zipa
pita
vieran
deline
##chica
descor
##set
abis
verja
despide
deban
sentaron
pontífice
cette
##tament
indele
##g̃á
##ásticas
olvidados
Emperatriz
354
apagado
##IDOS
ulteriores
invern
patrióticos
##CETE
Excelentísimo
Acción
way
##CON
##quios
##ied
paté
Esle
sabian
polvor
frun
necio
Barrios
errantes
semel
ventil
ALF
SECCIÓN
##UMEN
iracun
Tucumán
ESPAÑOLA
terminantemente
cuentra
ofrendas
Benjamín
Club
sc
##tiem
##bach
camaro
caldo
fijaron
Casim
reflu
créditos
mosca
ministerial
abandonaba
cruzaban
REAL
364
murmurando
1791
NOTAS
explorar
Tiro
sita
lechu
##igóes
preju
terce
crecientes
##tadamente
huida
merecían
##liza
frías
continentes
Leiva
##telol
acercaban
ánimas
combatiendo
God
simil
inclinar
ascendiente
entretenimiento
relámpagos
concienz
PRECURS
Cana
Puna
##uscos
carmes
sacados
fingiendo
pasajero
orien
expedido
Palab
344
destinó
truenos
pareciendo
salvaron
desprendimiento
Tribunales
derramado
estipu
esperimentado
Considerando
Marcelino
aull
gencia
tida
tador
##táronse
##doto
ing
##lovento
hagas
estaua
##cionarios
creden
Caraba
Asimismo
largu
presentándose
cuartas
##portes
saludables
explotar
encajes
indignado
gemidos
Girón
trueque
enemistad
MUNICIP
4°
Lé
vem
##mentación
##oy
anfiteatro
asambleas
refin
centrales
ganan
zaguán
licenci
343
súbita
cambian
esceptu
deixar
flora
Escritura
examinando
IGLESIA
dora
sto
vario
##vina
##eram
delles
saluda
comprim
Charles
pronun
determi
alevos
Gay
470
1780
riega
fugitivo
criollo
Zorrilla
múltiples
Sic
##UTE
##vou
calló
calendario
gramos
Quinto
códice
independi
aprecia
brero
engañ
inneg
insignia
prevenidos
Colonias
Marañon
mística
estirpe
tlax
Bética
Cré
Gase
##wal
paula
Portilla
Valles
pequeñez
resultaron
##vinieron
frequ
Veragua
velada
1797
regocijos
extremidades
lámparas
desobede
Gau
Misa
Tz
cid
##riano
caídas
barre
hallábase
centuria
representados
358
Espada
satisfactoria
condenó
Regina
Basílica
desasos
razonamiento
Pampas
eminentemente
variable
##tzinco
Noruega
diplomática
nir
vando
enros
didos
asno
reducto
Venga
369
alguaciles
Selva
Carvalho
Anáhuac
gé
jir
##fí
##esp
Alaman
martillo
play
temen
Miércoles
difi
tristezas
preparan
rebeldía
burro
ostensible
presidido
revelado
parecidos
azotea
ofrecerle
riguroso
sirvientes
invisibles
reclutas
BUENOS
reasum
Liz
Testi
##PI
##MAS
##entros
poemas
verbos
martin
compras
creaciones
siguiese
##tella
atendida
memo
padeció
nume
encierro
propongo
presidir
pilotos
Troya
Purísima
amarillento
Vocab
Celaya
PRECURSORES
Custo
Simo
tés
##eiras
##dillas
##sea
Elisa
Encu
calde
agü
volveré
destruidos
353
430
tranquilizar
artísticos
suntuosa
Hornos
antaño
Cron
Fuego
Pó
nica
deo
lata
esteros
##cejo
perdían
guida
conducentes
poseedor
impresas
reclamaba
carretero
laboriosidad
Ribas
Visit
resplandeciente
Noticia
Fanegas
Berenguer
Acta
camente
##JOS
partía
tió
meditaciones
veta
Desembar
Gober
Reyna
dolencias
361
Aguil
apoyados
distribuir
contag
camarada
vierte
succe
modificar
mecánica
convierten
prisio
CUADRO
ALBACETE
Aj
aV
ficio
##ialmente
##nell
##enna
lep
tota
sing
Concordia
Rej
malé
Baeza
obediente
ecle
sargentos
comunican
Miser
proposito
ascendido
Castell
carlista
hormigas
Ferra
##sia
##non
inun
##iman
exha
perior
salve
pedidos
cabido
##cosas
placent
expuesta
Pays
ordenada
mercantes
cubano
numer
duraba
olvidada
asistían
356
quemaron
##EMBRE
##salles
##áyon
reñido
TORRE
Observaciones
navaja
tropical
iniquidad
laudable
PorLugo
Acol
Tér
Zel
tuna
##hante
##ston
##iliar
apén
trafic
mendigo
Cher
vagamente
rudeza
griegas
Tercera
Delante
crudo
protestante
aliadas
quieto
perpetuar
Blasco
exploradores
Clero
GOBERN
rancherías
Goyaz
ALGUNAS
##tísimos
Alte
volando
nuez
Juju
inmu
sense
##cinación
anuncian
escollos
desesperados
ajustado
infortunios
GRANADA
menosprecio
reveses
Goyeneche
##yl
##BLE
misericor
##ceras
margens
Regeneración
cofre
##cipreste
graciosos
illa
desapa
mosquitos
pasaría
azteca
auxiliado
empeña
incontras
licen
introduce
censos
desprenderse
Visita
complicado
mágico
mortandad
Cobre
ése
##cár
##abó
##tola
##chal
coto
Capi
Arjent
Huitz
Apesar
ajun
atributos
diligente
1783
parecidas
venerables
creyera
hierros
esceso
serpente
recuperar
Tacubaya
Sahagun
HUELVA
Pinos
SUM
ato
bie
hiere
same
##tándolo
##máo
sebo
##trón
anillos
pasarse
savia
ataúd
membros
ejecutor
Tux
encerró
Senadores
periodistas
disfruta
AIRES
livro
academia
Difí
incomprensible
opo
concel
hagamos
##coco
caiga
ardiendo
paus
Regres
valerosa
expro
merecida
##endidos
langos
Tenían
ausentes
366
apuntado
##INACIÓN
##dismo
maravillosas
##CUB
Igualmente
disparate
elefante
FERNANDO
CLA
pias
yu
##cheras
parles
Latorre
caros
Regu
emulación
captura
##ifico
antiga
favorecidos
doliente
fanático
procesos
imponerse
confirmada
vacía
remitidos
recaer
horrorosa
desdichas
Land
aul
##elf
estacas
amer
##taleza
antece
deseada
cómodamente
ejecuta
recoj
Fecha
Goethe
Veinte
indó
##ómica
concurrió
exigían
347
apoyándose
tolerar
exagerada
desiguales
atestigu
vocablos
afianzar
enumerar
##ragonés
Ingleses
Avellan
know
prerogativas
amarguras
Bivera
inquebran
Deg
Frey
Siento
axi
sara
##EG
##11
##VER
inca
solio
adónde
##tinamente
Dei
##RITO
meramente
##gueda
Vej
avanzados
duele
escalina
rechaza
consumido
guapa
contrariar
##self
Henares
elocuentes
símbolos
solitarios
gusanos
BRASIL
monfíes
##ábi
##cisa
##lago
acen
caribes
##carce
tutor
caballada
azule
cometieron
dejarla
cristalinas
asustado
indolencia
secuaces
EDUARDO
ñola
##gona
Elío
principado
vaque
Peñas
legión
manifestaban
violación
nomen
confesó
remisión
Volviendo
recayó
distraído
Brun
achaques
gigantescos
habitants
textos
Agricultura
incalcul
sam
used
##adísima
##cud
Ensen
##cará
horn
extremada
imperios
éxtasis
pacific
espanta
acequia
Diócesis
ANDES
valerosamente
Grado
Lástima
Noble
questa
##abl
##resas
descr
arón
tenue
captur
Macías
desagrado
Abas
escuchando
expresados
Alfaro
341
1795
humildemente
exequias
Véanse
opulenta
penetraba
prolijo
arbitrariedad
principaes
vergonzos
JA
ias
■■
##TORES
abord
cargando
##entosa
cerra
cercada
señoríos
##lique
Ases
visigo
escudri
juega
##NDEZ
castellanas
estimar
confiados
1777
estatutos
mulato
convinieron
refiriendo
aña
vanas
##muros
##vistos
##DES
##real
habien
##ullas
servar
##gativa
##carril
veíamos
rayas
trario
boti
Mix
caballe
##ipes
vasijas
tirada
Urriola
reclamación
longe
perjudiciales
syst
apasionada
tímida
bizarría
Philip
Pica
beg
Ún
##San
##jeles
congra
##guí
trapo
interesan
pertenecido
mexicanas
385
enseñaba
sellos
brutos
adjunto
atrocidades
redondos
Jacinta
naranjas
cavernas
Atraves
mayorazgo
Ovalle
Uri
propo
patos
amables
Porfi
coti
lucra
##poniendo
##andina
ofus
úni
onza
pintó
dominaban
usual
fundándose
resistido
acontecido
357
Adam
púsose
tamaña
patatas
vergonzoso
Monsalvat
##TIAGO
Mí
##secu
entreg
Rex
nombraba
Perote
agudas
hosti
rodeos
ocultan
prometida
376
377
vacíos
brotan
terrapl
pintorescos
ultraje
DESI
trámites
creyese
parapetos
concerniente
Tarapacá
Eterno
Zua
món
##dáo
##inio
##daña
metidos
conselho
fortifica
coac
tejas
##manos
Sila
tag
produz
llueve
cubana
ministerios
armadura
##inebra
contribuyen
Chapul
eternos
conferido
heladas
dudarlo
habiéndolo
dialectos
Legislatura
Albornoz
Sit
zación
##gy
##hab
##pino
##cies
##adizos
##alias
porfi
##ilán
resguar
##duña
Cat
##tanse
destinar
pintan
reconocimientos
respetuosa
Junho
Luisiana
##táneo
administradores
prepararse
tablado
372
descendencia
infortunado
subalterno
7o
LOR
vienes
##cándole
eludi
contaron
tocador
sobrepu
formalmente
desagra
animar
ferias
divier
alaridos
firmemente
bolas
CONTRA
condenada
Regidores
alfar
modificación
esparcidas
abrigar
estorb
Difícil
Bó
rabo
acentos
espensas
repú
Maca
pesares
Guada
especul
[...]
