[MASK]
[PAD]
[UNK]
[CLS]
[SEP]
!
"
#
$
%
&
'
(
)
*
+
,
-
.
/
0
1
2
3
4
5
6
7
8
9
:
;
<
=
>
?
@
A
B
C
D
E
F
G
H
I
J
K
L
M
N
O
P
Q
R
S
T
U
V
W
X
Y
Z
[
\
]
^
_
`
a
b
c
d
e
f
g
h
i
j
k
l
m
n
o
p
q
r
s
t
u
v
w
x
y
z
{
|
}
~
¡
¢
£
¤
¥
¦
§
¨
©
ª
«
®
°
±
²
³
´
¶
·
¸
¹
º
»
¼
½
¾
¿
À
Á
Â
Ã
Ä
Å
Æ
Ç
È
É
Ê
Í
Î
Ï
Ñ
Ò
Ó
Ô
Ö
×
Ù
Ú
Ü
à
á
â
ã
ä
å
æ
ç
è
é
ê
ë
ì
í
î
ï
ñ
ò
ó
ô
õ
ö
ø
ù
ú
û
ü
ý
þ
ā
ą
ć
Č
ē
Ě
ğ
ī
İ
ı
Ł
ł
ń
Ň
ň
ō
Ő
ő
Œ
œ
ř
ś
Ş
ş
Š
š
ť
ū
ů
ű
ż
Ž
ʳ
̃
̄
̈
ͬ
Α
Γ
Δ
Θ
Ι
Κ
Λ
Μ
Π
Ρ
Σ
Τ
Υ
Φ
Χ
ά
έ
ή
ί
α
β
γ
δ
ε
ζ
η
θ
ι
κ
λ
μ
ν
ξ
ο
π
ρ
ς
σ
τ
υ
φ
χ
ψ
ω
ϊ
ό
ύ
ώ
А
В
Г
Е
З
И
К
Л
М
О
С
Т
Ь
Э
Я
а
б
в
г
д
е
з
и
й
к
л
н
о
п
р
с
т
у
ф
х
ш
я
і
א
ך
כ
ל
מ
ר
ת
ᵃ
ᵉ
ᵒ
ἀ
ἄ
Ἀ
ἐ
ἑ
ἔ
Ἐ
Ἑ
Ἕ
ἡ
ἢ
ἰ
ἱ
ἴ
ἵ
ἶ
Ἰ
ὀ
ὁ
ὅ
ὐ
ὔ
ὤ
ὥ
ὦ
Ὦ
Ὧ
ὰ
ά
ὲ
έ
ὴ
ή
ὶ
ί
ὸ
ό
ὺ
ύ
ᾶ
ᾷ
ῃ
ῆ
ῇ
ῖ
ῥ
ῦ
Ῥ
ῶ
ῷ
–
—
―
‘
’
‛
“
”
„
†
•
…
′
‹
›
※
⁄
⁴
₁
₂
₅
₆
€
₹
₺
₽
₿
℃
™
⅔
⅛
→
∪
≤
⊙
⑇
─
│
║
■
□
▲
►
▼
★
☨
♦
✓
✚
❖
第
##r
##i
##u
##n
##f
##a
##s
##c
##l
##t
##o
##v
##é
##x
##e
##p
##d
##q
##L
##ó
##T
##b
##k
##h
##m
##y
##ü
##S
##Ü
##I
##R
##A
##E
##Í
##U
##0
##g
##3
##á
##1
##j
##í
##ò
##C
##B
##Q
##z
##Y
##M
##V
##ñ
##Ã
##©
##W
##G
##5
##J
##O
##D
##9
##N
##8
##6
##P
##Á
##H
##°
##2
##K
##Ñ
##Ó
##w
##Z
##ú
##F
##4
##7
##±
##³
##É
##ã
##º
##®
##Ú
##ö
##è
##£
##ā
##X
##â
##™
##ρ
##γ
##ά
##ω
##ô
##̃
##ì
##ί
##τ
##υ
##ς
##ç
##■
##ν
##α
##ζ
##η
##σ
##μ
##ε
##ο
##ά
##î
##½
##à
##ª
##κ
##λ
##ń
##έ
##ï
##ê
##æ
##û
##ē
##₺
##Ç
##ù
##℃
##ι
##ō
##ὶ
##È
##ό
##ë
##¨
##ὐ
##ὔ
##ό
##´
##ä
##ύ
##õ
##œ
##€
##¥
##о
##ᾷ
##δ
##ῶ
##ø
##Æ
##ı
##¢
##Ö
##ň
##с
##т
##р
##а
##п
##ᵒ
##⅔
##ş
##β
##ή
##Î
##φ
##ϊ
##έ
##¼
##ὺ
##ğ
##Â
##×
##¤
##π
##ř
##ή
##¦
##ů
##ί
##ū
##å
##Ő
##♦
##►
##ő
##ć
##л
##¹
##Χ
##Θ
##Υ
##Σ
##χ
##θ
##¾
##ᵉ
##Ň
##ш
##в
##г
##н
##²
##ż
##ἰ
##ῆ
##ῖ
##ξ
##ἶ
##ł
##ῦ
##̈
##ű
##❖
##Ê
##Å
##и
##е
##ą
##ὰ
##ὸ
##ὴ
##ὲ
##║
##д
##і
##ר
##ת
##ψ
##Ï
##̄
##х
##й
##ώ
##⁄
##₁
##₆
##к
##Ò
##ל
##א
##ך
##ͬ
##₿
##À
##Ь
##š
##ἴ
##ῃ
##İ
##ὅ
##я
##Ł
##Л
##Ô
##ἱ
##б
##з
##Œ
##ᾶ
##И
##Т
##Е
##О
##Г
##₂
##ύ
##ī
##ś
##ῇ
##ῷ
##Ě
##│
##Ä
de
##os
##er
##en
##as
##es
##an
##ar
##on
##ue
##or
##ci
##ad
la
que
en
##al
el
##st
##ent
con
##in
##do
##ab
##re
se
su
los
##ra
##om
##ri
##ro
##ti
##ón
un
##la
al
##ta
del
##di
por
##un
est
##to
es
re
di
##ado
##le
las
##te
par
##am
in
##ch
##li
no
##is
##de
com
##ente
##ol
##ción
cu
##id
##ca
##ia
##ía
##ui
##em
##res
##cu
si
des
##lo
##ran
##tu
##cia
##que
##co
para
pro
##io
ha
##ada
##ce
to
##ero
##gu
le
##tr
##go
##ob
hab
##da
lo
##ier
una
##se
##ues
##uer
##ando
sus
##aba
##dad
##ones
##mi
##ec
##vi
me
##si
##pa
mu
##ter
##mp
##ien
##mo
##ir
##los
##ma
ca
como
##ados
##fi
##tes
an
##tos
##dos
##era
##za
##án
##ento
##il
ex
##ué
po
ar
##po
##ist
##tra
##el
per
##tar
##ales
ci
##gun
##ás
ma
##pi
sin
##cho
pa
##pe
##us
##ciones
##tro
ac
res
##omb
##ores
##les
ser
mis
##ras
El
mas
pr
##las
man
##encia
##bi
##jo
tan
mi
##tas
##ga
ob
cor
##idad
##ios
ent
##lar
##va
na
##vo
##me
##én
##lan
##quel
San
esta
do
##ener
##aban
En
##tor
pre
##ru
aquel
cas
##ib
##ic
##mente
este
##du
##ez
##der
##ara
##mos
as
pue
##ían
##das
##qui
##tan
sob
##cio
##mb
La
##cer
##ces
dos
pri
ti
##pañ
ap
##gar
ab
##tros
ten
ni
##ur
más
##ve
don
##endo
lle
##adas
gran
##ten
##ul
vi
ver
pres
##ina
##no
car
pas
##amente
pe
##car
Est
##ver
imp
sa
fuer
mo
ba
##cas
##um
##able
18
sobre
##ino
Al
##den
esp
##asta
hi
##entes
##cion
for
##tal
##entos
##cha
era
Es
##je
##ión
##ida
pero
entre
##ante
qui
sal
Re
##ba
Por
##ido
##ño
mar
##ano
##aron
##sti
##ed
so
algun
cam
##con
Con
hasta
##emp
##na
nos
tra
sol
ter
##gui
##enta
cos
##eros
comp
##zo
todo
prov
Se
nues
##ador
he
##cos
##so
pu
##mas
##eneral
dis
##cias
pi
esc
cab
##qu
co
todos
ju
##rib
ya
desp
cons
##bli
##ora
##ig
da
medi
##ana
##ren
or
fué
##miento
ve
##tado
##ros
##ér
muy
son
men
lu
ad
pues
##ués
prim
##uel
parte
##amos
Mar
indi
##sa
au
##ena
ra
##lig
mismo
##eron
##ven
##par
##chos
señ
##udad
##ombre
An
##des
##eces
##ya
##lam
habia
tam
##lu
##ños
deb
porque
Ju
ven
##ña
emp
col
DE
qu
tr
donde
##tras
tu
##tad
te
am
##fer
##gos
##ja
pueb
cal
##gua
##ín
bien
aun
fa
No
##cios
du
cual
##jos
ciudad
mon
lib
cuando
##arse
##ario
##empo
##pon
##yo
##ierno
##min
Ma
ch
él
Ca
hu
bu
gob
##can
##ern
desde
##tó
les
tien
##ie
##00
##inci
habi
rep
fe
##all
pos
dist
##ún
inter
##ala
##emos
##tin
cre
tiempo
##eg
##iz
##dia
##cen
han
gu
##im
De
toda
##ias
cer
después
##tri
Ch
tom
In
Los
##cción
##fec
may
##lti
##ico
##gn
parti
##dose
fi
nue
ej
otros
##bre
##iendo
##bién
##eci
##per
##anos
general
her
##pos
princi
os
##és
##ese
##van
ella
##ías
##úbli
inf
hacer
##cur
##ona
##sta
##ieron
capi
vol
sab
##var
##gi
##idos
contra
todas
Cu
##til
##ral
fin
Car
##and
también
##zas
##oria
val
##ens
dia
otro
##ior
Cor
mayor
Ar
esto
Fran
pun
pla
cono
##man
había
otra
##ili
can
##rado
quien
dec
uno
llam
tal
li
##paña
ay
ellos
##ombres
neces
pob
tres
sino
##ril
dej
segun
tier
##tura
está
pers
prop
guer
##tán
##dido
##illa
pes
##áo
##esti
san
##uego
va
ro
##lí
reci
##gen
emb
Juan
op
##tre
aquella
fun
##chas
deci
##che
ho
yo
año
ce
solo
años
estos
##arios
##dr
##fe
haber
Pa
##ua
menos
hay
así
##vos
##nos
##pu
##gan
pon
##eza
dar
min
mil
##RI
pueblo
Su
ele
15
##guas
anti
vez
##cul
##oso
orden
##fici
cri
##gra
##tud
señor
nombre
##ís
dicho
princip
mor
##ase
fal
españ
##fes
Cas
##oles
sido
##ene
Com
##lación
##ica
espe
##for
tiene
tro
##olu
sent
##dió
vist
rec
##íti
##rar
hombres
lleg
pal
cada
##dar
##osa
##AS
##II
17
últi
algunos
##ío
poder
##OS
muer
mes
tanto
##vas
mal
##ár
dest
##antes
poco
##úm
lugar
##cri
antes
##empre
##más
provin
mer
em
##bo
otras
España
##ton
##adores
##isi
gobierno
##cido
##cis
of
caus
puer
##pen
gra
##almente
hecho
sigui
##ece
siempre
##men
##atro
vo
medio
##bier
tri
cuan
##gún
##ancia
##gr
verdad
estas
##ER
estaba
##gres
Mon
##adre
guerra
##quí
##cep
##cal
form
tierra
##ria
##tir
##gles
##vid
ins
##ES
Lu
##cado
ade
##ición
allí
ne
aunque
16
##tivo
natu
##ble
hizo
##cito
##ge
Las
##jas
##ió
##sto
##pec
mej
puede
Jos
cier
##zar
enem
casa
exp
rey
To
mun
hist
Si
Des
##tamente
encon
##ifi
núm
den
##ísi
servi
##ac
##dó
real
entr
pol
##argo
##stitu
mucho
tar
segu
autor
##éri
##ública
##ves
##udi
vida
Pero
dere
##he
is
Gob
##cil
##len
##tados
##ud
ocu
##onces
##zón
##eras
efec
##ura
Santa
nin
##lor
##có
##ques
const
ah
Di
##omin
rio
buen
##eo
tor
10
guar
hon
hal
def
ri
contin
ta
eran
traba
##pas
##ste
asi
##ería
##EN
##sión
fr
go
conse
fueron
##gas
bas
##AN
##ea
##rig
##cía
José
var
Un
qué
misma
entonces
ejér
bar
##vis
bajo
hombre
muchos
##bri
inst
##lio
indios
jun
Gu
##CI
decir
##tis
##inas
impor
cir
ide
produ
##anza
##mientos
##ándo
##ables
##zos
bo
Ped
liber
tras
cin
12
Dios
sen
patri
##ándose
sig
##ST
ley
Val
##ome
##ha
situ
especi
nuestra
##iente
Par
Lo
##gre
fu
consid
plan
Le
sos
esper
##AR
et
##edad
Per
fran
##taba
grande
punto
##zg
hor
grandes
escri
ese
tem
##AL
demás
ami
sub
Co
temp
##embre
Na
##idades
##ll
##lla
Pedro
##ctor
nuestro
##rante
##ribu
Francis
aquí
As
reg
hacia
luego
Sr
##ñas
##inos
##ible
##ami
cuatro
encontr
##mento
##dado
cuer
##ON
aquellos
consi
ir
quer
##uso
rev
Man
exist
##ito
dijo
##idas
dice
haci
##ser
modo
##br
##vor
dias
cap
número
11
##día
##cular
##tantes
present
Que
14
casi
apar
Francisco
acu
nada
##sos
estado
##lidad
ejército
Ba
pueblos
llev
##tia
políti
##jer
habian
hace
##tí
país
Bar
estable
##via
##iones
condu
Pro
esa
##ian
natural
##tación
Mé
##cación
Am
obje
##ecer
sí
tran
Este
##ruz
forma
##cun
noche
só
sup
##cono
ru
pron
Sal
provincia
##cimiento
Bu
mili
Me
##ció
##tores
cuanto
cuya
##tando
algunas
##orte
person
je
fam
conf
conven
alguna
##cti
ante
13
cuyo
##ne
hall
at
dé
##cor
##uir
cr
pudi
veces
##ación
000
##tada
##mon
##endi
primera
##tante
Po
##ion
dio
peque
edi
palab
mejor
armas
##éndose
##eli
hoy
##esen
causa
ellas
##bar
##dados
conser
ofici
via
camino
##igo
comun
##fa
ofre
resul
##uro
descu
##din
der
mom
##tá
Señ
##tiva
tre
Rey
##jar
desa
super
dire
##ración
noti
##cre
##vió
fuerza
##cional
Ro
20
##onel
unos
tes
Mi
##glesia
cuar
##g̃
distin
sea
##ficio
##encias
agua
cuales
ción
##rió
Bo
##yos
Cal
##oma
nuestros
af
Gobierno
Para
ref
levan
juzg
LA
##leg
##éndo
manera
Ha
obra
##cel
publi
nomb
cont
##idente
obser
repres
##ced
nuevo
##aria
mos
##una
igu
##ile
##greso
##erio
##vía
##ernador
##ág
Don
reun
arro
españoles
##enas
ori
encu
inde
hici
##ita
##table
##dio
tener
##culo
##ho
Estado
##mar
##jes
muerte
##mpli
públi
apro
##torio
##ust
##dan
##bió
##cter
Ab
##val
capital
contr
##gue
##OR
muchas
pens
mujer
suces
##cta
##dir
día
están
##IST
comer
Col
efecto
famili
##uesto
comple
cent
##lado
##dencia
primer
propi
hubier
Sa
relig
padre
mundo
Anton
mano
declar
##ici
neg
vista
cosa
clas
vir
embargo
có
rela
##eración
Gran
##gado
##tio
Esta
##fo
##áb
II
lla
tenia
##ni
##media
ban
rom
##tiago
tuvo
ahora
bre
favor
seis
##ría
llegar
##olución
apo
último
bra
cabal
##tel
recib
ningun
caso
##uelo
General
ou
##ere
das
Mu
continu
tienen
debe
Vi
admi
circun
##dida
habían
cosas
defen
estre
##enos
##cin
historia
épo
##ima
Antonio
siguiente
bus
##it
##AD
##yó
on
Santiago
hemos
##IC
consider
25
ún
##por
##ritu
##LO
##rden
##sted
acom
antigu
##cto
##cl
gente
Rep
Ex
##terior
diez
##iso
isla
leguas
fue
ata
CA
##ete
cerca
##sion
##guir
objeto
particular
##entras
So
civi
##g̃a
fra
libertad
recono
##ítu
batal
##respon
##icos
##fica
estaban
siendo
escu
justi
##vers
dado
##dor
##enda
lado
encuent
partes
##amiento
##mentos
caball
ag
adelan
##taron
blan
compañ
inmedia
felig
costa
oro
tos
fuera
usted
##áti
##ira
encar
Te
conqui
##uido
sólo
plaza
##cial
mir
militar
Fern
mente
Qui
soldados
respec
##rando
Cab
##jecu
cinco
##llo
##stan
##pan
fues
gri
##don
aten
##ju
##tido
parece
##tumb
emple
##onte
##uela
estu
##eno
cuerpo
extra
minist
visto
##ama
primero
gan
algo
preci
ase
tarde
##vin
cora
tér
gr
enemigo
compren
30
paso
lar
correspon
mando
##tivos
diri
##cciones
constitu
puesto
población
Is
sir
fuerzas
##dez
capitán
##unta
##vieron
##emb
cabeza
HIST
hum
##reg
##ispo
noso
qued
interes
##lá
Can
acer
difer
##minist
tropas
dicha
19
terri
##char
Mo
##lica
##iza
valor
pen
durante
personas
ocas
##tera
##ental
casas
sola
frente
##fun
vein
indu
fir
terren
algún
##yas
domin
suce
##isión
pin
##vamente
##ctu
##ór
ár
Pe
nosotros
mui
##rez
respe
cuad
##iores
lan
##uestra
villa
pais
nun
colo
éste
campo
##iera
Mor
fon
razón
##érica
momento
época
persona
##gó
##com
cul
Francia
fá
hijo
24
suf
aquellas
Nue
cumpli
##íritu
amor
##be
22
Cam
21
Méx
dese
##ial
##ORI
##ban
##tener
##gular
##ciendo
envi
Señor
##cada
##entar
manos
movi
##eles
##ista
##ini
amb
mani
podr
##ger
##olo
##rir
herm
##alo
hermos
leg
##ficios
México
##quier
mí
Mad
acab
derecho
er
Tor
habitantes
##cida
cuenta
respon
puerto
##ará
Do
##posición
ocup
##arca
cele
ejecu
##clu
us
##lust
poner
Ja
siglo
sep
comba
ur
aguas
cierto
mucha
##cir
##vent
mater
figu
ojos
conce
##guar
cien
etc
vuel
##bido
ces
patria
aband
##ires
23
Pres
confi
ocho
##ula
redu
bel
nao
jo
##IL
##anas
pag
nes
##osos
##ris
contes
veci
atra
refer
##zado
mientras
paz
181
##iro
##ares
hubiera
##igos
carta
##entas
República
##iciones
##dades
sor
##ismo
##osas
seme
ol
presente
pied
##icas
##RO
iglesia
dad
indepen
##nas
##cados
María
##ber
partido
América
nunca
##rid
##quiera
inte
desem
opin
colon
##éis
##eric
##ítulo
alcan
ge
comen
##IN
sur
visi
##titud
eso
##ácter
##bas
duda
##EL
mem
buena
##cultad
##onso
##lici
fru
estar
##TA
##rdenes
satis
pregun
manifes
varios
cara
vas
perten
abandon
lín
ello
##cid
##ÓN
##toria
##cidos
coronel
##gna
##elo
elec
nego
Perú
Capi
instru
##vidu
Or
##xi
bor
saber
llegó
nueva
falta
##taban
##zó
abs
##unci
todavía
halla
artí
espíritu
tomar
Chile
Ya
conci
Ale
escrib
##inación
principio
clar
182
##vado
28
Gar
llen
recor
semej
##resa
Yo
26
reco
Luis
##tió
##tran
arm
##rera
ejer
##dición
##eta
primeros
tenía
alma
##ósi
hijos
Sin
Jo
señal
##eció
idea
##tario
27
tenido
estudi
esos
sua
mismos
mad
##diendo
##chi
##alidad
suer
calle
carácter
Real
##izar
sitio
##stas
volun
##tales
asegu
hos
##diente
abun
##ORIA
Como
Qué
fo
monta
enemigos
jeneral
español
pasar
vin
Manuel
##ema
gas
exten
ao
##dí
deter
desgra
##edo
permi
um
##ñana
##amento
pelig
##ró
Buenos
be
##eran
ses
gobernador
##rey
##TU
##erdo
num
##RA
##ye
profun
##yec
trabajo
jefe
pág
triun
cristi
corri
##dias
administ
##rados
política
anim
id
lí
bastante
unas
segundo
nación
acompañ
secre
Cuando
voz
##cuencia
marcha
religios
van
principal
##ísimo
será
##crip
##rio
corre
igual
pesos
pesar
Castil
Du
Madrid
fer
##uesta
gar
HISTORIA
Rio
espa
disp
hubi
perman
##rada
pudo
##ix
infor
185
len
ilust
##oro
constru
divis
familia
llan
obst
ron
##illo
##iego
DEL
actu
mand
mañana
órdenes
nuestras
media
conv
justicia
##OL
##omo
##cientos
pad
Aires
##esta
aum
clase
Pas
gal
expe
enfer
##gáo
palabras
##andante
sangre
CAP
fuego
ejemp
Vil
soci
##ecía
pocos
##th
pronto
##dían
suerte
186
Norte
##ts
sé
obras
ninguna
##ecido
fuese
llamado
##ron
##tín
Gua
pueden
Ci
posible
cuid
principi
cia
individu
the
iba
Ori
luz
##arias
proce
##tun
##mes
##culos
##gación
##liz
ren
##ire
bal
nu
##vel
29
##inta
vic
Min
estra
oficiales
##pel
noticia
##ari
##ola
leyes
##ctos
dirig
pasa
cob
provincias
retir
honor
##tadas
##empos
resist
descubri
costumb
int
##cí
cá
fre
habiendo
cómo
inv
podia
territorio
##orn
##ezas
sacri
terreno
testi
ali
preten
##cad
pasado
##TE
##adie
alto
##imiento
##fico
##gal
cé
##dem
decre
fuerte
come
vino
puerta
veinte
servicio
##rag
dentro
##rá
Monte
hicieron
pró
Feli
Estados
nacional
##gü
gen
Fernando
palabra
Hab
III
Euro
##ecen
Mig
hora
recu
Carlos
dor
hacen
Tu
EL
hubo
Fe
pública
cur
somb
Ob
enter
##laciones
reino
días
##enci
##rales
Mas
##dios
##ído
##siones
hechos
prue
##cían
##eral
Cruz
anterior
frances
tiempos
gener
termin
##stancias
oblig
Ten
tales
##turas
ví
##stos
Villa
sist
##rido
Entre
cho
Desp
ima
público
varias
vie
184
##quer
##gosto
apre
cad
nave
183
salir
##inado
ocur
Miguel
repar
Una
VI
situación
Así
necesario
pros
Ri
##rica
autoridad
##lem
##dal
##tarse
tas
##bio
Santo
##esa
31
dan
proyec
pan
horas
##vación
puntos
venta
esf
##iene
ras
interior
Hu
largo
Sur
##unto
inm
Pla
pies
##cando
especie
aux
##íamos
necesidad
uni
corazón
aleg
motivo
Hist
trib
Ta
##ine
deber
##ientes
importan
comercio
llevar
##ender
propor
dejar
Europa
dol
trad
##ono
bos
mais
quienes
im
##tur
mandó
Vic
az
pala
color
Go
Era
repu
represent
##vir
puso
har
##eraciones
superior
Ay
prote
cabo
##ges
Ra
##istas
##yendo
##RE
ros
señores
cubier
Cá
Pue
##CIÓN
amigo
Her
jam
##lón
plata
##cip
50
##ildo
ign
##ing
obli
##uda
##vil
revolución
principales
Tam
##rer
docu
esas
presidente
##dieron
##tz
auxili
##tería
il
vesti
##bu
arri
línea
##ror
gol
lab
ec
haya
Gal
quin
organ
##ment
apenas
tur
##ji
influ
##bles
colum
recur
tin
##gla
expres
Domin
debia
oc
##poner
##tía
ga
siete
Jun
corte
Gon
dif
##cimientos
ng̃a
suelo
ningún
Cer
aún
##tidad
187
##rito
árb
tribu
nadie
cargo
separ
Pi
conver
##gnifi
escla
40
hallar
hablar
Desde
##lia
americ
vecinos
##mino
antiguo
propio
Diego
impos
##tivas
confor
Ve
##LA
perfec
##pre
Be
dom
##ridad
##caba
Cri
##irse
##TO
vues
##TULO
meses
tantos
Después
conti
IV
##pir
##ándole
adelante
oril
sabe
Cuba
din
##tifi
lig
haciendo
##tador
distancia
##lad
##lores
acep
##ús
alguno
fund
libre
ideas
segunda
dign
Puer
##ctubre
capa
pl
bene
qual
Pal
naturaleza
volver
Nueva
entrar
fácil
Carta
Ber
opinión
obe
and
difi
##lería
##édi
##aro
Ser
##hi
##terra
##UE
circunstancias
##parta
prove
respecto
##grad
Minist
madre
medios
##tiembre
reb
Ver
compon
sociedad
##pt
perse
##tón
indust
Pr
Qu
Congreso
añ
noble
prob
inten
consigui
empez
##mil
rios
lon
##ísima
pra
batalla
Ingla
Pre
##vera
Ven
llegado
abund
común
##tarios
ocasión
##TI
##mó
bril
rode
iz
##gía
quedó
patrio
derechos
gui
defensa
##ósito
##este
##lon
##guido
##jeros
centro
viaje
amigos
##loria
determin
tanta
procur
cuesti
##bal
##iles
movimiento
ambos
jui
principios
Cór
conocer
casti
ense
pobre
vio
##erador
sistema
acor
vos
podido
avan
##qué
áni
antigua
dando
##té
##ciembre
empe
raz
cuyos
divi
voluntad
##tico
Ce
equi
salió
piedra
diver
cañ
##onse
Presidente
concur
Ter
##tuna
##OM
EN
entrada
eu
##icip
##xo
##jero
importancia
memoria
esfuer
Lib
fondo
Id
##mbre
rique
##ordin
##tl
##didos
según
##jado
Felipe
ber
RE
tierras
término
libro
evi
##ND
ll
##zco
dirección
ingles
##tismo
##tero
viol
##tica
mez
prision
río
Inglaterra
absolu
sorp
Ur
urna
trabajos
##zá
##diciones
virtud
valle
cau
joven
##III
nar
menor
##lez
Martin
mujeres
aba
rob
Castilla
Sus
##xic
ado
tranqui
ésta
prepar
verifi
Je
XV
calles
pelo
trans
dieron
lengua
Pu
altura
##íos
caballos
Julio
##inar
32
última
suje
suel
##monio
##vio
lejos
llama
tomó
##rique
desta
independencia
artil
seria
##isa
##eas
##teriores
amar
división
sue
multi
##zan
repe
dichos
maes
Provin
##CA
##lares
Ah
##idor
pié
hallaba
##vada
ran
##tés
podía
fecha
cruz
Dpt
##fía
##elas
##óme
Jes
numeros
eleg
dic
pose
comunica
cuyas
##ilo
noticias
arreg
incl
##cipe
además
gloria
##cadas
ín
pie
pasó
AL
derro
##villa
##ización
naturales
35
moder
##cla
habl
##dientes
##ign
##cab
incon
contrario
##onia
##iere
elem
##ierro
poses
ocul
za
ech
##onal
##brero
cielo
##rible
caballo
##mir
refor
treinta
atención
atre
Guad
tir
resultado
acto
##trodu
gobern
##jico
##uña
He
vent
##illas
##ori
extran
norte
añad
33
##au
preciso
embar
ram
##gada
lin
compr
seguir
##pez
##ñar
ciones
título
Unidos
gén
extre
##íncipe
lic
pene
##caron
##viembre
despa
##mara
tenían
popu
Alonso
aconte
##ende
##idencia
desar
##adamente
edad
Domingo
##gió
##tables
amena
nota
tengo
dipu
Vir
mostr
hubiese
##ted
vig
sepul
conte
origen
único
jue
188
imper
campaña
##pecto
sober
Za
conquist
##ell
##mu
dul
Fr
conde
solem
##taciones
Lor
##carse
queda
Roma
##ír
boca
Au
arre
avis
hom
Cos
##pado
##legio
conducta
##cultades
##cidas
##ensa
empren
##hu
##dri
Del
Emp
dur
consecuencia
insi
##clam
cen
uso
hermano
Imp
Ital
dedi
Lugo
##zaba
magn
##tillo
##cidad
conquista
lími
##mado
Dr
curi
acción
##áp
comisión
doctor
templo
Cortés
fron
impres
buques
bi
##pia
Os
demos
glor
##tiles
Aust
sier
Bal
encuentra
Iglesia
##éndole
abier
gru
servir
##rero
##dill
##gados
##anto
sar
desapar
antiguos
exig
##ablemente
reales
##uca
fil
##abili
introdu
Pues
seguida
ple
León
##lis
daba
limi
ejemplo
propia
36
histó
doc
##jó
escuad
##icia
izquier
conclu
arti
Mayo
##pó
notable
adqui
ocupa
Tom
allá
div
Ade
escas
tropa
oficial
##vido
muerto
culti
aprove
ignor
cla
junto
##llas
##cioso
tenian
naciones
representa
##tivamente
##entado
Gui
despe
pér
afec
dejó
Vera
##uras
solici
exac
comandante
cl
##poco
##zada
##gust
##ré
Esto
LOS
faci
Bra
due
ordin
arte
junta
Gobernador
recibir
##érez
Italia
##GU
##aso
imperio
impe
pena
##gno
XX
Fer
Indias
34
Pon
relación
tantas
celeb
convento
##para
satisfa
Méjico
ciudades
cantidad
100
diferentes
doce
pequeña
Lima
##lones
mayores
destru
reme
jefes
Ne
Pueb
##hua
Tal
volvió
##tenido
metros
sean
Sta
tratado
Res
##iencia
regular
conserv
siguientes
propiedad
Cha
Li
fortuna
180
##tem
gusto
march
##gio
faz
quiere
##nes
##tidos
##crib
hija
##ardo
deben
difí
seu
ministro
bienes
##zob
creer
derecha
islas
##cá
##vidad
silen
Ram
mexic
formar
Historia
##lico
##éase
Puerto
interés
mg̃a
presencia
##vol
##ácti
resol
dep
##eda
cole
doña
nas
Sol
individuos
entu
##anzas
apli
##uri
solamente
Martín
ben
Mer
infer
república
regi
iban
##entemente
##dón
##ENT
dejando
contemp
juris
##abana
alta
##isco
##san
##didas
##yen
acuerdo
##loso
oficio
acerca
exam
trata
Ciudad
agrad
##lom
Guer
reser
insur
Ni
##sias
semejante
palacio
##sas
##ram
pueda
opor
prueba
##grá
##ED
##abri
Capitán
revolu
recom
##yeron
Portu
esca
##ale
contribu
espacio
intereses
últimos
37
agre
##yor
Sob
##ioso
decreto
cha
señora
##pes
acos
má
tendr
céle
##jen
apoder
45
##lada
már
tamb
orig
##diencia
cualquiera
pequeño
mara
bon
reti
capitan
sentido
titu
española
entra
##cepción
##ame
buenos
artillería
##gin
some
##su
teniente
debi
Oc
sum
nom
Granada
enci
lugares
recursos
##guez
edificio
dolor
##sp
Alf
##dra
##iódi
padres
##ches
##quía
##tase
aire
##ablo
actual
jamás
##abel
##vier
##ligencia
##cés
necesi
##mbo
mismas
hacienda
##terio
montañas
mol
##ler
supre
##lante
asist
Nic
miser
SE
presenta
delante
depen
##ierra
buscar
Todo
38
há
existencia
##guay
importante
nueve
cru
desen
##dicion
Valencia
Aun
Agosto
##tida
poca
Ovi
parecer
##tilidad
##minos
dió
Cap
combate
costas
total
Bel
##lados
##stica
##lin
##grado
olvid
ale
##gent
fan
sucesos
Pan
encontrar
Sevilla
oscu
costumbres
demas
##abe
recibió
nombres
inmen
Abril
mencion
Mr
especial
Ho
##ruir
adop
éstos
Pri
descon
tuvieron
famos
empresa
##udo
nuevas
##tudes
pudiera
moral
##iá
acaso
civili
br
árboles
dob
##deo
ador
militares
##orio
reli
euro
signifi
dinero
dem
Esp
##cuenta
simp
Conse
franceses
aspecto
##imo
##iano
términos
aj
pá
miento
apres
guarn
terc
##posiciones
##ledo
debía
##cepto
civil
siglos
##IO
##endas
##stitución
papel
##quez
impon
arriba
##rón
municip
XI
profes
sem
dios
##tion
##idores
cli
Pag
escrito
relaciones
peligro
##IS
Hay
##raba
##iosa
acre
##viese
lucha
##ál
García
39
Coronel
sería
##itos
has
ciento
recibido
##óse
evitar
periódi
##rán
prácti
##iado
cuidado
funda
##rasil
propósito
##jan
##tellan
agu
##isla
##ade
compañía
Córdo
posición
##gon
peligros
sul
Art
izquierda
ingen
Junio
##col
grave
confianza
##stico
caballería
##mania
quiso
obispo
jar
##asen
Maria
42
perder
Ben
##trar
##sar
##posi
atraves
60
Oviedo
prome
administración
llaman
##igu
larga
nuevos
hacía
obstante
déla
ambi
cierta
triunfo
juicio
artículo
deseo
verdadero
campos
socor
##rano
murió
##cripción
breve
##isiones
quis
asunto
materia
cincuenta
lleva
ine
Austria
ases
siti
##guna
##garon
##ciosa
desarro
##tuvo
##cerdo
##tiendo
dicen
sufici
ala
Andr
europe
ast
juz
Bol
tampoco
Ga
Mun
##lid
consul
##quia
portu
confes
##camente
##ocu
##rieron
##qués
observa
Enero
##eses
Octubre
condiciones
##icamente
alim
##ICA
##uco
Isla
##guen
500
##ph
familias
Bur
Bern
CON
alar
triste
##zación
##rea
48
ES
deba
exper
##ant
caracter
descono
divers
##erto
nie
corona
cuestión
gentes
resp
remi
Mal
ejerci
servicios
generales
descan
seguridad
curso
41
suma
político
salva
Estos
teniendo
##cionales
convi
##pital
##idi
##rad
resto
méri
causas
rece
algu
200
tú
refle
género
Ang
descen
##idade
cambio
conocimiento
fusi
cuerpos
figura
primi
Mag
##trás
Alemania
Hern
##ferencia
proces
quedar
##IA
Joa
##lesiá
ora
situado
brazos
##radas
minas
##bios
##CION
##tró
##veres
##cam
departa
cura
haberse
##uestos
muertos
Habana
alcal
manifi
conj
sorpren
##tres
Españ
Provincia
##jeron
##stancia
##ctores
ninguno
victoria
predi
grado
##ision
conden
44
habla
##ló
medida
##iscal
##uf
quién
monum
##caban
Diciembre
Marzo
43
indí
difícil
santa
imposible
origin
Doña
mist
pode
che
mitad
conocido
espec
discu
frecu
aver
ocupar
mag
resolución
##tara
Colomb
enseñ
feliz
posesión
afir
privi
SAN
viene
francés
Plata
resuel
atribu
entusias
seguro
triunf
Junta
esco
##zon
Dia
estuvo
##dillera
Portugal
Có
blanco
ánimo
comunic
operaciones
##sula
sacerdo
multitud
##eme
tomado
situada
##áis
Tra
Ad
##ecían
industria
##IB
disposición
Toledo
pul
##entales
Ap
##riendo
##vador
vuestra
pec
##ERO
Fu
momentos
proyecto
conveniente
alter
Fué
##dores
##juzg
##venir
infan
parro
Chi
##ICO
salud
án
##llos
virey
aus
rig
mala
fortal
consejo
reyes
monte
perj
forman
Blan
pier
celebr
senti
manda
montes
inmediatamente
enga
camp
##abilidad
gun
##izado
proporcion
##úa
invas
semb
##sul
constante
tribun
flor
##jada
eter
##mer
confir
##emente
religión
suspen
cualquier
encuentran
##vados
##UM
##CO
tí
efectos
jurisdi
puertas
##lido
tomo
hallan
ambas
caci
##yan
cuarenta
##iros
primeras
existe
sigue
AR
recon
ídem
ble
protes
llu
raza
conforme
##eres
parecía
CAPI
elementos
igualmente
##uma
discur
##uti
arran
firme
##aría
pronunci
viento
##gel
oportun
suyo
ido
autoridades
regres
Todos
flores
##pli
sim
Ros
edu
##vios
##canos
Coruña
silencio
rebel
traslad
Sar
desgraci
##ramos
venido
apos
##tina
entró
##cano
##mina
Son
vul
tab
##tim
##tedral
Vicente
##quisi
miemb
46
Aquel
venir
completamente
pagar
rei
##ático
##ines
llegaron
Barcel
negro
edificios
sacar
completa
adver
despo
sencil
gastos
castillo
esfuerzos
##rup
##zaron
sospe
cartas
humil
Reyes
documentos
##poli
desempe
47
hero
##ure
nombrado
llega
morir
datos
##ciosos
Ara
##usieron
espi
##OB
singular
Brasil
decia
Va
##xim
poblaciones
##zando
prisioneros
negocios
##arlo
practi
verdadera
prom
Véase
bur
##rase
llamada
##arquía
##gri
También
##ecre
arras
querido
##viendo
jur
##anca
##zados
aca
anu
##arle
compañeros
##rían
príncipe
AN
respeto
golpe
gover
baja
jorn
gracias
célebre
negros
tratar
piedras
##vención
hacerse
destin
precipi
prud
base
casos
contestó
fuertes
influencia
foi
decía
actos
mandar
vuelta
##uelas
congreso
apa
ape
entender
expedición
##dian
##ctura
riqueza
cuantos
bár
##ínsula
abo
##tla
sosten
públicos
pocas
##adora
toma
cabildo
citado
esperanza
dejado
vis
distrito
estando
deja
soldado
medidas
salida
reina
##stit
desembar
pobres
1a
occid
creo
cuarto
caballero
particulares
habría
##vó
defender
terrible
ria
Da
acti
objetos
emi
##untamiento
perdido
##rico
##cieron
Ministro
##arla
encom
##imos
##ham
ep
costumbre
jó
##ñado
##entan
desgracia
##ck
Cre
animales
##sist
mandado
límites
Pérez
Cara
##esto
felici
precis
##cencia
consiguiente
pensamiento
Lon
##stó
##cra
55
Barcelona
##end
histori
doctr
##ficar
##grafía
resistencia
##edes
eclesiá
quiera
##pone
##ñez
columna
castellan
ner
tenemos
diversas
Noviembre
Ana
##entó
Catal
institu
lá
##cante
sentimiento
sú
consa
aguar
abajo
##gena
ademas
cruel
##are
pedir
mesmo
descubier
clases
##UR
presentó
corriente
Colombia
##viera
Sil
hierro
oriental
nove
##ID
sostener
tado
##aran
##pira
viejo
ost
hé
piezas
IN
remo
Sen
##tidas
mú
anteriores
magní
espres
niños
##cón
PAR
##sen
##ide
##video
##oló
hermosa
##mación
##mada
bosques
##dente
obede
comb
diciendo
gobier
lad
alu
paci
puente
Córdoba
agi
##cao
cerro
##cruz
Febrero
enferme
estim
hacían
Jesús
recha
##usa
lhe
partida
Padre
emperador
fábri
Estas
fuesen
cristianos
convo
amist
ciencia
For
vícti
siquiera
llevaba
Pala
afi
##ys
madera
ja
Enrique
inú
cubri
Conde
##gando
llegada
males
capitu
minu
design
esten
agri
razones
##omas
Enton
49
podría
conten
##eiro
fines
Andrés
especialmente
##sim
##iales
recuer
Consejo
podrá
Señora
##hor
contar
##mirante
##ite
CAPITULO
##gro
duque
podían
##ella
extraordin
abra
##gadas
dirij
cuadro
##teros
Mayor
Eu
##zobispo
grues
##tieron
repi
pela
supo
bri
posi
##xto
ino
##garse
perpe
Bre
despre
00
sr
notables
merced
##tana
destino
expli
##ses
taba
##tua
misión
##trio
mejores
##amble
pele
vivir
elección
compar
cel
peso
##mor
ing
avent
non
jóven
santo
nombra
80
##teca
próxi
superfici
Rom
hermanos
éx
Entonces
ciudadanos
Audi
orillas
Ru
estudio
comunicación
kil
caer
insurre
##ÍTULO
ataque
desier
Montevideo
cuán
diz
##anda
Agust
soy
hecha
Pen
logr
social
fle
seus
aco
adu
aqui
##iga
Ger
##cr
teatro
Jefe
##erías
compa
Flor
orilla
estran
##iéndose
formado
esperar
##ibles
conciencia
libros
colonia
digno
##sticos
poli
supli
enor
Gonzá
##arte
altar
##tándo
51
fati
##ática
repro
##ábamos
aqué
puedo
52
suceso
artes
instante
Bor
##etas
diversos
Sí
##estas
aprovech
legua
buque
establecer
##uo
##oración
pérdida
mesa
apla
Vall
alde
Bas
##pal
LAS
##vían
única
human
demasiado
tol
ingleses
th
##sado
##orias
compe
Liber
##gica
persu
CAPÍTULO
incen
batallón
pasos
##ezuela
##PA
irre
indio
trono
cató
temor
ré
179
##torios
cambi
capilla
##anes
espan
consideración
ves
vel
vapor
##CIA
##ívar
construcción
ofrece
archi
gracia
almas
##osotros
armada
ham
Constitución
escal
mérito
##tlan
##enen
concl
##ord
restos
González
establecimiento
acostumb
arbi
##eos
copi
sombra
sil
54
lago
consta
inju
##vedra
##bra
##ficos
56
Gra
Castro
ascen
##dula
##ariamente
debió
Allí
##ónde
vecin
##frica
##idal
Sab
evid
calidad
Grande
completo
Fé
##et
éxito
mayo
##quina
aos
econ
cadá
caminos
llamar
53
##ecieron
##ison
importantes
fres
torre
quería
idem
esclavos
perío
##dre
reconocer
vieron
guarnición
asal
viendo
suyos
##ego
Alcal
local
clima
prolon
Veracruz
aque
##eren
invi
##tándose
quando
ancho
##amientos
dispu
buenas
Mel
caudi
##cultura
quo
##tecas
Isabel
admir
rendi
punta
popular
##vuel
Dos
millas
Puebla
bah
encontró
##diz
Igna
incor
Lopez
envió
países
culto
Paris
ganado
ral
escribir
daban
imi
rin
abril
ilustre
Reg
band
semejantes
tru
Nicol
##abal
ques
unión
principalmente
Hi
Asia
columnas
limp
calor
##lando
trist
artículos
Bolívar
Az
##uncia
muger
continua
300
mé
Bogo
ciertos
entusiasmo
Nuevo
##citos
civilización
religiosos
ruinas
##eso
recuerdo
##stru
baj
rib
encer
Aunque
##BA
##GO
##tencia
##eira
Mur
Arag
Segun
portugu
conservar
Casa
cuartel
incom
Valle
##licos
70
pecho
Alvar
##xa
ace
Fa
llamó
##pul
ama
plu
hallaban
espal
##rios
##amo
##ccion
dá
flo
Loren
imag
abrir
##damente
heridos
##rias
##genes
Oriente
tenga
brazo
##cán
univers
consecu
##iden
procu
Setiembre
geo
progres
conseguir
hubieran
##erna
##cro
Ge
##ciales
##sica
seno
fen
presi
Ti
dila
debían
carne
lej
dirigió
##adic
##vista
Sebas
quedaron
##udal
vuestro
##lés
Rec
##sible
cumplir
abri
piso
##amas
miembros
claro
espada
##amblea
ul
enteramente
rej
sala
##ómi
terrenos
##fé
esposa
sucesi
##eramente
##grada
##DO
Fra
corta
58
enti
Tar
prin
bueno
Alfonso
sierra
restable
Obispo
sentir
pare
Ignacio
Tan
diputados
Sierra
##logo
##gao
##mán
sentimientos
inqui
honra
pura
propios
57
condición
escar
suya
##osidad
dichas
África
##ém
amo
devo
gefe
##bro
Boli
cortes
consu
jurisdicción
pequeños
orgu
##fu
Jer
sas
Sobre
elo
quince
quiero
##ército
apoy
detal
##ADO
diferencia
encan
habrá
Cabildo
Oh
##bres
revolucion
hospital
rico
Nicolás
fabri
partidos
##rense
amistad
##arcas
ener
bandera
Lin
comprender
ministros
carrera
VII
##xima
ráp
##iedad
##son
escuadra
EST
haga
##bia
inteligencia
cordillera
##ancias
bárbar
concepto
coron
##usos
##gido
republi
precio
quedado
vari
chil
deses
ciertas
##her
Audiencia
especies
##úcar
178
estilo
##sación
comprome
letras
Comandante
placer
sel
Indios
Mendo
##ii
servido
dulce
delic
exa
jura
pañ
salvar
Navar
prime
cumplimiento
amp
adorn
busca
Nos
prodi
##enciado
inspir
anunci
##ísimos
##gaba
##iblio
##chado
##IV
##ey
deten
##CIONES
##hos
CU
excel
Costa
##tent
cámara
cion
##cau
obis
##didad
meridi
comenzó
guardia
##guardia
carre
##ienen
av
menes
Bogotá
autores
Cortes
Torre
##up
pudieron
capítulo
labor
impul
respondió
basta
Algun
suble
##pie
##quite
simple
Pablo
Zara
humana
brig
conta
cua
Guerra
retra
infantería
llevó
auxilio
##ulo
formas
##unda
Joaqu
digo
enten
##reros
región
personal
caballeros
##cina
##ime
##tino
##usia
pequeñas
escol
separa
CH
vigor
rar
llor
##ieran
sión
mira
lleno
rica
siguió
Concepción
##nal
##cedentes
mejic
actividad
extremo
gua
Nues
dificultades
tercera
59
onde
agosto
##uestas
##taría
##idamente
##EZ
correr
agra
##ega
pone
puestos
ñas
##ff
Nuestra
apreci
##enca
Quin
exclam
colores
deli
referido
formando
##tano
##mba
remedio
##ensas
canal
##bilidad
##EM
moros
PA
Uni
quedando
desor
Sala
Haci
Aragón
superficie
##ruido
##pro
##tuoso
fortaleza
carga
ayud
yer
constitución
tus
considerable
sesenta
hai
frutos
Cristó
salido
refiere
bres
##abo
montaña
##ónimo
vasal
arreglo
leer
adi
salieron
Cómo
##nia
##bil
serán
ferro
Sebasti
NO
##tará
##ERA
conserva
Vallado
##tente
comision
##eto
tradu
vege
blanca
##rin
monas
##entro
##gestad
ee
efica
Rodri
millones
testigo
disf
bosque
##vam
Secre
vengan
pli
Paz
contiene
Pin
##gusto
150
ug
##ila
médi
##iva
hacerlo
fundación
HISTÓ
rumbo
copia
sucedió
##cent
dra
quini
##ágri
##amp
Luego
poeta
sust
oir
prisión
##QU
únicamente
apel
177
Cádiz
lei
##hes
dixo
pendi
vamos
nobles
##untos
Ponte
realidad
descar
soli
disposiciones
##ejo
##édito
período
pod
tribus
resultados
viva
##rump
Patri
Dist
escuela
hayan
ventajas
##daba
tomando
matri
niño
temer
##ela
deseos
asegurar
##ítulos
rein
##ficas
blo
##cara
##dedor
Aquí
Virgen
cano
Mendoza
##rosa
idi
##inda
sirve
HISTÓRI
75
##gios
exi
até
hues
##leta
secretario
##dres
his
existen
Herrera
##ciosas
libres
críti
Valladolid
Ramón
##glesias
##mol
desn
fiesta
##cidente
##cales
lágri
##imen
muito
##ueva
chi
##ali
Tiene
##tían
##uez
fundad
##donos
Vol
##ill
Paraguay
ciu
podemos
julio
puertos
daño
Orense
##jera
antiguas
##ómez
LIB
escribió
##trado
##güedad
capaz
inglés
Nada
mur
##pación
##uno
retirada
log
trabaj
##vadas
##teras
Lleg
Dire
Dis
continuar
abundancia
##omía
MA
##bes
apren
Mientras
cobre
##zadas
##crito
Mol
enero
##áz
mural
Lorenzo
Ej
##taña
##emia
respons
Tri
liberal
##íz
anci
levantar
compos
cár
##adero
ejecución
pap
halló
sujuzg
400
##fos
Lle
obstá
facili
extensión
pensar
##viesen
infeli
CAS
cón
prece
cree
Ál
##has
conoce
##ÍA
elle
inmor
##ándola
vener
##egos
som
Porque
##gip
##incial
plantas
longi
tiran
Th
Gómez
celo
tron
cias
##ciente
capitanes
rostro
##IT
políticos
hermoso
leal
bol
##US
modi
##roso
indisp
##genas
##tones
aman
ministerio
61
promo
CAR
refu
##ándoles
Ama
fama
proclam
##jestad
qua
##caciones
##cua
estoy
##amba
fruto
traer
héro
jóvenes
##abes
entendi
confun
##zaban
##gaciones
Cristóbal
segura
supremo
líneas
cari
víveres
central
debido
exces
##RAN
inferior
Venezuela
bro
ton
fiel
apoyo
##osamente
Quién
liter
MAR
encontrado
##vando
venced
asiento
Hernán
cate
65
##cáo
##ello
Guar
circunstancia
manten
Mem
##ándolo
facultades
Orden
direc
##tt
##pois
esté
pareci
Hacienda
aprob
62
fec
justo
persuad
dignidad
##gem
ahí
##VA
documento
marzo
dispon
ment
satisfacción
visita
lector
bru
monarca
##IG
mantener
##vila
profundo
disper
mento
##inete
marqués
Anna
mister
Burgos
mirada
##raban
hojas
cubierto
##uiz
llevando
empleados
sabido
##rores
administra
nor
levanta
genio
quedaba
americanos
Guz
##anti
alre
##ALES
Reino
declara
alegría
cens
##jara
alf
verse
##iana
##gor
esperanzas
##dando
hol
nivel
Emperador
##drí
Fuer
indispens
siguiendo
Salvador
rocas
dificultad
prosper
Jan
aparece
altos
reunión
octubre
espedicion
grandeza
defini
##ficación
##RES
Cartagena
bis
Vd
##ze
cañones
desper
colonias
produce
##INA
##cula
corto
##teo
espon
Yuca
Quer
supon
##lama
##lano
##tilla
menester
progreso
rea
pidió
ais
París
instrucción
##quen
Gonz
árbol
160
carb
desas
poderoso
impedir
jes
litera
acome
##mbres
ruido
camin
dismin
varas
Rodrí
guerras
Rob
motivos
##íase
Pad
obtener
horiz
patriotismo
exclu
##mien
Agustín
##sis
virtudes
##ribuir
felicidad
alas
graves
inconven
humanidad
vinieron
ejercicio
##reza
inn
dispuesto
mandaba
altas
resulta
resta
reca
##vida
Men
Inf
Neg
Oli
##tiene
##elos
63
##tzin
pú
pár
##sal
##ke
##pole
##iosos
pasaba
Colon
distribu
llena
rentas
Cés
aviso
##ederación
negocio
Mis
bordo
testimonio
##CH
pregunta
Med
matar
##lal
voto
gent
dónde
ór
crimin
procedi
atro
Rodrigo
Antes
terra
suas
pués
##taria
consist
grupo
##ADA
##tea
qne
Santan
suficiente
##MA
azo
##tli
debajo
planta
peda
oficios
vivo
##hib
puedan
##pido
veinti
##tum
regiones
maestro
dura
productos
##inch
##ieren
##boa
asomb
emba
Guadal
derrota
inútil
##LE
##lao
##umen
dí
176
##arme
preven
Sant
Magdal
alem
pobl
arquite
##uelos
##ies
##piración
glo
enf
##ades
chos
legíti
##itas
PRO
tempor
obligado
alcalde
despren
Fernan
empeño
ester
##onde
belle
##UN
Corte
protección
plen
argent
asuntos
##lina
labr
##éano
##tanos
solemne
presa
junio
encontraba
dueño
sale
ries
alli
##bación
absoluta
Ló
defens
lágrimas
##migo
Má
continuó
empezó
formación
marido
ano
proceder
Cali
sufrir
Rodríguez
##rillo
encima
GU
Er
aquello
##ología
##quias
preso
once
Var
jornada
crist
68
alo
Dipu
atrás
##vés
ensa
solemn
##ticos
##siva
perteneci
necesita
campamento
##ard
Em
64
utilidad
sangri
##gran
ald
Hasta
##lida
necesidades
vulgar
ruina
##dase
##lara
vive
andar
distingu
castigo
##ísimas
llamaba
sazón
serie
fui
comien
##arlos
departamento
magist
Álvar
##undo
venia
humano
prensa
Reina
hambre
MÉ
ii
##egas
##érida
error
##toral
darle
soberano
Tla
pusieron
residencia
longitud
##hat
vano
propon
ocasiones
##izarro
impro
Departa
quinientos
porvenir
ricos
francesa
setiembre
navios
perfectamente
mues
##PAÑ
##vero
##visión
ini
consigo
observar
##midad
latitud
bierno
far
llevan
mina
muros
##mita
dispuso
##bor
dominio
##fecto
##chada
Compañ
antigüedad
marina
##ósitos
satisfe
secreto
inmensa
ciudadano
echar
famoso
##drá
califi
generalmente
comarca
arroj
Uru
continente
Are
##amá
rigor
práctica
Magdalena
##iras
##ólo
cerem
imagen
fábrica
maravil
##teles
pago
desorden
Santander
ponerse
oposición
152
encuentro
audiencia
revel
bahía
beneficio
interrump
Mos
fér
mero
##quis
##ement
Bien
##izada
sucede
##lantes
indígenas
cria
próximo
útil
##ví
doscientos
pasiones
Hon
##edor
Nacional
lados
fide
espectá
Hol
ayu
Gonzalo
compuesta
##gara
grito
persecu
##mamente
dicta
comprende
rebeldes
pareció
69
mercan
original
brillante
emin
propie
Pos
##AY
funcion
##cana
laguna
Teniente
Asi
##empla
ás
##fac
##legios
demo
encontra
##gué
Ir
levantó
##UEL
pluma
vé
llevado
insign
##erra
vecino
poes
Gre
##raron
diciembre
ría
quizá
Rosas
Vel
fuente
pien
cump
ani
patr
pasando
tama
físi
masa
preocu
Rafa
aci
66
horror
arru
sao
organización
##vora
##umer
fraga
periódico
despues
patriotas
##ábase
acredi
Castillo
doble
##tacion
##renta
##dario
##mis
entera
Rivera
quem
hogar
##laba
##bara
razon
prefer
Ban
##chs
##abas
Campo
##rí
##gura
##vimos
##amentos
prepara
romanos
oí
##ka
##sticia
invad
preguntó
aves
##áronse
investi
acontecimientos
Ahora
cacique
##gia
pací
aument
##tarle
67
##asi
##laron
facilidad
llo
políticas
##vez
muestra
##ól
kilóme
deu
##aná
##yes
fero
discip
Valdi
##menes
López
bó
##sticas
##chez
otor
quebr
procla
frecuencia
##rarse
##rim
marchar
Jor
##inato
ofrecer
guarda
podian
##andro
tesor
##orado
quedan
juez
grados
aná
azul
##trando
##áticas
estudios
torn
digna
voces
depois
##fera
##ázquez
necesaria
##titu
sabia
occidental
72
inmenso
Barto
enviado
##lana
##ERN
DO
consign
Pontevedra
153
dedu
seguido
religioso
##ual
##bos
judi
observaciones
fortifi
colegio
acaba
Cabo
##ieza
febrero
caba
Durante
reempla
neral
reflex
##rones
producir
##zca
pasaron
públicas
Martínez
reprodu
presentar
##amanca
IX
##rente
Diaz
Tur
letra
armon
##izas
superiores
Pol
##gamos
arco
mila
desarrollo
mayoría
Fili
##DI
perjui
acababa
encargado
já
creyó
##illos
abor
presentes
##adier
estados
pruebas
describ
##cente
crédito
verde
Oeste
escon
Ejército
dije
obediencia
Nor
obse
VIL
della
##árse
iguales
Flores
cír
escena
pudieran
ger
Muer
tros
cabezas
##ut
Dista
vía
saben
155
Joaquín
pase
Cuzco
hue
pis
marin
Quito
bem
herido
fom
vienen
71
llano
peti
Ala
##tillas
##ilar
cubierta
Galicia
Guadala
tambien
Supre
ari
##cum
voy
experim
##jal
publicó
agricultura
##mido
##lera
##goza
valiente
valles
miedo
gab
deposi
reda
175
avi
odio
fácilmente
perpetu
funciones
##dero
riquezas
Trib
cayó
material
##chó
rever
ejércitos
música
##pin
éstas
set
mision
encen
dibu
dispar
habiéndose
nú
envuel
animal
corresponde
cose
81
disi
##hen
licencia
feder
noviembre
##han
alturas
tribunal
ampli
##ampa
fes
obs
capri
Alej
vencer
82
esperaba
resistir
acompañado
propias
representación
##AB
##erales
##éndolo
157
##cien
caudal
doctrina
sentencia
Zam
##adi
Gas
arroyo
instrucciones
componen
esfuerzo
##rilla
Ast
vela
descubrir
mineral
##ándolos
##lamento
tomaron
estación
cio
parecen
154
dip
reunir
apun
Oriental
ang
##ditos
##tadores
nacionales
##quil
españolas
##EO
perdon
Rafael
poderes
destruir
tradición
decirse
dada
plano
socorro
verdaderamente
escritores
##tus
significa
hábi
hoi
contener
infin
tranquilidad
##bur
Rica
provi
pudiese
##pú
156
Lis
##ída
gor
fla
##eis
##tanto
sueño
COM
tiro
##nador
esti
Juli
##éndoles
constitucional
VIII
##entí
ocasion
mue
escritor
##pera
misa
bia
equivo
78
mío
vasallos
##losa
denomin
atacar
##góes
navegación
retro
provo
presos
Palacio
dez
falle
debemos
Pob
terror
perio
Londres
través
plazas
instituciones
Janeiro
##rino
necesarios
guardar
mexicanos
JU
Mariano
pira
sacrificios
ina
##tasen
##DE
jamas
##reo
hará
modes
hacian
fatal
Pizarro
Conf
ara
aren
##eciendo
##timos
##ay
##simo
visitar
##uros
abundante
respuesta
piedad
och
arma
grad
gobiernos
Argent
POR
individuo
LE
subli
XVI
90
distante
Andes
subir
Sim
exclamó
##ribles
Bri
templos
Zaragoza
##gico
regal
citada
empres
merece
Cristo
aumento
Rusia
trato
malo
huer
confer
hablando
liberales
cib
educación
reno
reclam
abandonar
74
votos
##erse
Está
##mio
exci
##dalu
##sima
vil
##gh
profunda
##dencias
Yucatán
Fo
##tab
##izó
##cedente
conjunto
talento
77
aconse
verti
clero
##ós
##ller
entregar
189
espar
Doctor
irri
Sebastian
velo
juzgar
délos
derra
Oro
fij
conviene
83
ocupado
cuel
Ali
##íso
##aderos
caudillo
Mil
158
árabes
ainda
arreba
fondos
necesarias
dejaba
##zones
arena
recordar
consecuencias
Amb
guarde
##iamente
Caball
Nar
##pio
cron
##cemos
##ficaciones
históri
labios
notar
esla
##vias
151
##esas
difun
inh
iglesias
##rue
##cura
quie
hiciese
Príncipe
supuesto
aper
frontera
coro
inmediaciones
enér
ansi
600
76
americano
##ticas
fiestas
inmediata
ia
Il
maríti
Napole
extranjeros
homb
reinado
##entación
opiniones
73
llevaban
nombramiento
Caracas
##cero
##cib
##dice
mul
luna
vestido
intento
Compañía
##yon
paral
monasterio
Hos
ropa
blancos
bién
Dic
habt
nó
MS
159
civiles
toca
arcos
##hia
Io
moneda
ordinario
figuras
Vega
conocida
papeles
playa
despacho
útiles
##darios
tempes
fuga
correspondiente
Cámara
bul
##tamos
##CCIÓN
vaci
debian
##torias
aso
Exc
negra
##idencias
penas
mode
MON
sacrificio
aust
invierno
abierto
incorpor
recin
161
cidade
##cable
pudiendo
##enti
84
enfermedad
memor
cub
Guti
inmediato
hubiesen
Península
cristiana
resuelto
85
##uto
Torres
DES
realistas
industri
Santos
##tez
Tol
Lan
declaró
##rador
fuere
interesante
CO
juntos
##daron
##esar
Sán
##tuosa
catedral
##ándome
##terrán
ramo
idioma
elevado
declaración
contaba
empleo
AM
vuestros
ochenta
hechas
##diese
Valdivia
gre
gig
zo
##lomé
om
ital
descubierto
conmo
Catedral
universal
COR
##uta
ganados
mención
fur
##deras
orgullo
##grados
cun
provincial
épocas
desembo
movimientos
gos
kilómetros
##ani
##dadas
aventur
rá
paredes
Nación
mares
cultivo
##ZA
##ventud
abrió
Puente
propa
##edi
vuelto
Estre
suele
Salamanca
##alla
embarca
regist
juramento
inclin
querer
discurso
ríos
##amen
fol
##dada
desierto
nem
##ciles
salvo
descubrimiento
##erío
prima
operación
##sem
reba
Cada
Medina
##cible
Guadalajara
Cuer
establecido
Bernardo
Lie
fic
sorpresa
##ficado
nombró
hermana
víctimas
filas
ayer
##RIO
sun
Calle
exterior
Aran
##áticos
energía
obsequi
Itur
##cientas
bendi
conducir
vivi
##TAL
Vo
Contin
##cn
Soci
invasión
##taro
europeos
cédula
##quera
Bolivia
##sito
Comp
estrecho
ramos
ris
produjo
Bartolomé
##seo
pieza
alcanzar
Fray
naves
162
##deros
debo
##triz
caracteres
negocia
juventud
emprender
Blanco
bello
obligación
##gulo
trató
##ENTOS
##mismo
Lar
Toda
Poder
municiones
ordenó
##ins
diese
paga
Algunos
Mara
Tres
bóve
Sac
dose
municipal
Greg
fueran
Bretaña
viven
consum
deman
exe
coo
fas
flu
Poco
Bon
##ÁN
##alco
##ómen
trá
Nu
vid
silla
Arti
disfru
precisamente
César
Rosa
numerosos
Hoy
obrar
bella
comi
navio
unifor
Napoleón
79
SU
##ex
##bol
ayuntamiento
Sud
mensa
detener
##gues
veía
exal
dó
cí
Victoria
##jón
hablado
efectu
aproxim
sirven
policía
canón
crimen
chas
monarquía
importa
Hua
caza
últimas
bergan
estamos
chac
aho
prisionero
grupos
acciones
gefes
##RU
tercer
sacerdotes
##tosa
queb
excep
actitud
logró
##cala
tá
##guió
ausencia
##uitas
##ladas
peru
##cus
tel
##hon
cárcel
##gentes
##umas
nobleza
rie
anno
Már
##ridos
llegando
Cató
##ly
segui
Cons
testigos
##cázar
saque
venganza
enfermos
romano
##unció
##ezca
##bamos
particularmente
gene
habit
DI
religiosas
subsist
Navarra
##jue
Guana
retirarse
pel
reconocimiento
##ux
alcance
fundó
##ecida
cima
sabio
pobla
monumentos
nacido
miseria
##cs
tocar
descripción
minutos
estension
cubrir
##enza
##inosa
indud
##tili
gritos
prudencia
marques
auto
##idalgo
##tte
vientos
Total
legisla
sesión
fuentes
esm
probar
distinguido
jardin
Univers
##case
considera
vestidos
174
bondad
##remos
constit
horrible
Libertador
espectáculo
##amar
pelos
acá
rato
ciencias
cargos
concluir
##leo
##tirse
temb
presentan
cuch
cuantas
intelig
##rimir
oriente
Imperio
Viz
fieles
Vie
publicado
##abia
manus
puesta
gros
vemos
prohi
peor
##iblioteca
pera
Además
recuerdos
Tomás
Fernandez
tempo
##AJ
##íes
arrib
tratados
Muy
recinto
##irá
consent
inex
##izados
Acad
largas
confu
nov
conocimientos
refi
redon
asimismo
Patria
Cuenca
sitios
crea
##ñó
débil
ultra
Ayuntamiento
##arán
dioses
##ERAL
##larse
observ
averi
Rosario
##centes
ago
Secretario
semi
formó
firm
posterior
inse
construir
ló
deser
espera
periódicos
Sánchez
sabemos
Cla
ído
##END
espiritu
##ty
dados
lectores
hice
alb
discre
##ANA
##gráfica
##dumbre
insul
setenta
nombrar
##dría
rum
humilde
une
empu
pertenece
rebeli
arzobispo
adj
pintores
háb
dueños
vosotros
ensan
nome
rue
##ko
dejan
caz
ans
compla
belleza
Nuestro
súb
franque
condes
##unt
##chor
usur
Adelan
novedad
habido
##ides
fenómen
Tre
compuesto
Agui
indis
##int
inci
cuestiones
Nin
##RIM
inver
cerros
Director
inici
mane
entero
##eranía
vigil
##unal
bando
compañías
cercan
admirable
##lij
hallarse
UN
##sivo
comerci
reducido
Núm
darse
comunes
armados
barran
reta
intención
##tepec
circular
Solo
tempera
quiz
Duque
##tlán
conmigo
##iese
viajero
Villar
versos
vale
pic
##quin
rival
eri
hun
perm
volvieron
##pidez
vuelve
vincia
ilum
##éramos
llanura
trigo
feli
##tías
nacimiento
escala
escritos
demostra
cama
Uno
enviar
salu
##jio
86
barrio
consiste
suelen
secun
custo
##emin
argu
quieren
moles
tercero
traje
alegre
almirante
##gol
esfor
imperial
Ata
##enes
enla
expor
distri
Todas
Municip
Fal
compro
trán
##CU
conces
sobres
sever
ambición
##ellos
##ans
cientí
valeros
sirvió
ventaja
límite
manifiesta
habria
explo
prosperidad
Án
indispensable
Marina
ánimos
Gregorio
cuál
admiración
Potos
cadáver
patrió
tendrá
reve
cabe
##teza
##tiz
quanto
establecimientos
hallaron
88
informe
dista
dominación
##temala
Álvarez
nace
Hé
auda
terminar
reserva
inquie
##yn
Arro
sufrido
##cedes
164
trataba
presen
Escu
##ife
pusi
resolvió
Sub
económi
cán
café
172
##éndola
##dera
163
satisfacer
perjudi
##ei
partici
recibe
tó
##trópoli
Hor
semp
governo
Departamento
##del
eman
ocupaba
Ejecu
##gida
Ol
##peración
porción
##gente
corp
Tes
estan
Más
nació
aumentar
reforma
agradable
pren
Plaza
reinos
vender
aceptar
simpa
favorable
##jados
MU
##camos
Medi
Cent
campan
codi
Casas
destinado
lluvia
Nie
fos
haciendas
materiales
uma
numerosas
intent
epi
indica
finalmente
conquistadores
povo
##pol
estima
##chu
##jía
deberes
##alia
##torce
tiem
##timo
facultad
renta
historiador
dejaron
suponer
##érrez
llamados
ocupación
Panamá
moradores
REV
##zuela
##adí
patio
compara
ayuda
diá
referir
Españoles
Esco
Ofici
##rillos
fragata
##cantes
##tima
dirigi
##ugo
inclu
87
rema
continuación
Sociedad
zona
##uar
nuevamente
llamaban
aldea
800
Rib
Valpara
situa
##ork
fundado
Señores
compañero
##OLU
luces
165
sole
tipo
##gros
Arzobispo
combatir
salvajes
riesgo
proposición
algodón
diputado
bras
##jaba
##urias
nal
nado
##AM
independiente
ESPAÑ
aven
##lios
Califor
pereg
presentado
zar
canto
sucedido
Bé
monumento
roca
Virey
murm
fundar
cuidados
bárbaros
Distrito
carn
outros
Marqués
tenta
habéis
manifestar
parroquia
Silva
poesía
171
Potosí
##tuario
bases
Egip
puro
conservación
tren
##ple
vieja
##RAS
Guatemala
culpa
director
respectivos
ardiente
tante
escuelas
##cordia
ines
Almirante
final
dores
presti
histórico
ai
gi
##indo
part
fuegos
enseñanza
Tru
encargo
170
apresur
Fi
##ución
violencia
barra
fundada
jueces
duró
XXX
precau
largos
Cala
##jido
agora
Alba
cristiano
historiadores
lecho
exce
pasión
errores
probable
oído
89
espli
##bí
noches
acomo
enorme
quatro
plomo
##dis
inmortal
bala
dominios
azúcar
mercad
desesper
cuello
##dura
delito
proporción
moderna
Jorge
poniendo
imaginación
sepulcro
defensores
##turo
elecciones
Ministerio
detalles
Fre
##vad
Asamblea
satisfac
oper
dijeron
lluvias
llos
##gidos
Aben
##tible
metal
ahor
publica
Excmo
lun
materias
insurrección
caña
planes
##ciado
##identes
romper
##chan
piados
cléri
fie
Pací
##igna
discusión
infi
inser
##gaban
hered
venían
colocado
##minación
derrib
Fernán
173
##terías
Otro
##tencias
entrado
rem
abre
##manas
obliga
rara
mentos
comm
accid
candida
pom
esclavi
hermosura
Exmo
Cho
impresión
Sor
cál
##sb
gust
fri
ios
concer
contestación
médico
##entamente
veo
Gutiérrez
##LAS
histórica
ilu
fazer
##usi
##dito
Gor
##tag
##XX
Inde
mexicano
entraron
lenguaje
huel
justa
producto
lectura
contradic
##ában
Maes
tempestad
sacu
##só
dici
páginas
rebelión
##éndome
península
##vento
pasados
dirigir
partidarios
títulos
detrás
fijar
ore
oyó
##iosas
##dé
##lidos
##har
##erro
168
corrientes
desconfi
pasan
retiró
Uruguay
Rico
haz
malos
ejercer
unidad
defendi
##rú
destro
religiosa
federal
##eri
##gración
120
menores
Alejandro
calma
grab
confli
abierta
Cár
acta
Papa
gratitud
hostilidad
ignorancia
bisan
trescientos
portugueses
elevación
clara
representantes
sabía
denom
resplan
encontramos
proyectos
##rom
comida
Capital
habíamos
indicado
escrita
Provincias
##lora
trabajar
tuviese
XIV
persi
rayos
Mira
propuso
##ñada
ejecutar
sign
soberanía
escul
##amor
romana
quel
correg
Chu
fé
cañón
celebrar
americana
sumamente
##rupción
REVOLU
prete
contento
ene
##laga
caridad
aques
minerales
96
continuo
Océano
clá
##mili
XII
catorce
Peña
manifestó
escribano
perdió
eme
sufri
Pom
jente
##cé
enfermo
##cándose
interpre
matrimonio
señales
mía
##MP
Oa
Cura
Cataluña
##diar
publicar
sucesor
Majestad
extranjero
##aje
estatu
cum
contras
legal
correspondencia
Vas
dientes
regreso
levantado
podrían
##ley
tena
##anismo
Alvarado
círculo
##upe
##sáo
sacerdote
mirar
sed
Evan
valientes
escep
seda
prohib
invent
mus
obtuvo
suceder
rompi
elel
##unción
descanso
persecución
instrumentos
##úne
conocidos
fidelidad
sedu
niña
gabinete
92
nen
##jon
zas
##into
esle
Anti
Jesu
bue
Parece
constantemente
Apen
art
ocurrido
ea
##digo
lujo
partidas
Catalina
edifi
NÚ
encarn
Benito
dal
##inaciones
regla
encontraron
assim
adquirir
The
fiscal
querían
conoci
respetable
##lase
cou
disciplina
llegaba
dictamen
##cillo
Pueblo
eficaz
cita
ofreció
elles
gado
dades
##vino
comis
lanza
polvo
embara
producido
incre
partir
transi
verá
##amarca
gres
##vaciones
resolver
Pir
intr
Río
proceso
Bea
absoluto
orí
##fectos
Magestad
insu
probablemente
IND
Figu
poderosa
##cripciones
##metro
expresión
eru
pastor
banda
ocupó
víctima
aquél
Guzman
Amp
##BL
cristal
##tines
turb
Pacífico
verano
149
intervención
##zgo
##ille
distintas
mejicanos
ricas
Esc
adonde
marchó
##alter
Guerrero
sacrifi
eva
##uh
crí
Ari
prof
antecedentes
Conce
Fin
Adelantado
temperatura
##cador
santos
166
infeliz
vió
Trin
##sivamente
##ices
##amante
Guiller
formaban
##cipes
vd
Lisboa
deste
garan
filoso
ración
desfi
Ese
fab
atender
quedaban
castellano
grueso
##GA
habitación
tamaño
juntas
espalda
hú
tabaco
sop
Ul
negar
curiosidad
TO
apara
ciertamente
##tú
vice
realizar
desnu
contenido
vencido
Dec
##hui
##ienda
vire
bes
villas
bomb
mientos
ps
eno
calum
flan
tengan
Leg
tono
##ipo
##ICE
domé
Mora
experiencia
##éronse
formada
indul
hallado
incur
Cel
LIBRO
##ivo
prestar
elevada
##bide
Lsb
reducir
##tural
Zamora
95
exti
assi
vimos
infini
mugeres
91
93
Artigas
##idí
vencedor
##sados
Aca
provecho
##pados
papa
circuns
##cadura
ei
Jal
##geros
sacó
Sancho
ef
disponer
tuve
Cuán
Jose
tesoro
inglesa
tránsito
##ider
bajar
##tentri
suprema
##quete
entrega
##güe
##lanes
sagrado
##edores
torno
##gle
##gento
##lix
posiciones
oido
##gimen
Hig
parle
golfo
persegu
Academia
##todo
##IM
imprenta
##toso
lison
tum
retroce
##urado
Leon
reparti
##yu
embo
providencias
repli
trastor
nubes
Apenas
ilustres
Córtes
##ernación
desc
extraño
beneficios
##idro
dona
habitan
Málaga
NÚM
obten
constancia
ajust
##olas
exer
ofi
barro
responsabilidad
beb
tall
##entados
lien
traición
##pulos
##ñoz
repugn
##DA
Cm
lum
propiedades
reunido
trae
cultura
acha
cuadros
Callao
juego
##varse
frecuentes
acordó
espes
##piraciones
venida
Pied
tío
hablaba
mono
##fort
lista
impo
##ensos
destinos
fundamento
##lén
##ceres
##aré
grandi
bajas
salón
##quinas
conservan
dies
clam
##inte
Morales
actualmente
AP
estableció
colocar
Teo
DOC
costado
##cías
ramas
ofrecen
dignos
##fas
cadena
hala
ponen
absolutamente
sendo
##chando
##guer
variedad
canoas
perjuicio
Sep
explica
confusión
colonos
dente
XIII
razas
esse
intri
##daban
omi
ña
libras
##ERI
Colonia
rs
añadió
régimen
##arnos
##cilla
##gase
formal
paseo
pil
tributo
llegan
sempre
peñas
creación
ustedes
##use
##eamente
siguen
dro
hda
Ud
oeste
Senado
Zaca
maíz
##uato
hiciera
elemento
caja
Moreno
##CAS
encam
##dico
##andal
vn
preguntas
ventura
##rab
Archi
##ianos
pide
1810
horizonte
gó
rú
sín
##liar
miras
mediante
exactitud
99
tad
lograr
##quita
pur
##ampar
prín
Supremo
Tras
##fre
##ILE
##bla
sección
##rida
Universidad
##iers
NA
##bó
próxima
Jeneral
##erona
##CE
producen
despob
empresas
obstáculos
consideraciones
Rojas
Juana
licenciado
Ac
penetrar
bené
Punta
Batal
deseaba
97
rego
##gá
##arde
hijas
alguns
Virrey
SO
yor
Mes
ferrocar
bron
here
progresos
Indepen
##porte
oy
meridional
Salazar
##cones
héroe
Clara
concep
char
conocía
Miran
sesiones
apoderarse
Española
Mata
opon
tranquila
Guillermo
servid
Alto
Lope
Jaime
169
##ñe
lat
##ñal
##stió
limos
ass
venía
Ejecutivo
previ
compatrio
estatua
Cerro
Gib
Pá
esperim
verdaderos
##ernos
Muñoz
estremo
##ribe
##VI
esplen
consiguió
PARA
##lé
privilegio
poé
Murcia
rodi
##valle
numero
Sig
##ROS
elegante
##mal
cortar
167
prudente
##ry
Princi
Tun
quitar
informes
examen
sete
##ieros
Habia
advertir
##ranza
ocupan
torres
dito
diré
Justicia
alianza
Ruiz
##TES
pedido
##pores
ave
##vantes
mortal
Constan
diplom
cabec
cjue
##tern
pesca
##menta
ganar
Soto
Filip
súbditos
quizás
98
Colegio
harto
desgraciado
auxilios
evidente
##eu
dilig
##tísimo
##ENTE
##üa
muestras
##grama
recoger
regimiento
diga
diligencia
naturalmente
abandonado
mármol
Tierra
Cuar
##ónica
vicios
comenzaron
imagin
cualidades
##TICA
##tienen
pensaba
##uli
llegamos
reunidos
##ense
crey
XVII
monstru
Tribunal
Simón
##gante
reformas
impulso
On
extin
Bravo
anciano
Chil
ofen
criado
##vieran
toler
olvido
acces
reconocido
Tener
ame
agr
##adoras
obligados
##QUE
##adura
solicitud
##elle
Comisión
presentaba
empleado
señalado
miserable
cumplido
página
enfermedades
parecido
Hemos
aflu
armonía
Hun
ingenio
##ñan
termina
cola
##rencia
catá
tambem
coste
pintura
permiso
##vaba
eleva
impa
York
considerar
alumb
Sul
tripu
archivo
Sres
cuentas
Hidalgo
##ecidos
necesitaba
Pra
notas
equival
##torial
tados
contor
legi
vuestras
estraordin
Palma
embarcaciones
##cola
Andalu
Habiendo
cólera
pilo
manifiesto
Buena
##ELA
Marcos
comunicaciones
conversación
##tto
poetas
últimamente
asamblea
impuesto
esperando
##ong
Caste
Igu
##quisición
94
examinar
PER
##quista
acuer
Acu
deix
reo
creemos
duas
##maras
premio
ventajos
somos
Velázquez
Grecia
Egipto
##one
renunci
creyendo
criados
##cuador
frutas
impar
castigar
mula
lealtad
cae
##inada
Otra
Prim
improvis
Gil
cú
relacion
##ps
Dar
baile
##dedores
Dé
Lá
abundantes
sincer
queria
claridad
compone
pájar
fantas
comarcas
Carmen
gozar
seiscientos
creía
apareció
literatura
##mós
delib
China
nist
##mió
distra
observación
estru
fren
quar
##ington
##dela
##cumb
Bust
asalto
pendiente
##monios
parroqui
carbón
##ele
honores
pidiendo
magnífico
Gerónimo
vidas
Argentina
apó
árabe
Guaya
obligó
Alma
rojo
cibdad
California
1820
tercio
sensible
cesar
aliados
##táo
erig
consejos
decirlo
dencia
batallones
Guadalupe
caciques
llanuras
Trinidad
##ou
paña
Paraná
entendido
colomb
trece
Duran
##cadores
ceder
inscripción
varia
verificó
directamente
ridí
abst
vapores
tarea
cubiertas
Avila
viejos
desdi
contrarios
sublime
##vemente
reglas
##ance
táo
vencidos
##ENERAL
acierto
té
absur
Gabri
imposi
##cesa
Esa
##ang
cadáveres
suminist
CHILE
honrado
acabar
alcaldes
Br
Otros
estuvieron
podrán
tiros
paraje
veia
llenos
cariño
vivos
Arequi
legis
Iturbide
##tat
acabó
##gam
##duras
nieve
Félix
##hy
##iencias
atmós
viajes
profundidad
granos
hel
##zi
cumbre
Obis
##lle
innumer
##inal
##saciones
PRIM
oli
Relig
India
Alar
convir
##dea
quisi
atravi
instal
transfor
Mundo
##dirse
griegos
divina
destrucción
regoci
##leros
terribles
##blas
asegura
seres
llevaron
vasto
vecindario
canti
##NDICE
seguía
##reras
##UST
debilidad
hagan
##obo
publicación
usar
revuel
afirma
##roga
##jadas
decían
Día
presu
relie
##xos
pude
advers
suave
Tú
Miranda
Dol
##TRO
viajeros
combates
escribe
sencilla
Les
##zcoa
afecto
Hue
requer
piel
mó
Gover
incendio
reh
siguieron
lodo
mesma
##fortun
contempor
quan
lament
brigadier
oscuro
odi
entregó
distintos
Gaspar
demanda
Calder
ventanas
salen
conocen
vier
##chura
numerosa
filosofía
vís
sociales
sobresal
essa
annos
resolu
Via
##ENCIA
relij
privilegios
esclavitud
##lago
lee
##jando
sabios
paises
gigantes
Blas
##ciar
trajo
##ericor
pormen
murallas
usos
reunió
azu
oír
recurso
bles
formid
CI
concedió
##XICO
famosa
yendo
filó
bajos
orientales
prender
Casi
catal
primo
Rev
##ILLA
##jeras
escán
Ante
recorrer
Eran
##ídos
muro
solos
multipli
gloriosa
mencionado
Nun
vá
infun
anima
Vizca
##mados
misiones
conduce
Feder
eterna
Brig
Mérida
dama
llas
cargas
##rillas
radic
debida
aprobación
testa
estor
Bajo
ofreci
##éndez
banderas
abrigo
procesión
invo
neu
huir
pico
cuarta
Sego
primitiva
melan
##ls
##tuvieron
##guera
citar
discí
Carrera
MÉXICO
##tillos
Gerona
indigna
repente
sentado
Plan
##entaba
frag
ira
declarado
tristes
Provid
furor
##vidos
Maxi
humo
##ustos
admitir
comisionados
##diera
##ers
casu
retaguardia
##rse
Ze
##at
délas
Jim
habrían
repetidas
colección
Sacra
##varon
posee
ulti
partió
quisiera
##enerales
sombras
nece
##ENS
desgracias
permitir
veremos
comunidad
sombrero
bellas
serian
provisión
afri
llenar
cometido
curioso
111
lia
##lona
##dimiento
##igas
##onas
just
comprom
Cun
##capa
hablan
Laguna
##cracia
devoción
diario
devol
rapidez
onsa
Joáo
capitales
cere
##díos
Cle
##denal
triunfos
podria
gobernadores
blancas
hospi
##dole
comprar
##uz
especiales
insignifi
realmente
misioneros
ribera
fundador
Aren
much
margen
párra
Aya
conquistas
sujeto
vanguardia
##GRA
cif
##verse
domina
voluntarios
##resión
ardor
hacerle
palo
acudir
Geo
##ore
mulas
escapar
sy
oportuno
hábil
logrado
concurso
pól
arroyos
órg
criminal
oportunidad
##grafo
enemiga
##camento
masas
##ísmo
crítica
##clo
##tentes
##jidos
##land
Villal
##dremos
Negro
##lima
pertenecen
prescin
enton
alimento
##goso
##zarse
celebrado
Tro
propuesto
depósito
Alcalde
Har
tie
caprichos
##uan
dellos
texto
delitos
Hernando
comand
Tem
besti
##licas
saliendo
culp
someter
##icion
##gins
Corona
##pensa
sois
##udales
##ith
abundan
suso
##urar
proclama
envol
congre
secular
##úblicas
adornos
atmósfera
##mano
##ise
##ANO
interna
eclesiástico
suc
Corre
cpie
##éc
provisiones
Dice
##usas
##aragua
civiliz
Bi
vini
descom
sueldo
fronteras
bio
##TOS
provis
habló
##cita
estrecha
echó
permaneció
protector
##rentes
diera
havia
Capítulo
##cros
##tela
Alcalá
##cerse
Popa
imá
Arequipa
##DU
hermosas
cuesta
influjo
sujetos
espaldas
dester
##éndolos
dirige
tumba
pudiesen
Nosotros
aparecer
tiranía
##alapa
##lectu
claust
tendría
disminu
Guipú
fija
plumas
Vuestra
##inados
infante
géneros
DON
##cionario
glorias
NÚMERO
##wn
queriendo
sierras
consuelo
modernos
dará
##bus
desvan
particip
permanecer
pretensiones
rancho
governador
rodeado
##mulo
jardines
esplén
##pié
##onato
Super
ofrecía
##ponerse
##tinos
nia
agrí
agentes
AI
##caso
peregr
##ash
premi
forti
tradiciones
determinó
##dade
celos
yjuzg
impre
##pé
Julián
embaj
##ute
esposo
silves
Capitan
red
inconvenientes
quebran
Gabriel
##MO
compli
##tándole
##gero
pensamientos
ocupaban
Villan
despi
convenio
edif
retrato
##árez
alrededor
construido
brillantes
##oría
producciones
##tenci
renuncia
muel
inven
colinas
independientes
ejemplar
acce
presidencia
sopor
pared
##cismo
##ALA
escalera
##TAS
conseguido
Tucu
Valparaíso
rayo
tura
##uza
##tamiento
##ragones
Ángel
dándole
Chan
permite
perfecta
pecu
##critos
Mir
unido
encontraban
recibi
judicial
desigu
##iende
inspec
excepción
bastantes
instrumento
Mano
diferente
conceder
filóso
QUE
abandono
trabal
dormir
rápidamente
enormes
satisfecho
demostrar
##uración
Administ
eres
engen
##uría
cubiertos
##inó
##ENTO
sucesivamente
dido
Repres
llamas
it
sion
habitaciones
prose
AB
cantar
divino
excelente
##und
Hen
##gencia
dedos
maior
gue
##hí
DOCUM
nio
inces
muralla
Tenerife
##vira
infantes
conceb
Bay
observan
olas
##dalo
corren
indicar
empieza
escudo
TOM
territorios
##énez
Porto
##doso
mirando
##verde
tando
##íe
ingra
Gibral
SIG
##gantes
##llado
##aman
metrópoli
Ley
vido
##cristo
##mentar
refuer
fras
Esteban
haza
fonde
frailes
Higgins
fór
preferencia
lenguas
mia
##chil
130
edición
1870
desaparecido
hoja
##anim
asom
daños
##zonas
##terráneo
rele
yugo
deis
mate
##lamaciones
raro
XIX
hombros
##juato
Montes
##ude
##lección
mezcl
celebró
Cir
Velas
Ferro
##amb
tea
ayudar
indo
escandal
colos
magestad
pretexto
dita
pertur
separado
obispos
execu
olor
sulf
obedecer
parecían
##quiza
##izos
##zobis
responder
Independencia
Cañ
corazones
reunirse
quisieron
tantes
##ecas
recibieron
##fice
##ARA
##ranca
declarar
Braz
pedazos
obscu
##ierto
Puerta
bauti
Tomo
##tual
##sel
guerreros
pese
acar
sonri
##OLÍ
Ví
cónsul
ced
lana
##lito
mera
##jor
opuesto
Aquella
modelo
tumul
rior
Ella
falda
apostó
##pla
trascen
permanente
Díaz
fison
proble
alboro
NUE
eli
poniente
Anto
marineros
##yente
cito
250
temporal
sepa
relativo
acontecimiento
cres
##izan
pólvora
io
ole
constituyen
fundam
Blanca
140
jesuitas
PROV
Guipúzcoa
poderosos
##há
repent
crímenes
revo
tienda
##vedo
1851
artista
Guayaquil
Andalucía
mercado
##erial
##cesis
orn
señoras
##verso
elig
escenas
vasta
Nota
ermita
Atlán
Bena
tirano
hume
presentarse
divisiones
hostilidades
IL
##abor
fili
##RIA
Coch
privile
creia
innumerables
separación
clasifi
Ecuador
maiz
serlo
habilidad
petición
anual
espiritual
felices
tribunales
conveniencia
lim
vara
##iré
blica
##cientes
Marta
##diéndose
viuda
His
gana
##río
tuviera
bronce
Pamp
##laban
traspor
Sir
##zu
esclu
diferencias
desconocido
manifestado
mezc
semana
arquitectura
cercanías
condi
bote
##cili
##ORES
##RICA
Vé
##mica
sali
Segovia
causó
ceremon
mado
##lanos
Vamos
Antillas
maestros
consumo
Cin
nido
##ibus
Bauti
outro
siones
##ceta
Había
divide
flechas
metro
ove
sello
##teres
debiendo
Nicaragua
##isto
revol
ataques
dho
anarquía
frío
Cob
148
pertenecientes
castellanos
amante
producción
milicias
Ministros
Tac
##jarse
sobrino
pobladores
ausi
juntamente
##zoso
##cera
aplicación
ahi
requi
commer
Vargas
devor
##graph
Fernández
corazon
enrique
fábricas
bara
precioso
presentaron
drama
creen
VIAJ
concluido
insigne
Agua
XVIII
Calderón
romp
aceite
COL
##od
exacta
ARG
##leto
cerrar
distritos
sec
exter
decisión
resu
duro
##cena
quaes
##ot
Ilust
logo
facul
hallándose
##inetes
##edas
##emas
creído
añade
700
110
adelantado
parientes
siem
mel
##embro
héroes
Ec
##cay
proveer
##ándonos
tido
carru
desenga
aliento
ater
sofo
Nao
golpes
Bustamante
terre
At
Pág
##pata
departamentos
explicar
cera
yn
estableci
Manila
venga
barbar
Dio
aprecio
determinado
exager
Eso
Esper
pensó
personajes
gravedad
Dá
##pil
##LOS
mozo
repetir
PARTE
##ñados
seren
glorioso
reputación
globo
aristo
Maran
vaya
147
##NDO
vegetación
tancia
observado
estancia
##ecto
conducido
Augusto
semblante
##ñaba
circu
presup
obispado
Chri
ideal
quebrada
##miliano
##iero
francos
1814
composición
históricos
Jesucristo
##zano
##rección
lodos
anda
faltar
descubrió
##choa
poster
1823
católica
refugi
table
deri
capas
ancha
usan
amanecer
conso
Cordillera
intelectu
1861
terminó
##ementerio
subalter
dirigido
##idu
Caserío
Providencia
Madre
espanto
basti
paciencia
desprecio
pois
despreci
##érse
contemporán
EX
damas
frase
##dica
##chin
##ISTA
ocurrió
capitulación
Gri
enca
posteriores
pesso
Exp
engran
Cono
Constitu
mandando
Occidente
brigada
topo
mariscal
volcan
plebe
parecia
##berto
Juez
eco
unidos
##landes
príncipes
escru
claramente
##LAN
absor
tiendas
alum
mediados
##donado
reposo
HISTÓRICO
##pto
calcul
números
pagca
Guanajuato
Bru
corriendo
rias
suge
##iste
insin
irregular
##rés
##darse
liv
juzgado
buscando
zapa
lina
##cate
dex
División
distinción
maderas
Ramí
contemplar
##gable
##entando
porte
##monte
##LOM
capacidad
aprovechar
escolta
sáb
##pito
##bel
Fuente
Ran
##gunas
Amazonas
##ceros
plá
estes
continúa
##antías
Vigo
verificar
huesos
ducados
##tiese
cios
Sólo
milicia
##gráfico
alarma
empleos
Gom
fusiles
análo
geral
averiguar
##vie
heridas
125
seguramente
dir
amores
dudar
hermosos
contacto
pormenores
dispens
tronco
aparato
Bautista
inicia
mostró
resi
tern
supersti
Camp
Vergara
zan
casta
guna
entrando
suficientes
hábito
infortun
MAN
obtenido
intenciones
cido
vicio
mananti
decidido
Ortiz
fier
Campe
tinha
extraordinario
usa
litoral
##entada
perdida
augu
ventana
redac
cisco
fez
festi
representar
##fal
##ándolas
tranquilo
regresó
Queré
1S
that
##IÓN
lor
escasa
##cedo
Molina
ego
conflu
agres
aparecen
método
retirar
bloque
##bras
obligar
reac
Unión
directa
representante
Evange
##jia
##lumb
cimientos
magnifi
Muchos
Aguilar
Ill
##guin
##áron
##pios
##egado
expresa
doctrinas
##mbol
Inten
Año
Estaba
francis
respectivas
aban
##UD
precios
Mateo
estatuas
tán
mexicana
Ib
emo
hago
veter
septentri
##tezuma
destinados
comienza
##rantes
conspiración
loco
##lán
traído
cabellos
llamaron
playas
brin
prelado
pedia
##tom
supone
##bada
recta
batallas
##doro
quejas
convin
necess
Cartago
empezaron
bóveda
máquina
convid
alba
porém
Ramírez
fg
abusos
##yar
##pico
veían
despleg
empero
Diario
direcciones
contribuir
145
distinguir
permitido
Mili
sedi
##tta
##abi
##riles
varones
Fon
igualdad
Truj
parar
lanzas
##fin
andu
##táneamente
patriota
función
reos
##urs
solemnidad
Bil
futuro
metales
cadenas
venerable
##gicas
conflicto
Hall
cuna
sentidos
proposiciones
apri
conh
##manes
Villanueva
frió
##stro
esces
##dador
##frad
pretes
lidad
inmi
garantías
##goes
##izadas
##oraciones
##embra
modos
nega
escritura
eterno
ana
ojo
velas
##cea
presenci
1830
contribución
##tadura
faltaba
##ORA
menudo
subsi
##háo
mapa
sensi
##ICI
outras
mese
##vales
ilustrado
Guay
demar
1821
dirigida
caracterí
Jam
##reas
grand
descont
MEM
estudiar
##ÑO
##úl
Hospital
Wash
ped
Escri
oración
sustitu
Americ
conventos
pérdidas
activo
duros
Bio
GOB
existir
siente
abismo
dre
##hal
sagrada
reducida
pouco
tele
cali
Edu
##asion
quasi
##PÚ
obstáculo
Septiembre
prestigio
##ÑA
traidor
##éron
ratifi
firma
electo
piernas
alrededores
Cé
##zana
arra
rama
ásp
##cío
trinch
herida
correspondientes
susci
constituye
pierde
discul
intendente
vivas
cordi
justifi
Hernández
##eria
remon
##íme
matan
sancion
dolores
Rei
Colón
Puede
dram
##EI
asilo
interesantes
acabamos
profesión
primitivo
perros
advier
prosi
húme
ferrocarril
muche
actualidad
##xaca
expon
nombrados
Sober
Bro
##aste
judíos
pór
Maldonado
XL
##vara
inferiores
salvaje
arbitrio
ceremonia
compatriotas
marti
procurador
adquirido
Florida
Puno
primor
ceñ
##giendo
Agu
tinie
ciendo
decad
impru
conservado
eclesiásticos
emprendió
are
espíritus
pendientes
vezes
añadir
Gibraltar
##demos
ligera
fértil
inesper
Filipinas
neutr
##tén
salvación
integ
##güenza
Dor
##bao
sacado
capaces
conoció
negociaciones
rodillas
lie
##ear
descuid
##dín
##ADOS
Vizcaya
##LES
bau
cala
146
ejecutivo
mezcla
Rios
ná
generoso
##EB
cip
dadas
##aray
PROVIN
tia
detuvo
derram
##guirre
Maximiliano
Dom
estuviese
Sui
cía
calam
miradas
inconveniente
mió
pastos
rápida
convertido
Llegó
##jese
##abar
Querétaro
Rin
evan
considerarse
opul
malas
##ERRA
outra
cabecera
Urquiza
Mina
##jena
suyas
atravesar
inevi
soledad
##lre
Obser
uu
##pí
alcanza
desaparecer
Sam
sociedades
2o
Náp
alca
##gulos
semejanza
Far
##ceo
vea
llenas
introducir
##ericordia
##tarlo
pobreza
##ons
dimen
##far
##yr
##anía
seco
interme
meter
##mbos
##ítica
tristeza
deca
conferencia
##coa
##uera
conocidas
Paulo
pinturas
madru
gradu
vigilancia
##lero
doy
formaron
oscuridad
##CES
cubr
preciosas
Sucre
Nápoles
##dien
esci
quinta
misterio
encomen
##lita
perro
##dimos
tudo
1812
fatigas
Ola
##gir
emplear
referida
determinación
CONQU
##ecimiento
##uy
##erta
estri
tributarios
narración
llegaban
proporciones
asistir
Pamplona
considerado
##jam
##VO
aparte
Libertad
Tin
##tinas
únicos
Márquez
engrande
101
olvidar
##orca
solar
dev
##ciende
##tría
pasada
acus
Jiménez
Ore
Prado
algua
atras
##tit
cuentan
camar
Coa
Memoria
ejemplos
##ner
Atlántico
##jones
##iendas
pasaban
piloto
##enten
majestad
##urados
rasgos
seca
regulares
fisonomía
##pica
providencia
Biblioteca
Tama
supe
desea
intern
aflig
Reales
ordinarios
##the
sufrió
idén
ansí
QU
alha
cuatrocientos
regresar
Tab
activa
miraba
BA
##paciones
alterna
Lérida
Tomas
##JO
elocu
incapa
morada
profundamente
##uni
AV
lhes
dero
tesoros
esplendor
Hues
Lic
##pus
cantidades
him
faldas
chis
hoje
considerables
llanos
cenizas
##jano
esclavo
jas
##OBRE
##áy
barco
existían
comprendido
gargan
Ademas
Asturias
SS
restitu
Margar
gunos
horizon
dejaban
auxiliar
asistencia
sia
alcanzó
##ville
revoluciones
caudillos
##chaba
cuento
cham
elegido
arrastr
carretera
##món
laure
##coles
dejamos
firmeza
##TAN
##gán
Inca
cuánto
Sch
dulces
insist
ídolos
planos
personaje
OB
lom
balas
ochocientos
ejemplares
dificul
##sor
##hó
furi
Asunción
arau
by
##ao
situados
Bene
Alca
dorm
olvidado
puentes
##gimiento
contestar
beber
memorable
canónigo
with
##tuosos
toman
##cima
Gobier
personales
procurar
Ponce
insurrectos
Melchor
constituir
Trujillo
cado
##guila
tapi
Barra
Holanda
trecho
descendientes
cambiar
Velasco
##quito
Verdad
REVOLUCIÓN
Apar
musul
##veis
Mexic
Fun
Ras
108
convenientes
##berna
inútiles
Avi
##cles
deuda
reson
prisa
GEO
die
##ceda
disgusto
tomaba
poblado
##jimos
Espinosa
aspir
maestre
DOCUMENTOS
Gol
sintió
posesiones
Nadie
rado
prestado
##embras
extraordinaria
RO
Ric
extraña
Rami
##inamente
estadí
##usal
mod
##pulo
ofrecido
humanas
colocó
ángulo
POLÍ
Jefes
sargento
gall
##cipación
Anca
repos
##ábanse
coa
toros
Garcia
impu
##éndonos
abrig
Inés
volviendo
Javier
escaso
Espíritu
blos
parcial
comenzar
quinto
prefi
verdes
coche
Caballero
divid
prendas
128
sirva
revolucionarios
plazo
senado
sirvi
borde
102
existia
##ruecos
Bah
encierra
TER
sta
Valde
puramente
Brazil
##itud
CAM
ful
anteces
Cis
tonces
estrib
fugi
tema
percib
moti
105
construcciones
Aten
##cle
perdón
merecen
Pela
##plica
##isos
aldeas
Contra
##ribuido
barcos
encontrarse
acento
expul
Tex
superioridad
depósitos
retirado
blas
clu
formaba
inmediatos
104
imponer
inocente
fierro
batir
falso
simul
Jalisco
cazadores
mercedes
##íf
populares
Bos
Tez
rededor
espero
encargó
hallamos
sencillo
asombro
preciosos
144
anteriormente
Van
entran
141
promesas
abad
carro
faltas
aur
tía
baterías
tráfico
ignora
feroz
FRAN
Él
deno
Centro
darles
hués
Arroyo
Luna
consol
fijo
llamarse
VAL
mín
murieron
batería
adentro
actuales
Ques
Confederación
Cru
repuso
amenaza
##EDO
tinieblas
almo
parajes
opuesta
perfección
##tiéndose
negras
comisionado
##pac
seguros
Decre
poblar
afortun
cubre
fachada
joyas
aloj
Iz
Minas
##stol
predo
vergon
Comen
1871
mino
Vald
terminado
Alm
morales
palacios
lagos
revi
##ved
explor
Cervantes
extiende
parroquial
Cata
Tengo
acordado
sentía
rumor
inti
desampar
resid
preciosa
sexo
parque
decretos
índole
codicia
##nis
estand
llegue
BAR
quales
pez
elevadas
faltan
estén
traves
##onía
##ciencia
colonial
formidable
ñor
sostenido
Saa
esquina
##queta
insurgentes
AS
##ule
instancia
capítulos
déb
##abellón
creencia
ponía
condujo
ilha
propietario
Fir
##zal
##canas
Teresa
escasez
cerrado
correo
potencias
1813
##cucho
expi
crecido
causado
121
temprano
célebres
##gad
postr
##bieron
marchas
interiores
describir
porta
Oaxaca
##eb
##abit
arreglar
atropel
domingo
corría
##bole
Han
alm
##miendo
oh
##tter
##PE
inau
##forma
amparo
véase
sueldos
interino
rra
vuelo
paño
tardó
107
apariencia
muchacho
meros
Dolores
138
estrellas
##uevas
servían
Cáceres
1808
mata
##abele
##sia
##rei
relativa
Orte
AT
ena
victorias
Temp
##uér
estava
haría
PLA
subió
trasmi
desigual
cantón
obligaciones
fiebre
Constantino
Ler
NE
##iscos
maneras
perfi
##yecto
fenómeno
jen
pelas
esclar
desempeñar
noventa
103
esperaban
##celes
guas
millares
##ciación
1860
cauti
epí
Gir
##lava
Corri
Guan
restablecer
atribuir
##llar
##asión
conspir
entregado
lagunas
Ebro
109
barba
mam
arres
márgenes
despotismo
pidi
techo
personalmente
naran
propietarios
gro
132
reparar
Mand
Campos
escuadrón
protesta
banco
Oribe
gasto
ret
RES
nando
##zes
esen
desenvol
##pada
apasion
Washington
##dt
##JICO
descal
debieron
##sico
124
bergantín
Castell
Jalapa
##didades
##cual
entretanto
destinada
Número
##cui
133
fusil
Dí
indign
alférez
##GRAF
frases
senda
admirar
fervor
112
católicos
Ancachs
cil
marca
dependencia
aficion
##gé
europea
seguían
Campeche
##váo
recla
##ERAS
homena
recomend
frecuentemente
mec
##3o
recien
##senada
##UCA
entraba
##damos
dele
chu
centen
##ód
replicó
resguar
##alación
refieren
guiente
atraviesa
##iar
##tiliz
determina
##ben
##quino
oficinas
jardín
crueldad
ARGENT
MAD
##TÁN
135
consagr
Manoel
PI
hil
1862
labores
##jaban
concedido
Guardia
intim
##derse
huéspe
##iam
prendi
abras
Marques
realiz
Pereira
dans
egip
defectos
alcázar
haver
##éndice
presta
valer
Pache
##valo
representan
republicanos
Ita
vna
##uró
Cauca
##CIAS
ayudante
entendimiento
##orum
saca
infelices
diariamente
##lex
##gaz
MÉJICO
yá
memorias
taban
##ae
##cama
leña
contrato
tamente
1811
apoderó
115
hiciesen
corresponden
conquistador
##tui
##gén
##minar
recomen
obsequio
##enden
Caci
conozco
dispuestos
dividido
concent
##ural
fatiga
manto
introducción
Ayacucho
Iba
##curso
Coro
Prov
pronta
almacen
accion
úl
contando
Paso
Cuerpo
##aga
1850
aboli
diablo
cit
##guiendo
ordem
preparado
1822
magnífica
uniforme
##tona
##ÉS
##tosos
establecida
riberas
##tarla
Af
##lot
criol
esperan
preparar
Tales
Mucho
abogado
aniqui
Jue
nel
##gador
incul
bancos
moderno
exacto
etern
hábitos
Et
desagrad
Cabrera
137
organizar
industrial
toria
##zcan
##isca
traía
selva
sano
##PEND
HISTÓRICAS
reflexiones
GENERAL
Jar
descubre
##vimiento
volcán
139
Tejas
adul
eg
vencedores
manio
distancias
##zaro
examin
simples
rada
##deu
Espa
##uación
resultó
conformidad
ati
indifer
repre
jurado
dha
diente
estábamos
106
asign
distingue
publicada
Merced
cosecha
puntas
Valdés
luchas
gobernar
Tala
parlam
Condes
Char
##cinas
expedi
escándalo
##rasen
escribía
jor
rosa
sud
apesar
varón
demuestra
franqueza
vín
veian
##ixo
esenci
Comer
perseguir
concurrencia
##iu
##mase
sucesivo
Banco
Vuel
vacun
numeroso
penetr
recuerda
Adri
Ves
##ds
dejo
tomada
ordinaria
reacción
##gresos
123
PED
echa
señorita
sonrisa
relo
gallar
Bilbao
##ular
##hue
Ins
andaba
Liniers
detenido
servia
visible
solución
##deste
Siempre
129
##ique
mutu
sinies
propiamente
Clar
Llam
Marruecos
revela
Vida
Abad
fáb
privado
contrar
firmó
legítimo
Vene
demonio
ponder
paisanos
APÉ
##pent
parciales
Arch
aspiraciones
censo
impresiones
presidio
Toro
conceptos
heroica
##tao
tuviesen
filos
chileno
funcionarios
oculta
Poniente
máquinas
Méndez
##gicos
institución
pata
distinto
Ix
##forme
católico
##vina
##gou
infam
arroz
determinar
penetra
fresco
Aguirre
##mando
##mico
127
irres
cuarteles
trasladó
aposento
Ellos
Piedra
Ren
##GOS
fincas
fray
desvent
136
concili
incendi
decadencia
cris
comitiva
##piélago
##mpa
##ambu
##guo
tud
##hao
131
plena
sangrienta
cajas
embria
142
Clemente
bía
##vío
##cie
publico
permanencia
concluyó
milagros
Crón
Ele
aires
hier
##bado
venian
Mont
##heiro
infinito
dr
pabellón
amiga
armamento
republicano
chilenos
Ima
torpe
##vores
##joz
verdu
Museo
indudable
Aqui
haciéndose
selvas
Tel
regu
##diós
Pacheco
caliente
repara
Institu
expuesto
citados
##minis
propósitos
imparcial
CAL
Mall
indignación
bian
##adra
fac
inmediatas
procedimiento
Sem
##dentes
serio
##jir
##Ã³
advir
revesti
griego
temores
Pil
##tti
garantía
huyendo
canales
individual
Tran
jud
santuario
arrojar
CAB
facilitar
##ich
##estos
divin
flota
##brar
Instru
franco
esfera
diligencias
lust
exclusivamente
débiles
##ére
##quilla
enemigas
cristianismo
SOBRE
##gens
diesen
queremos
confiado
atrevido
##IX
##erario
paja
contienen
##tísima
##jent
tica
Federico
134
vulgo
later
rehus
Gen
Tir
passa
Antio
tonel
isso
126
Parte
PE
foram
inmensos
sínt
dei
procuró
Gefe
anun
paiz
indiferencia
##rita
cial
pré
corrió
evacu
posteridad
descubrimientos
muelle
##nar
##ÍN
colina
comerciantes
##cian
distinta
perfeccion
viage
1817
armado
riach
entab
pretende
jus
sagrados
corrom
Lugar
ligero
revolucionario
Lara
anuales
Alta
ruidos
dirá
impri
compra
haberlo
guardias
Jerusal
ESPAÑOL
sumo
##guida
##RID
Sando
benefici
mostrar
##ciso
alber
loa
paj
pacto
##ítico
##tífice
eje
lio
##ulalia
Reci
122
reclu
sacrist
criminales
Nunca
01
##lra
preparativos
Bib
pares
desin
indem
sucesión
componía
méritos
tabla
Bada
meta
aber
atenciones
Tampoco
apreciar
contraste
pus
trozos
Hace
incesante
##ierta
volumen
haberle
greso
##aras
dudas
Cual
tropi
##barra
fantá
##ipotenci
Sue
amado
Memorias
Leo
##tires
creado
114
intér
debili
##pam
apare
tenaz
ceremonias
US
humi
tienes
tratando
##trase
Diputados
pureza
comedia
##ímetros
##pina
##bón
##hum
leve
vergüenza
##crita
pertenecía
perfecto
contribuciones
desgraciada
##peras
pescado
1824
Padres
baños
bajó
indudablemente
Tib
##ciano
Carol
ball
jos
##hel
poblada
muitos
casualidad
Mam
##vante
teníamos
entiende
##piro
##pula
temeros
astu
Tara
isto
Encar
niñas
libertades
Pregun
titulo
adorno
oidor
##ns
decor
signo
Canarias
Pes
rante
mataron
restantes
instantes
expedicion
difunto
TOMO
tac
ye
##yese
hura
creí
Margarita
respetar
estragos
tradi
##já
esqui
familiar
historias
Islas
exige
Chaco
Suiza
goza
118
gem
##ñando
anhe
##dasen
nacer
decidió
arrancar
##osí
inun
niente
Luisa
Tucuman
ib
##zosa
perlas
143
navega
máxi
cementerio
sensa
##monos
Siendo
rre
gritó
municipales
admira
cuadra
##tesis
jul
traen
adivin
##03
sabiendo
##lende
dirigía
clérigos
muchedumbre
Pron
Soria
##losas
1847
not
bayon
solas
sube
subde
carros
maltra
Procur
pensado
YUCA
estero
arb
1859
muchachos
mandaron
medicina
confluencia
##pano
retar
##tora
duración
Magal
hazañas
Tá
impi
nosso
##cinco
Yu
cimiento
segundos
119
huellas
Corne
##ragona
Dese
desear
peligroso
pájaros
utili
##uos
enseñar
Archivo
Gue
Visi
carece
eo
##ñedo
##tarlos
##entaban
campes
francesas
Córdova
bolsi
##cy
tenor
disol
Ray
popula
##ERNO
Pur
avia
##vamos
leales
autos
ordenado
Jaco
inmensas
Imperial
enfrente
##chen
Juárez
vanidad
Nuñez
destierro
permitió
transpor
és
deso
convertir
procurando
Zacatecas
Eli
##cilia
##casen
1857
entrañas
primavera
ens
113
##ORIAS
LO
comodidad
Pot
dominar
##ther
tributos
dirijió
yerba
pasaje
americanas
##inoso
117
perf
luchar
existentes
Calleja
inhabit
##ip
##domo
Apos
Ron
marinos
And
precisa
XXV
palma
quede
señala
guerrero
cedió
leyó
##dilleras
Tlax
Ortega
verso
creían
guberna
humanos
condenado
lienzo
moro
desembarco
cacao
puñal
coinci
echado
cuchillo
##cimo
Lavalle
coger
distantes
##bítero
casado
traidores
Segu
disfra
pedazo
proced
##viar
veh
1848
categor
fecun
habita
sucesores
bail
distribución
Central
anal
116
Gam
desbara
firmado
Adu
##abó
guia
Tarragona
estimación
fl
recí
trance
Eduardo
##ulas
##geles
ann
debería
diócesis
lentamente
yes
vivían
secreta
edades
tró
aplicar
epie
tela
oficina
melancó
Ocu
Tanto
tablas
adhes
procedimientos
Noti
regidores
Améri
situadas
cuerda
pensa
caudales
cientos
elevados
##huacan
##PO
reglam
Murió
bienestar
definitiva
simpatías
tio
inunda
entradas
IS
VEN
queja
pagan
crear
ejue
##drán
1825
##abil
aparición
contraria
referidos
necesitan
engaño
dante
inme
reciente
boli
Entretanto
adoptado
concesión
madrugada
##adilla
campi
Hubo
risue
siento
corro
galería
competencia
beli
ut
##tho
gobernación
arrojó
cívi
##ctivo
##gón
castillos
decidir
convencido
elegir
física
párrafo
deplor
parale
vueltas
aborre
##icanos
Morelos
alemanes
##MI
##ñón
curas
Medio
conclusión
##nan
anchura
##izando
Huesca
##omé
dous
Segura
dividida
##tariamente
##minio
palos
Pompe
mance
esclam
puestas
equipa
Hai
fortificaciones
hem
aclar
habili
barca
cargar
reconoci
SEGU
episco
##usto
profe
figurar
Algunas
GRAN
Ou
tación
Natural
1815
alcanzado
atribuciones
lego
##teria
víspera
rena
##TOR
##onales
##ridas
Alb
entrevista
Según
escuchar
miembro
Hui
##zuma
propuesta
considerando
alegres
inteligente
ridad
##iduría
##ilidad
llamadas
opera
cuadras
confesar
JUAN
emplea
Durango
presto
falsa
socorrer
rápido
##esse
resign
migo
bastar
libremente
impreso
súbi
estal
todavia
aproxima
Oficiales
JOS
conve
colocada
eclesiástica
portugués
##grar
infame
ates
##ee
##óes
caído
señalar
##dones
debiera
efectivamente
violenta
Eulalia
Nú
tendo
Conclu
Indi
adoptar
MEMORIAS
LU
##fia
amarillo
##ajes
criterio
artifici
recompensa
Narva
Evangelio
dimensiones
Cul
dog
Convento
Bernal
Mediterráneo
ARGENTINA
atr
xv
humor
milla
hipo
discordia
Castellan
secretos
pelear
distinguidos
dirigiéndose
##BLICA
##GR
inj
##bimos
vivido
pass
hilo
salían
Mondo
franca
continuaba
Ricardo
##árqui
##ENA
Capilla
lord
data
audi
monjas
##brio
Viva
long
Lla
cayeron
##mbra
1828
##OMB
New
Fue
##erios
servidu
celebra
médicos
CONQUISTA
defin
comedias
##icios
prior
encontré
##ctas
##áles
##letas
##ismos
cómpli
intelectual
Poli
rodean
pretesto
refres
RIO
reedi
leyenda
altares
vengar
peligrosa
AD
brus
fenómenos
filosó
##anta
amenazas
CUBA
viéndose
acabado
reducidos
Abo
ítem
conociendo
autorizado
curiosos
difíciles
Bis
Rem
miró
claustro
##isional
tencia
##CIO
ident
artistas
desesperación
Dem
##mbolo
bárbaro
SIGLO
Saavedra
Acos
SI
##dam
unirse
compan
ponga
Orientales
afirmar
Arias
octa
##uces
##poración
##CAN
##rete
Jas
##eméri
discor
Riva
latina
##ánico
anticip
##bridad
atento
definitivamente
piensa
Dió
alemán
desconfianza
##terna
Justo
sepultura
ovejas
bá
rales
vivía
diremos
inaugu
Vázquez
distingui
precauciones
imágenes
carril
conservador
oidores
retiraron
Narvaez
anex
##bili
Guzmán
accidentes
justamente
abandonó
##gieron
perso
decimos
##grafos
unán
desma
##ésemos
temper
CAN
crue
aceptó
##tuosas
acompaña
ocurrir
##GUAY
##uérf
guir
escel
angos
terres
facciones
dulz
europeo
vera
aplica
rí
ció
Parro
soberanos
princesa
denominación
Apu
abne
nutri
nador
gober
Docu
persever
promesa
coloca
Zi
##gamente
tivo
raciones
1852
economía
sis
##SO
##orial
sucumb
linea
suspender
biendo
inc
corres
Relación
nube
Tacu
##entísimo
continuas
Excel
cámaras
PLATA
vaso
setecientos
##dob
caida
preval
inspira
ocuparon
brillo
magistrados
##vala
caída
causar
##áyo
##stmo
Godo
iniciativa
##simos
catástro
fuimos
PROVINCIA
##jenas
##let
Castel
continuamente
reconoció
##COS
Relaciones
monedas
volvía
invasores
cálculo
perspec
grav
1863
conquistar
primeiro
Fueron
periodo
##UL
diendo
exis
##coso
facción
perteneciente
Badajoz
conje
viniendo
extensa
aguardiente
##FICA
##tania
abon
prestó
antemano
Jacin
electores
apellido
SA
Chac
merecido
ocultar
tino
##verio
##INO
oye
##eña
estrella
REPÚ
ANTI
Sandoval
##dina
##ARES
Salta
feligres
##UELA
nía
##rs
desco
programa
##rosos
Vier
##iáo
anto
inevitable
DOM
lea
ESPAÑA
dinas
##entarse
##ficencia
desempeño
democr
relieve
##maba
notorio
regia
##ctiva
ilustración
Tari
relativos
pleito
reñ
elocuencia
campanas
##wa
##ónicas
Humbol
pour
relativas
1819
##lab
repúblicas
##éditos
acad
##meda
estraño
labranza
defenderse
cargado
##iedades
##legado
vasos
1833
expresado
tocó
ponían
Bolivar
##pri
##ampo
salía
existía
septentrional
##lidas
##vita
ciego
lanzó
comenzado
integridad
Corrientes
talla
penin
cobar
declaraciones
fó
##jaron
Sea
quí
tuvimos
Diez
descubierta
desist
hech
Luz
barrios
ue
respir
Salva
##obos
Publi
testamento
presupuesto
ka
realista
Magist
Muerte
1846
mandato
Bél
esencial
Lam
##uc
Tratado
fortalezas
lograron
problema
lú
dera
incidente
pasto
##tánzos
Media
pio
impun
##udio
jer
colocados
pulgadas
recípro
RELA
bea
##dá
Produ
comercial
procurado
prevenido
##tista
querida
nariz
exigencias
imponente
audacia
pesetas
cena
ofer
dig
Palmas
rompió
fino
territorial
1816
MADRID
biblioteca
lazo
##oble
verbo
sorprender
desgraciados
was
federación
pido
delin
Reco
servidumbre
diarios
Salinas
vecina
consulta
##marse
##óm
degol
##stima
permitía
##emen
prodig
aju
resumen
sabor
señorío
conducto
desiertos
sera
potencia
Lucía
negó
cáted
Dere
león
grano
##RIL
rigu
pensando
Muchas
envidia
probado
##quist
reconoce
victor
reliquias
##zamiento
ordenanzas
formados
##lip
Comun
supri
resplande
Gi
concor
meio
cuartos
robust
descansar
GOBI
esque
vertientes
Mallorca
curar
enre
amen
sabían
Salas
despojos
##oba
##anova
traia
##igue
muere
esperiencia
ESTADO
##radores
haré
extremos
arbitr
descrip
quier
##tadamente
Comon
anualmente
britán
comparación
bían
hipó
Será
##lisis
libra
##izaba
Villaf
inclinación
incó
##igan
talentos
atacado
acabo
despecho
indígena
evidencia
argumento
contado
andan
temiendo
acercarse
pintor
POLÍTICA
agar
mande
Chia
acusación
contaban
ILUST
informa
Pagca
estabele
Entr
1864
procura
uo
Franco
esmero
##mula
cerrada
1840
novela
oríjen
##mín
##dita
##chados
metá
infl
arrojo
pelea
APÉNDICE
##jente
Monter
dedicado
fragmentos
impuestos
creencias
decoro
bravo
##bon
desha
escasos
COS
ño
medal
llegase
juicios
veinticinco
mercancías
poseía
Sec
ator
##ée
pastores
destruido
IMP
desemb
anchas
##ORN
respectivo
sospechos
##quitos
ordena
discursos
Caro
##cillos
Caldas
completar
Cama
##estan
arrobas
titulado
almacenes
gir
port
reúne
toro
atraer
Capitu
falleció
piratas
bestias
confe
exposición
Espe
nossa
1818
destacamento
exigir
combinación
hogares
Bár
MI
##ciados
medias
oscura
NUM
##vaban
##ents
hac
mover
1855
1845
localidad
Quesada
Bara
declarando
1858
convier
##hn
abuso
bocas
mejoras
tria
temple
derrotado
remitir
subsistencia
deshon
##sicos
misericordia
Bue
##jil
##tay
sill
denunci
concierto
apete
##lota
consideraba
Austral
carnes
crisis
infa
cauce
Autor
comisario
Emi
sabiduría
##berg
homens
miserables
muebles
descuido
manejo
dotes
##ezcan
guía
funesto
Valen
Roca
OR
Quir
alist
vivió
insol
primitivos
sospecha
penit
provechos
repeti
intérpre
sustancia
trage
Situ
retiro
asesinato
1868
cariños
Continu
prelados
usaban
enseña
Belg
orejas
resal
sado
expediciones
Casta
láp
##EC
##tiera
tendencias
pechos
entreten
Creo
nervi
sublevación
bran
ls
cui
precisión
PO
precep
informado
componían
enco
inac
Gobern
convenia
espantosa
rendir
pompa
Já
acia
gún
##andes
Elvira
##igáo
sirviendo
cuadradas
empezar
heroico
Pinto
fúne
habrán
1854
vecinas
Agü
mén
##nio
auia
sexos
deslumb
violento
Escuela
estandarte
##gidas
caen
intentar
odios
##eroa
encomend
encanto
vado
defecto
cometer
hospitales
Ka
fueros
persuadir
fina
##rería
correspondía
enviados
servidor
enamor
totalmente
##ximamente
Jerez
insectos
provisional
orgán
##inciales
Sicilia
profundas
agrega
llorar
serenidad
GOBIERNO
3o
##ertos
##diesen
propone
##mosa
Def
Chilo
Bey
##dus
excu
Cristi
frecuente
##iéndole
sumas
vuelven
consultar
intrigas
órgano
fundamental
til
angust
arren
precedente
##derez
##curio
##guien
torrente
recibiendo
bellí
1836
esterior
meridiano
Finalmente
Humboldt
##ám
##ídas
viu
india
comunmente
hicimos
dirigirse
conversión
##pón
##tang
cardenal
inquietud
serran
observó
##tions
ESP
huerta
Decreto
##mago
arzobis
Canaria
mandada
andaban
prácticas
Romero
Cur
##pida
##gándose
##jante
fraile
##fí
seg
estará
##viana
Escrib
gris
prodigios
Bona
##pens
##erón
##adera
embos
perpetua
demostraciones
unidas
cumbres
reunidas
Isidro
astron
unida
##cete
divisoria
municipio
##áneo
##omba
##dulas
raras
MUNDO
Cuatro
##ct
supi
##rum
veneración
hubieron
trozo
derre
relato
censura
duques
hacerla
funesta
antepas
jén
##uve
##gli
prosa
##ructu
##teniente
Vice
##choacan
##icio
##dán
secciones
lección
estatura
Monas
convenir
vestigios
##stituir
bóvedas
Vin
##sidad
##dosa
duras
proteger
Sacramento
Vos
desó
Quiroga
nacionalidad
mejicano
tesorero
MONTE
##NA
caserío
brevedad
adhesión
##viado
cación
Pocos
reunieron
establecerse
diámetro
Cán
PU
ev
comisiones
Quien
Morro
corrido
ángulos
sospechas
Crónica
pique
##jares
Declar
Batallón
Cón
hin
comido
agente
referencia
demand
Alvaro
dibujo
cand
despro
argentino
valeroso
discípulos
Lab
Desa
levantan
barbarie
Sos
ada
##gráficas
trom
Arre
autori
sufrag
sacrificar
##REC
soberbia
demostrado
Mosquera
Bus
tun
##jió
almen
##obe
Betánzos
Hizo
consistía
mensu
Bueno
generosidad
##tificación
práctico
exceso
Infante
clérigo
##TRA
##entaron
privada
pedi
roto
regocijo
moda
##alló
vistas
instinto
símbolo
##ione
cis
##landa
costó
milagro
##titudes
legu
señas
##genio
llave
circunstan
rango
canoa
Luiz
majes
caras
ayunta
primeira
damos
opri
generosa
Beatriz
Belgrano
Cum
deve
ende
Portales
vicario
cruzar
conferencias
dix
cambios
##ecimientos
##hual
DA
instin
simplemente
capricho
Apó
Gü
eon
loma
traían
instancias
encamin
##bano
nacen
##ERTO
1856
agregar
Acaso
posibles
generaciones
rodeada
##ufra
Santísima
YUCATÁN
tendencia
campe
Jerónimo
desnudos
síntomas
Yn
sana
aumenta
totalidad
arque
mah
plazuela
breves
privilegi
borra
Revolución
NUEVA
##gria
into
##nato
Cau
pretensión
##iba
cabeci
presentaban
misterios
intré
ed
pecado
promul
ANALES
episo
Cárden
nn
##CRI
excepto
asust
incomo
corporación
##GRAFÍA
TE
##sio
##YA
##arlas
##cuaro
Tajo
cooperación
limosna
##cott
ofreciendo
convoy
peninsu
pp
##vano
concilio
1843
eminente
Oficio
##onis
Sao
1829
1865
verle
empre
tex
llanto
avanzada
armi
ae
mada
##ango
construida
despachó
alimentos
italiano
Administración
Víctor
tada
pavi
estuviera
peruanos
peces
Escal
adecu
Abd
antiguamente
juegos
sien
miel
trataron
millón
Saint
campana
embocadura
dida
cordilleras
conocían
inscripciones
occidente
competente
air
cofrad
rechazar
##tala
Bernard
mesti
##bias
dato
parroquias
CASA
tripulación
Huer
estancias
librar
favorables
1835
1837
depende
ampar
ídolo
Acab
arries
Caba
Wa
dijimos
##rosas
visitas
1832
apoderado
##jin
lazos
arcab
perecer
serpi
recibía
##TON
##cese
veje
montan
fría
reglamento
convencer
hospe
Estrecho
Mondoñedo
##entre
Convención
Caz
Indu
sumer
én
##pelo
##forte
##sticio
aparente
1844
##urada
pasamos
Santafé
acusado
Brigadier
##timiento
dello
pieles
terminada
algumas
mio
Union
ocurre
oídos
##DUCCIÓN
desalo
costo
destreza
madres
Arau
duer
pé
##pando
dellas
##cella
Ald
Marco
concurrir
Talca
##gráficos
afición
modifi
##mana
##sivas
comenzaba
Pascual
##vadavia
izquierdo
bernador
cantos
manifestaciones
placeres
liga
Jaén
Superior
Ace
##neros
serra
Estrada
forzoso
pital
ranch
históricas
Igual
Mala
altera
##rena
seña
azote
alumnos
Plin
Copia
Tepe
190
lance
remediar
mencionada
##ársele
natura
dignas
ingenieros
alguma
consagrado
##ueve
severa
unir
vital
marea
subordin
1853
1867
memb
##rem
marino
sorprendido
INTRO
troncos
Instituto
Ham
exquisi
##pañas
##trico
deberá
delicado
mora
perdieron
Maza
furia
regalo
tocaba
pertre
próximamente
sencillez
Cr
Hom
##vé
##úbi
copa
cálculos
dimin
excur
maga
entáo
mejorar
construyó
Cuartel
Otras
##BIA
##zer
##tou
##chit
Patr
Comercio
##dum
##pendi
Duero
##uig
Lagos
convul
Tolosa
##abamba
aquéllos
garganta
Hur
tec
extenso
pacificación
Ferrol
##parable
capitanía
espresion
prohibi
terremo
03
my
sn
Monti
bastan
##millas
Bul
##uria
guerrillas
##tn
##onado
negoci
animos
martirio
tla
##vian
rector
justificar
bli
##tava
mandados
conocemos
roja
autorización
Mercedes
literaria
Fiscal
ñoles
##loma
##viano
margem
encargados
galle
Prusia
jornadas
crueles
Comonfort
##sin
exhor
##ilio
##posicion
gruesa
##stoles
##dil
fueren
escra
conducía
preguntar
Joaquin
TOR
alaban
toque
perci
contrari
##itaban
1869
auxiliares
beneméri
Viejo
Banda
##ifa
caido
verdade
ángel
paralelo
vireinato
sereno
respetables
ocupando
contornos
Oca
llegué
##EDA
Magallanes
##maron
proxim
##ctur
aventuras
lis
secu
locales
qualquer
avanzar
##fusión
hur
órden
ciales
##pita
orador
goleta
##éndolas
reciben
sirvieron
aplauso
proponía
mete
Arauco
injusticia
vecindad
imposibilidad
observancia
Pern
pist
##gs
atentado
confirma
filósofo
huérf
Conven
infierno
INS
rad
##vase
##mpe
##inoco
indispensables
##cede
##simas
levantaron
equili
Here
dedo
##ERS
manifestación
1879
Católicos
INDE
ME
##LIO
##guía
terras
castellana
perpetuo
##ki
##entarios
##ché
leche
Mari
hermanas
elevar
##ARRA
establecidos
oculto
embarcó
ingenios
estranjeros
posteriormente
##titlan
granad
faltó
distinguen
constitucionales
socorros
Jacinto
Ph
##lador
magna
bata
Caj
palm
custodia
BU
PUE
decirle
profundos
manuscrito
900
correos
##idero
chinos
Manzan
mártires
cubren
Represent
Bélgica
##enses
ocupados
aquélla
##ampas
Monarca
dictador
Todavía
Wil
allan
ínte
##idencial
fieras
Núñez
Cen
estendi
mató
DEF
figuran
Teruel
05
SAL
##lfo
inno
Mah
formarse
pronunció
Braga
enlre
1827
##obre
##qua
comprendió
cobrar
##cú
##vente
##abilidades
tiago
Fil
##jec
portada
##feras
favorecer
pasadas
amon
vacas
estreme
Plinio
##quido
esplica
Paula
##llada
denominado
dulzura
Apo
##zin
severo
sobrevi
honrad
supieron
##ICOS
verificado
listas
##ciaes
escritas
preparaba
Compan
ocupada
salvado
Tunja
INTRODUCCIÓN
FU
rol
cigar
appar
intelij
Gracias
exag
Alcán
traslación
##RAL
cors
hácia
misterioso
Ses
fiz
lecciones
excla
pru
sabes
mercados
guarni
Rol
Vista
##hin
cional
ropas
comprendía
desastros
Población
bulli
infancia
sumisión
atravesando
Apro
fantasía
desórdenes
alqui
pati
##josa
abunda
amenazaba
algum
localidades
##izo
##reno
conside
Quevedo
catedr
##cén
encab
##dilla
Inter
##zase
##ILL
colonización
ilusiones
insignificante
ruego
proli
logar
dedicó
atribuye
TOTAL
meseta
categoría
##mática
resca
continuando
1826
mandamos
Gaceta
alhajas
##rate
escre
escomb
empa
poseer
practicar
nomin
ensenada
dial
necesariamente
profesor
felizmente
##gosa
resultas
Rivadavia
océano
disputa
tenientes
levantarse
recorrido
acompañaban
Termin
##ugh
espadas
calcular
estuviesen
rincón
mari
proven
disolución
generación
##ñones
abus
forme
usado
bellos
deje
##ciada
pretendía
tirar
concluye
aventa
quitó
monarcas
Muerto
##sam
##onga
Estable
muitas
##sules
retroceder
meu
fuero
molesti
Álava
##danza
Pardo
recibidos
Zu
cle
##jento
viese
trayendo
merecer
centa
dragones
nacio
bailes
##gne
transa
centímetros
##ignación
trincheras
remos
trajes
afuera
relativamente
AMERI
cueva
##ensible
##gusti
##iena
opres
miles
arrepent
cooper
Edad
Sé
salones
talvez
desaho
afli
harán
PEDRO
ORI
estí
leído
##igno
españo
delicad
nados
##bis
anales
##ulado
choz
tribuna
##GUA
Tas
qae
cata
mantas
prevenir
herman
responde
frust
confesión
##ológico
Ríos
ji
pirá
##má
##trava
##tarias
sobr
tún
##culas
serían
canon
daría
ejecutó
Lorca
climas
hacemos
Conci
##vares
cansan
sostuvo
ondas
erario
traducción
Lerma
cocina
andando
envuelto
##ccio
##ceas
horrores
cañon
##camentos
prosiguió
##PENDENCIA
Dan
vías
##cres
loca
recientemente
oprim
acordar
Almagro
opi
pó
##CC
estiende
revista
maj
accidente
verdaderas
sostiene
manifestando
##ixa
Sede
Tudela
mostraba
estad
##uian
pagado
espir
Cangas
choque
oraciones
acostumbrado
exportación
##erar
acero
fijó
párro
bautismo
ved
##dona
##cimos
cuero
teoría
capell
350
yerbas
##chel
noctur
cep
bandos
demora
hombro
Municipalidad
turbul
nova
1831
obligaron
Cie
##quero
fundo
dispersos
Ed
celes
##yentes
creyeron
vacío
you
inmó
rodea
desapareció
convicción
concebir
##ont
carab
##mbas
Morillo
Orle
sombrío
pañoles
excelentes
estéril
##nias
##orno
##tic
desm
corrupción
camisa
Diputado
colosal
Aba
Nomb
Op
##oras
verlo
delicada
Huel
Sá
telas
proponer
quieres
Comis
arroja
posibilidad
INDEPENDENCIA
deh
demostr
feroces
centenares
##ster
##ibo
##elia
##cingo
dirigieron
aplausos
severidad
dable
fana
tratan
##rosio
trar
chico
Chor
Colo
amenaz
explicación
pedes
Carras
Vitoria
hasla
detenerse
fis
Expe
Orinoco
inglesas
##cables
teñ
chan
##ianas
Salto
Moc
concede
conquistado
prometido
repitió
embajador
tis
##ábi
coman
Cuad
1834
##osímil
Tabas
estro
obreros
compasión
irse
resultar
ejecutado
##tibles
##coco
arch
conservadores
limpia
Soberano
Cid
mediodía
mostrado
PR
semanas
Buen
agru
págs
Verde
azar
##tasar
ticia
feito
maravillas
ternura
dilu
##cuer
estaciones
reclamaciones
continuaron
##tadora
advierte
luto
tomadas
muerta
tormenta
Segundo
Agüero
##dro
##VID
cerco
Artes
seguinte
plante
reducción
magistrado
Pun
esplo
terior
envidi
Ville
Sonora
brasile
tentativa
##yán
disim
caver
Mariscal
descans
abnegación
##ume
##tóse
disponía
Venecia
mien
acon
instalación
##greja
diciéndole
monar
crece
adelantos
1842
ménos
mortales
defendido
##bú
asper
honrados
haciéndole
pintado
Garay
It
galo
##lamos
campañas
universo
Tolu
amos
bargo
Patag
verdades
abiertas
Español
Jama
Donde
COLOM
sacra
Carri
##generación
Descu
fosse
escepcion
conm
##trios
240
Camino
avisos
fresca
sustento
resoluciones
##laje
##sivos
cautivos
soberana
curiosa
##ológica
Cad
##ondo
subido
procedentes
May
recto
bravos
pienso
AND
##ñeta
desmor
raices
Incas
sublevados
reinaba
tregua
procedió
vír
elegantes
agricul
geografía
Governador
nera
centros
cobarde
patente
intentó
dictadura
reservado
Cano
##fuer
partí
##laria
preli
amantes
Vivero
desembocadura
02
jener
rab
##ezo
doncel
pidieron
tendrán
viniese
plo
##uil
desol
##quim
##parte
asegurado
bille
##rana
baga
infieles
increí
##ánica
respectiva
1866
1841
comunicar
idola
torrentes
melhor
irresist
ILUSTR
Som
retor
suscep
acamp
robo
destinadas
Hungria
ridículo
Amar
Joan
gunas
Católica
JOSÉ
SUS
one
##lace
cualesquiera
heredero
principe
##tánea
subdi
Antioquia
perfum
tareas
Boca
antepasados
Iri
Sra
Sto
aspi
indire
formadas
ofrecían
deseando
##bulo
conservaba
##JA
##inacion
Correg
##mediatamente
Tec
júbi
esencia
##terios
##quillo
priva
tomos
levantando
sucedía
abandonada
##colas
##ufac
Chiloé
gü
##misión
##dese
Descripción
acudió
turba
solicitar
TI
vor
##riga
##losos
escuadrones
duelo
##ker
estó
Zavala
defensor
cifra
Usted
xi
##ium
##aV
limites
Sarmiento
imitación
Figueroa
reloj
oponerse
##DOS
decian
realización
sólida
electoral
empezaba
rebelde
reflexion
##chiller
BE
##cario
impla
indicaciones
gota
pertenecían
peculiar
Michoacan
informar
Urdan
desastre
Bernardino
##tografía
##chadas
coco
combati
Cárdenas
visión
gozo
huestes
comu
desali
cintura
ondu
físico
investigaciones
Has
nad
álos
raí
originales
##burgo
ál
poniéndose
alguacil
ésto
##jios
##ueste
cabos
Lucas
Cerca
significación
recelo
Legisla
Ep
risa
##abu
cuenca
parape
separarse
Zar
##reira
##ceu
tratamiento
Toma
##jui
pleno
zos
##ñon
##ish
ane
##gancia
aumentó
elegancia
cronista
lé
##zamos
##riese
restit
Emb
##ác
reu
cule
Alberto
Bahia
oscure
promover
Ia
##tam
##lista
certi
certeza
convenido
concejo
abiertos
Alcántara
tocado
trayecto
administrador
mandé
tormento
PAS
vér
##inha
##cules
planici
Ass
señaló
sitiados
pariente
locura
tira
pronuncia
honradez
peste
contentos
##queros
1838
elogio
discreción
succes
##ñiga
tico
cans
Sole
pálido
encerrado
Dávila
alojamiento
##ficamente
justas
Monforte
convención
procede
criatura
dinastía
##ílica
espor
quieran
capel
acercó
despeda
escap
eficacia
huertas
Cisneros
escombros
acel
##ecidas
hog
moralidad
REPÚBLICA
##ciéndose
poema
preser
Alem
oportunamente
remate
catástrofe
varon
puri
fijado
Tabasco
taron
sonido
boa
solemnes
comunicó
limpio
Ces
oji
cargados
esperarse
linda
despertar
preocupaciones
perjuicios
Lázaro
Gab
lav
##telo
novel
sit
manufac
##valos
220
excesos
Hér
Sara
pou
matem
Comand
enemi
impaciencia
detes
##diano
dit
proa
desple
hallo
ciru
##lea
##cher
analo
##zaga
calabo
volúm
exactamente
Australia
jenerales
ácido
##So
empi
sentó
establecidas
humedad
requiere
lomas
miran
autén
firmar
Loreto
Flandes
##led
granito
rendición
##ambuco
Imagen
júbilo
URU
cente
##ivas
##guan
continú
Bes
injen
##rane
tenéis
racional
bastaba
modernas
1880
grandioso
toneladas
gus
cabello
repetidos
##résti
bloqueo
##abá
Esm
Arce
estrech
Motezuma
galerías
Serrano
magníficos
afluentes
##erica
##def
casó
##huac
dizer
tiranos
saludar
pavor
##lamen
vestir
separados
rejimiento
tera
escultura
Tenia
aduana
geográfica
Licenciado
Cesar
mantuvo
false
voluntariamente
engañar
pessoas
ardientes
Inquisición
herencia
existente
Berm
cieron
##vall
maquin
desastres
fomento
gla
iner
perseguido
echando
afian
BO
##ose
rega
mide
traza
dispone
calzada
Canal
vientre
indicada
marchaba
desconocida
triunfante
desgraciadamente
adversarios
hones
##ht
actas
sepulcros
crítico
Mesa
##tigo
porto
##tancia
justos
indias
Colorado
animado
impone
Rincón
##ÍS
desgar
exteriores
aquelle
magnitud
sable
semillas
cuen
##peta
pasase
quedase
suspir
##ezan
pontifi
penosa
pronunciado
marítima
emancipación
##embar
exemp
saco
limitado
mártir
quietud
Cris
##jica
##aderas
##dicho
cuent
foras
suspensión
magnificencia
perspectiva
Fron
##encio
##nación
disuel
escudos
pierden
enam
andalu
bate
inocencia
precaución
linaje
Tlas
##cifi
alti
##dices
recibo
Villas
ladrones
Matan
tome
tierna
##pulco
Sid
##raga
godos
afectos
inocentes
mosa
dois
##ullo
valores
cortado
from
geó
apertura
ilusión
contradicción
Num
##sol
##erno
abe
vici
balcón
##eralda
##stituido
quod
táuo
inspiración
##marca
##arez
pozo
maci
##tinerario
valen
apropi
íntimo
Respecto
##GRÁ
alguien
presión
##ciona
amaba
Tesoro
enojo
domici
industrias
##ternidad
capellán
corresponder
deseado
visitado
viejas
Vela
posesion
oportuna
cambiado
Diccionario
sinceridad
quemar
puse
Dej
Barba
##fato
garanti
Vélez
URUGUAY
08
##aloa
arreci
##fan
parezca
cañas
espresa
establecieron
código
maravilla
pusiese
Urdaneta
neros
##mber
goberna
fallo
Valent
Oficial
suscrib
poderosas
Religión
silvestres
Cres
verla
aumentado
europeas
pia
##ub
leido
Colección
hicieran
previsión
presbítero
Alcázar
tomaban
ofren
##corro
VIH
flecha
Padilla
audaz
bir
##STI
Pasto
ingeniero
indíjenas
moderación
caro
Reun
rosas
##burg
corporaciones
VIAJE
Monasterio
exponer
lanchas
210
suficientemente
modesto
manuscritos
Popayan
descontento
Fan
gesti
##cuatro
##urt
agregó
Arri
##cillas
extraordinarias
gruesas
subalternos
Toluca
consin
interro
votar
interesados
acometer
##ep
doscientas
proclamado
CÁ
metido
aseme
indefin
terminante
ancianos
consentimiento
##organ
alza
bajan
edificar
Militar
##lejo
inuti
tropel
buscaba
armisticio
Sua
islo
asientos
##volencia
molino
remotos
##abando
commis
Mauri
Palencia
lonj
compromiso
##ñor
perderse
exerci
##bana
##ury
Chin
Hacia
agrado
estaría
amarilla
echaron
espantoso
anoch
Dul
fim
logra
mare
reuniones
redujo
recomenda
Álvaro
Ambrosio
erección
redi
##viéndose
morib
faltaban
##vidas
gozaba
plus
AMÉ
demostración
temperamento
##TAD
##eradores
passar
decidida
ordenanza
levantamiento
Páez
Misiones
eti
depar
cortos
cortas
Carre
atacó
íntima
PERÚ
Orleans
##rian
faja
describe
uua
ciega
##edro
trazado
##sao
##udadanos
Exist
##lemencia
aguardar
Freiré
ponia
recibí
inmun
dictó
renunciar
Iglesias
defec
peri
donación
puntu
pertenecer
misteriosa
omni
Pompeyo
bizar
##ZO
##quidad
veneno
turcos
descender
Ao
Ste
veras
cami
ofrecieron
cesó
##díamos
aprender
arquitecto
dezir
agrícola
Gobiernos
paseos
emprésti
griega
ángeles
##GUE
Lau
embarcación
1881
negociación
##cue
desment
##cosa
##ganda
marítimas
Maestre
azules
##uit
##cóes
repito
tentativas
brasil
reto
##trica
1849
concluida
protestas
Foi
Cundin
Villafranca
pir
##umb
Roque
Abra
##caden
solemnemente
Generales
dole
vincias
Rivas
sujeta
Ultra
esencialmente
lante
##vándose
##pren
cuáles
corral
vocab
##vides
##INAS
heroísmo
derramar
nan
acal
doncella
Juzg
representado
empeñ
pronunciamiento
desembarcar
cían
sustan
asu
tejidos
Paredes
idiomas
refuerzos
zonas
##vá
teni
Boh
##oa
##cacion
##cuña
perdiendo
corrían
##ibes
tendido
cocin
emis
Monta
harina
candidato
absurdo
##glí
intran
Cuál
capillas
contribuido
fuertemente
Agustin
econom
Zú
concre
##ezol
representaba
Ayres
turno
secundar
corregidor
cielos
Partido
horribles
mencionados
quedará
Sebastián
Ado
Reme
Wal
Cayo
contienda
Cartajena
famosos
comprometer
apuntes
compre
##érico
señalados
1809
sometido
juzga
Vino
notado
caminar
vega
holandes
tot
##ford
##brica
circul
económico
trabalho
COLOMBIA
Edi
sudor
arenas
##úsculo
Capitanes
homenaje
gradas
##vemos
cong
alco
pedre
riquí
bió
##ctamente
enn
##ienden
trajeron
constantes
fruta
fundamentos
aprobado
AC
##enga
##abé
##dré
penal
lástima
quebradas
commercio
Bermú
Qua
avar
reduce
legislación
bolsillo
invención
descri
acaban
traspas
arrojado
Moham
##DIOS
grato
labradores
Añ
enven
interven
palmas
mesas
ganó
Talavera
##ok
perdidos
Sanl
Correa
desal
carpin
gusta
ponto
jurí
hazer
riachuelo
Tlal
##ércoles
amable
estrem
gruesos
elocuente
araucanos
##VIDEO
##vre
##cino
inso
naciente
pesado
Prin
Pontífice
Fuera
dise
cercano
polí
Albacete
Unos
anunció
recobrar
proseguir
Dónde
Gan
Pis
hable
produjeron
levantaba
folio
bueyes
##rara
tumulto
MONTEVIDEO
##bl
mendi
creó
instruir
191
alivio
ocurren
panor
occas
Prelado
afecciones
marchando
sobra
carg
Esté
virgen
coroneles
contó
lastimos
hacerles
vayan
siguien
##gasen
cristian
análisis
4o
##inadas
anuncia
Consul
contribuyó
Plas
dándoles
##adía
salimos
costados
dependientes
##fen
##gativas
##ting
molt
suplicio
legítima
velocidad
gala
unía
salario
guardan
pasajeros
concesiones
estructura
descol
Deb
instan
reparo
biblio
##vana
capitáo
tenerse
##ELL
pretender
DEFENS
Hércules
##egue
dictar
fera
leones
arsen
pedr
cerró
Presi
suelta
ocupaciones
inhum
presumir
Intendente
##entario
disgu
designado
##moros
fomentar
povoa
Pros
##litos
cay
Coi
Amé
fabu
##bamba
##ventura
dividir
##NDA
capitular
novi
Esos
empezado
notablemente
##EZUELA
COLON
Bahía
##vial
montar
Peru
Fuentes
suponiendo
volúmenes
feste
##tito
##urre
adher
##ciosamente
enviaron
añadiendo
cuja
impresion
fundadas
infinidad
adjudi
Lec
##tierra
Alham
favores
senadores
comuni
universidad
infati
INSUR
novo
caser
disemin
sorte
sillas
##trero
peones
miraban
deseaban
sospechar
emigrados
despoblado
Xa
##siasta
mozos
Cuyo
sueños
fundadores
fértiles
consignar
##quio
Ref
Logro
comprendiendo
Garci
fundaron
despachos
Gál
##ecia
consti
##eratriz
servía
gratui
movido
acababan
Primer
ocuparse
remota
Compren
ímpe
##cou
Algo
230
contesta
Obando
introdujo
Acosta
BUR
tores
escur
impuso
ayun
##ximo
ilus
COMP
##BO
met
##terin
sagr
disse
aconteci
floreci
nales
##lamente
pater
brazas
Soy
Tenía
Ayala
ordinarias
ordinariamente
proximidad
##eal
salvó
onzas
señalada
designios
archivos
travesía
rro
sacaron
hotel
encuen
1873
disminuir
deduce
corbe
Lago
darme
cuerdas
Orizaba
1839
ignomin
Resul
Tacuba
Agri
##pote
Calatrava
bispo
##kin
sede
malicia
paisaje
Tuvo
Galle
dictado
Aguas
blación
##mé
cuándo
Conser
haberla
Peral
telé
MO
hy
##llana
munici
cuidar
ignoraba
SANTA
##iti
anhel
movió
tardar
antecedente
cultos
Sarria
adornado
responsable
aprobó
Fuerte
atroz
consentir
ua
##zia
##ineos
extranjera
descarga
explotación
signos
##drig
dejase
descubr
acompañaba
desenlace
Instrucción
##ciaciones
acudieron
dominaba
abandonaron
VENEZUELA
Cundinamarca
Ato
Pens
##ivamente
##yun
##ricas
##sou
hablaban
1807
HISTÓRICA
cosechas
Ildef
mercaderes
expidió
Bermúdez
ROM
##rima
##vasen
gobernantes
yan
torio
portuguez
brutal
invadir
Aduana
Ibarra
pror
tancias
Artil
Joaquim
perni
mayordomo
Salió
cuadrados
acompañó
penetrado
dedica
sitiadores
Diputación
AA
Agre
devuel
##abuco
viv
derru
sistemas
rastro
Libro
elogios
indulto
Pronto
arbustos
Zo
propos
mati
huyeron
Arg
tremen
raros
Cédula
raíces
Sent
paragua
cayendo
Aquellos
entenderse
Suprema
ansiedad
austral
##listas
sición
resent
previn
juro
mejora
Cole
testimonios
escasas
pierna
pintoresco
tez
##Ã©
##ulla
repren
##egados
información
liger
inspirado
Jú
dotado
Cont
silvestre
Scott
##alu
valenci
moriscos
raso
deducir
flaque
repugnancia
niendo
##reinato
Escor
ayunt
importe
subterrán
pintar
agitación
fabrica
teatros
Nico
lenta
ños
##cedió
##sil
solda
trabajado
##mular
regularidad
cerebro
Ami
##pidos
ente
miri
##parse
permanecido
titulada
vacuno
LXX
dándose
##arra
have
natal
quita
suertes
domi
pecto
culpable
negativa
##cc
incan
llamando
##tru
cartu
trataban
aseguró
##toma
dij
##sele
advo
asegurarse
imitar
manantiales
aurora
##rías
##inea
Barre
Amor
hubiere
extender
civiliza
astro
peruano
Obispado
embajadores
##PAR
##letos
hostili
nieto
MOR
oidos
##xido
armar
implor
espul
mandou
Baltasar
grabado
xvi
##fra
cues
suscri
##ceno
subiendo
emplean
280
Matamoros
picos
ÍNDICE
paro
tomados
pescadores
sangriento
austria
##tanas
Cay
canas
proporcionar
bergantines
Heredia
##fio
##cibles
seja
pedían
Pastor
delle
requisi
havi
andado
disgust
daquel
amada
Sup
carnic
faculta
irresistible
hidro
##padas
pertrechos
cra
ensal
##chim
Estando
##quisa
hondo
apacible
Jamás
retablo
06
crip
escrip
llana
1883
representaciones
##iesen
##TICO
uns
carecen
celoso
##publi
futura
acompañar
Geografía
provinciales
Rozas
Concejo
fórmula
mór
##DER
##onos
pregon
Suarez
##cepres
colocadas
Torque
triunfar
agravios
Atacama
oponer
vib
##cería
tigre
Allende
herir
falsos
crónica
penetró
celebrada
Eugenio
flanco
peñascos
##jida
##jeda
honrosa
establece
reside
abrieron
tomase
confis
convenga
represen
bárbara
pacífica
huevos
REVOLUCIONES
Logroño
mrs
mana
grá
##demia
literario
Sanlúcar
Vá
nidad
##alas
arjent
solares
hebre
vende
fianza
Montejo
introducido
##ENTAL
patriótico
Godoy
Pic
senta
viera
##ctivos
##como
Acapulco
tranquilamente
##ricos
alia
##mites
salas
considerablemente
firmada
Navarro
Isa
Us
paños
mix
Contr
pesada
reconocida
balcones
commun
agrícolas
Hombre
sens
med
##veira
trasladado
aprovechando
pliego
estadística
##émi
altamente
##eroglí
principa
Arcos
enviaba
Aure
ostenta
cro
##bran
casarse
192
Prieto
demues
criollos
cansancio
dela
pesa
Montal
colegi
burla
aquesta
eos
certifi
1888
adquirió
##iduque
von
hacha
potes
##eld
ticular
cuanti
presentando
ATL
##orías
##adu
tipos
Armas
navegar
##dalos
económica
ultimo
##bs
infra
efectivo
ANTON
Palacios
infinita
candidatura
laureles
##ivos
##sicas
prenda
augusto
distan
brisa
gentil
redonda
efi
pí
##viere
##madas
carecía
cercado
apariencias
content
lancha
antigüedades
eminentes
compromisos
fanatismo
##rego
##tistas
reún
consel
Souza
Nuestros
cabaña
Cami
Gros
intitu
##heiros
Cámaras
Juntas
Chillan
lava
##ónico
Antón
Mejía
lámp
##IDAD
industriales
legislatura
devolver
Ai
TRA
contri
##eraes
mantiene
teo
poni
cesado
dormi
##entura
##lizar
ardu
##eciese
patrimonio
Beren
asesinado
Tesor
Pernambuco
jugue
Mariana
Desgra
Sou
cumplió
egipcios
Ildefonso
Ramos
##pá
##mones
salto
tuvieran
santidad
persuadido
ET
fiera
cajón
peña
colegios
##drían
faltado
trascur
Reyno
públicamente
recibían
conciudadanos
claras
Pasó
cruza
TEN
lento
cierra
Pedra
abandonando
aceptado
inaudi
atur
caval
importaba
Repú
díli
reemplazar
modestia
delicadeza
##distas
Rela
palpi
##pendio
botes
radical
Tamauli
Ultramar
sider
imprimir
Levan
rasgo
veinticuatro
##ERNAN
aran
##ks
##ítas
esmer
parlamento
##chero
lleve
contador
conformes
remitió
comandantes
Jamaica
Cic
enju
reorgan
##lasen
regidor
Salado
##cinio
sufrieron
Quirós
iu
##die
mansión
vias
conducen
260
sustra
riesgos
Caballeros
desembara
##zanas
vivamente
indicación
asistió
sufre
entusiasta
atravesado
condenados
Quintana
simpatía
Castellanos
fóra
##ice
escrú
Debe
sostienen
quintales
humildes
improviso
alcaide
enumer
##lema
cueros
sanguin
sosiego
chozas
pantal
Respon
04
##uarte
##ím
depos
##ásemos
corn
##ONES
225
suaves
ejercicios
bajando
mentira
pacíficos
pisos
Mier
elector
avenidas
convirtió
laterales
eh
zón
##aduras
##eracion
manchas
sou
Baviera
1872
Companhia
Alcaldes
episcopal
cn
reses
saliese
ofender
eclip
archipiélago
reaccion
Fonse
hí
arr
creciente
opuso
positivo
manantial
##TIN
##bren
abriendo
vaig
recién
monstruo
sulfuro
bom
##enz
##aram
incid
saltar
##elis
Muley
visitador
aseguran
calumnia
lamentable
Xo
##base
##medi
Carrillo
450
calamidades
##erado
tertu
Abu
galeras
pantanos
organiz
volverse
narra
naval
sacando
dudo
aventureros
##udos
abaste
honrar
componer
oca
##aremos
convers
##rou
cuencia
previa
bailar
realizado
1878
Occid
Estrella
piadoso
Lú
##mel
desh
##tanes
puñado
opresión
conducidos
abandona
influencias
corteza
dedicada
heroicos
refuerzo
aristocracia
Ira
Viendo
##rie
estender
reas
##cenas
espejo
meri
benevolencia
conservó
modificaciones
Concha
Ingen
poblados
1874
emigración
abrirse
refugio
bastimentos
CAMPAÑ
estás
articulo
lejano
patrón
zelo
citadas
volviese
Tuy
delicioso
prepon
entraban
adelantar
exij
Ign
Llanos
##ken
##timas
deshe
acordaron
reconcili
gentiles
muestran
comerciante
09
Pel
piden
inmin
Espar
270
acompañada
##ragon
Lord
alfomb
cubría
##inando
instruido
recibida
##IVERS
participar
cláus
Cacique
##idez
concordia
mante
quina
cetro
pronunciar
aumentando
infinitos
Esperanza
indiferente
AMÉRICA
depu
anc
decla
Guia
respectivamente
ligeramente
reconquista
exaltación
infinitas
biz
Ár
##ejos
inda
##litas
##cuco
jugar
factor
hua
##ilia
hispano
fecunda
##cienden
repentinamente
contemporáneos
##ament
serena
##CIS
07
Fá
Llo
##sá
##mitas
##usse
embarcarse
desfilad
desti
ditos
Caja
consigna
##tíbulo
dispuesta
indemni
##we
Argel
montañ
judío
Ll
Pezuela
##uedo
contro
##charon
##sive
##uroso
Dionis
encuentros
procuradores
##ius
##ota
##temos
manifestaba
hostil
Vascon
acceso
Tán
ileg
solían
venezol
Artí
combinaciones
Hijo
lápida
estin
descrito
sentarse
prueban
##inela
destruida
vulgarmente
estruendo
##Ã³n
llar
rán
##gueras
monárqui
Tampico
estrangeros
plenipotenci
Irlanda
BAL
gada
sente
entiendo
aptitud
median
aparecía
comprendida
cartagin
incluso
pilas
pavimento
intes
bula
recientes
histo
moment
Román
Consider
rumores
desagradable
##ump
##ladores
##dicos
relá
quedarse
divisa
##eraldas
creerse
bellezas
epidemia
exor
eram
vacil
Barros
Chihua
custodi
GAL
##deces
solía
##puch
Alférez
##ufre
variar
demarcación
Lim
Plano
##orios
cupo
##picio
prevención
espuesto
indican
Cardenal
Prote
apoyado
I03
salia
trasporte
hormi
amargura
sostenía
Cuevas
DOS
##dell
prisiones
pudimos
reconociendo
recuper
Estoy
David
abstra
órganos
Eclesiá
Soledad
Ag
fum
pozos
raíz
legales
presentación
correrías
trabajadores
almoh
inta
anfi
ardi
##steis
##g̃an
mandante
embarcar
arbitrios
mercantil
riendo
##iada
##ARI
##UES
desmon
palmo
juntar
##g̃on
virtu
verifica
docena
deudas
5o
##med
privados
salí
prontitud
llaves
1876
gloriosos
atravesó
Sel
oyendo
##sola
calib
desto
##gría
195
1882
municipalidad
averigu
##ólogos
rían
##uin
pac
##uld
venas
Cate
celebridad
honorable
transcur
multa
arca
fora
Regimiento
nombrada
avanzadas
conservando
aprobada
funcionario
Octa
ges
##NO
devas
##inelas
tocando
##ildos
##iosamente
hacerme
caballerías
##embargo
empeñado
prácticos
desconocidos
precedido
ensayo
esplicar
cómplices
ANTONIO
Den
##jol
procedente
colocación
ejerce
argumentos
##ence
metió
lógica
patriótica
virei
bé
adora
habitaban
cansado
cruces
enérgica
augusta
Pelayo
Zúñiga
disposi
feudal
posada
embelle
labrar
chilena
Christo
área
##adá
##istía
Inmediatamente
##áráo
variado
temible
lanzar
Osorno
limosnas
Castellón
ric
rido
rabia
##viles
prontamente
solicitó
detu
desciende
raya
Matías
chim
principia
trofe
estraña
lienzos
terciopelo
nían
##llan
##xe
dimos
favorito
rodeaban
Pirineos
tolerancia
legumbres
envenen
Fonseca
esce
desocu
compor
indicios
estrechas
CAST
##tate
constaba
Sinaloa
balles
humildad
orgullos
Popayán
Haro
oal
##AV
##cayo
dorado
##mulos
##imientos
almor
desobe
arbole
medicin
alarde
caudaloso
Maranhao
subdele
Hal
brado
reis
##piter
acostumbrados
semilla
##MOS
fins
suelto
sostenida
abrazar
rez
aser
Contes
bode
dominante
recorre
abraza
celesti
aventura
vigorosa
huella
Golfo
##ófi
##gáis
##quetes
vej
tiende
diezmos
extraños
artístico
recogido
líquido
Fuen
Orellana
Bárbara
##toli
residentes
nossos
pitán
##itz
##ICAS
enferma
tural
procuraba
sepultado
próximos
cúpula
pájaro
Tr
mü
##alte
##idoro
mudar
sincero
Revista
maria
coad
adelantó
198
referidas
desemboca
carruaje
esclamó
clon
sidente
##GAS
sible
##ité
instituto
anunciaba
verdugo
aisla
cana
wa
##IOS
salvarse
reclama
escribi
Nava
democracia
reverencia
Semin
##coma
tercios
monó
principió
encier
constituido
insinu
enamorado
##driguez
rando
espos
Consta
señoría
viagem
Boya
blanque
cultivar
Honda
emoción
intérprete
contu
parado
sincera
##ibio
destas
insensa
Calvo
CAMP
##cripto
##radura
cubanos
Gálvez
2i
oyeron
remol
irá
prósp
1887
fortificación
##rúpe
viernes
##FRICA
eléc
vaga
daré
recreo
guardaba
señalando
ocultos
desarroll
convoca
Nieto
Bayona
reparación
centavos
escab
Nov
suplico
Grandes
restablecimiento
lustre
Plasencia
zado
aspec
assu
baño
hielo
cantones
Suces
comprendidos
avanza
Regencia
Claudio
encabez
Pró
##íl
##rov
##dista
incer
baña
Coqui
únicas
permiten
1885
páj
pecados
designio
aperci
cidad
ÁFRICA
templado
retira
sorprendió
Municipal
vicisi
Sie
bla
##poca
compensa
hallé
208
Serna
consiguieron
hablamos
agravio
pacífico
Provincial
relámpa
##cli
##tiesen
tocante
nacidos
casamiento
tomamos
subida
Baza
comerciales
miserias
amotin
arribo
Din
mancha
Exposición
pendencia
cárceles
definitivo
vínculos
anhelo
Ria
fria
ip
ig
gravemente
confines
mostrando
romanas
divididos
desenf
pañuelo
perjudicial
lúgu
estómago
##ija
Reti
Charcas
corredor
separada
Ferrer
reiter
Ambos
hid
##íp
condado
portal
intercep
Honduras
vora
##riéndose
abdi
verme
constar
consejeros
196
inclinado
sarra
##aniel
mercaderías
Tamaulipas
Mom
gados
imb
águila
##madura
inspi
Provis
mirado
##ILLO
profesores
Roberto
embajada
##UNTA
increíble
nero
estir
##trán
##ibal
##urbios
fechas
atendiendo
organizó
sábado
egército
astucia
agui
whi
##cándole
##est
enar
##catl
##guno
caste
llevo
aug
muchacha
##oroeste
Victor
molinos
coronas
Mexicanos
Lí
dema
degrad
digan
##EROS
Salom
levantada
román
repartir
repetido
admirables
desnudo
restauración
Escocia
Torquemada
angusti
##ellas
##vedi
Alme
considerada
excelencia
GUERRA
italianos
huyó
Divina
barón
estrago
##vildo
ladrillo
Obispos
filósofos
Arica
Pul
fib
vinos
##enter
##isse
##ONA
1875
Cinco
umb
##paba
##tese
manu
terminación
215
expediente
avanzado
vegetal
argentina
Dionisio
##lín
##íanse
tendremos
Corral
visitó
Illmo
##UDAD
NUMERO
Cui
invis
mages
##picos
migos
preca
##gencias
sentar
##úmulo
193
dolorosa
estipul
trascend
Cier
foso
jinetes
##gie
disen
##caltecas
boti
203
delirio
circulación
gallinas
jénero
aga
denuedo
llenó
gastar
SEV
##ISP
Vaya
Sáb
##didamente
##dosos
##jaca
mineros
grata
prometió
limpieza
lisonje
Biblio
Cra
##GLES
##ça
##guí
mandase
contrarias
estudiado
hospitalidad
invencible
matanza
afe
siembra
##cions
mercio
204
Montezuma
limita
Ribera
abertura
Pino
amas
##uas
##IRA
##zor
##cialmente
esbel
insti
cambia
minis
constan
inspirar
revueltas
Cochrane
delincu
Alhambra
BURGOS
ach
jac
line
coli
sonas
Metrópoli
199
asociación
exceptu
Rayón
tina
mito
verb
quitado
continuos
sufra
Velez
320
Leonor
Representantes
##anse
latin
Alg
cop
goce
direito
ranchos
exigía
desembarcó
copias
Llega
herederos
premios
lino
##entu
tormentos
importación
Prefecto
injusti
derredor
##mbro
Mac
comunidades
resultan
201
occu
servidores
Mediodía
Hurtado
além
salidas
cambió
seculares
soportar
##cipi
vaca
Junin
guay
apresuró
fugitivos
Escorial
Cierto
##amu
mapas
crónicas
borras
combust
Melgar
lejíti
Larra
##yer
prusi
##mbó
terci
saludable
perseguidos
antecesor
desolación
Zuri
##alto
sacan
entregarse
mediación
seguri
tao
205
claros
cédulas
contempla
jornal
##tándoles
Tacna
Vis
##rándose
##usta
##áculo
ciuda
restri
conste
##gasa
sostenerse
astronómi
DEFENSA
lli
##víos
tocan
infal
inclina
misionero
Chihuahua
íbamos
##imas
##males
##esan
trado
cantando
usando
Yaye
aprehen
Cervera
curiosas
invasiones
domésticos
Primera
fábula
BIB
Oru
Encon
##ezco
vers
Noya
conocieron
mezquita
atrevió
Eche
vana
##ites
Conquista
liti
necesitaban
separar
aplaudi
cumple
Alicante
fasti
relieves
##vedís
Dal
Oña
##zándose
dieran
apor
Allá
amn
197
rechazado
entierro
fabricación
diplomático
Varios
##milla
muí
comodidades
persist
presas
sona
constituyente
persecuciones
fragatas
Zor
ida
##tánica
Pau
mereció
soberbio
fabricar
pliegos
Sy
##itar
##xtla
##ane
dife
adminis
##cenos
##quívo
continuado
Andrade
cátedra
ate
dés
##adillo
secas
lución
posse
alcanzan
capitulo
amonton
combatientes
Remedios
Daniel
had
##rendo
##uita
confirmar
contenia
revelan
gigante
CIUDAD
Ramirez
Geno
##órico
##isas
quad
creada
Vicario
curios
cónsules
poética
sacristía
RELACIÓN
tín
##éres
melo
esplor
##ñoso
Armada
sarjento
pecuni
evidentemente
canos
utiliz
##iento
##nado
##ineros
cuentos
dejarse
abandonados
fazenda
retratos
satisfechos
condesa
CENT
estalló
perecieron
1877
poseen
aduanas
Vidal
##lum
##vidades
##BE
quista
gastado
##enciar
ausente
##adizo
Joseph
quisiese
##íferos
MIL
nic
oto
##uño
alt
desac
tender
carca
forzos
reflexión
diploma
relijion
intermedio
Gobernadores
Mul
comar
granaderos
regularmente
occidentales
veteranos
inmigración
Nas
ili
##ibe
reprimir
observando
216
dilatado
NOTI
Die
intermin
llevase
Mitre
imperfec
abiertamente
niega
##chaban
moverse
litar
nieves
fúnebre
##ámb
##cará
##cedor
trucción
eficaces
Cro
##utla
diencia
venden
especu
Barb
interesado
nulidad
ENS
practicado
Maranháo
preceptos
Basta
DIA
Mendi
precedentes
regente
concebido
vuelva
secretas
extranjeras
pleitos
acreedores
tempestades
POB
hidal
tarse
entro
urban
Quintan
arros
asol
##joso
fáciles
Vill
enteros
violencias
Ora
haria
##tubro
arcilla
Ingles
ritos
permanece
decretó
Apéndice
Segunda
soplo
Cónsul
Huelva
clemencia
veja
possi
elevan
##hech
centinelas
Isidoro
respeito
asesino
precipitadamente
Jerusalén
Jul
deque
##entadas
Entra
impresa
vetas
muertes
merecía
##inosos
organizado
engañado
regalos
intoler
equilibrio
##ind
##ánan
osadía
Carva
agonía
pensión
composiciones
temblor
Artillería
1°
##quivir
rectifi
confederación
directo
circunferencia
219
intemp
Ospina
discutir
apóstol
Corregidor
tierno
venera
211
avanzó
Documentos
##sable
##UA
##ult
sof
Socorro
permanecieron
sombreros
aztecas
máxima
alejar
##abela
##ITAN
procedencia
penos
##pid
##FICI
##tuosamente
##vit
arábi
Cele
sometidos
carbon
Sigue
CER
vento
##VAS
##ÑOS
corpor
abuelo
gozan
207
John
Berme
PAT
hueco
##chitl
Ave
Lun
##IRO
reseña
mediana
sonre
acusa
Cabal
círculos
empiezan
matr
##mentado
ignorante
condena
argentinos
colosales
##ñadas
sement
Anda
arrastrar
##trados
verda
chor
canta
opuestos
décimo
buscan
celebraron
espresado
saqueo
insufici
##dáo
Almo
##000
crá
desapro
confesor
##RUZ
Piedras
Bohemia
BIBLIO
##IR
##tie
##cuta
##RIAS
##biera
##mul
##stria
Albu
emped
duran
intentado
##lismo
seguimos
bombas
igreja
##tosas
restante
##inatos
ordenar
Lozano
aprobar
banquete
ligeras
inútilmente
EXP
Ceci
relu
remor
pedía
##cencio
acertado
tonio
pórtico
##gían
laber
any
anta
exhib
corpo
honroso
libertador
borrar
Voy
Villalba
parada
popa
cebada
contrabando
verificarse
##GUN
loque
previo
prefecto
trada
##TECA
enteras
expresar
Guadiana
pobladas
acarre
Hero
Confi
##bot
360
maravedís
sultán
##ológicos
cortesía
volcanes
Apostó
COLONI
emir
delan
anar
salvador
marcada
raiz
antiquí
212
caminando
pante
##onio
pref
prescrib
generalidad
urgente
Orient
Ayud
extrem
Olañeta
Alam
##tile
fecho
sentada
Nazar
ejercía
1884
influir
disimul
panorama
vien
##cgáo
diría
pica
finca
confió
inmens
Tamb
variados
apreciable
Tob
##vadores
##áneos
sentencias
extrava
determinada
científica
sugetos
prést
insopor
LX
Tim
fel
medir
vacante
maravilloso
Ningún
Correos
Cien
Puig
##lias
titud
abren
lumbre
riores
temps
desagua
cesa
menciona
rendirse
erudito
list
volvían
especialidad
espectadores
franciscanos
inmóvil
ecua
##ARIO
##PCIÓN
Aldea
chri
dejé
sendas
##quieren
##risas
sordo
Jacobo
##ijo
##aldad
##redo
solu
calidades
armadas
##ordinación
desprende
aquest
mancebo
AMERICAN
tiva
diversidad
manifiestan
singulares
Maestro
bebida
incapaz
mutuamente
trabaja
harían
castigos
conflictos
Aviles
ere
oía
##fices
##gat
salga
Interior
Sau
vastos
fertilidad
Rioja
rendido
dirigían
cruzan
estranjero
lejisla
Santísimo
##ulos
Monarquía
lícito
Ceuta
ensangr
matando
##yola
heredad
Persia
aff
213
recojer
aliado
Crist
gobernaba
inviol
##vamen
##amarra
insultos
peninsulares
Seminario
Acon
Cl
Fres
Tho
desús
##tral
##vari
Carval
cansa
vocales
cómodo
tendrían
apoderaron
curato
Borbón
maravillosa
desaliento
miriám
Ea
##ceos
##énico
sanción
adornada
Llegada
Pampa
api
yos
##kes
sucum
elef
acompan
dirigen
REY
catálogo
##cepresidente
Mez
giro
ubi
antro
callar
##egada
##cencias
acompañados
impedi
furioso
Jac
Viena
##ETA
corpul
valió
Osorio
##stitui
distinguida
someterse
Coquimbo
estam
dición
##canes
##egre
existido
206
##cadero
reproducir
diestra
indol
Monterey
vicisitudes
2°
Oran
dían
üa
##adel
##dián
exhal
Paul
espediente
rif
194
bertad
Alejand
##OMBRES
Fez
##bá
##wer
aludi
##dimientos
acam
decli
223
separadas
Serena
bulto
repartimiento
Catamarca
penitencia
ligereza
Bob
Efec
bil
sid
##anga
encor
##ols
##ecería
##vear
colmo
producía
llevados
Vicuña
espacios
Sargento
presenciar
preponder
xico
##asa
##riz
cimas
marcado
cede
ridi
acercaba
preguntado
Jesuitas
tambor
ESC
cuidadosamente
percibir
Carolina
candor
ímpetu
Dias
##yéndose
sele
sug
##deos
##moso
halle
supl
declararon
atrevimiento
inteligentes
UNIVERS
Cornelio
inacces
##entino
cordón
auton
##ñosa
fijos
robos
bendición
Celanova
##léa
Gene
##cianos
cie
##ganza
218
mís
##yal
##inan
cipal
dispara
Pasa
Tenemos
Constantinopla
Becer
saludo
costum
ramifi
doctores
republicana
detención
prohibido
resuci
huracán
dou
Che
bandidos
pinta
separan
Infan
cristales
dibujos
flanque
##hir
engros
trope
preparó
Niño
hábiles
RA
evo
partiendo
Correspon
Barran
suprov
dormido
discusiones
regio
cré
209
Zapata
enlace
monopo
portentos
Tienen
##VII
lación
aparecieron
Teatro
lares
222
celebración
debate
solidez
##moles
Cai
Carlota
queréis
defendían
criaturas
bern
##coes
##pedes
huma
france
baluarte
sangrientas
rencia
ía
##engo
Juris
frai
cristianas
limitada
remedi
mantenía
mueve
discípulo
trascendencia
corbeta
Zan
lue
consoli
Lad
Tos
sidad
tle
##uicio
pagó
fortun
venid
interesa
espaciosa
registro
averigua
barranca
Hes
##lete
prover
##trera
manzana
Const
veis
barr
aislados
Máximo
Atra
JORN
Pico
actores
Mau
Camar
genios
##gú
##stra
recar
viviendo
Alco
resultando
202
publicados
renombre
1806
orgul
canónigos
Trad
blando
ecos
hec
##pura
feria
Ferreira
dependiente
##timidad
Maraca
Vieja
freno
insignificantes
DOMIN
caseríos
Pedraza
conchas
perver
##conde
Chib
infructu
cedido
falsas
##ecerse
Presidencia
terremoto
##gadores
espeso
quist
Cande
pretenden
quedaría
conseguirlo
Júpiter
ox
notoria
##gudo
prero
entor
posta
aglom
comprenden
226
214
235
##querque
denomina
espesor
##animidad
Dra
vivia
saga
contratos
##enetr
estrechos
acompañan
arbitrar
prendió
ventajosa
adap
Fac
cida
crib
##tativa
Caridad
mesmos
jurados
SEVILLA
1o
Fla
ler
lomo
rable
##puesto
sic
pretendido
Villavi
beneficencia
comunicado
trasladarse
dilatada
##grantes
operarios
lunes
tacto
Copiapó
incidentes
lomb
podíamos
dióc
CARTA
amplia
which
##orras
impide
rota
217
podríamos
civilizado
engrandecimiento
Ugar
dres
femen
sario
dotación
observador
braz
##ADOR
Cabello
Cañete
acarici
áspero
musulmanes
Abre
Fom
##ciou
Alvear
##tade
Arzobis
autoriza
232
Serra
Código
acreditado
Arenas
Dulce
Vid
Vues
see
all
##guos
Rever
infras
honda
teme
escaleras
mensaje
diestro
Viaje
atesti
##dieran
vengo
extrañ
##ómetro
marinero
resplandor
ie
ró
##mable
hablo
##éne
Chal
acompa
amorti
confirmación
comprometido
condescen
etim
gesto
oje
tic
delegado
##gus
##fil
pasé
efectiva
regener
Cantab
artística
apreh
separó
Pobre
pompos
almuer
campiña
abi
parto
Capel
darán
colocarse
entereza
convertirse
claus
estimado
VILLA
contorno
PRIMERA
rarse
##polis
dispo
coches
##ensis
Suma
morte
virtuoso
istmo
##gías
##chones
poderío
cuadrúpe
245
cesión
resolvieron
vegetales
poesías
Aranda
sufrimientos
angustia
dones
##GE
acan
guno
ciutat
##gut
##guín
torna
negado
extrañas
Canadá
Feliz
Cerda
niebla
Ninguna
Cora
Comba
erup
##ñi
##oni
suspiro
puño
minha
favorecido
robado
conjurados
Moctezuma
Pió
##zara
seriamente
Algar
vendrá
Colima
diputación
Derro
Rena
spe
##utas
vendido
emperadores
Diana
##ADAS
Tapia
Nego
cubrían
Guevara
##áos
sustituir
Estan
campa
calmar
linha
rueda
Coahui
Ñuño
##ÍAS
##ciadamente
diosa
##mira
Santidad
quim
encantos
coronado
experimentado
Bonaparte
Cú
##ríos
##GEN
noite
##rasa
##veda
adquisición
Chico
llamamos
sendero
234
encomienda
crueldades
desesperada
Preguntado
Boyacá
cipio
teve
ilustrada
gobernó
Fri
jeo
##onada
##iscas
Huanca
sembrado
sembrar
cuántos
científico
trastornos
Matanzas
Der
Sena
##ft
incu
##antepec
teorías
224
artilleros
Borja
injurias
rejion
##AYO
agasa
perpendi
sentados
llevándose
atmos
generosos
Ocampo
##vieren
labrada
Benavente
estímulo
Lem
##cimento
##áscar
1800
llevarse
##guem
respetado
aseguraba
vestida
Solís
extraordinarios
reclamar
desfigu
internacional
evange
Procurador
restituir
Seme
alzó
##undos
estrechar
221
fielmente
infatigable
GAS
latino
sac
creido
Cham
necesito
haremos
lenti
##jimen
pará
##ecí
Angos
encontrando
228
recompens
SANTO
ensayos
usurp
estraordinario
disgustos
CRI
##Ã±
##tol
esquisi
Consi
causaba
Venegas
fronter
Mercado
ambiciones
resuelta
provisto
identifi
Dentro
Llan
Sera
reza
indicados
Just
volví
Curi
nombrando
primeramente
adelanto
Morelia
sufriendo
deseoso
extension
azufre
portuguesa
marítimo
sagradas
casco
##trasen
pongo
255
dividió
##EDI
colombianos
neutral
tinta
##plan
appro
Sacri
rompe
gau
ansia
anduvo
Clo
Evora
##dy
##TRE
##bust
Ensa
puedes
puras
ray
guisa
tomé
Supon
Dijo
contrad
pasaporte
impresos
piadosa
Ame
serios
Unidas
patriarca
atencion
Monteverde
magistra
repor
temo
agrup
##lloa
desconocidas
huésped
Emilio
mahome
Cielo
Hac
##fías
timo
teología
intentos
sujeción
aislado
calificar
confeder
##cem
##liza
##ágico
concurrentes
visor
injusta
Neza
epo
estacion
trin
Cuau
Correo
Despa
juzgó
permanecía
Venus
entramos
significar
asesinos
descubiertas
folleto
despidió
papas
##ical
trazar
volar
trescientas
##inosas
expresada
esclava
agradecimiento
crucero
proporcionado
invasor
prolongación
ayudado
##koff
Ulúa
injust
Bran
Lal
lem
##óng
##lamiento
llamamiento
descubren
fracas
bahia
hechic
reúnen
Nombre
sanos
estrada
##ture
tratándose
particu
##ction
##répito
solitario
modesta
Cajamarca
Plen
##xas
unen
leí
serias
apéndice
crecen
faltando
229
236
cañona
desnuda
caminho
inspección
Aman
Neces
pios
sica
##vaca
Alman
cohe
opuestas
sólido
empleó
dominado
275
intui
acostumbrada
anivers
Acer
##dent
detras
habr
true
certo
desafi
llorando
inago
empuje
Adiós
##mm
aquelles
dupli
guerril
míos
estudiantes
colorido
quise
dividen
##jándose
devia
llegados
Linares
##árselo
inexac
aristocr
terrestre
Ocaña
MIN
beso
##ámos
##ilan
abas
Alh
palmos
bitantes
Romanos
Mus
##dano
lega
crecer
Corpus
Arge
honrada
bastón
237
frutales
retirándose
imaginar
refiero
unánime
Mana
ks
pino
##wo
##rao
venció
trabajan
Rodriguez
cumplida
pregunté
290
trasladar
eclesiásticas
Guadalquivir
firmaron
cazador
huéspedes
MM
almi
facer
votación
Rector
parecida
mantenerse
convierte
Esmeralda
##tle
##gí
##gasta
carita
##allado
barras
concurren
Atenas
BIBLIOTECA
fósi
lencia
nión
Dicho
Murillo
251
##turn
Martinez
apostólico
novelas
Olot
fico
##picios
Alpes
virrey
Cabeza
réjimen
Zarate
ruedas
Olme
Leonardo
impidió
UNIVERSAL
trab
penoso
227
corrieron
cursos
promovido
provocar
mensajeros
TOL
aji
vigi
233
transmi
trabajando
##jalá
E1
RU
##ms
sex
cuida
##ombo
ignorantes
Recono
Pisa
conquis
esses
reves
##deza
cogido
1886
sorprendente
engañ
Sultán
Fig
demon
recio
sermón
Cuanto
transe
determinados
violentamente
mármoles
adoptó
intransi
Camilo
Cantabria
fól
igle
alzamiento
##petas
adven
mejillas
cuadrada
olvi
mandaban
genero
Quando
narices
valerosos
corregir
bido
hen
ní
ronel
##ólogo
compad
cousa
##olula
llegara
desaten
consideran
construidas
dirigidas
variadas
fecundo
intriga
egoísmo
Salvatierra
Gabinete
##llen
##BRE
estú
comesti
obtu
habitu
offer
admite
252
urnas
altern
instintos
chimene
saban
aclam
##tadero
trem
llegará
recordando
victorios
jurisdic
aprovecharse
Molino
doncellas
inminente
Traba
damente
ácima
perma
##tant
Ester
forte
Mack
frí
admitido
tinham
arreglado
jesu
Pilar
##aca
excom
obrado
verbal
herra
directores
recurrir
licor
jueves
XXI
consulado
revolucionaria
deplorable
discordias
adiós
iras
diam
Elena
medicamento
Nació
Baños
Canter
despachar
CUAD
muchísimo
##pres
suici
pedra
Loyola
Mancha
navegable
Veamos
sujetar
SEÑ
detalle
colombiano
bros
##inten
semin
unió
desfa
Alon
entregaron
reunida
##GUAS
monasterios
Ase
Fam
VUEL
##gones
Alber
forzado
inflex
hoguera
##ignidad
cunstancias
legislativo
murmuró
desengaño
Suecia
atrinch
Fab
dels
desve
privaciones
orde
##vesse
desagüe
virrei
258
saberlo
XXII
cubrió
ferocidad
anochecer
omnipo
Coimbra
Emba
Há
##reu
##chón
asciende
piés
adya
cometió
choza
limitar
quisieran
períodos
administrativa
legítimos
deudos
Tánger
Coahuila
puros
##itia
detiene
##adme
deslin
compuso
##tades
Arz
##táneo
Huan
Ayer
sepulc
cultiva
Dicen
residía
Jueves
gando
##uedu
##urgo
fica
Moya
Ordo
maestra
comisarios
Brigada
Ved
cando
##alos
##viedro
##ceses
Aná
darnos
dineros
proclamar
avist
estallar
nidos
Esas
rectitud
Mois
dirijir
ensay
talleres
bayonetas
demuestran
TRI
algar
##untes
passado
indicio
##ciller
permita
Tay
elegidos
CONS
yndios
predomin
Expedición
##mn
##aldo
compás
pizar
certa
sensación
palav
popularidad
prevenciones
vacilar
barranco
sacudir
conspiradores
Gamarra
rías
##istro
residen
decente
Exteriores
Alex
Angeles
sustentar
Clavi
catalanes
espléndido
aderez
pbl
uten
##pones
redes
finas
hoya
mueren
##ctora
convenía
239
desaparece
Florencia
##mbi
podri
dote
criada
Señoría
descubrieron
dignamente
propaganda
Valparaiso
limí
hemis
patios
##eja
sustancias
rescate
##feta
Luís
mundos
colorado
sosteniendo
vasallo
imparcialidad
Oruro
conos
##seos
verosímil
plana
Manrique
roman
Sotoma
peni
231
vindi
representada
representando
alevos
predile
##ato
##inaba
inquis
logro
terio
sabéis
Baja
recobr
corredores
occi
fanegas
confundir
implacable
Tlascala
##vario
leis
##urri
##minas
antici
expan
avanzando
desempeñó
renovar
Nieves
Escobar
poético
##áronle
Carvajal
Mui
tuer
##cato
naci
comprado
##minares
decisiva
neo
Queda
centinela
244
Obras
##enderos
Nep
tím
Gracia
inspiraba
Torrela
desmoral
Doro
PRI
##logía
##miro
caía
arbol
##gata
costu
cinta
Manus
enterrado
disfrutar
Contribu
Ulloa
##VIII
reja
##iss
Artea
crian
##llados
dispers
párrafos
6o
ato
##ástica
ingresos
fila
firmes
Jau
recorriendo
ilustrados
Impor
escepto
Ann
Magno
barcas
243
ambiente
frescos
desesperado
MANUEL
Bala
JENERAL
##colo
resignación
##dería
Condu
Chic
goces
Bajá
238
reducidas
manifestaron
homem
logrando
tornar
participación
Déos
infamia
##CAL
mit
trian
dentes
previene
vehem
intrépido
párroco
racio
hacerlos
mercurio
256
descansa
##plicas
eficazmente
Parroquia
VER
##bell
##JAS
##teos
##tegui
##quín
Carme
valiéndose
dulc
demor
magníficas
rindió
interrumpida
Pirú
infortunio
Hel
Ré
##maban
interrupción
cercanos
plato
Pata
elevó
##stola
tortu
hacien
recibidas
referentes
obligaba
robustos
jurar
viniesen
MIS
zó
##eridad
grita
vastas
tabern
entendía
Triun
disponiendo
aventurero
análogas
evangé
fami
latinos
Sania
viesen
espesa
##tánico
guardado
atenta
hallará
Derecho
Yndias
Len
##tío
sollo
intervenir
Cuan
graciosa
241
representaban
lámina
Ampur
Cuánto
tácti
##rísimo
aplas
abru
##guilas
cerdo
santas
senador
deberían
milag
Chacabuco
Ino
inmo
pergam
##vega
vencida
poderse
##ENTA
encarga
dichoso
alteración
anunciar
encierran
2a
major
grana
enemist
Goy
pálida
bolsa
DESCRI
DIP
Almería
conmem
holandeses
Cueva
Pase
##teis
##liares
Estadí
espinas
montón
##eau
buscado
253
bordes
imposibili
ausilio
sensibilidad
serpiente
empréstito
Ton
##kol
##adeo
paces
racion
##izarse
labra
Murviedro
variación
Tarapa
Yun
parage
caf
misas
aspira
cousas
debieran
menospre
diferen
242
cadal
conversaciones
infernal
Joao
Irala
explicaciones
Batalla
aproximación
PP
indes
valent
palad
gracioso
insensible
regencia
labrado
gato
agregado
this
##omar
##deña
naos
##dul
revés
amarill
acogida
Polonia
zapatos
GEOGRAFÍA
Artículo
Ati
##LAR
##urg
presbi
acuden
254
264
espacioso
robar
críticos
animación
metropoli
Cib
oo
##gales
comentarios
mandan
inflam
##íticas
Quiero
marchado
Milán
primogén
planicie
amnistía
Arteaga
##óla
porem
predeces
Casti
firmas
derrotados
primitivas
comienzan
modelos
redob
compendi
cabell
china
servirá
amigas
##embléa
exigen
resueltos
adictos
utilizar
Funda
cular
mios
asigna
mostra
usaba
violentas
Balma
escuadrilla
mencionar
celeste
Nan
gon
yuca
caos
puli
polo
aceptación
Empero
remitido
impulsos
vulgares
civilizados
abolición
Tlaxcala
Pío
cuevas
##viene
cién
patas
privar
pila
dureza
produciendo
247
escapado
confirmó
humani
##érsele
pusiera
VUELTA
laud
calcá
apartar
prontos
Tehu
Cantón
emprendido
lejanos
comienzo
proviene
pilares
Huerta
##chia
maña
conduciendo
pequeñ
246
##ufrag
Basilio
Rancho
Tineo
drid
##letín
poe
abomin
trate
dudoso
distinguió
acabaron
animados
convino
asistieron
convocó
Municipio
##quisaca
vejez
STA
atrio
##unas
##celo
abar
fundición
##chea
Meli
##cedían
pintada
pagaba
alcanzaron
diverso
agudo
##ológicas
apoyar
redacción
ruegos
desterrado
perfidia
ph
##ean
versión
##versi
marcos
##pujar
sentim
seguia
Gual
Extra
Habi
determinaron
Limi
dependencias
mencionadas
Sarra
hambri
Recon
aislamiento
Sotomayor
Nilo
Sum
cén
##ueba
Cax
cerradas
tomarse
declaraba
Castropol
erudición
acuerda
domicilio
incerti
Fru
##cca
dag
##tricas
vai
confuso
265
curva
mejicana
corsarios
##dara
##ritos
montados
consegui
diferenci
concurrieron
Nevada
gundo
##eado
##tive
##quedad
muda
##quique
##sose
dominan
MARÍA
grandiosa
Christi
orgulloso
deg
ingreso
Santi
aprue
libertar
buscó
##dorf
recorrió
oportunas
arrojaron
CORD
effe
Josef
Principe
estribos
divinidad
Patagonia
Aus
Pam
cés
Ín
##bir
##bados
##usco
reple
hoc
apoya
Robles
anglo
acuerdos
Dorrego
ILUSTRADO
Lamas
grillos
debidas
caliza
##egro
268
imperiales
colegas
arraig
temeroso
Concilio
calabozo
tidos
##jí
##toriales
pret
Paco
Covad
##legia
atacaron
figuraba
272
nudo
solicitado
reconcent
inimi
oíros
memorables
otoño
biera
clor
##ister
cortada
ataca
instruc
arranca
flancos
Mandó
guarniciones
catedrático
##pero
compró
cogió
##ERES
temía
Cosme
cuántas
Vasco
afortunado
desinteres
##fl
##ful
##fido
batido
rojas
llevada
##g̃ód
hubie
galas
sombría
brillar
doloroso
necesitar
rompimiento
provisorio
FRANCES
pidiéndole
Situación
##túa
dijese
cujo
prema
impenetr
rudo
defendía
saberse
##DIZ
Américas
calcula
personalidad
257
marcharon
promon
##ambú
aprision
companhia
Maracaibo
Acom
Stan
raba
quedo
##vereiro
Cavildo
decisivo
estuve
referimos
Orbe
asegurando
Hugo
Goya
agradables
estipu
ultramar
legiones
Magistral
Plu
pales
##ij
##nn
##aes
##pósito
##adia
##lah
asan
rapa
expensas
contesté
inclusive
alumbrado
mínimo
billetes
Melgarejo
OC
radi
elab
parta
verdura
denes
produc
##ARDO
afán
Sagrada
considerados
288
avergon
##ROSA
prescindir
##icano
tivos
Deh
aparecido
escribiendo
Prín
anoche
ofendido
DOMINGO
envia
secos
estrépito
##temp
camas
Caye
Siguiendo
encargar
pendón
honorí
differ
resueltamente
adversario
vírgenes
##tuosidad
pague
manta
##dós
Medell
consideró
abogados
Long
africanos
MUR
##liam
Aré
Siria
Repúblicas
248
apremi
Pueblos
flex
incompa
cronistas
anuncio
exclama
Avel
despó
cualidad
falla
estableciendo
enviando
robusto
espléndida
esclusivamente
ile
cargadas
teja
ejem
Lucio
navegantes
LEY
lentitud
##AT
encaden
alzar
designa
perecido
precur
Estu
combatido
proceden
arrastra
quebrado
Ojeda
Smi
##ramo
##tema
desliz
cabras
cerrados
explora
##acán
gallo
SANTAN
Recor
Chuquisaca
estraordinaria
aul
bí
##fero
##cidades
notario
mantienen
abul
sonó
reconocía
proporciona
próximas
Llegado
Ampurias
inesperado
advocación
Tig
cs
hembras
moria
##VS
latín
##tulo
necesa
senhor
Mote
pincel
vidrio
esforzado
Oajaca
taller
antecesores
Covadonga
##mí
esquer
##iao
previno
Cartas
atten
oficialmente
declarada
262
Zapo
Solano
consultado
acaudi
repite
positiva
dispersión
escelente
almuerzo
Moisés
danza
##vem
##inco
reng
acepta
despedida
acreedor
apelli
federales
rompiendo
aficionados
Apóstol
##zir
deud
diante
sienes
asa
Sitio
reservada
apóstoles
carruajes
perpendicular
SOL
autó
consejero
Navia
Mello
ayudantes
NACION
sensibles
Argelia
Non
brar
tent
##danos
##mero
depre
##rela
hacernos
contingente
Pers
pintadas
##tuno
Liberal
330
aprovechó
arquitec
envuelta
remun
cobardía
##ífera
##orable
##ficó
baix
Republi
atacados
286
llenado
padecer
índice
invitación
hueso
patronato
LECCIÓN
Domín
8o
##IENTO
prende
tenente
nifes
quam
poss
ofensa
apartado
particularidad
pintados
alcanzaba
líqu
##quería
Huáscar
sueltos
extrema
trueno
disparos
Ninguno
escravos
utensi
##puesta
##sté
##ibar
##ériles
futu
Vich
asedio
Quis
Terri
precede
Vds
interrumpió
##ársela
Continente
profeta
##juela
##ñen
dea
##erva
##maseda
##quías
brav
276
Ayunta
##ballos
extremidad
asistido
apelación
despertó
sofocar
aix
##puso
pardo
##tuarios
Marin
destos
jeto
fou
Delgado
pronunciados
Volvió
impotencia
##tifica
##unales
##idan
circum
amarga
Antigua
laberinto
riego
##cleo
notarse
imped
tamiento
chicos
Mej
Berga
ART
recuerdan
infalible
ATA
TA
ticos
##dria
##ramiento
mache
##consul
leyendas
oscuras
sostenían
físicas
prohibición
SANTANDER
Fen
VE
Varias
event
wh
##pis
##viados
metr
anom
antor
exas
ciado
sabrá
proprio
recre
ruta
adelanta
pagaban
significado
aguardaba
delicadas
suntuoso
pedestal
tór
desfal
habitual
##ensor
colocaron
##mómetro
colecciones
Buenaventura
PRIMERO
Chiapas
nuel
who
##tha
##cheros
##daz
##sebio
museo
Armen
Barón
desaven
fusilado
precisos
meridionales
##TAR
sevil
vila
##guieron
juan
normal
DESCRIPCIÓN
fasta
##cár
##VE
##ficada
##ick
##LOGO
conciliar
encomiendas
##crí
viveza
aumentaba
dogma
Canterac
Dado
NÁ
opone
##ny
##hado
volu
guerrilla
francamente
340
##cribir
ESTU
consignado
Cruces
bayoneta
desacre
Ná
ind
##ilas
acuedu
casada
##cona
tratos
vean
debidamente
Nova
gustos
tardaron
autorizados
permiti
freguez
preparada
Silves
trastorno
Zedula
ABRIL
máximas
cados
oon
##gándole
##Oes
##calo
Saha
##ILLAS
secretarios
ilustrar
cañada
Soler
auspicios
rejiones
doméstico
Teodoro
CÁDIZ
NOTICIAS
Avis
##utes
##nel
##flores
##YO
##lice
##mide
perdía
corno
##cionado
minos
##nikoff
259
caravana
Guaira
contenía
quinientas
Valentín
##abon
monos
Cath
##ecimento
conocí
brevemente
infanta
copiar
suponía
insignes
profan
prescindiendo
victorioso
limítro
AU
sp
##ctar
##yera
caño
atentados
acompañamiento
ecsi
comprendo
Bella
injusto
prolongado
lejanas
italiana
use
##mante
fundados
buscaban
confirmado
Grijal
##samente
##cci
alleg
navales
Moneda
servigo
285
284
266
274
corrección
individuales
brilla
regimientos
asesinatos
predicar
minuto
apoyada
horizontes
Idem
Naran
##gy
mator
sont
place
##icación
310
dueña
prolonga
Mauricio
levar
locomo
indigno
chino
decididos
Alarcón
culpables
i8
##mus
recep
##cuerdo
##treros
asy
sobrado
Introdu
compañera
##beria
cómoda
obligada
transporte
ambicioso
asesinar
apetito
Alameda
enérgico
Viernes
Genova
aya
##abria
##áng
Viana
Quiñones
nesta
secretamente
enterado
Herido
Tomé
ajeno
mezclado
Bla
llería
##pable
##gicamente
##arían
##ceso
solia
minera
carac
filan
púl
germen
incorporarse
mercader
##cuito
Rue
blico
##eada
##jun
##ína
##gay
Santuario
verlos
Mapa
decirme
suben
árbi
desean
obligan
examinado
porqué
faenas
osado
causando
mostraron
comprenderá
temeridad
calibre
rentes
##uales
alle
##micos
tinte
tranquilos
Ahí
cultivan
destruyó
dirijido
Ruy
prolongada
escondido
commandante
clamor
rompieron
Cumaná
Pren
ero
nario
##üe
naufrag
##toriamente
reyno
refri
hicie
territo
madri
lonji
incontes
acontece
##rimac
##rui
##ñes
cuasi
paraíso
podi
ciegos
##pide
Anas
##andú
trasfor
complemento
brecha
Vaca
labrador
vertiente
Católico
Homero
Malo
jan
##EA
incal
mission
castas
Cuy
cienda
opinion
273
278
escapó
consagrar
literato
Benavides
húmedo
gradualmente
TERC
nadas
pilla
##eiras
##RUE
##ary
porciones
##pit
compens
juven
but
Deus
Chalco
valido
opro
Soli
colocan
267
echan
apercib
efectuar
oferta
Llano
##ván
sienten
hachas
entregados
heredi
Sagun
justifica
Despues
Verin
moderado
370
descendiente
Guarda
deserción
sufrimiento
omitir
intelijencia
rados
##pino
##BAS
ciente
dispos
##geno
ordenando
Organ
extendía
padecido
ocurría
castigado
Empez
fazem
calumni
##éronle
Gral
HER
bier
##etes
concha
##riera
##laya
##pugn
mingo
traslado
rumbos
##endidos
paisano
expresamente
determinadas
cautivo
entusiastas
equivale
tradicional
Noticias
episodio
monopolio
Balmaceda
daron
##hora
##mia
altres
reinar
Alteza
creciendo
249
281
artesanos
Volun
eminencia
Plá
aval
##gera
##ert
##enque
##lata
pueble
contrati
seguidos
rivales
juzgados
titución
espectáculos
vísperas
Atlas
Camacho
##lacion
##pió
##quanto
bandas
gritando
261
contigo
despedir
sencillas
adornan
poblacion
BRAS
FOR
aud
cediendo
trio
301
##IDA
suponen
sublimes
interpretación
Valenzuela
Aum
dam
nec
invari
perdidas
cansados
ordens
respondieron
271
invol
Chaves
arrastrado
incomparable
Ramiro
túnica
Retiro
aniversario
##CL
##MIN
valía
##quíes
305
269
echaba
aguer
atribuyen
agita
Dirección
Jueces
Lavalleja
equipaje
majist
Tul
##mides
##juez
desle
##ectos
posto
sentí
Parque
282
genera
lingua
sencillos
remotas
carretas
redondo
cifras
##lus
dilación
habeis
ratos
Anales
298
Tomó
acostumbra
difuntos
memorial
tenacidad
Guayana
neutralidad
Contreras
FRANCESA
##ULA
##locu
peli
despierta
Julia
Carbal
##oluciones
hallando
aseo
263
Obra
LIBER
Magestade
repugnante
previamente
odioso
embriaguez
Flo
ty
##hol
##IZ
##uns
estériles
##chua
Miram
podré
nub
probabilidades
impedido
intentaron
carneros
NUEVO
resguardo
Apurimac
serranía
Candelaria
Gro
Ko
cidos
##xena
##iense
pongan
bastó
279
dispuestas
dorados
apagar
núme
núcleo
derribar
quarenta
descontentos
Vm
fro
##cinos
feo
supresión
afanes
hubiéramos
aplicado
pintoresca
artificial
respirar
prodigiosa
medalla
Ugarte
altre
reten
entón
##edera
primaria
##yotl
minero
guardando
capella
comenzando
baluar
contemplación
pedirle
queste
deliciosa
efectuó
embarazo
sucumbir
feligresía
recomendación
Hum
lid
tadas
Águila
descripciones
variedades
Calcha
construc
##TIA
embarque
##ambleas
científicos
lúgubre
hemisfer
CL
##ters
exca
mandadas
convencimiento
cruzados
prolongar
coronada
aprendido
áspera
Protector
Efectivamente
##semos
##dora
perte
teneb
venda
Quedó
ínterin
##ENTES
portugue
ostentación
ingratitud
ope
##uver
##FICO
##termin
cartera
Almen
marro
huye
guardas
haciéndoles
##táis
pagando
consiguientes
predicación
desierta
Florez
encerrar
artificiales
analogía
##bn
porfía
paradero
siga
mudan
arce
respira
Santana
Marte
##ENO
325
divul
Fermín
celebraba
encomenderos
eternidad
duquesa
ocurrencias
rri
conlra
levante
povos
liqu
propri
querian
afam
sufren
recogió
fusilar
novedades
otorgó
ornamentos
facciosos
hipótesis
Frontera
Lúeas
Damas
pampa
rió
##huela
##manos
##anco
parentes
##lillo
muriendo
motin
Guinea
dedicar
Romano
suplir
cabañas
atraso
Taba
itinerario
nente
lain
didas
docto
sobrena
compuestas
decencia
Gobernación
Bou
foco
administrar
mostraban
apaci
Padrón
Acor
HO
Só
fig
##huel
##jel
##ÁTICA
##ÉR
##enario
##orga
legado
podremos
tant
Congre
veamos
dende
##AND
religiones
empezando
adquiere
escogido
Argentino
FRANCIS
dolo
##bero
##ueta
##ierre
facto
conozca
encontrará
Vila
acabada
enterrar
organiza
peleando
peregrinación
Fomento
bab
mados
pado
##CRE
sias
corr
##iega
cercana
propen
Totales
horca
dirije
intenta
1889
ladrón
Acuerdo
fondeadero
Apa
Dn
Ledes
ramente
##tolio
perto
abando
March
techos
dejará
Montaña
desconocer
practica
frescura
judiciales
escrupu
Adolfo
celestial
Angostura
Bras
Guido
Mena
PRES
vue
##egues
##Ao
##ceño
##torre
vistos
trián
gotas
ponerlo
guientes
alterar
literarias
temporales
esmeraldas
equivalente
PUEB
caáyo
patro
lucir
daria
triple
considero
pantan
rápidos
filibust
clasificación
Abajo
cocinero
##ring
percep
nava
doli
ornato
pretendió
ramales
##tándolos
disparar
extienden
inesperada
ESTUDIOS
DU
roma
##zione
dilij
##cusa
##low
##elli
corne
camina
##vant
295
deberán
Berna
##hualco
##llase
Bret
devotos
barrancas
Domínguez
CLAS
aa
lles
vamente
##ortes
##ciable
##guración
aras
Inst
botas
existió
pronun
contenta
inmediación
Petr
Doc
discurrir
incorporación
peruana
incremento
Cué
##by
##amonte
pondrá
subyu
cuarzo
Toribio
Rivad
312
diversión
incons
erigido
geroglí
hama
##ciese
enunci
##cocha
habiéndole
##grafías
maldad
causan
obstru
##uran
##art
anchos
prestan
solí
amargo
Maya
Cua
guardián
ligeros
Neu
Hipó
laurel
Vig
tario
##aros
desb
PorL
buf
Pav
America
277
315
dedican
emigra
archiduque
cristiandad
Años
igno
pinos
##ward
##celi
Marino
rapi
guis
##mont
nombraron
Extre
Pele
cometidos
lindo
imponía
encantador
Linn
varonil
Olmedo
GER
alcab
intre
##chera
perez
Seo
Maule
capita
##questa
conducción
religion
prólogo
REG
abatimiento
paciente
ayuntamientos
clo
##jesen
eslá
nociones
notó
sito
funestas
289
recordaba
probidad
cruzando
alimentar
Cayetano
##íg
orbe
haberlos
refren
horizontal
sufragio
Cicerón
lias
##nica
##linas
##jidor
lagar
siesta
quintas
empeñó
espirituales
medallas
Almeida
insoportable
Hora
dique
##cat
sacaba
espuma
jugo
defiende
##ney
##ity
Duques
poseían
contribuyeron
1789
barrancos
Acuña
Capitanía
simultáneamente
bili
##IMA
##amon
##ecemos
##mayor
exec
coyun
muni
cuadrado
283
permanentes
intensidad
siervo
reconquist
Céspedes
Raskol
Raskolnikoff
cem
##rial
mudo
Lusi
rito
Valor
##bert
##licidad
escribieron
garro
remedios
Soldado
Bello
Viajes
##gaduras
esposicion
metralla
Venta
##itor
##tración
mantenido
bañ
clavos
insignias
concern
##sóes
imprudente
DIPLOM
Resta
viles
##alde
estampa
Bour
287
cruzada
ascenso
trabajaba
ferrocarriles
aspectos
Iquique
##él
##aren
trabajó
sensaciones
arrojan
303
rostros
ramal
Apol
administrativo
lloch
variaciones
melancol
inspector
idolatría
##inero
##abón
paró
comme
aclamaciones
carreras
##imes
espediciones
encargada
culmin
294
dignidades
disimular
SEGUNDA
dhos
oa
viñas
almacén
diversa
licen
enseñado
descubiertos
Julian
ESPAÑOLES
Gamboa
Policía
duerme
táctica
hes
##fr
segre
reden
preve
Estamos
Almonte
Canón
galan
UNA
erigió
gótico
Antequera
Henrique
superstición
desfalle
Ach
porfi
##lario
bajado
espías
traicion
tré
capiteles
honras
legalidad
padecimientos
expresiones
convienen
Federal
recibimiento
eternamente
rador
##zona
prados
Espi
Valverde
bande
Quil
largamente
secretaría
291
advertido
apelar
Firme
benemérito
Grosso
Ledesma
NUES
##yesen
conque
sienta
librarse
Chinch
puntual
cuanta
##zose
fraternidad
procedido
renun
hablaremos
atrever
escape
bajaba
podéis
alemana
zozob
espesos
BATAL
gubernativa
Tarija
Carrasco
Aún
##areas
##omos
mai
vago
País
constituciones
cumplidos
concedida
desconcer
descenso
copiado
Departamentos
biografía
Alejandría
diamantes
Smith
xx
perdi
##tris
ruda
comendador
cobro
Belén
láminas
espontáneamente
Orotava
Tremp
espesura
graduado
expulsión
Tron
yeso
lamentar
##abro
##cub
Redon
montado
guardaban
##ALL
acusaciones
juzgaba
Raim
destacamentos
extrangeros
artificio
ofensiva
exercicio
bende
##ijas
##chon
descienden
pericia
salientes
consideraban
309
chocola
conservaban
484
arranque
conmovido
flujo
cipales
St
diaria
pasará
renunció
quiénes
rigores
púr
exporta
Primero
residir
##ético
##ciera
enc
exen
manzanas
patricios
Prior
conjuración
aplau
azotes
fijarse
reglamentos
perseverancia
pistola
beza
fí
##omeo
refe
leva
##cesión
##venida
fatales
Sagr
308
306
307
Morella
tratamos
##islao
peligrosos
precisado
CUAR
trabajaban
##CHA
maniobras
##MIENTOS
Comisario
sementeras
Pru
agrada
##hué
##citas
culo
meia
dejara
presentada
pasajes
1803
##jenes
bonita
rechazados
alternativamente
molestia
Dorotea
samente
##enne
enro
##riesen
##dosas
praderas
apuros
saliente
soi
tración
##foro
##ENOS
##icidad
Tiempo
consumos
Brown
cús
envía
embal
##gramos
mortí
Monro
acusar
fracciones
292
recelos
comprometidos
invadido
disciplin
Huay
suponerse
Excelencia
##llarse
excus
muera
reuniendo
legalmente
Herman
organismo
reforzar
exactas
##URS
mercantiles
análogo
trinchera
Leopol
Descubri
indemnización
JORNADA
visorey
ingres
sima
##soes
Justi
propuestas
poderosamente
olra
299
1801
ultima
paternal
oaláy
Yan
##pru
locu
cajones
Santia
marcial
ducta
limo
Coli
##ILA
extendió
astros
solitaria
insulto
Comendador
expedicionarios
##chimecas
Aurelio
Nó
uñas
noven
Estudi
traido
menoscab
cumpliendo
confiada
Habiéndose
333
380
preocupación
envueltos
aspirar
sagacidad
FRANCISCO
Babil
##yá
##inc
anillo
pai
viz
hilos
naturalista
justicias
gale
##oriales
convocar
vigoroso
##EZAS
prohibió
móvil
africano
Encarnación
alteraciones
DIPLOMÁTICA
hembra
jentes
roso
##raca
##bita
acudían
señaladas
atrevida
solicitando
simpático
QUIN
Jur
atado
##pora
seré
copas
Indio
314
##írse
durar
agujero
Geor
parcialidad
repetición
##hechores
involun
FR
Tula
atri
##fue
##DAD
luchando
indivi
Existe
consagrada
##tándolo
peregrinos
escrupulos
ilimi
##ET
losa
##zava
apunta
mole
tubo
ducir
##egan
guin
guaran
Leyes
respondía
convertida
violentos
kilo
zada
##pía
##gables
salinas
estáis
grandezas
Salcedo
304
Moque
suavidad
súplicas
califica
fallecimiento
Bonifa
prova
auctor
platos
consigue
##RECCIÓN
Eusebio
aisladas
férrea
rebaños
circunspec
Tezcuco
degener
desacredi
##mou
Reda
taes
preparaban
astuto
OS
cargó
Conque
levantándose
romance
atendido
ambu
##gües
Urgel
420
exclusivo
grabados
emociones
Montiño
magnates
Consulado
Silvestre
##tias
##mpo
caciones
carecer
traian
traspar
regir
terminaba
aposentos
Claro
##tolicismo
Villena
Gel
Gall
##xó
##üo
batió
ruin
##ving
proveyó
MARRUE
proclamas
encendido
CORDILL
Miramón
bie
nella
quemado
desent
piquete
Maio
ejercido
permitían
avance
famosas
perdonar
diálogo
sugeto
Valdeorras
Chorrillos
ojeada
baluartes
Últi
##ond
enum
##rat
##guero
diser
busto
valerse
autorizar
Moral
ambiciosos
Oliverio
Laredo
húna
campiñas
TENEB
##adería
impas
termino
piü
guardó
Barbas
resultaba
rencor
bárbaras
proclamó
arrojando
Aranjuez
Bell
huido
##yda
aspiración
rap
##geiros
justificación
labran
Beni
afirman
imprudencia
subdelegación
MARRUECOS
##ées
##ples
parecieron
podem
partidario
##ANTE
acusados
Rocha
sirviese
reflejo
radicales
disensiones
Dun
Gr
HAB
essas
##dao
pot
activos
amones
Depois
construidos
313
encender
defendida
Hungría
Ronda
Capitulo
floreciente
fortunas
LIBERTAD
##sie
asent
##urales
##cionar
calaba
1500
destina
Valmaseda
Parlamento
Francisca
testo
Quizá
olvida
sép
293
domesti
temerario
##graphia
fiscales
ENSAYO
Sería
##IZA
quema
indó
##emo
ameno
funestos
encumb
sucedieron
garras
297
frescas
inmortales
fundamentales
chispa
Bad
MUN
Suárez
defendió
lances
reformar
predicador
laderas
depositado
quisiesen
Chibchas
##émos
salada
monjes
Pay
hondas
##tábase
confiar
concibe
galante
XXIII
##tione
equivocación
Escudero
situaciones
MILIT
rácter
##stin
desvi
##tula
mitra
volup
##manera
##tono
arroba
302
estudiante
protejer
rodeaba
avanzaba
aconteció
Benjam
chegou
nervios
Sabo
Faust
mantenían
benéfica
calamidad
Inspec
TENEBROSA
hir
sá
tentar
reanim
comidas
venidos
feita
partieron
minar
##dóla
barri
out
robusta
magnán
competentes
saliesen
Aboo
metálico
Escribano
hectá
##osi
##ung
obtuvieron
##garo
##tale
cerrando
Perten
Mani
encuentre
brillan
Imprenta
injuria
fortificado
Due
seño
mación
##dulidad
vence
Arabia
296
Europe
1000
entrambos
satisfecha
inacción
encarnado
cabeceras
conjeturas
viudas
Tehuantepec
Diz
Ihe
##jase
##íi
##úr
eslos
revis
foro
martes
recado
##éricas
llenan
ocurrencia
ALBA
Germán
suplicar
encerrados
arribar
adivinar
ORIENTAL
Rui
cue
listo
##uen
haces
casados
yace
##gni
##mantes
muita
concibió
pretendían
abate
##ellones
Chiri
exclusiva
arruinado
eligió
Villegas
Echa
aqu
##ug
##sh
recho
##uimos
##terno
corti
calientes
Carab
explos
boda
afr
pertene
preparados
ocultaba
##mulas
emprendieron
Sabio
preparación
##amanga
análogos
BLAN
##andía
Monser
conducían
pensaban
gruta
pérf
##endario
inquieto
disculpa
apasionado
recomendar
súbito
seguridades
##ipa
##jales
presenciado
bati
intervalos
térm
##dale
311
llora
precipitación
gremio
desplegó
telégrafo
arrabal
Fad
gio
##cuo
##mios
prés
verán
indicadas
habitante
Cholula
haberme
arroy
Pascua
detenidamente
avec
Secretaría
usurpación
realizarse
exageración
cartagineses
Siete
IGLES
Whi
sho
##lli
lasti
##tear
desse
##tudo
##gueros
##mistas
caían
cazar
residente
##mea
##urrección
Sepul
valia
elevarse
arrogante
transpar
singularmente
Nordeste
lámpara
Plenipotenci
Llu
gación
dicción
##eler
mengua
distribuir
mali
causaron
gramática
Pozo
Calzada
orij
##its
dominando
confiesa
prometía
Niebla
característico
consagró
Ampurdán
Higu
##taran
Sancti
lira
cráneo
acompañando
navegando
divinos
triunfal
carbonato
formalidades
nistro
pedro
dormía
Pilcoma
Tito
degrada
##americ
motín
tejido
creto
##estiones
publicadas
publicidad
contentar
referente
365
severas
SIGLOS
utensilios
##áyon
##jantes
suposición
desci
mudanza
##usiera
acri
bajada
maron
lusi
gozaban
plantaciones
Goa
diversiones
brío
bajeles
hueste
Turquía
denominada
inmortalidad
atraviesan
congregación
lonjitud
3i
rección
provision
conson
Matto
disturbios
cantó
falto
autorizada
barrera
defensiva
contestaciones
rodeados
apoderándose
reconh
##ondeau
Narciso
##CUER
cereales
sacristán
Pia
efe
gasta
ginetes
##loración
simbó
mengu
##uella
ejercen
##REZ
adole
cruzado
plenamente
Benedi
Ixtli
Acep
Istmo
##IF
alteza
##pic
precepto
abismos
oradores
llegasen
joya
contestado
conversa
321
destruye
razonable
Briceño
indiscre
satisfactorio
cofradía
Desgraciadamente
Arzua
Cue
jene
sando
##mental
socios
Paez
varía
Parra
hostiles
Montea
319
sueltas
ceniza
plegar
Navarrete
complacer
pretex
cirujano
atmosf
ATACA
Ye
riendas
destitu
##chtli
niñez
prestaba
bachiller
charla
cerci
ordenes
Santamar
Balboa
procesiones
republicanas
arenoso
##yrre
pajinas
desmay
bravura
AÑO
##ermo
sutil
Entró
pedí
salvas
tiernos
pescados
sentirse
##calla
subs
subieron
acercándose
errón
316
335
piensan
opulencia
incesantemente
Oñate
Lé
LUS
ouro
##CEL
sejo
##ienses
indicaba
offici
suprim
constituían
bajaron
lejana
críticas
follaje
subsistir
galope
invisible
POS
fall
##og
##vendo
##TORI
entrase
llevasen
sacaban
##erne
##imal
1600
publici
suceden
Camargo
dade
estraté
imaj
##xochitl
324
celebran
debates
ARCH
súplica
sucesivas
anciana
cabecillas
azoteas
tertulia
comestibles
Itz
##rn
##días
##ws
profusión
##tori
tratase
pudor
lujos
vengarse
reconocieron
cuestion
480
convenientemente
##simismo
estrangero
fenicios
comprob
soledades
siniestro
melancolía
##daje
##icar
Seis
presentados
Sale
pudiéramos
corresponda
sujetas
prometer
##IDO
Governo
camaradas
Elias
preliminares
cadalso
cabellera
zor
##pales
##caro
entregada
vegas
senten
inscrip
ocupadas
usá
convertidos
##plicable
Vati
derrama
inserta
##UDIO
cautiverio
PAL
bona
sales
novia
aclima
rojos
bastará
Tagle
alimenta
anunciado
dehesa
Cuadro
EP
Oidor
hidalgo
##10
contados
##unión
##lier
##uio
arrab
apodera
lanzado
##huas
literarios
desinter
sensacion
Algeci
##brado
confec
cuñado
cortó
##veza
producían
trechos
Bale
disputas
insuper
NAV
atorment
coal
debidos
##izaron
Sucedió
##íticos
fronte
Mejor
prosigue
derrotó
licores
XXIV
alabanzas
Torrelavega
máo
locos
anos
sobren
tiembre
jurisconsul
peligrosas
Admi
disimulo
fiebres
mateix
ensue
incansable
déspo
fósiles
Gama
Junto
Ordenes
##cierto
sedición
anch
exhi
asse
publicaron
enseñó
pañía
interrumpido
patrona
defendiendo
Bayamo
##mberg
Arévalo
sencia
abuelos
##cóse
reconocen
llenaba
contenidas
velar
esponer
sunt
revuelta
primogénito
Jord
Noroeste
##óg
##jecto
altan
comedor
##logos
##mista
tumb
##eciera
##critas
Lou
##llon
llevamos
hallen
momen
admirado
##teriormente
urgencia
desarrolla
comparar
tamaños
incorporó
##écdo
claustros
Cochabamba
Sagunto
entónces
sci
ticas
óxido
##mona
##PU
recer
simbo
##uscos
faltaron
323
Apolo
admirablemente
británico
Pl
Pie
pía
vade
vómi
engal
intro
##gueses
ancla
##raso
rogar
juntaron
señalan
ocurrieron
chegar
Borgo
Llegaron
##misible
comprobar
operar
trabalhos
paralelos
púrpura
Dada
Gin
home
##venta
##ablos
##lau
estensa
##vianos
##peya
nicho
intermi
escucha
celebraban
inundación
angosta
diluvio
Im
temos
##had
##POL
habíase
habernos
abro
bay
collo
chica
suple
confieso
destaca
Castañ
ATACAMA
Elo
faro
ensi
dices
##amien
arcil
##egó
fracción
estuvieran
gobernado
marchaban
contribuye
capitulares
delicias
aparatos
doméstica
vergonzosa
##allo
altivo
##trina
pereció
Chun
esperó
edificado
##RACIÓN
Seria
fusilería
precisas
Miraflores
profana
ridícula
Religiosos
Planta
escesos
revestido
arzobispado
##ient
enmen
animo
ars
cabildos
amal
##ARO
respetos
contestaron
1802
ascendió
arrebatado
bestia
mesetas
futuros
Hy
Landa
Sier
auer
##gentos
dijera
##teatro
inédi
naufra
##lanca
tigres
tuvi
gular
ordenaba
temente
refun
estremidad
aumen
supremos
estenso
calumnias
ventajoso
apostólica
derrumb
Cosa
Rs
ku
resbal
obró
desplom
chal
##postería
estarán
extensos
tasa
331
devoto
consumado
compatriota
advirtió
bruscamente
LUSITAN
cm
##éra
envío
cortina
vijil
sobremanera
espí
volviéndose
servil
Micho
levantaban
obstinación
Cartaxena
concurrido
olvidando
restablecido
Irun
orgánica
auian
lán
##tare
paje
resis
ejercito
ilustra
336
avisar
despejado
contemplando
Senhor
PARTI
consecuen
dramas
Escuadra
Cuántas
plátanos
Cualquiera
incómo
emisarios
wo
##tividad
##charse
##pilación
pajar
marco
maridos
resistió
ínteres
homici
clave
injuri
escarmiento
Menéndez
preferible
Pilcomayo
Alia
Sabe
efusión
garon
sena
##ning
##acan
##stantes
portancia
mias
tit
saltando
Contiene
informó
ocurridos
318
pulso
Astorga
Vieira
revelación
participa
obscuridad
telegrama
cordial
continúan
hera
##asse
##uega
proezas
##lanza
preemin
liberalidad
escrituras
Tortosa
extensas
manejar
Naturaleza
tremenda
inmensidad
chocolate
Gru
gé
sres
##pha
compo
cavall
##field
salpi
##vania
propusieron
afron
indef
procuraban
acrecent
promete
nerse
tornó
mestizos
exemplo
arrecifes
PREC
usté
##if
matas
debíamos
anticipación
ejérci
confusa
figurado
##ROBA
334
ocuparnos
550
excesiva
espontánea
sangrientos
rodilla
formidables
magistratura
GEN
Spi
Saban
oposi
yas
labio
lastim
##visto
##pete
obrando
adoración
contraído
##ctivas
acertada
acompañaron
desaparecieron
escuadras
rechazó
leerse
paralelas
viviendas
catalán
obscuro
##cuas
leen
Están
##veras
coge
intere
fiero
Arturo
Montt
##geo
quedamos
terminan
demasiada
convicciones
identidad
Mahoma
Comandancia
cráter
MURCIA
levantados
propicia
dirigidos
Beltrán
390
enerjía
rebaño
oficia
matemáticas
INSURRECCIÓN
oso
##jé
##DAS
intel
siembras
termo
##CIAL
aseguro
terminando
tinu
castigados
dedicarse
múlti
cuánta
Oliveira
hermandad
##jiendo
##lang
forga
compuestos
##chase
##OSA
personifi
arrogancia
surgir
##uriz
prudentes
jesuita
provistos
hostilizar
Abri
exu
##urosa
conspi
##zasen
viste
negarse
frau
olro
hacendados
vireyes
modificar
Hispan
William
Hici
Polo
tilla
ñores
##lía
##ñol
##çia
##esor
simo
Cuenta
##cillería
Leguas
viajar
##riola
célti
repartidos
alegando
designar
literatos
fallecido
VIAJES
PATRIA
Ixtlil
Ji
##JE
seo
##rist
##tuo
respi
objec
crep
tardanza
bastaría
fusión
editor
caballeres
fonda
pagados
Ordin
317
campamentos
intimación
penalidades
arsenal
HI
Oidores
##tambo
##caz
##sella
##isti
##ezes
##quillos
saltó
##cosas
piano
##estion
suprimir
afrenta
desaparición
oscuros
frialdad
alboroto
TOLEDO
Azo
Gloria
Mona
Nari
##ót
##diéndole
note
pris
peu
salian
duvida
preguntaba
electri
repartió
organizada
despojo
alucin
cubriendo
escalones
repentina
supiese
Grijalva
FON
UR
pida
##ppa
##TER
##janos
demonios
secta
##trada
##pela
serem
colabor
calzado
Come
conductor
culta
probabilidad
aguja
legoas
Crespo
forzosamente
Llor
equidad
jando
mamá
úni
deán
novio
abría
empla
fallar
templada
publicaciones
ALB
desarrollar
amplio
Carolinas
panteón
Thouar
Hil
n3o
tots
infes
plaga
lito
bodas
pudie
ponerle
guias
Mercurio
agradecido
aislada
Gomara
análoga
Ano
Ech
tlas
##estre
segundas
grandemente
Naval
séquito
Hecho
fundaciones
Thomas
Tolomeo
escándalos
vérti
Jara
LL
##llano
##esca
conex
##tificaciones
corrup
offi
asienta
Jaca
principiar
suspendido
músicos
ladrillos
Infantes
peregrino
SEGUNDO
evolución
Roldan
pirámides
convocatoria
Uribe
VV
Sete
riel
sirvan
decretado
dorada
laborioso
GUI
ráfa
pessoa
Sección
Manzanillo
Sha
##nales
##SI
contarse
mutil
carecían
forzar
##biéndose
finos
pescar
escriben
proveerse
RECUER
amenazada
asisten
desenvuel
Panuco
gobierna
apuntar
Figueras
himno
Aprove
PASO
ege
Éste
##gil
##alá
proto
priesa
mediano
repas
señoritas
ahuy
Alegre
resiste
440
arrastrando
utilidades
proclamación
compensación
valentía
Voluntarios
pés
##xica
##dme
deterior
subi
macho
mangas
prestaron
presidentes
cargada
Esla
criti
rectas
cintas
acumul
##ding
procedía
dependen
celda
reemplazado
envuelve
ensanche
cúbi
refugiarse
mensual
flaqueza
intrepidez
Ventura
ede
up
##quitas
Ing
dejasen
antipa
baste
leyendo
reinte
750
##cienso
bendita
clamores
##hyba
desahogo
falsedad
GO
hui
##ania
inco
obtiene
traslu
recorren
adornadas
fatalidad
excitar
refirió
insub
convidados
Sabana
oyen
##hores
##leños
meios
casca
viña
##caria
Alpujar
quite
Regla
##cosos
sonriendo
##gnos
guerre
##TIVA
ignoran
sorprendidos
Apuntes
precipita
estimul
Arana
edificada
impaciente
atribuirse
Entrada
molestias
portuguezes
freguezia
CORDILLERAS
Jus
lobos
##alí
condicion
##court
tulo
monges
##ally
Boletín
abandonadas
penetrando
amenazado
tendré
aquéllas
delicados
efím
afluente
desdicha
GEOGRÁ
Sidonia
acalor
Alo
Tí
cable
##sina
obrero
venimos
##lló
rup
rubor
empleando
penetran
avisó
advertencia
desempeñado
murmullo
acceder
mezclados
Mamed
Estéban
Cristina
Negocios
##paron
alias
pola
tima
termi
Bail
Procla
Metro
declarante
Vicepresidente
característica
Princesa
trascendental
Ensayo
Piedad
ant
obraba
##veu
favorece
representó
332
limitó
Sabido
CHA
##CHO
plenitud
conmoción
Chantada
DIARIO
FERNAN
##jona
##jidas
##HO
queden
suena
ditas
Consist
menu
entré
tañ
milicianos
visiones
absuel
Orizava
Pueyrre
silencioso
1793
reapar
cumpla
necessario
epígra
parlamentario
cobardes
ventas
##cico
##stad
tumbas
##izaban
volta
transforma
manufacturas
frio
seas
indus
desval
catara
##tasio
libró
Moro
aumentan
375
prodigio
Olivares
órde
complacencia
medicinales
##ní
##fur
##fíes
##cm
##UC
cuente
##tul
ciembre
manan
traz
Deum
##uaciones
cuidando
##ráz
328
abrazo
reverendo
fijando
succe
tragedia
Fundación
Barbastro
MILITAR
Ruf
tém
rezar
##íng̃on
chus
habitado
ruña
constituía
aprestos
suspendió
pliegues
disminuido
patrono
preferido
transformación
Táuo
declive
Goyene
DIST
##lro
recepción
##ciosidad
inspiraciones
condujeron
##bedo
permanecen
reparos
dobles
veintidós
desertores
halagüe
fantasma
campesinos
emboscada
arquitectón
Lobo
##ética
##ímetro
##dicas
##chica
viembre
intervalo
Cumpli
pundon
Manifi
térmi
Isma
figuraban
tintas
arreglos
ALGUN
lluvi
arrojados
herrami
##legiata
Monteagudo
desinterés
##ára
##ñales
unieron
Recuer
marfil
costar
cerse
hallase
hortal
encontrándose
327
##huano
remover
excesivo
vivienda
excepciones
Adriano
melancólico
adyacentes
##flu
sexto
##cela
##ueras
##vitas
miti
apuro
librado
chist
vocación
reunían
inmol
352
exagerado
forasteros
Sábado
tib
ámbi
presteza
Mario
Machado
##gny
opusieron
fuí
admitida
337
##huma
345
##pesar
rige
pronunciada
horroroso
esenciales
moribundo
plenipotenciario
##prudencia
HUEL
ola
saba
we
##iona
patíbulo
##peda
##ull
discer
filo
contestaba
servirse
restaur
manejos
desnudez
mulatos
octava
Hí
Ibi
Ntra
guel
##ppi
eslab
##emes
cortadas
esplora
Ange
Dejó
Informe
Arte
Capitolio
recoge
ejerció
sacrificado
llevarla
Cerdeña
proporcionó
inició
aproximarse
trasportes
##tza
simi
##losamente
##caras
mareas
mere
realizó
producida
situarse
atractivo
instruidos
escribo
326
destruyendo
1804
suplicó
marquesa
plebeyos
incertidumbre
hara
mentar
tara
reele
inad
sigi
##egando
##ESTA
denun
futuras
admitió
##TIMOS
amenazaban
insistió
cultivado
receb
adornados
inneces
fortificar
refiriéndose
Josefa
Antofa
Americano
desplegar
Várela
Of
Palo
fensa
##nó
##sando
lavar
##lamo
incau
herma
osci
##ANOS
Moros
yerno
1890
fragmento
##EIRO
blasf
anexión
episodios
refriega
lobo
seman
parten
##jeza
vendría
Mai
mayora
fijas
perspica
autorizó
##ONSO
envile
guitar
dirijida
opresores
potestad
##tame
delei
arom
perador
serve
nicip
quitaron
termómetro
pugn
substancia
Protes
Calvario
encubier
comprendidas
vinte
aceptada
inclinaciones
##huatl
candidatos
Biblia
pirámide
Bermejo
Sp
dras
iv
mental
##utos
##sores
##oros
dirán
desd
sinembargo
crean
sabias
minería
##culada
trascurso
circunve
culpas
belig
##enciados
obligando
##rerías
322
resuelve
gunda
geográfico
edificó
Acevedo
ojival
COMPROBA
ignominia
tades
##LADO
##diga
perfu
vehí
montones
fechada
vocal
Barco
juzgando
derrotas
tiradores
colega
desempeñaba
##tándola
cuchilla
arresto
pilastras
Lalin
inagotable
Saboya
rui
##ku
##çion
altitud
simpli
serva
presiden
Almi
Esqui
meras
convencidos
Miño
distinciones
Solis
ajena
incendios
pañol
amaneció
repartimientos
erigir
Defensa
occasiáo
electorales
GASPAR
Bá
Nel
PRE
nocer
sing
cascada
Marcha
pobló
Levante
aparecían
familiares
atacada
agon
animada
separaba
plática
intendencia
Rosales
Negrete
incurrir
atiende
Vierzo
combustible
Estadística
COMPROBACIONES
Ez
Itá
i5
Ña
##pidas
##enle
##dicción
diu
##dat
salta
tienpo
morro
##tábamos
absol
Rivero
##villas
Meridi
Creemos
severamente
Debemos
tremendo
Cy
Cuesta
Yá
nir
##way
detuvieron
portador
##tense
vendió
ciudadela
feb
interinamente
Pelo
juiz
despachado
titular
desconsol
escogidos
entendió
exercito
preponderancia
Epi
brisas
##eco
##máo
cipios
mantu
##medio
esposas
##tricos
mortan
temia
##úsares
compacta
amplitud
ahogar
prohibe
Peralta
ROMA
arrabales
Ox
Oce
yr
portero
notan
leza
cat
cao
patentes
pasen
aut
Divi
Prob
ganando
correspondió
celebre
perteneció
inmem
contigua
##ISO
educado
##ICIP
##theca
Pira
naba
rir
##intes
susto
##uses
cortando
privadas
veréis
Algua
##RIOS
exploración
##acáo
declaran
estrepi
domingos
electos
mostrarse
1805
ocasionó
esplicación
susodicho
envolver
nervioso
desastrosa
enderez
quil
disidentes
tuyo
fajas
dudosa
volum
dejen
Montano
botín
Tejada
extraor
turbación
Prelados
representativo
asesor
ESTA
anunciando
disminución
Sigü
Lomb
##dándose
##lat
##goa
loe
mang̃a
carencia
sagaz
Repar
Dei
rial
Loa
##g̃á
suavemente
resisten
Piura
imitando
desorgan
censuras
orígenes
bombar
Archipiélago
islotes
enarbol
Ayudante
transeún
Bonifacio
Fadrique
Alas
equino
##úd
engan
sellado
##letes
##vieso
serle
interno
hordas
acudido
arrodill
tributario
artificios
pisar
desdichado
Ilustre
Bazaine
angustias
Michoacán
HA
rer
rusos
Ídem
##doeste
cipe
resorte
nostra
Cañada
Debo
lit
sostuvieron
subteniente
##brada
Betan
voluntades
solicita
342
aguada
1790
distinguidas
Caballería
exaltados
clásica
previsto
##EIRA
incógn
momentán
Ful
Rar
##dino
incienso
##vao
Escan
compri
després
tral
Cardona
Frank
canciones
liempo
Lejos
observada
vuelvo
ejerciendo
preparando
marchan
ARTI
Azara
asombrosa
científicas
verdugos
Dinamarca
##fuegos
Bac
enmi
endu
##reta
##cetas
Esle
salvando
turas
##gramas
hornos
respecta
extendido
##tzinco
esparcidos
observaba
pusimos
##CETE
ornam
festividad
Vidaurre
Tarifa
aceler
cartuchos
naufragio
Faustino
Zal
ill
ns
##glo
detri
nacieron
Redu
torbell
situó
presentase
ediciones
contradi
Exam
encargarse
concedía
##ELLA
vascon
Duarte
semel
reflexi
repitiendo
tristemente
cuentra
Acompañ
Nariño
Sis
##bones
##tiem
esl
nous
accor
templar
balsas
nup
dirigí
danzas
cortejo
ocultarse
imagina
graduación
caverna
intemper
Amigo
By
Opin
Pera
Sib
##hil
setentri
prole
marinas
##eroso
##isiana
reunía
continuaban
ingrato
arboledas
presbiterio
Gram
We
##iel
##ongo
estío
diar
mortifi
tardes
basílica
urbana
351
359
alejarse
Político
temblar
Samuel
octavo
Zipa
convulsiones
subdivi
gencia
tida
##avent
##éa
peores
monton
Armi
sólidos
distintivo
orien
determi
eccles
Virgin
SECCIÓN
dize
Oliva
intentaba
sospechoso
altivez
matices
EM
Misión
tador
deo
##vou
entretener
trabas
Chica
infiere
pesaba
Mond
horno
voluntario
incomple
matriz
iniciado
económicas
deixar
africana
Caciques
risueño
abejas
Lunes
Embaj
PRECURS
Celes
Dob
rurales
vem
delles
##ises
toled
##ped
canje
encono
##éricos
extracto
ejecutados
confiando
##aux
desaparecen
dependía
sultana
sembrados
Patricio
##ENDAS
absten
dramática
mensuales
Afortun
aragones
brero
fisi
##jimiento
albar
reir
##emias
preo
Novo
estoi
expuestos
ejecutada
recogiendo
viniera
balanza
339
368
jurisdicciones
veloz
esceptu
esperimentado
Derechos
alcoba
púlpito
IGLESIA
Bó
##andas
nacida
acude
acumu
sólidas
##ábal
Alejo
##tzalco
Augu
juró
visibles
aluvi
Tlaco
exterminio
cívica
atrincher
MUNICIP
pundonor
BOL
uf
regar
diad
insa
pagos
indicando
truir
repú
conocia
darla
falte
Barca
balance
329
atrevo
obedeciendo
venganzas
tesorería
experimentar
irritado
estanque
odiosa
penetraron
paralela
alabanza
Existen
Goyaz
egre
##rus
##inho
rebo
##piz
##gosas
embesti
##bricas
##telol
diriji
nume
##úsculos
caracteriza
protestantes
problemas
cero
fosos
illa
vando
elabor
didos
maquina
colle
Isra
armó
protegido
ignoro
govern
Marañon
Aga
enalte
cuestas
##cagua
##guadero
aroma
pagas
reso
##quiz
tiendo
tomara
seguras
Color
##embran
acercar
usó
confirió
Massa
##ladamente
intencion
tiró
Balles
descargar
perpetuamente
avenida
buey
avecin
equipajes
autonomía
Eliz
Gara
cid
##nero
##tarme
estaua
##icana
Portilla
decoración
darían
barbas
Vej
355
aguardando
contenían
peticiones
clásico
suministrar
susceptible
Juzgado
Semejante
inquisidor
redención
PRECURSORES
Gase
Kan
TR
##trante
##pala
##cija
citas
acentu
regim
##endida
Belmonte
1794
restableció
consisten
Bonilla
impugn
Largo
Somb
afor
camente
hob
ríe
##itores
##bora
##ensi
##rión
##tats
##guidos
cafe
anécdo
previs
aserto
prisio
tendió
pasta
##gosos
guida
Caraba
Cofrad
comenzaban
construyeron
vestuario
mantenimiento
desistir
Garcilas
Abreu
ALBACETE
Fide
Ty
aV
##oo
##BI
##lit
##mez
tendidos
sazon
explí
Gober
supuesta
##iremos
cober
contiendas
Celaya
348
limpiar
escaparse
palmeras
Fanegas
sáti
##geras
##entaria
desden
leía
perior
##noz
martin
Mañana
cerdos
tomen
fizo
décima
##hoy
grada
colocando
Nuevas
dichosa
simula
traducir
apellid
epita
gustoso
escandaloso
fulmin
COSTA
PorLugo
coyuntura
Iñ
ñal
##eidad
##rese
##rutia
tió
tirando
fea
ficio
esperamos
subordinación
##udación
conquistó
Soldados
1792
Ribas
Americana
Vespu
comportamiento
Anáhuac
Puesto
gira
##ucos
##hab
##hante
reha
habien
##tención
Estero
Albor
hiz
margens
despos
reciba
male
sufría
descubridor
intenso
tribuno
huecos
redactor
piraguas
bendito
sillón
sepulcral
ava
##hita
estabilidad
esquinas
##guá
##mito
forn
Marsella
##vidor
Valles
franqui
temido
iría
convencerse
evitando
Ambas
distraer
subordinados
Sucesos
##oz
##jentes
lati
##lay
alab
tota
antí
##tarán
miércoles
##iosidad
pasasen
marcar
tray
Martes
volviesen
seguí
juntó
Sacerdo
Quijo
cuaderno
negociar
impunemente
compreh
cornisa
cláusula
Jauja
HUELVA
4°
lleven
auxi
mayormente
pesadu
##ficit
aparta
made
ecle
sorprende
sostenimiento
consagra
benéfico
esceso
Jerusalem
inundaciones
Tacubaya
Berenguer
CUADRO
Sahagun
##udar
##ZCO
##anidad
##todos
inher
##vola
##dere
sah
##dena
Regeneración
##edra
cierran
Profes
oficialidad
lanzaron
460
invitó
murmu
Thiers
distinguía
Cuervo
murmur
carnero
contradicciones
poéticas
livro
metaf
tlax
Alaman
consolidar
Otero
flamen
##damiento
##ky
##11
##íbal
##reste
vizca
medicamentos
##érri
antiga
conveniencias
turbar
atrevidos
364
bonito
celebradas
entienden
gordo
Bruno
gigantesca
accedió
contemporáneo
fábulas
Goyeneche
Um
##GAR
incumb
granje
##riaga
patriar
haciéndolo
juzgue
Garrido
354
338
gloriosas
maravi
oratorio
agitado
then
escaramu
confunde
preferir
Bética
Bivera
serpientes
membros
dialecto
carnicería
trofeos
exuber
Puna
##mens
##win
##ancas
##reos
parles
let
expen
##taros
saliera
envié
Japón
procuraron
sometió
difícilmente
arrancó
Basílica
reemplazo
equivocado
emanci
escultor
yeguas
avaricia
FI
Pó
##enan
suo
silu
anónimo
salte
cote
monfíes
Arco
plau
Gallo
amenazando
346
sometida
ambicion
NOTAS
habitants
diplomáticos
legitimidad
peripe
proposito
Tér
ñola
##utica
##ling
##ineo
##micas
ancl
emu
neófi
encontrados
muchachas
permitiese
garita
XXVI
regresaron
London
fatigado
atroces
persigue
franciscano
Hallábase
aficionado
Huitz
terrestres
cabecilla
Leopoldo
Sigüenza
Cana
MED
SUM
##jus
resortes
nativo
tratarse
indicó
rodar
frac
conservarse
##timamente
competir
procuran
entienda
escandalosa
antojo
desalojar
huérfanos
cuadrúpedos
Baleares
loro
opo
ricamente
defor
##gués
##ecem
arón
timbre
complica
##ribui
quia
poste
vaque
malvados
lanzando
sistem
dictadas
respuestas
abrazó
sobrina
principaes
HAS
■■
##enna
##ticamente
time
repul
Diri
frentes
contraban
Pié
ocultas
##ness
despojar
cambiando
##INACIÓN
lógico
requería
muelles
ANDES
yanke
amotinados
chimenea
Acol
Pto
Rhin
Span
##tísimos
##DIT
curación
profi
actor
servar
##edral
##udados
collar
trario
Magn
funerales
##mendi
boy
edificación
extrañar
cáñ
dejaría
empeñar
Urriola
##ómetros
410
sentimos
precipitada
matrimonios
persuadidos
intelectuales
Occidental
diplomacia
##óa
##ciría
enve
##chal
##mias
casar
impidi
anticu
##tellas
expedido
guiado
seguirá
agradecer
arenisca
monstruos
Observaciones
##ures
##DEN
propo
abis
abono
Estrab
veta
habitada
sabian
contraer
finan
cesaron
repetía
remitidos
predicó
cortesanos
Trist
bruto
Colonias
milagrosa
ias
##gias
##ast
sita
musi
nacion
prestados
cerraba
emer
bastado
Miércoles
Saturn
they
avisado
Osuna
siervos
Rubio
rápidas
mentir
labradas
Carvalho
ALGUNAS
Bec
JO
tul
##sario
##áculos
##omi
##idar
profer
pactos
venciendo
##ponen
vais
callejón
animaba
Terán
344
inquieta
desprenden
engendr
TORRE
conselho
ER
Emin
zación
##cud
##baciones
##renda
rocío
daremos
Junho
volverá
358
nomen
farsa
deliber
mecán
inmemorial
Bom
##aciones
##San
profec
Arjent
##udada
Bajos
memo
llevarlo
añil
empeñada
cresta
grandísima
naranjos
populacho
hemisferio
7o
Acta
Nerón
cás
defici
redo
maca
manga
sentían
Quiere
356
343
Puenteareas
alternativa
ESPAÑOLA
Diócesis
rancherías
préstamo
Cienfuegos
equívo
nam
demó
##onda
congo
desig
cascadas
presunción
houve
##tonía
##ctus
balde
Fecha
dedicados
despedirse
comunicaba
eternas
DESI
Tezcoco
conciliación
radio
juguete
etimología
beliger
asta
liene
tarios
yecto
##pente
##mentación
##gola
cortinas
Reforma
orga
##venido
Jura
##posa
roj
falsi
Navas
afin
acabando
benefi
fazendo
doblar
##tándome
sioneros
deriva
GRANADA
Excelentísimo
Babilonia
Ly
Ojalá
cúmulo
##tian
##tique
##chuelo
##viada
##uégo
peder
sota
Conquist
Maz
##eciesen
talle
more
queridos
antece
agol
asegurada
embarcado
361
369
mexicanas
blemente
1797
ficar
resplandores
esculturas
pergamino
Asist
FIN
OU
Rondeau
Vír
idóla
##üi
##EX
noci
##ded
##filo
manteca
##carce
##umentos
cabido
Novi
hacerlas
subterráneo
llamo
enviase
afecta
engaños
músicas
Meló
censos
otorgado
impotente
muchísimos
Trans
alfombra
Julho
Obe
maba
pab
yu
##muros
##gis
quejarse
cuo
anón
cortan
mona
Digo
soste
Barr
respeta
Hume
REAL
366
acrec
chefe
##EMBRE
1778
trenes
prestijio
desvanecer
incru
Embar
capellan
3a
Uri
##BLE
lamb
aquell
casual
tuya
calendario
Carteria
milia
hallazgo
Civil
decretar
##querías
caute
353
broma
Aquellas
despojado
destinó
Senadores
investigación
1891
propagación
discreto
gallina
bagajes
BRASIL
parentesco
Sosa
Xer
gles
##arum
##cies
##set
##vistas
##irme
mandí
Set
##igamos
vación
cette
Perote
supiera
procurarse
reinó
Treinta
Cobre
irregulares
ennoble
Xavier
prerogativas
Familia
Tarapacá
Amo
BEL
Grado
guido
né
oi
##eram
##orth
esteros
diabó
desqui
entende
espensas
saltos
Franc
elejido
Parti
Pere
Coto
hosti
470
##IDOS
pareciese
amplias
subsiste
modales
fantástico
oprimidos
Considerando
vejaciones
Lig
Pisco
questa
##ün
trama
crecimiento
tapa
planeta
reducen
ajentes
humillación
consagración
kilóm
encantadora
Quinto
depositar
instaló
siniestra
##cifijo
possivel
Huancave
Algeciras
perfume
sér
##DES
##úese
##endos
##silla
Sanz
Laure
tutela
Quinta
##cke
remoto
##sissi
aumentaron
mensajero
##fredo
mezclada
calculado
descuidado
vínculo
imprimió
aspereza
Ovalle
dora
##pensas
retó
inalter
##lie
andas
pasara
Conforme
cabida
interlocu
##cense
Infor
esperado
Cién
taberna
extraordinariamente
literalmente
rivalidad
##CUB
celosos
mínima
desigualdad
Talcahuano
estrope
escaparon
cúspide
MEN
##sada
##beros
##kan
allende
##chis
desventa
##gur
tute
##poniendo
tomasen
muertas
Simo
considere
att
gritar
Peque
señalaba
apreciaciones
plataforma
escoger
primeiros
preferente
riega
desventura
XXVII
aclarar
cátedras
Limitará
Tabo
rida
##guel
##ston
prado
##moslo
Latorre
##orato
calado
reconocidos
lanzarse
sorti
llevará
despacio
347
pacifi
disputar
aconsejar
infundir
hazaña
química
Zurita
Jordán
egecu
olla
##ubio
levita
obran
presento
##carril
##bat
terce
ducado
##únez
Infi
Arra
destruidos
inefica
consume
Discurso
ásperas
terceras
arribó
transición
susodi
fórmulas
agresión
indemn
Pinos
tero
##hara
##jeles
unanimidad
##pila
##quie
fundir
asisti
cincel
conducentes
caballe
ENTRE
repetimos
juzgo
##UMEN
##crata
toldo
asaltos
rinde
Zitá
cercior
Fló
Spa
agust
lente
sombre
##cendo
##ciero
regeneración
##gual
sobe
vitu
Alcan
repri
##ficie
pagcab
amarillas
persuasión
Regidores
Triana
fossem
Noticia
transacción
Benjamín
Apesar
Clu
##ién
quedasen
##tier
siste
versa
batirse
tienden
##mann
Baeza
##tában
pretendiendo
doradas
tirado
Chañar
430
geográficas
ulteriores
rivalidades
absurda
deleite
trópicos
corrobor
vejetacion
Terminada
Reflex
##TIAGO
Quijote
Bres
bizarro
vina
##plo
##janza
secua
##cheras
promin
pias
atendida
longe
Emperatriz
impetuoso
372
Burdeos
Senador
incompren
##QUES
agobi
promontorio
fs
pánico
##ak
##jamos
##inaron
##tibilidad
nobil
desbor
##side
Capac
repuesto
Carba
Sila
senáo
nombran
indecible
descubriendo
concurrió
també
desempeñ
contenidos
desfavor
cante
rienda
tentación
sepan
##digos
dividu
nian
Alde
Concordia
soltar
mercen
circo
pensaron
ganancia
guió
poseído
377
CONTRA
responsables
ocasionado
agotado
Sarratea
manjares
naha
##nay
terme
coe
reper
creando
emblema
Guaran
afan
Abas
Sousa
demostró
silenciosa
convite
ascender
dádi
presidido
esteriores
Gomes
reclutas
Oco
digamos
Ansel
vagos
Pays
##RITO
espedi
quedé
Campaña
357
Chapul
reimp
precipitado
kils
limpi
prevenidos
mercantes
civilizada
califa
Pales
jado
##cora
##pur
misino
##veros
forra
sables
Juanita
##ifica
Guada
caballada
estuvimos
combatiendo
Pasco
auxiliado
ecsist
incluir
bons
molde
385
dizen
pareja
variada
bebidas
gótica
estorbar
certidumbre
Atocha
AÑOS
Clero
OL
PÁ
blar
##bum
##fican
mat
Estaban
despres
aura
cejas
cuerdo
##jeran
Histo
Virgi
341
benigno
Alfredo
asistentes
acaecido
incomun
1780
vertical
James
##ífero
prendieron
albergue
nios
rrespon
##tabilidad
##pti
##íno
poi
##usamente
servida
impra
Sept
veu
deban
vae
maldito
embi
voluntaria
asegur
##TURA
Impos
escapa
significaba
escopeta
reconstru
trasladaron
Llegamos
Tribunales
sencillamente
cilin
temerosos
ofertas
adecuado
Fau
Sed
Tiro
Zua
atin
geno
otom
tidad
##émica
tenien
entregaba
Mater
huyen
direita
queso
papá
Erráz
regaló
perjudicar
Hornos
Cuántos
livre
predominio
sillería
Raimundo
mortandad
Dez
Liz
Testi
ñana
##fri
reembar
prolij
crecientes
pontífice
Comien
Perman
proyectiles
376
ajita
celebrados
tomou
educa
celeridad
inspiró
DESP
Falle
inventado
inflexible
engalan
Dura
ZARA
gues
##lándose
##tieran
altiva
delegados
inu
##olos
exó
##peque
estaño
Martí
##imento
herradura
emana
taza
asiste
##tífices
Barrios
Aband
ministerial
visigo
hostiliz
vine
repartido
contiguo
Quiso
rendidos
detenidos
NOTA
chicha
Amaury
espulsion
delincuentes
Agra
Jorn
atar
##abos
reminis
##cht
prem
##ulco
Recib
tumbres
Maipo
interroga
Barrio
Mix
declare
quedara
Palos
##long
íntimos
condenar
riegan
Consid
assign
disminuye
dramático
vehemente
BUENOS
3°
Av
Om
Ost
zu
##hem
deros
defe
rean
diciones
divor
perfe
maz
mire
moza
##ludo
morían
expuso
Colum
gritaba
ceses
atreve
362
aprovechándose
acreditar
adjunto
sinceramente
colombiana
comandancia
percibe
CAMPAÑAS
crepúsculo
Sas
Vener
rúa
tés
uti
##VAR
Elío
asambleas
sobrada
pedidos
soc
##igal
crecida
encubri
Alfaro
1791
confunden
DESDE
seducir
maniobra
LUIS
##EGO
##20
ell
segon
##taire
##dillo
subver
Solamente
semejan
azteca
aprovecha
pareceres
1783
Holguin
uniformes
esmal
torpeza
ANTIGUA
secues
íntegra
ofrenda
efigie
Tesorero
antagon
brazile
Príncipes
matorrales
aza
gli
maban
rudi
##zú
deferencia
estamp
##cuy
##viales
maese
tenho
sacrí
tuación
cantan
Desembar
escribí
Cipri
SANTIAGO
espidió
there
Ermita
otorgar
meterse
idéntica
Arreci
montañeses
DESIERTO
Misa
axi
reí
##amal
saña
Regu
traordin
Marti
especul
Loja
temibles
confin
confina
negaba
cuadril
errante
referirse
representados
mezes
inferir
acostumbran
traducido
conferido
exequias
fortifica
agricultores
Cementerio
Gim
HISP
cales
jabón
águilas
##ppe
##gona
alzado
portante
ciedad
decidieron
defensas
Navidad
anteo
cumplidamente
ferru
violación
empeños
impertin
biese
parejas
uniformidad
dócil
patrióticos
##túan
cantares
esclarecido
excursiones
Antofagasta
##clar
##hú
##lovento
leo
vili
sobrevino
davía
indistin
autent
supra
créditos
desaf
fraude
Peñal
neste
rastros
ajenos
Gay
Fortuna
##QUI
1777
Green
oreja
botella
egoí
##mbolos
cómplice
escrúpulo
Errázuriz
Deg
cendi
ze
##iri
##CAR
entidad
##alan
##duña
carlistas
hirió
veniente
bulas
lijera
dejándose
palomas
maldi
honr
##culares
Mota
estraños
373
386
Anaya
pajina
guirnal
geógrafos
##mándose
##viz
maio
##cionarios
compadre
cogi
cercada
Carra
pesadas
lanas
##ILI
393
apoyaba
arrojaban
revelar
preocupado
humilla
pedimento
relámpago
cáñamo
píritu
pósito
tuna
##zy
##útil
##turar
progen
cascos
sonidos
habitaba
volvimos
Montero
denuncia
lanar
joy
permanecían
rosario
Berlín
zapo
acontecido
exigió
367
reflejos
comunican
confirmada
espresada
confundirse
malogrado
peculiares
desfiladero
desenfren
oito
were
##TORES
mascul
cortados
case
prestando
espesas
Port
sonar
##ínea
Deu
Unid
##ELI
Pichin
384
Bellas
protestando
físicos
1580
asoci
Tucumán
Henares
perturb
cargamento
municipios
Flórez
gér
sam
##mad
##ME
lagri
diarias
inma
prepa
minoría
grama
Paria
##gueira
ejecutaron
##ELE
VIRE
##mude
alusión
prendido
Texas
quierda
Gallegos
Obli
Pampas
ees
vados
##MAS
##undi
arcas
cosmo
vendi
Compos
destron
torne
Reyna
##gueda
cometieron
##busto
expresados
##sang
olvidó
412
quedarán
limpias
sucesivos
piadosos
móviles
AIRES
Girón
fecundidad
ANTIGU
GAR
besar
st
éramos
lamentos
##curi
##irs
seriedad
##taleza
solio
aure
expro
##ísica
juntarse
Habrá
abatido
condenó
impregn
perfumes
Ingleses
usurpador
FERNANDO
Saturnino
dría
mÃ
##zoma
enl
##doto
##tapa
inusi
nativa
verte
teres
propria
merecida
iré
cór
Señorío
##EDAD
388
aguarda
comparado
insignia
quemaron
remisión
desnudas
auditorio
parapetos
Stanley
Castañeda
sui
restr
##quirá
##bach
despier
debéis
creció
tiernas
apareciendo
##ilea
##ixen
reliquia
atravesaba
acredita
vacilante
culebra
enumerar
Nezahualco
SEÑOR
desvelos
laudable
Cli
Mision
dc
rural
tár
inva
##idora
Ense
Portillo
tuado
##ieta
creian
morreu
Coman
##ENCIAS
temían
Bucar
##itat
foto
Ceballos
1795
contagio
Misericordia
poblé
arrebatar
satisfactoria
idéntico
descalzos
terminantemente
Lautaro
reconciliación
bodega
Cecilia
jesuítas
limítrofes
endure
AY
Cieza
DÉ
Frey
echo
##jencia
##zgos
deline
##cebi
##selas
pape
tiver
vivimos
carác
quitarle
soff
Maca
sabore
circula
escua
aliadas
engaña
Triste
calificación
fascin
mulato
julho
precaver
nelle
angosto
verí
salvaron
Concl
coto
orna
guano
Cuándo
consternación
Mex
fracaso
proyectado
vestidas
expresan
Posteriormente
Noruega
Gutier
regocijos
reclamación
Ignor
arbitrariedad
exasper
HASTA
món
mún
ñol
##rola
altra
algaz
leves
perent
sintiendo
habiéndolo
importun
Nave
Roda
tesón
frater
##alidade
Ciu
408
adquiridos
Neiva
fusilados
precipicio
exije
confundido
desprendimiento
interrumpir
##henes
huerto
disfruta
tripulantes
despreciable
Bibliotheca
pampas
##VER
##ande
##secu
##jole
vería
configuración
inclusos
Angel
encerraba
MAG
estatutos
majestuoso
gallego
pantalón
reveses
EDI
Ili
aña
vendo
zando
lamenta
alg
alzaba
##teau
perdición
peto
maris
amabilidad
huida
creden
candi
irán
brava
llenaron
padece
harta
gobernante
servirle
349
presidir
podamos
SUB
murmura
infiel
indulgencia
Outubro
indirectamente
GE
Utrera
bens
##sus
##áceas
##onar
delgado
##tec
##cut
desu
nato
Franceses
rou
rotas
resultaron
Boves
declararse
Mujer
amorosa
genu
##jizo
contribuyen
Véanse
Alexand
llado
mán
##yra
##zán
depor
obrig
##urosos
passo
trazas
Macías
maldita
Leal
Leiva
jeneralmente
frequ
ALF
inep
saludables
contenida
variable
CASAS
Aristó
instalado
Arriba
Lares
Pine
vada
##ik
##iamos
##zabal
##orar
##lejos
manía
Escala
chin
volvamos
botin
centuria
##OLA
cautela
363
Veragua
agujas
pierda
elogi
topográfica
serranías
Vaticano
arsénico
Vez
sh
##émico
##xar
##phi
##isar
##cuh
prever
sacos
soñ
soles
duce
Coz
ejecutor
razáo
lindas
Hotel
recebe
aprovechamiento
dilatados
perpetuar
JUSTI
Cuerna
excursión
Phili
nominal
Anselmo
FRA
Str
Xá
gón
rn
##lles
##vese
##órica
##banos
##game
##PI
desme
tendía
calzadas
##imar
densa
captura
códice
probó
sumario
desarrollado
##ordina
ascendía
Nuestras
recaer
Arellano
inteligencias
musli
cristalinas
indomable
subalterno
Americanos
Purísima
advenimiento
Pé
RR
VERA
lisa
##LORA
##Ua
##onadas
##dic
notaba
loza
mania
aptitudes
##carrero
teria
gura
Cher
##RIQUE
defra
Cou
rudos
indeci
Colmen
Say
particularidades
soberbios
395
espectador
censur
acometió
trámites
Intendencia
radiante
sobrenatural
algazara
Testa
ion
láti
##visiones
delgadas
estienden
citarse
tiemb
lleguen
señoríos
Ascen
edicto
indele
reconocimientos
ocaso
cálido
fango
aprovechado
MART
registrar
Brun
protectora
infames
coincidencia
democrático
requisitos
impedimento
seminario
Teran
eí
tismo
##TROS
##hán
##CON
secuencia
##siete
##pay
acera
máscara
sonda
librería
France
Papas
ofrecia
ejecuta
##entasen
foz
VIDA
depuesto
Espada
ostentan
ascendido
descargas
brota
gorra
domésticas
afianzar
descubría
N°
doles
homo
radas
##eque
##daña
sacados
Maced
sómente
notifi
Abul
aprecia
unitarios
aceptando
necesitado
monumental
entendida
recayó
magistral
insolente
pedregoso
CAMPAÑA
Cúcuta
##oy
##ástico
manso
navi
naga
##vela
Judi
crito
Exm
Servi
desapareciendo
378
Fuenter
tonto
desperdi
eminentemente
demoli
DESCUB
topografía
veterano
náufra
suspiros
Ciertamente
Fabri
Tz
cialmente
postas
balsa
concluyendo
sitiada
##GOZA
necesitamos
caudalosos
MONT
perjudiciales
peregrina
colegial
sarracenos
vero
vanos
enfi
ciclo
paula
salon
crecidos
canción
circuito
madura
##RAB
volvería
Tercera
íntimamente
383
remito
rejidores
entier
disipar
Prat
incapaces
boliviano
consintió
hectáreas
peripecias
ix
tillo
##pp
##idenci
mutua
asis
##ceras
impera
Segre
repleg
Custo
cuatrocientas
dirigiendo
embarcaron
capitane
fanega
##cratas
Alvares
acequias
distribuidos
##púl
fluencia
refiriendo
ajustado
inmigrantes
deshacer
clel
##puchinos
Caicedo
PUEBLA
febril
Aur
Noble
gión
##uia
##fín
##eia
lac
##quet
ciar
razo
cansar
Luisiana
gozando
##vismo
favorecidos
conciencias
entern
imperiosa
485
Béjar
QUI
hileras
trueque
LEYENDAS
Mú
Zel
gaba
narios
##gono
##juelas
##zig
sebo
descr
acla
##met
caleta
criar
paloma
inserto
sóbre
Pocas
Granaderos
Madeira
brillaba
verificaron
379
modificación
pareciendo
Gorda
disolver
Carballo
0o
Juicio
Ofre
atem
lidades
##uch
##zuelo
##aló
##real
verás
##renos
##íng
gustan
decididamente
##ANDO
Cota
apartados
cría
Quiz
##OLÓ
protestar
toldos
1776
luminoso
indiferentes
##POLES
Manifiesto
Asimismo
Cues
Elio
Gala
bildo
fus
##mundo
dill
hechura
Marcel
chale
ejus
constituida
corrida
renomb
Ayutla
imposibles
empezaban
narrar
capitana
396
dirijia
vegeta
Mississi
Varones
suntuosa
cercanas
riachuelos
NÁPOLES
emulación
yó
##volo
##EG
Santil
##urte
carse
Delegado
##pular
merecían
##gresso
##ióse
bola
respondí
confiados
retiraba
391
asturi
capitulaciones
Medicina
Bruto
anfiteatro
AMERICANAS
Israel
Agos
##ígenes
encla
alian
desver
anon
##ásquez
##derías
ciudadanía
ideales
atentamente
atrajo
vigente
compararse
desiertas
1796
gorro
cuchillos
luntad
Miramon
Troya
Diogo
Concluida
##UNTAMIENTOS
interminable
cohetes
ZARAGOZA
dancia
##apan
##aber
perno
Laviana
tendida
produz
subía
presenten
Reynos
llame
fratri
cuadrilla
resistido
penetrante
##ISIÓN
alimentan
arrastran
pasear
cubana
situacion
Escritura
refresco
cañonazos
enemistad
plausible
Septent
##alias
##inga
##omu
##idado
mañ
##pias
patent
maneira
asentar
apén
##gario
Escla
Retir
Aníbal
vención
pontos
Comision
realiza
senor
Parecía
Perez
convendría
##valles
nieblas
abrigar
MARI
reclamaba
vivian
incluyendo
melancólica
deshonra
infrascrito
acueducto
epígrafe
Dur
Ró
sc
##gala
##esos
laciones
convent
arado
petri
Jumilla
chile
crecidas
recol
hablarle
374
agujeros
enseñan
nerales
Regente
Yucatan
amedr
Templo
puntualidad
romances
Anastasio
Pár
Yer
if
ui
##rable
##táronse
##vs
##cié
enarde
##dioso
exá
##dulos
##tanás
Estra
cables
##fectura
##jardo
manifestaban
avanzados
vigilar
Osma
ostensible
estricta
desenvolvimiento
prolijo
ofrendas
Villaviciosa
Acción
TAB
ita
nula
sados
zuela
##vna
dell
descor
Constru
nossas
tería
pió
fríos
junho
tempos
jeoló
##monia
empleaba
independen
vestiduras
combinado
rindieron
##ghánan
emancip
TODO
convinieron
pistolas
bullicio
reasu
herramientas
Gasea
secuaces
Beg
Brin
idio
xo
##tmé
##FOR
latitudes
exh
##pot
pau
colgado
nea
taciones
presentándose
llegaría
##vinieron
sufrían
cesario
Hecha
ventil
sargentos
bajaban
ensaye
presupuestos
retribu
Aff
Cron
jante
rim
##sí
##ILO
##ULO
dever
##lagos
##quetas
bat
pujanza
pescador
quinquen
originalidad
derramado
temblando
cánones
enagen
xvn
Agricultura
Nicoya
recuperar
##cipion
Horacio
impasible
cadas
drá
##frar
##GRES
decen
quez
alabar
##lilla
##sea
##mienta
##derra
impuesta
##tins
Bachiller
estremos
reducto
pagcal
curvas
404
Urrutia
amargu
Guadix
maravedi
inef
laboriosidad
pacíficamente
avian
provoca
sacrificados
infortunios
animoso
diseminados
haviam
PARTIDO
desdén
##ZCOA
LOR
VA
glos
##zábal
##arda
##olina
##ienes
Ensenada
llego
presun
malde
declaro
cómp
tosca
usada
ignorar
Adm
Adán
estimar
Pinzón
vidri
Principado
encomendado
Escalante
éntre
Renacimiento
Introducción
Abi
Epí
GON
Heras
Oy
##sy
##UND
##íu
##FICOS
##isado
apur
Contador
bienavent
guo
cerra
liberdade
formaciones
Saltillo
suceda
turco
Veinte
Palom
Balcarce
practicó
apuntado
##tabil
desengaños
grandísimo
Abraham
orgullosa
Benedicto
RECUERDOS
impracti
DESCUBRIM
Zum
flam
iris
##lino
##dío
##PH
##lir
cuy
##patri
Rea
tual
ficios
Arm
moreno
ferencia
padeció
ánimas
diótay
simpática
392
arrancado
espirito
caminaba
terrap
dezia
alegremente
pusiesen
Igualmente
parcialidades
preliminar
Metropoli
cement
ájente
##eiros
sie
sintieron
entregue
Math
meramente
officio
ritu
cuartas
Antonia
favorita
nulo
echaban
profesiones
pacificar
caricias
Gijon
Legislatura
Episco
puntualmente
confederados
Orbegoso
##MINIST
Hermandad
Aliaga
SUMARIO
esferas
Encu
nias
veedor
empal
10°
afable
fraccion
colorada
pláticas
Balta
387
descons
coronación
ascendiente
Hospicio
##entimientos
Apóstoles
##fuerte
bizarría
Afortunadamente
Bomb
Ochoa
achar
fisco
##ciana
Sepúl
despar
meditación
cercados
##culado
mesmas
seguintes
atón
Moran
navegante
394
reproducción
Tunas
Visita
exquisito
macizo
gestiones
BOS
Dragones
Hombres
Llá
avas
lir
rente
##mena
conval
##tien
##diana
##ecendo
asquer
Reinos
adhi
Cat
postura
haberes
direitos
religio
ponerla
fundándose
incontras
conquistada
ausentes
brotar
650
apresuradamente
nenhum
deliberar
húmedos
alguaciles
Beneficencia
ranchería
granadinos
Montalvo
esquerda
Zitácuaro
DIS
JA
NOMBRES
Tix
bilidad
cencia
##omen
albor
rehenes
Ellas
cordob
estacas
duo
vacantes
Siguió
cinos
atener
extracción
ministerios
dominaban
concedidas
correjidor
quals
rebos
exigían
adquirida
asistían
regresado
cubano
gustaba
Cárlos
acanton
GUIPÚ
Nombres
vario
inquisición
espin
forzosa
trapi
Francés
crianza
desair
administradores
proyectada
acordes
cultivos
##timala
donativos
salitre
calavera
Desaguadero
GUIPÚZCOA
questo
##ln
##chic
letrado
cordel
minado
Pasaron
Huas
Empe
381
agudos
Enriquez
celtas
encendida
multas
Dictador
sediciosos
beneficiado
Quauh
Hipólito
Fle
ds
eger
gares
iang
##paban
##ífico
##tiza
pereza
presidi
tratara
techu
##tinamente
volución
plate
graciosas
expre
estarían
inventar
imperios
clama
389
aleja
Tarra
juramentos
supongo
insecto
valerosamente
Cárcel
Mexicana
grotes
##abuena
ardua
prusianos
urbanas
orijinal
Setembro
mentó
enig
##tazgo
pays
##velo
vivieron
##note
habiamos
Cartería
centrales
escuchaba
Tepic
cañadas
frontis
Livio
418
conteniendo
carretero
precedieron
pareciere
acometido
Orozco
bomba
oponían
nistración
legislador
infortunado
ADMINIST
Apure
FER
Ocho
bado
sores
##dablemente
##ION
laa
meditar
orquesta
declarados
Madera
artísticas
ALDE
alegar
adopción
predilección
ántes
cruelmente
afili
alfar
##tabros
circulares
albañ
húmeda
Observa
insistir
Aparte
entablar
risueña
academia
##talaya
Cazadores
íntegro
##mnibus
concerniente
Chinchilla
Mondragon
Paysandú
Beli
flora
lus
zaba
##ÁS
eles
##toya
meus
##icáo
##tena
hetero
##ernas
contrajo
pesados
ningu
hont
Barrera
##net
derri
levantadas
CATAL
pertenecido
suavi
##cíos
405
hablaron
Resumen
Bernabé
anuncian
temporada
disparó
huertos
hospicio
abrigaba
sirvientes
Vuelta
arcabu
jinete
##asis
remes
##less
##tanse
carme
Catá
Casan
##hechor
Barranca
Salida
edifici
continuamos
preparan
prepararon
sepultados
demostrando
cruda
rechaza
ESTUDIO
##salles
enfure
revelaba
enérgicas
observarse
erigida
Antoñ
Sosia
almenas
Aldama
Sagrario
Meridional
Hembras
Ranca
llá
opa
deponer
poquí
tuvie
##taduría
vagas
desagra
Moy
recogidos
permaneciendo
Plazuela
##ells
depra
protesto
desembarcado
ultraje
frijol
quarto
syst
poucos
vehemencia
erupción
oul
##JOS
vide
consequ
Bula
emplearse
ermitas
their
asistía
parecerá
afim
560
CARLOS
inclinó
piadosas
revoltosos
anatema
Escribió
esqueleto
INSURREC
##silvania
desobede
Inocencio
Lob
dú
jeros
raban
##puestas
##LOR
esqu
recos
dimisión
comían
cordura
terna
calent
face
favo
morado
publicas
extraer
secretaria
proveído
Fuero
adversa
520
viviente
plátano
ROIG
hierba
cavernas
trascurrido
averiguación
Derrota
CRUZ
drag
fia
##émonos
designación
moli
Regres
Concep
venados
Catar
reptiles
lici
##feo
sentaba
continentes
escritorio
##ábale
onza
reconocían
errantes
introduce
concluía
Consejos
399
fijaron
refugiado
assucar
Ixtlilxochitl
rosos
##non
##SE
##jieron
##FA
##dola
lechos
Alte
##entosa
##quam
yacen
ortografía
segund
malhechores
vasijas
sultado
procesos
epue
agitada
dilata
##fuente
esforzados
oponen
Darien
encomendó
devasta
cigarro
coadyu
palavras
árbitro
Extremadura
Mura
ñora
sucio
cavi
##entou
matado
##natural
quía
montuoso
Deva
contramar
merce
ofli
Lucia
Assim
##facción
cesaba
401
ocultan
titula
descansan
reverso
perdone
excede
##militud
infinitamente
pilotos
suministra
Tacón
enajen
etiqueta
Acha
cern
##zár
##arri
recel
inque
##obis
presidencial
##entoso
diatamente
ordenada
nevada
defienden
Valdes
exista
símbolos
profundidades
contribuyendo
páramos
obedece
horrorosa
saludó
droit
diplomática
prodigioso
monárquico
Mackenna
Carabobo
Lerdo
Pér
PEN
cuernos
careciendo
##parables
crecía
decide
causaban
expuesta
llevara
Amador
geológica
bordados
madu
expedir
contemplaba
Espero
sulfato
descendiendo
tablado
burlar
repiten
tabacos
liberalismo
mantenimientos
incorporado
imaginarse
heladas
concebida
##otnote
verificarlo
rehusó
reaccionarios
desavenencias
CX
HU
bigo
mones
##zun
##wich
##delas
##loque
mudos
##elho
activas
rese
quila
marse
destinar
formul
formalmente
##udis
botica
plantar
Amad
Salud
Bustos
convenios
llenando
##ments
426
inofen
investido
propagar
Universal
Pirineo
diestros
costeando
ausilios
vergonzos
intimidad
LXXX
incalcul
chusma
diadema
beligerantes
Dorado
Nord
Piz
Pica
Túnez
tente
##artes
coma
comens
##gote
misericor
vernos
caros
cargando
carriles
esposos
socio
Marca
Marcial
venen
natureza
##lleres
circunstantes
##portes
##gulares
benignidad
371
agregando
dilatadas
fabrican
gentío
pacíficas
quantos
Ferrocarril
indolencia
CÓ
Mua
dri
##dana
rejas
##vistos
anac
entrist
pub
##ciase
auth
duos
Difí
Proyecto
ningunos
caballer
Campan
resistencias
Fevereiro
diffi
402
ligado
malague
Breve
encerrada
##illero
Ordenanzas
distinguían
escrúpulos
Pichincha
SALA
lítica
inol
##viente
donado
carmes
salarios
Reus
veneci
distaba
diezmo
corridas
Terra
Urrea
adoptada
398
490
promovió
DOMINACIÓN
Cristianismo
oprimido
effeito
FA
Hierro
eb
oia
will
##céis
##pana
##JES
##tore
nientes
Constitui
lucra
Chir
mercante
siguiese
Part
objetivo
conserve
nombrad
llenaban
409
filhos
exactos
nombramientos
Azua
devota
azotea
inimigo
Pomar
Ingenieros
AG
DIV
Eva
King
Llen
##BAL
recia
requieren
comiendo
curan
exha
mantuvieron
quen
trun
##pulas
##eceu
tarda
rub
emplearon
Peñ
##mestre
dolencias
Beal
íntimas
fazia
colec
382
brotan
balaust
Firmado
aplicaciones
cariñoso
Arzobispado
Imposible
EJ
SER
Té
efer
ruso
##radora
##CCIONES
##adir
enjam
##tola
infec
sigo
habérse
potable
abur
say
venenos
##posta
rotos
elevaba
Sit
rubia
empleaban
ganan
coloniales
divididas
tirada
imponen
sacerdocio
estendia
iniquidad
##rúas
redactado
Yupan
islote
atemor
Itinerario
##nor
sequedad
tenidos
##rosamente
haberles
off
gravamen
Lei
suplica
nombraba
Canta
atractivos
estrañ
quintal
prepararse
ocultó
atrevía
lágrima
regalado
inclinados
Ángulo
desdichada
Casimiro
aniquilar
convierten
bellísima
anclas
ecuator
Colu
Ms
##óp
##bona
##hada
##íbar
##cot
cica
##landez
tene
donar
graneles
carica
dispen
habitar
##allones
nuez
##CIP
Rojo
tenerla
Quillo
grietas
griegas
pagbó
cobra
inclinar
Restre
descendencia
atrocidades
periodista
irritación
marítimos
inclinada
Escuad
catalana
despide
chamado
aspiraba
Vuelve
capellanes
Salomon
epopeya
réditos
vén
zur
óp
##sú
sei
nocimiento
##gativa
preside
guana
##tándonos
Guara
desapa
##guey
Satanás
blancura
boreal
##turno
abaixo
destruidas
aplicarse
adorme
ingle
Romana
##ynch
abominable
Cuén
descrédito
Ke
pato
serenos
calores
fausto
monja
##culados
desagrado
aflo
refra
pregunto
fojas
Pasado
enferm
##LACIÓN
alejado
imponerse
vellón
métodos
consumir
propongo
flaco
enérgicamente
XXVIII
Manzanares
desfiladeros
its
liz
eludi
cone
##taje
rechos
##tusta
granadas
menuda
ameri
##egra
Dejando
tomará
criaderos
temió
deseada
comenzada
proceda
sumaria
ajenas
Angol
proporcionarse
sostenidos
comparada
apoyados
escollos
Footnote
esparcidas
Tibur
distinguieron
riguroso
gallegos
Rueda
Pavón
indistintamente
Cí
Tus
vena
vieran
##íra
##entros
##dillas
lec
vimiento
decl
escripto
##hou
406
2000
apreciado
Volviendo
fluvial
bautizado
súbitamente
arcabuces
Medellin
CC
ist
##jería
##rua
monio
monje
Dichos
Abú
##vallos
deseamos
##lustra
ponerlos
cesidad
cómodamente
Predi
mezquino
arreme
impresas
##GUEL
425
Aragua
desembarque
Rober
enfri
renovación
bondadoso
##XXX
extinguir
desiguales
bautis
máximo
cooperar
Nam
Ocur
Olid
##Ãa
##tarnos
sermones
bañado
pita
caber
adje
Montilla
Goberna
constituyó
Guatimala
Tux
reparto
##áls
inopor
cambian
grosero
VALLE
cariñosa
dialectos
evangelio
Iñigo
sacríle
pn
##uado
##déis
##inti
##rit
desli
potente
mote
adar
##yaca
tropez
juntan
quera
Tetz
Moura
dominicos
sombríos
terminantes
echarse
entendidos
consistencia
Filisola
ensanchar
eruditos
ajustar
Siglo
granadino
Inspector
aé
ciso
Águeda
##rina
##TR
##bula
##heres
##ancio
##tiba
##got
Encom
vigas
##uelles
internas
Carreras
viagero
capitalista
ganancias
coraje
figurando
##chimil
Tulan
Tambo
roble
poseedor
aplicó
397
483
1781
1770
1762
##dismo
Lemus
Cuernavaca
EUS
Tia
##ÉRO
estren
##tuma
prod
patos
care
moción
Marro
troba
poderá
20°
mosquitos
##itadas
consideramos
abandonan
##ixe
padecen
atributos
celebrarse
472
desembarcaron
agilidad
540
imita
acequia
ESTADOS
faroles
tamaña
omisión
valerosa
inquietudes
insertar
orígen
Iguala
desterrados
opulenta
intermedios
descobri
reñido
fúnebres
Albuquerque
degradación
pesadumbre
DESCUBRIMIENTO
Dir
moso
vanas
deración
dieci
##quios
Conviene
##quo
##olucion
déficit
superinten
escudero
suay
ballos
Hablando
durmiendo
Pagcab
Forma
vierte
estorbo
insolencia
cepción
Difícil
Aso
Xi
guez
##hit
##áramos
##ZAS
conju
##rional
##lanada
##carios
saldrá
empreg
ponian
publique
trabajador
seductor
reducirse
encaminó
recomendable
Tiberio
filosófica
negociantes
Filadel
inutiliz
Últimamente
clandes
gáo
stu
sara
zinc
##fs
##aa
##bin
##NE
##arles
calla
hereg
volvi
sant
principado
##dióse
tañas
##panecas
ganada
colejio
espresiones
##horra
[...]
